der 3752310
die 3726936
und 3403519
in 1806072
den 1333894
zu 1304542
von 1255207
für 1115579
des 913948
mit 850430
auf 832248
das 819845
ist 752224
eine 740733
im 720364
Die 636796
dem 600634
dass 580445
nicht 564219
es 563048
Sie 548265
sich 545734
ein 541792
wir 461598
auch 456259
- 449205
als 390184
an 387588
über 385932
um 377533
zur 356406
oder 346313
werden 340915
einer 335189
en, 335010
sie 305837
ich 303392
, 303139
sind 303084
wie 301437
einen 294157
wird 293907
. 293162
er 293045
bei 290987
en. 283621
-@@ 279594
Kommission 268655
(@@ 262826
Das 260265
aus 248825
ten 247379
Der 241146
t, 240888
einem 231615
hat 230973
t. 228314
nach 227731
en 225701
durch 225130
Ich 223661
zum 222214
te 219766
diese 214597
ver@@ 213763
t 203255
dieser 197944
er@@ 196701
nur 195302
haben 190266
Wir 189834
werden. 185993
an@@ 182913
daß 178107
Europäischen 176352
uns 174038
so 171634
noch 170244
Es 167283
ung 163068
vor 156982
wenn 156092
In 153226
Herr 152392
aber 151439
am 150699
"@@ 150297
diesem 145073
be@@ 142533
– 141956
a 141171
ein@@ 140120
en@@ 139439
eines 137919
: 137474
sehr 137427
können 136824
Union 136391
alle 134061
ist, 131438
sowie 131265
kann 130822
ge@@ 130802
t@@ 129682
ihre 129495
bis 128952
s 128293
) 126548
was 126427
mehr 124556
unter 123420
aus@@ 123088
werden, 122285
S@@ 122093
man 121844
un@@ 120886
zwischen 120755
Mitgliedstaaten 119730
K@@ 119047
B@@ 118687
vom 118113
ungen 117729
k@@ 116326
de 116033
wurde 115617
e 114690
An@@ 114232
Europäische 113539
T@@ 112584
müssen 112259
ab@@ 110639
Ver@@ 110492
auf@@ 108966
dieses 107842
s@@ 107271
EU 106417
Rat 104313
„@@ 100029
möchte 99788
ist. 99747
ungs@@ 98529
sch@@ 97841
P@@ 96866
keine 96771
e, 96503
anderen 94271
G@@ 94261
vor@@ 93844
ter 93156
ung, 92410
Im 91613
D@@ 90889
gegen 90026
wird. 89796
Bericht 89605
ent@@ 89333
N@@ 88692
F@@ 88442
unsere 88292
te, 86937
zu@@ 86713
war 86633
ten, 86465
L@@ 86464
damit 86117
hier 85796
M@@ 85114
A@@ 84535
Diese 84169
ischen 84022
diesen 84012
Parlament 83669
Hotel 83572
n@@ 82849
Ab@@ 82250
H@@ 82176
über@@ 81014
z@@ 80825
d@@ 79900
b@@ 79705
Aus@@ 79196
immer 79030
Europa 78768
" 78689
m@@ 78683
dies 78275
neue 78180
o 78150
R@@ 78108
gibt 77909
W@@ 77531
Wenn 77344
Entwicklung 77234
ihrer 77149
da 76655
Jahr 76116
EU-@@ 75509
e@@ 75375
seine 75368
Maßnahmen 75339
dann 75281
al@@ 75169
g@@ 75165
muss 75046
and 75009
neuen 74858
Ihnen 74662
the 74630
f@@ 74512
E@@ 74492
europäischen 74439
sind, 74126
i 74085
C@@ 73839
Vor@@ 73832
haben, 73240
enden 72993
jedoch 72753
sein 72509
wird, 72497
in@@ 72180
bereits 71627
sind. 71548
heute 71462
ische 71206
Frau 71168
Sch@@ 70711
sondern 70063
gen 69803
unserer 69490
Ein@@ 69385
denen 69309
es@@ 68792
s, 68597
um@@ 68151
ch@@ 67916
Z@@ 67697
können. 67024
/@@ 66731
Unternehmen 66096
Rahmen 65837
Ihre 65519
tes 65474
zwei 64873
el@@ 64628
ohne 64405
ten. 63803
ung. 63336
ende 63268
Er@@ 63148
o@@ 62918
Mit 62915
st@@ 62651
V@@ 62086
i@@ 61728
! 61378
Jahren 61320
Be@@ 61304
allen 61232
unter@@ 61088
er, 61052
ern 60994
% 60989
andere 60728
is@@ 60638
2 60365
Zeit 59776
O@@ 59615
e. 59269
es, 59224
Informationen 59191
Menschen 58884
liche 58877
Bereich 58197
insbesondere 58065
lich 57759
). 57610
a@@ 57503
Zusammenarbeit 57342
lichen 57020
ganz 56832
seiner 56421
haben. 56187
ihren 55994
Ein 55635
... 55491
ar@@ 54968
ungen, 54826
te@@ 54824
hat, 54669
sten 54483
wurden 53670
1 53542
J@@ 53497
n 53478
), 52965
weil 52907
te. 52834
u@@ 52804
of 52515
Präsident, 52238
habe 52227
viele 52097
dazu 52022
de@@ 51992
mich 51682
; 51385
to 50776
ob 50632
Dies 50581
h@@ 50401
s. 50299
? 50240
ihr 50117
l@@ 50075
einige 50052
le@@ 50020
Eine 49604
en: 49368
p@@ 49316
re@@ 49214
Für 49130
3 48981
bietet 48845
jetzt 48677
“ 48556
Unterstützung 48519
on 48446
wieder 48362
sollte 48121
m 48086
darauf 47994
hat. 47981
Richtlinie 47827
ge 47577
denn 47525
Jahre 47250
Frage 47186
politischen 46852
allem 46812
sollten 46761
r@@ 46469
liegt 46461
Re@@ 46252
Herrn 46234
während 46201
.@@ 46133
schon 45989
In@@ 45706
ti@@ 45627
I@@ 45334
n, 44908
seit 44867
v@@ 44651
Lage 44572
ter@@ 44515
viel 44346
Vorschlag 44149
y@@ 44039
sein, 43844
ts 43725
Länder 43550
ersten 43376
selbst 43338
Wie 43244
beim 43149
wo 43134
or@@ 43123
ung@@ 42956
drei 42945
unseren 42658
Teil 42544
nun 42485
Nach 42426
ten@@ 42422
Arbeit 42418
finden 42344
Und 41993
deren 41829
Bei 41782
kann. 41630
Un@@ 41324
ts@@ 41299
as 41263
5 41247
Er 41013
is 40973
di@@ 40889
enen 40874
at@@ 40702
Welt 40491
se@@ 40442
weitere 40372
doch 40325
ale 40207
Auf@@ 40067
meine 40023
ischer 39968
dafür 39832
der@@ 39560
letzten 39516
j@@ 39385
ier@@ 39384
seinen 39207
Ziel 39188
können, 39034
4 38984
ens 38980
Ländern 38749
Land 38718
Auf 38408
geht 38229
au@@ 38130
bin 37984
c@@ 37816
ger@@ 37744
nach@@ 37723
mir 37684
etwas 37486
ä@@ 37390
Fragen 37331
ber@@ 37287
ra@@ 37115
am@@ 37059
end 37029
on@@ 36980
U@@ 36818
Finanz@@ 36759
gel@@ 36748
w@@ 36737
Sicherheit 36665
it@@ 36605
k 36436
ieren 36411
sein. 36209
innerhalb 36118
Namen 36015
a, 35892
internationalen 35849
große 35816
aller 35811
3@@ 35801
sowohl 35671
li@@ 35592
welche 35564
iert 35392
Auch 35331
Bürger 35286
dabei 35192
Was 35141
also 34967
Fall 34935
ie 34934
le 34855
g 34825
ag@@ 34788
ak@@ 34738
ene 34723
ig@@ 34723
großen 34643
Regierung 34468
et@@ 34410
Ende 34365
politische 34155
ro@@ 34149
ur@@ 34139
weiter 34124
y 34005
daher 33965
gut 33917
europäische 33882
ste 33838
Gemeinschaft 33821
isch 33694
Parlaments 33609
Zusammenhang 33589
Rates 33531
Daten 33338
verschiedenen 33184
Ge@@ 33072
Unter@@ 33065
stellen 33055
gen@@ 32940
il@@ 32913
sp@@ 32898
einmal 32841
4@@ 32833
Programm 32774
ri@@ 32660
Art 32652
Als 32585
Al@@ 32559
nationalen 32497
se 32484
Zu@@ 32355
A 32225
d 32220
Umsetzung 32157
öffentlichen 32100
ere 32028
Aber 31993
Recht 31900
kein 31712
gegenüber 31695
beiden 31575
en? 31511
z 31504
Hilfe 31489
besonders 31414
at 31404
ck@@ 31392
ungen. 31357
st 31314
Bedeutung 31281
Artikel 31275
th@@ 31261
6 31221
zwar 31198
Schutz 31196
t: 31102
eigenen 31095
ihnen 31071
waren 31034
Rolle 30983
tigen 30979
Ihr 30971
würde 30927
n. 30810
her@@ 30809
ien 30757
Um@@ 30606
-, 30587
ange@@ 30585
ö@@ 30351
einfach 30201
chen 30184
,@@ 30163
an, 30117
Zukunft 30090
stellt 29953
besteht 29886
Staaten 29781
Über@@ 29640
'@@ 29622
Mittel 29612
Weise 29551
10 29525
erste 29469
St@@ 29437
möglich 29426
Politik 29419
soll 29248
du 29190
davon 29133
tige 29082
E 29026
Thema 28993
Probleme 28953
5@@ 28927
Um 28916
weiterhin 28909
wurde, 28902
tet 28842
kommen 28806
vielen 28801
Seite 28747
an. 28740
8 28681
Förderung 28665
durch@@ 28564
Problem 28529
Millionen 28496
ul@@ 28489
steht 28464
meiner 28420
bar 28411
as@@ 28341
unser 28300
u 28249
ü@@ 28246
eren 28197
licher 28168
politik 28110
be 28098
Haushalts@@ 28088
sehen 28073
Sp@@ 28047
Ihrer 28019
7 28001
sk@@ 27988
stehen 27912
wurde. 27867
­@@ 27784
ste@@ 27759
etwa 27711
ation 27694
gen, 27640
Grund@@ 27559
end@@ 27520
System 27476
wirklich 27463
er. 27445
l 27417
al 27404
en; 27395
Zugang 27379
em 27302
Zimmer 27290
ins 27288
Stadt 27272
weniger 27263
I 27157
ing@@ 27116
Grundlage 27111
Dieses 27023
indem 26999
geben 26968
ser@@ 26936
Rück@@ 26928
tern 26901
Beispiel 26898
la 26817
us@@ 26772
ne@@ 26747
ausge@@ 26693
wer@@ 26691
Weg 26581
Alle 26578
ch 26576
igen 26558
Rechts@@ 26517
direkt 26435
bzw. 26402
enten 26375
gehen 26342
et 26310
darüber 26272
Region 26220
natürlich 26217
we@@ 26198
é@@ 26170
alles 26143
Seiten 26118
Mar@@ 26088
Frauen 26039
Präsident! 26005
-S@@ 25985
wäre 25966
gemeinsamen 25906
Wirtschaft 25879
ad@@ 25827
lo@@ 25822
hinaus 25757
Kon@@ 25700
Verfahren 25643
im@@ 25634
9@@ 25625
dort 25539
Bezug 25498
Ihren 25476
all 25439
wirtschaftlichen 25435
Kunden 25403
kon@@ 25391
x@@ 25371
tung 25324
ge, 25271
Dieser 25255
kann, 25224
6@@ 25178
ige 25175
bieten 25173
Ebene 25102
muß 25096
ol@@ 25084
USA 25081
or 25035
Ziele 25026
So 25020
alen 24907
ken 24906
Le@@ 24887
ko@@ 24887
Hier 24871
ieren. 24833
ihrem 24826
b 24820
2@@ 24798
si@@ 24781
ab 24778
8@@ 24755
ebenfalls 24696
S 24693
ers 24693
Umwelt@@ 24683
einzu@@ 24640
ierte 24632
Arbeits@@ 24550
fen 24461
ma@@ 24418
hin@@ 24396
nen 24390
befindet 24361
Ar@@ 24308
aufgrund 24302
Minister 24289
em@@ 24284
ierten 24272
ie@@ 24270
Fraktion 24267
sagen, 24238
tra@@ 24235
jeder 24208
Lösung 24202
meisten 24188
Anwendung 24178
Y@@ 24129
ach@@ 24127
unserem 24124
me@@ 24115
Mon@@ 24106
wichtige 24077
dessen 24074
ben 24072
The 24014
ja 24014
op@@ 23988
ne 23970
Verbesserung 23966
T 23962
Euro 23953
Verordnung 23944
Auswirkungen 23891
teil@@ 23833
Hinblick 23823
men 23815
Nach@@ 23792
he@@ 23791
Deshalb 23776
@@ 23734
Strategie 23728
Da 23719
nächsten 23684
ender 23668
mit@@ 23662
f 23642
e-@@ 23618
Mo@@ 23614
Möglichkeit 23597
es. 23554
000 23553
lassen 23492
ir@@ 23483
seinem 23478
sozialen 23478
erhalten 23445
lich, 23440
Pro@@ 23408
a. 23399
Tag 23372
ens@@ 23369
sogar 23345
auf, 23344
weit 23299
ges@@ 23293
Se@@ 23280
machen 23264
ern, 23259
Rechte 23241
den@@ 23235
tischen 23230
men@@ 23217
einigen 23162
Situation 23161
Reihe 23104
nämlich 23092
20 23081
7@@ 23081
pro 23069
recht 23056
it 23018
Haupt@@ 22994
liches 22994
fer@@ 22977
all@@ 22868
Abkommen 22846
worden 22835
Form 22826
müssen. 22816
Präsident 22695
Website 22685
vor, 22663
isch@@ 22661
gemeinsame 22639
tet. 22557
and@@ 22533
2009 22523
anzu@@ 22499
me 22499
X@@ 22464
to@@ 22412
ar 22396
[[@@ 22378
Verhandlungen 22373
ellen 22364
nicht, 22356
Markt 22343
Bereichen 22308
Wirtschafts@@ 22290
könnte 22264
bitte 22223
/ 22162
30 22160
0@@ 22122
9 22040
Ro@@ 22035
qu@@ 22022
gute 22000
keinen 21974
Produkte 21970
ihm 21953
Ent@@ 21926
sen 21890
elle 21879
solche 21860
Durch 21838
ta@@ 21836
zi@@ 21780
Unsere 21775
Mit@@ 21769
Behörden 21733
auszu@@ 21725
Leben 21716
Europas 21703
-B@@ 21682
gilt 21635
Regionen 21611
Ex@@ 21585
Außerdem 21444
ss@@ 21415
om@@ 21408
geben. 21377
a-@@ 21373
tische 21368
Zeit@@ 21278
Kosten 21226
so@@ 21222
ihn 21203
Spiel@@ 21176
10@@ 21158
beispielsweise 21158
Vorschläge 21141
hal@@ 21124
Steuer@@ 21099
führen 21090
19@@ 21080
Kommission, 21049
Beziehungen 21019
ER@@ 20986
tionen 20985
x 20983
ent 20949
vier 20949
Sozial@@ 20936
Neu@@ 20915
geben, 20904
aus. 20902
Wasser@@ 20891
ert 20864
zurück@@ 20835
erung 20828
bes@@ 20822
gerade 20803
ke 20802
müssen, 20753
de, 20738
Vereinigten 20725
Uhr 20721
ieren, 20716
Sicherheits@@ 20710
gesamten 20695
ern@@ 20658
Aussprache 20638
hatte 20611
ger 20540
jeden 20534
Bedingungen 20530
Qualität 20526
einzelnen 20521
geb@@ 20521
t-@@ 20483
os 20477
erst 20453
Inter@@ 20450
Verfügung 20350
Gebiet 20344
Aus 20335
gt 20304
besser 20291
el 20290
Vertrag 20287
ationen 20281
Schaffung 20266
Entscheidung 20244
wegen 20227
Interesse 20141
Zu 20124
EN 20112
Geschäfts@@ 20095
ente 20093
Bau@@ 20090
la@@ 20073
50 20069
besten 20048
arbeiten 20047
gesch@@ 20022
Fortschritte 20007
tet, 19992
genau 19956
Von 19938
den, 19929
internationale 19925
tion@@ 19915
us 19899
Deutschland 19898
voll 19894
bereich 19878
bar@@ 19858
lan@@ 19842
Beitrag 19840
15 19789
är@@ 19738
Grund 19687
Daher 19678
2010 19656
än@@ 19650
Bekämpfung 19627
& 19579
che 19563
weiter@@ 19560
for 19553
zeit@@ 19538
weiteren 19536
kre@@ 19509
ner 19491
allerdings 19461
iert. 19423
halten 19366
kommt 19363
are 19349
ing 19295
Haus 19247
tig@@ 19230
Kinder 19221
Gruppe 19203
ter, 19169
1@@ 19071
Welt@@ 19059
cht 19038
gi@@ 19038
wurden. 19036
ac@@ 19011
ber 19004
schen 18972
Ko@@ 18961
deshalb 18952
Weitere 18916
Kollegen 18867
Par@@ 18853
Markt@@ 18849
zeit 18841
per 18777
Entwicklungs@@ 18770
Bo@@ 18769
En@@ 18765
tig 18762
ist@@ 18728
Dienstleistungen 18727
derzeit 18720
Kommissar 18705
Co@@ 18699
ation@@ 18673
Mitglieder 18642
Ergebnisse 18626
unterstützt 18598
wichtigsten 18570
Vorschriften 18553
ik@@ 18516
dar@@ 18510
Po@@ 18499
Meinung 18498
nehmen 18452
le, 18444
wobei 18440
Fahr@@ 18398
O 18388
nichts 18372
gemeinsam 18328
lich@@ 18322
zusammen@@ 18322
machen. 18316
tr@@ 18305
verschiedene 18304
Lo@@ 18258
Gesellschaft 18254
wurden, 18248
fest@@ 18232
en-@@ 18231
Abstimmung 18229
dern 18221
�@@ 18195
wollen 18157
sin@@ 18124
kl@@ 18118
id@@ 18108
schnell 18096
tiger 18063
bau@@ 18051
wichtigen 18048
st, 18024
wirtschaftliche 18019
Land@@ 18007
kommen. 17996
:@@ 17982
baren 17975
Am 17960
18@@ 17943
daran 17942
gleich@@ 17916
besch@@ 17902
Doch 17873
deutlich 17867
cken 17855
| 17851
tion 17831
EN@@ 17826
bel@@ 17814
De@@ 17800
kleinen 17795
lange 17774
2008 17762
wissen, 17761
stre@@ 17745
", 17725
Nutzung 17713
_@@ 17704
fast 17680
hinsichtlich 17678
ed@@ 17675
Investitionen 17670
Ausschuss 17668
ft 17649
den. 17628
enk@@ 17621
Gemeinschafts@@ 17582
wichtig 17576
Liste 17569
ben@@ 17567
Verantwortung 17548
maßnahmen 17534
bil@@ 17523
Menschenrechte 17521
ei@@ 17521
ff@@ 17521
findet 17512
aus, 17499
lin@@ 17462
p 17454
no@@ 17439
ein. 17404
ho@@ 17397
voll@@ 17374
gleichzeitig 17369
ität 17368
je 17357
Personen 17347
“@@ 17292
Preis@@ 17280
bare 17274
weltweit 17265
vielleicht 17249
ek@@ 17240
darf 17202
land@@ 17196
Kontrolle 17192
der, 17170
rund 17160
Internet 17141
Hotels 17133
po@@ 17112
handelt 17082
Bestimmungen 17075
isches 17055
Schritt 17021
ob@@ 17011
Ort 17000
ern. 16999
war@@ 16992
ler 16983
ran@@ 16981
sen@@ 16961
mer@@ 16959
aufge@@ 16939
abzu@@ 16935
alten 16925
Punkt 16916
Richtung 16916
lichkeit 16892
Forschung 16889
Verbraucher 16886
ebenso 16878
nis 16869
soziale 16869
Einführung 16868
einschließlich 16868
IN@@ 16841
Debatte 16837
Seit 16835
Verwendung 16834
form@@ 16811
oft 16805
Ihrem 16801
Di@@ 16800
gen. 16755
Damen 16745
Verkehrs@@ 16725
Wachstum 16723
China 16715
Bar@@ 16710
sei 16684
Bevölkerung 16669
gemäß 16651
Jahres 16649
kan@@ 16646
est@@ 16645
hen 16622
führ@@ 16615
Institutionen 16606
Rechtsvorschriften 16602
war, 16601
iger 16590
2000 16574
]] 16572
enz@@ 16563
Möglichkeiten 16557
hr@@ 16516
sh@@ 16493
versch@@ 16493
Wettbewerb 16492
Au@@ 16483
macht 16469
tete 16468
Damit 16449
Ergebnis 16432
ur 16423
tz@@ 16418
pf@@ 16416
E-@@ 16415
Darüber 16409
Ma@@ 16408
Or@@ 16404
unternehmen 16397
Erweiterung 16390
wenig 16387
los 16383
da@@ 16377
jedem 16363
2007 16346
ierung 16345
Republik 16298
Ho@@ 16271
bestimmte 16269
d. 16262
und@@ 16262
Nähe 16257
h 16253
brauchen 16250
Mitglied 16248
rich@@ 16235
land 16232
schaft 16203
No@@ 16196
enn@@ 16192
gleichen 16177
r 16056
sollen 16055
fünf 16050
pe@@ 16050
ang@@ 16044
AN@@ 16033
ations@@ 16014
ell@@ 16007
machen, 16002
Initiative 16000
insgesamt 15998
man@@ 15996
tu@@ 15992
tions@@ 15987
rä@@ 15983
vi@@ 15973
bringen. 15968
Lebens@@ 15962
öffentliche 15953
tre@@ 15948
mehrere 15941
Erklärung 15940
Angelegenheiten 15892
pro@@ 15884
stand 15869
Hand@@ 15855
Man 15849
For@@ 15844
ß@@ 15835
Ausschusses 15828
det 15815
möchten 15802
lassen. 15800
ati@@ 15798
bestimmten 15796
wichtig, 15796
dürfen 15786
nisse 15770
Ä@@ 15757
Zahl 15743
d, 15741
Flug@@ 15735
Wahl@@ 15732
Krise 15725
Einzel@@ 15723
Juni 15704
erreicht 15683
c 15677
kommen, 15661
einge@@ 15648
jede 15648
anz@@ 15626
Demokratie 15619
zusammen 15609
ein, 15599
rech@@ 15580
ha@@ 15574
st. 15530
folgenden 15501
mo@@ 15487
ap@@ 15476
en! 15463
en) 15457
jedes 15444
bringen 15441
Zum 15432
tier@@ 15413
Her@@ 15407
stell@@ 15407
wollen, 15402
Mitteilung 15368
Projekt 15358
20@@ 15356
ich@@ 15355
mittel 15335
men, 15260
ah@@ 15236
Handel 15231
Handels@@ 15221
Kre@@ 15178
gemacht 15159
will 15147
ich, 15139
P 15114
tun 15088
Ch@@ 15072
o, 15059
Einsatz 15058
dig@@ 15048
weise 15045
Blick 15031
inter@@ 15028
alis@@ 15026
m, 15022
Dezember 15019
ate 15015
Integration 14970
kleine 14950
Gesundheit 14949
gt, 14942
Türkei 14932
Kolleginnen 14928
Wer@@ 14912
ST@@ 14882
Programme 14851
neu 14849
komm@@ 14846
gestellt 14834
Umwelt 14833
Version 14825
ci@@ 14819
arbeit@@ 14776
Ansicht 14771
fort@@ 14770
Verbindung 14763
do@@ 14739
ge. 14734
Vor 14733
bereit@@ 14728
ru@@ 14724
werde 14720
aten 14711
fra@@ 14696
Software 14674
Durchführung 14656
Geschichte 14654
al, 14644
Me@@ 14613
AL@@ 14581
bo@@ 14567
iert, 14560
2006 14539
Ausdruck 14533
Staats@@ 14533
12 14527
unseres 14519
neuer 14496
' 14489
hin 14487
gibt, 14481
[@@ 14476
Projekte 14474
tem 14443
verfügt 14426
erster 14425
Gerichtshof 14418
zen 14416
Dialog 14411
gehen. 14404
gehört 14395
". 14372
Unser 14367
á@@ 14358
somit 14341
Kinder@@ 14339
ungsp@@ 14338
Landwirtschaft 14329
führt 14329
1.@@ 14323
ner@@ 14321
Dabei 14312
zweiten 14304
eb@@ 14301
stellen. 14295
i, 14294
Gesundheits@@ 14270
anderer 14263
Dank 14252
hohen 14225
tungs@@ 14224
Beschäftigung 14216
Regierungen 14202
Gesamt@@ 14196
pp@@ 14196
außerdem 14194
Zentrum 14169
ums 14167
17@@ 14162
ganzen 14149
Lin@@ 14147
sicher@@ 14142
ander@@ 14133
Tra@@ 14129
ien, 14118
führen. 14104
reich@@ 14082
Gra@@ 14074
Gegen@@ 14073
aufzu@@ 14062
großer 14054
Ber@@ 14051
setzen 14035
12@@ 14025
Man@@ 14018
sti@@ 14015
leben 14006
teten 13999
de. 13998
ze@@ 13991
25 13989
100 13967
halten. 13958
Mitgliedstaat 13941
klar 13940
freien 13935
per@@ 13924
Hoch@@ 13907
Mittel@@ 13892
wohl 13874
Erfolg 13859
tungen 13854
liegen 13851
Während 13843
Interessen 13842
Finanzierung 13829
200@@ 13819
Präsidentin, 13817
Änderungen 13804
ster 13802
neben 13801
gern 13793
Forschungs@@ 13788
weisen 13782
bisher 13769
wi@@ 13767
Hintergrund 13753
Höhe 13745
genannten 13731
det, 13728
Arbeit@@ 13722
gleich 13706
AR@@ 13701
To@@ 13672
he 13672
15@@ 13660
sicher 13653
sehen, 13640
wahr@@ 13640
Antwort 13624
g, 13623
verwendet 13602
sche 13595
gab 13591
US-@@ 13589
fahr@@ 13584
Bemühungen 13563
par@@ 13563
Ste@@ 13558
eg@@ 13548
ine 13546
iz@@ 13543
volle 13543
heit 13541
Luft@@ 13522
zweite 13517
Kar@@ 13503
Schul@@ 13497
ganze 13497
13@@ 13490
gesamte 13490
km 13487
ia 13474
ier 13474
C 13472
ihres 13471
tragen 13471
europäischer 13456
fe@@ 13456
Anzahl 13451
14@@ 13438
Mai 13431
Energie@@ 13428
M 13419
tatsächlich 13415
vergangenen 13414
programm 13406
tik@@ 13402
gesagt 13385
D 13378
EUR 13378
mon@@ 13372
Minuten 13370
Reform 13369
So@@ 13369
ess@@ 13367
Anfang 13356
L 13356
Mal 13338
ou@@ 13337
zwe@@ 13337
ph@@ 13328
2005 13284
Service 13284
mal 13282
Änderungsantrag 13276
det. 13257
Entschließung 13251
Sie, 13251
Nord@@ 13246
Mio. 13244
Konferenz 13243
Aufgabe 13241
gabe 13238
zunächst 13238
hoch@@ 13230
sieht 13213
IT@@ 13209
Kultur@@ 13209
halten, 13194
mi@@ 13183
verfahren 13173
genommen 13163
ersch@@ 13159
IS@@ 13147
B 13134
teilen 13129
v 13129
darin 13125
Frankreich 13120
ck 13114
ster@@ 13114
16@@ 13099
40 13098
teile 13097
2004 13096
abge@@ 13085
eigene 13081
Verwaltungs@@ 13075
Zur 13074
Lösungen 13061
völlig 13060
tor@@ 13041
mel@@ 13032
verb@@ 13012
gehen, 13011
soll. 13009
tigung 13008
ll@@ 12999
0 12994
tlich 12993
ig 12992
größten 12978
Wettbewerbs@@ 12976
guten 12974
tel@@ 12962
treten 12962
Fach@@ 12959
Verpflichtungen 12959
mar@@ 12954
war. 12949
lediglich 12947
Änderung 12942
Änderungsanträge 12934
un 12931
Preis 12929
März 12906
glaube, 12905
führen, 12904
fall 12887
Mitgliedstaaten, 12880
unterstützen 12878
Gründen 12861
zeigt 12858
Geld 12856
mer 12845
z. 12839
gu@@ 12826
1. 12817
Regeln 12811
Vertreter 12809
ungs- 12803
führung 12798
eln 12790
lich. 12785
Zeitpunkt 12778
Gen@@ 12775
min@@ 12765
m. 12760
system 12758
ermöglicht 12748
Bitte 12741
solchen 12737
hohe 12730
entsprechenden 12715
geh@@ 12713
zehn 12709
War@@ 12703
Landes 12701
se, 12685
2003 12684
Monaten 12679
tiges 12679
Anforderungen 12678
weder 12673
essen 12655
enthält 12645
gerne 12632
t? 12622
äußerst 12619
Entscheidungen 12615
Wohn@@ 12576
unver@@ 12563
Russland 12558
hoffe, 12544
erreichen 12513
September 12512
Themen 12510
vor. 12507
dadurch 12503
Wert 12500
one 12498
fragen 12495
zahlreiche 12484
( 12479
k, 12456
Car@@ 12454
tion, 12452
)@@ 12440
s-@@ 12432
angesichts 12431
wissen 12431
Partner 12413
stark 12406
Abgeordneten 12396
Mehrheit 12392
spiel@@ 12389
Kampf 12388
Ziel@@ 12387
fin@@ 12372
obwohl 12370
ation, 12366
bin@@ 12366
Grenz@@ 12360
würden 12346
t; 12336
Preise 12325
gar 12323
bessere 12303
nehmen. 12296
ß 12293
Industrie 12289
Sk@@ 12285
meinen 12276
eh@@ 12264
genden 12264
ES@@ 12238
au 12233
sa@@ 12231
entfernt. 12229
isten 12226
Woche 12223
Standpunkt 12222
größte 12214
que 12198
lau@@ 12197
del 12194
Prozess 12177
He@@ 12171
N 12168
ung: 12162
meinem 12160
bezüglich 12141
Oktober 12137
Platz 12137
geht, 12137
Groß@@ 12136
lä@@ 12135
setzt 12135
We@@ 12129
nimmt 12127
with 12125
Con@@ 12122
ord@@ 12120
Ne@@ 12107
Sonder@@ 12105
neu@@ 12104
Bildung 12099
anderem 12088
Tier@@ 12074
DER 12071
Januar 12069
mu@@ 12069
allgemeinen 12057
eller 12057
K 12037
in, 12026
gebracht 12016
nationale 12012
gende 12005
erneut 12001
ib@@ 12000
Gu@@ 11997
hätte 11996
R 11993
Beihilfen 11983
weis@@ 11981
wichtiger 11974
Bürger@@ 11973
wor@@ 11970
unterstützen. 11963
ft@@ 11947
Im@@ 11939
co@@ 11933
Angebot 11925
äl@@ 11922
vo@@ 11920
Gel@@ 11910
ke@@ 11908
technischen 11902
Berichterstatter 11894
muss. 11893
Wettbewerbsfähigkeit 11892
Zeitraum 11891
Kern@@ 11888
Hotel@@ 11884
dung 11882
lage 11879
später 11876
Möglichkeit, 11875
bringen, 11872
gegeben 11872
2002 11857
tigkeit 11854
Text 11853
folgende 11851
Folgen 11830
Ü@@ 11813
Auswahl 11810
Öffentlichkeit 11805
Verfügung. 11801
vier@@ 11801
] 11797
um, 11797
Bel@@ 11793
€ 11792
ell 11788
gehören 11788
gt. 11787
AS@@ 11783
mor@@ 11758
ze 11758
befinden 11748
g. 11746
trä@@ 11734
G 11724
verbunden 11723
ab. 11722
jeweiligen 11721
wieder@@ 11716
vorzu@@ 11711
Regelung 11706
ide@@ 11703
bestehenden 11702
lang 11699
rück@@ 11692
Bereiche 11681
di 11672
Internet@@ 11667
heiten 11666
Binnenmarkt 11664
besondere 11663
Juli 11660
äu@@ 11659
finden. 11648
el, 11637
Stellungnahme 11629
nie 11624
schul@@ 11621
RE@@ 11610
bekannt 11609
Euro@@ 11606
kt 11606
Aktivitäten 11591
eher 11582
2.@@ 11581
erreichen. 11581
wider@@ 11581
El@@ 11573
Annahme 11570
Qu@@ 11565
Schutz@@ 11565
darin, 11537
Th@@ 11532
tt@@ 11528
chen@@ 11526
wir@@ 11522
1,@@ 11520
sektor 11511
entsprechend 11501
lie@@ 11488
nahm 11480
bleibt 11479
gel 11478
Kur@@ 11477
bedeutet 11475
könnten 11472
erforderlich 11468
Nur 11448
aler 11445
trag@@ 11443
erk@@ 11436
regionalen 11429
sechs 11428
ann@@ 11427
gra@@ 11427
Fre@@ 11425
Min@@ 11413
z.B. 11403
Produktion 11402
tun, 11400
men. 11399
CH@@ 11396
Bet@@ 11393
stellen, 11390
schließlich 11384
legen 11360
pa@@ 11346
setz@@ 11343
eng@@ 11341
Notwendigkeit 11331
2001 11329
stra@@ 11328
Fällen 11323
Präsidenten 11320
Sprach@@ 11320
erhalten. 11310
des@@ 11307
Kan@@ 11306
Nationen 11301
nah@@ 11275
“, 11275
ren@@ 11267
ari@@ 11263
grün@@ 11257
auch, 11254
stoff@@ 11253
einzige 11252
bu@@ 11250
Gemeinsamen 11246
Ad@@ 11245
nis@@ 11231
November 11219
Anstrengungen 11217
dafür, 11203
deutschen 11203
ca. 11199
produk@@ 11198
ER 11193
tliche 11177
halte 11172
aktuellen 11170
angenommen 11156
bevor 11155
ex@@ 11155
hotel 11151
bi@@ 11150
meines 11150
demokratischen 11148
Tatsache, 11146
bar. 11134
mein 11134
privaten 11129
Schritte 11126
verkehr 11124
Erachtens 11122
* 11118
Stärkung 11105
ab, 11102
ör@@ 11102
Energie 11099
Sinne 11091
Bundes@@ 11086
lässt 11082
außerhalb 11068
ßen 11063
Tage 11059
Mor@@ 11046
lag@@ 11045
äre 11045
sch 11039
eig@@ 11038
chte 11031
Raum 11021
Schlussfolgerungen 11020
tiert 11018
z, 11017
ven@@ 11014
tiv@@ 11009
nicht@@ 11008
AT@@ 11002
heutigen 11000
est 10997
Informations@@ 10993
geführt 10982
by 10972
Erfahrung 10970
Den 10966
ant 10963
Behandlung 10961
ka 10959
Jahres@@ 10955
Restaurant 10952
Parteien 10947
frei 10946
star@@ 10945
Zeit, 10937
bet@@ 10935
viel@@ 10934
S-@@ 10928
Handel@@ 10927
notwendig 10925
Funktion 10924
hab@@ 10898
bei@@ 10878
Ju@@ 10871
kehr@@ 10871
Herzen 10870
Beschäftigungs@@ 10868
Verwaltung 10868
Transparenz 10865
Italien 10863
re 10860
technische 10857
Programms 10853
sagen 10850
Stelle 10844
Lu@@ 10835
il 10834
heit@@ 10826
ener 10825
iss@@ 10824
sor@@ 10823
Grenzen 10818
y-@@ 10818
age 10804
Herausforderungen 10802
tive 10790
fe 10789
Einrichtung 10783
ic@@ 10780
dete 10773
allein 10762
sprechen 10755
entwickelt 10754
möglichkeiten 10746
Kultur 10735
tä@@ 10727
Bürgerinnen 10724
” 10721
hervor@@ 10720
Zusammen@@ 10710
tigt 10710
Stadt@@ 10707
Außen@@ 10702
Kontakt 10682
sein@@ 10675
Linie 10674
A-@@ 10671
Rech@@ 10664
Unter 10661
end, 10656
Vertrags 10645
Kommissar, 10638
statt. 10625
Te@@ 10623
Natur@@ 10621
me, 10614
Kom@@ 10597
fehl@@ 10597
UN@@ 10595
Gelegenheit 10591
Daten@@ 10586
sel@@ 10582
endes 10579
Aspekte 10578
ment@@ 10572
Spanien 10568
Fest@@ 10566
mindestens 10557
Bes@@ 10545
Union, 10540
bau 10538
finden, 10530
Stre@@ 10527
Bürgern 10517
sollte. 10517
Reformen 10513
tan@@ 10510
konnte 10508
April 10504
fahren 10503
fest, 10500
Auto@@ 10499
gestellt. 10480
à 10478
stärker 10477
í@@ 10477
vollständig 10476
Fischerei@@ 10471
Beginn 10463
Heute 10461
SP@@ 10459
muss, 10459
finanziellen 10458
gibt. 10456
Teil@@ 10452
An 10447
„ 10444
Gewalt 10440
Op@@ 10439
wenige 10435
Meine 10434
seines 10431
mittel@@ 10429
auf. 10423
nicht. 10422
Selbst@@ 10421
Agrar@@ 10418
trotz 10415
EU@@ 10413
Privat@@ 10413
leicht 10412
sta@@ 10407
|@@ 10400
ün@@ 10400
Mitarbeiter 10384
Produk@@ 10384
stu@@ 10383
Ansatz 10374
mach@@ 10368
zusätzliche 10365
if@@ 10364
lier@@ 10362
Prüfung 10350
Diskussion 10348
Ger@@ 10347
kommenden 10345
Vereinten 10338
Erfahrungen 10329
leider 10316
ma 10316
Wahl 10311
B. 10308
weit@@ 10294
(S@@ 10290
Vereinbarung 10289
folgt 10289
Dazu 10283
soll, 10281
Per@@ 10279
tur@@ 10277
ut@@ 10274
Durch@@ 10273
Bild@@ 10271
Wort 10271
betrifft, 10270
Ressourcen 10260
Einklang 10258
itäts@@ 10258
Mal@@ 10252
ug@@ 10243
elt 10238
gef@@ 10221
Aufmerksamkeit 10216
Produkt@@ 10214
neues 10209
Familie 10195
Bank@@ 10191
60 10188
Mark@@ 10185
bel 10183
Besch@@ 10180
staatliche 10179
deten 10170
lassen, 10161
Dar@@ 10154
ales 10154
bleiben 10142
go@@ 10141
Dis@@ 10138
pl@@ 10134
Kriterien 10124
Nr. 10123
é 10123
Sa@@ 10122
+@@ 10118
richtig 10117
Berichts 10113
af@@ 10110
Kraft 10106
Ru@@ 10106
rechte 10085
beide 10081
größere 10080
mark@@ 10080
Bewertung 10077
tigen, 10077
Bi@@ 10076
mal@@ 10075
tsch@@ 10075
Einigung 10073
würde. 10068
nehmen, 10061
Allerdings 10056
Rat@@ 10055
eigentlich 10051
entfernt 10047
ativen 10044
alisierung 10040
Einige 10034
Position 10034
abkommen 10015
RA@@ 10014
enz 10013
häufig 10008
La 10007
Mehr@@ 10005
tiven 10002
kal@@ 10001
Anerkennung 10000
ne, 9995
bereit 9993
le. 9987
ziel@@ 9987
fes@@ 9984
Ö@@ 9982
vollen 9979
Su@@ 9978
betreffenden 9972
ta 9964
Vertrauen 9963
Vis@@ 9963
3.@@ 9951
wollen. 9949
ant@@ 9947
globalen 9945
Sprache 9931
do 9919
hatten 9915
11 9896
dar. 9892
zu, 9891
Unternehmen, 9890
gan@@ 9885
hinzu@@ 9881
tragen, 9880
Milliarden 9878
y, 9878
for@@ 9876
Ur@@ 9872
Arbeitnehmer 9869
Tro@@ 9869
Wein@@ 9840
is, 9821
ität, 9821
sich@@ 9821
ien@@ 9818
uss@@ 9818
La@@ 9817
Projek@@ 9814
Tri@@ 9801
Wieder@@ 9789
geht. 9786
1999 9784
F 9780
w 9778
Web@@ 9767
spielen 9765
ina 9757
zudem 9754
worden. 9751
Organisation 9750
zahlreichen 9750
kosten 9748
les 9748
Information 9743
amerikanischen 9737
Arbeiten 9736
kam 9734
Rahmen@@ 9729
Arbeitsplätze 9727
Menschen, 9719
Fisch@@ 9714
ländern 9712
ter. 9712
Beitritt 9709
leg@@ 9707
Sport@@ 9701
rechtlichen 9694
suchen 9693
barkeit 9685
gesetzt 9681
nachhaltige 9680
ären 9680
ank@@ 9675
Wel@@ 9671
Initiativen 9670
entsprechende 9670
Pal@@ 9669
onen 9668
Organisationen 9654
Pa@@ 9654
lagen 9652
schutz@@ 9650
zeug@@ 9646
nutzen 9641
IC@@ 9639
finanz@@ 9636
Sti@@ 9610
Falle 9608
chen, 9605
möglich, 9602
Online-@@ 9600
eben 9593
kurz 9588
hinter 9582
sofort 9582
Partner@@ 9579
ft, 9573
ismus 9569
falls 9558
durchgeführt 9554
00@@ 9551
25@@ 9548
wir, 9543
igkeit 9541
betrifft 9539
Viele 9538
ing-@@ 9534
ländlichen 9533
stellung 9532
fall@@ 9529
stelle 9526
Prioritäten 9522
stehenden 9522
erforderlichen 9521
sprach@@ 9519
en" 9509
cke 9490
Abschluss 9487
Reis@@ 9480
gang 9480
oben 9478
bald 9473
Punkte 9471
UNG 9471
mehreren 9471
Voll@@ 9465
EL@@ 9440
24 9437
Obwohl 9431
steig@@ 9431
Beteiligung 9428
stehen. 9428
richtige 9421
Leitlinien 9418
gesetz@@ 9417
ent, 9411
Zivil@@ 9404
lu@@ 9401
finanzielle 9396
leit@@ 9396
zentr@@ 9393
Über 9389
ausschließlich 9386
Macht 9381
besonderen 9380
Tagung 9378
paar 9372
Stabilität 9370
arbeiten, 9368
Zoll@@ 9367
Stunden 9365
Fol@@ 9361
Fonds 9360
mitteln 9351
Ak@@ 9350
EG@@ 9349
stoffe 9343
Sicht 9325
systeme 9324
letzte 9321
Klein@@ 9318
Por@@ 9311
Tagesordnung 9310
zumindest 9307
Kenntnis 9306
lokalen 9304
Partnerschaft 9303
innen 9299
darum 9297
ih@@ 9297
Neben 9290
Einhaltung 9283
Lissabon 9280
ass@@ 9277
Natürlich 9268
Sal@@ 9264
ins@@ 9256
lö@@ 9255
V 9254
tel 9251
US@@ 9247
markt 9246
länder 9245
14 9244
Reform@@ 9244
Klima@@ 9243
on, 9242
Basis 9240
Wasser 9239
200 9238
RO@@ 9235
ts, 9225
Dinge 9222
Insel 9221
Rechnung 9218
ften 9213
Du 9202
gew@@ 9196
mü@@ 9191
schaffen, 9191
EM@@ 9184
Anteil 9183
Lebensmittel@@ 9179
ad 9177
beste 9177
haf@@ 9175
ang 9165
bar, 9164
Am@@ 9161
fel@@ 9161
dre@@ 9158
vorschriften 9158
av@@ 9153
lose 9153
50@@ 9152
22@@ 9150
Systems 9138
das, 9138
fordert 9138
Praxis 9135
ra 9133
zu. 9131
endlich 9125
Grün@@ 9122
stets 9122
Gleich@@ 9119
Aufgaben 9118
hl@@ 9118
con@@ 9114
18 9113
zug 9106
freie 9105
scheint 9103
wen@@ 9100
prä@@ 9091
zahl@@ 9090
unterschiedlichen 9088
begrüße 9086
schaffen. 9086
notwendigen 9085
her 9084
sollte, 9075
Lassen 9073
warum 9073
ite 9071
heit, 9070
er-@@ 9064
historischen 9062
nen, 9059
Wochen 9057
Überwachung 9053
ie, 9045
Politik@@ 9042
ó@@ 9042
Li@@ 9041
regionale 9039
nationaler 9028
Hinsicht 9026
se. 9026
denke, 9024
welches 9024
Hand 9021
Präsidentschaft 9017
modernen 9015
erfolgreich 9013
sam@@ 9010
Wahlen 9008
Empfehlungen 9007
tieren 9001
Zudem 8997
Firma 8993
eri@@ 8992
Bu@@ 8989
Produktions@@ 8988
wenden 8987
betroffenen 8985
reichen 8985
morgen 8983
EI@@ 8981
Tagen 8979
Vorteile 8976
Druck 8975
Gas@@ 8974
Prä@@ 8973
dringend 8973
platz 8971
möglicherweise 8963
unterstützen, 8961
möglichen 8959
setzen, 8958
ben, 8951
werte 8951
zer@@ 8950
Haushalt 8948
and, 8948
kun@@ 8946
Anfrage 8945
ation. 8943
klar@@ 8940
werk 8926
00 8925
11@@ 8925
Gar@@ 8921
very 8920
iti@@ 8914
Buch@@ 8911
Umfang 8911
staatlichen 8910
arbeiten. 8909
habe, 8906
nissen 8903
Opfer 8901
dring@@ 8899
ferner 8896
Koordinierung 8895
politischer 8892
verfügen 8890
Ta@@ 8888
digen 8886
Ausgaben 8882
Bus@@ 8874
Do@@ 8870
nahe 8860
Tat 8859
Angaben 8857
fol@@ 8854
ungsver@@ 8852
bedingungen 8851
Netz@@ 8849
Kal@@ 8840
gesagt, 8839
derzeitigen 8838
e: 8838
agen 8833
net@@ 8833
Bild 8822
Team 8812
Cor@@ 8800
tor 8791
frage 8789
schaffen 8786
Benutzer 8785
mehr@@ 8784
Inhalt 8781
Ri@@ 8780
darunter 8780
Auffassung 8777
Ausschuß 8777
500 8771
Ferner 8770
kannst 8768
ans 8762
и@@ 8760
Eing@@ 8758
Qualitäts@@ 8755
ik 8755
konkrete 8753
tro@@ 8751
Griechenland 8750
persönlichen 8744
Medien 8741
lang@@ 8738
fuer 8736
sicherheit 8735
Umgebung 8732
sollen. 8728
umgesetzt 8726
förder@@ 8725
prozess 8723
Str@@ 8722
30@@ 8721
Person 8718
toren 8711
Kunst@@ 8710
Frage, 8709
tal@@ 8707
Tätigkeit 8704
rü@@ 8699
16 8698
al. 8697
New 8694
heißt 8690
tragen. 8690
Schwierigkeiten 8688
Schließlich 8687
res@@ 8685
anischen 8681
“. 8677
gelten 8676
um. 8670
iges 8669
Gäste 8667
Wor@@ 8664
Verkehr 8662
erhalten, 8661
kaum 8659
et. 8654
setzen. 8654
ative 8652
schriftlich. 8650
Flughafen 8649
Leit@@ 8646
istischen 8646
Sache 8641
wesentlichen 8641
wunder@@ 8635
Gefahr 8633
as, 8626
tung, 8625
ständig 8620
Absatz 8618
All@@ 8614
fonds 8614
Staat 8605
Geld@@ 8602
Nutzen 8601
langen 8601
Systeme 8595
son@@ 8595
Konzept 8593
Fra@@ 8592
Sektor 8592
Monate 8591
sehen. 8586
Kontroll@@ 8582
sollten. 8578
Natur 8561
Wege 8561
erzielt 8557
Zustimmung 8555
uns, 8554
ver 8551
funktion@@ 8550
Entwicklungen 8546
197@@ 8543
X 8536
P-@@ 8532
Fil@@ 8526
gefähr@@ 8524
AM@@ 8520
ed 8519
unbedingt 8516
überhaupt 8516
Sitzung 8515
möglichst 8515
ef@@ 8513
hol@@ 8512
0,@@ 8510
Volks@@ 8508
Folge 8504
rechts 8502
.com 8497
Protokoll 8490
fer 8490
jeweils 8486
du@@ 8484
Entwurf 8480
tlichen 8477
Gipfel 8476
pu@@ 8476
Wer 8467
ungsan@@ 8465
24@@ 8463
Spiel 8459
Wirtschafts- 8458
gleiche 8458
Angesichts 8453
Jahrhundert 8453
® 8450
Gruppen 8448
ür@@ 8445
wert 8442
allgemeine 8439
heraus@@ 8434
uch@@ 8434
programme 8429
Berg@@ 8427
Technologien 8427
Instrument 8420
isch, 8420
politik, 8413
äch@@ 8413
d-@@ 8409
Stand 8406
dier@@ 8406
ssen 8405
darauf, 8403
Nutz@@ 8396
Solidarität 8391
Denn 8389
fen, 8387
Pre@@ 8383
nachdem 8383
Vergangenheit 8381
legt 8378
gemein@@ 8371
acht 8370
wahrscheinlich 8365
Recht@@ 8363
Einrichtungen 8357
sver@@ 8357
tisch 8357
ing, 8356
Com@@ 8353
nahmen 8353
kosten@@ 8352
Kapital@@ 8351
Bil@@ 8349
ität. 8349
ziehen 8349
Falls 8345
Frieden 8343
Ist 8343
ba@@ 8336
ure 8333
Ost@@ 8332
Anspruch 8330
leid@@ 8330
tigen. 8329
Pol@@ 8324
Fe@@ 8314
Königreich 8312
berücksichtigt 8311
23@@ 8307
13 8303
ce 8303
Dienste 8302
Zweck 8302
Armut 8301
Vielfalt 8300
Gebieten 8299
ech@@ 8293
EC@@ 8292
Fehler 8289
gung 8280
nen. 8280
Mindest@@ 8277
Untersuchung 8276
Instrumente 8274
istische 8270
end. 8269
danke 8268
bedeutet, 8262
wettbewerbs@@ 8262
Programm@@ 8260
Unternehmens@@ 8260
teil 8260
Ober@@ 8257
eingesetzt 8257
mögliche 8246
erfolgt 8245
ve 8241
cht@@ 8238
Werte 8234
setzung 8232
Stra@@ 8231
raum 8228
Energi@@ 8223
Ihres 8206
Technologie 8206
zuständigen 8200
schätz@@ 8194
è@@ 8190
Mi@@ 8189
ischem 8183
ensch@@ 8182
mäch@@ 8177
wechsel@@ 8176
National@@ 8175
Sach@@ 8173
gegen@@ 8172
Februar 8169
je@@ 8168
GmbH 8163
80 8159
Mess@@ 8159
Plan@@ 8149
eu@@ 8149
wirtschaft 8149
Sh@@ 8147
wesentlich 8146
uer@@ 8141
CO@@ 8135
sich, 8129
jüngsten 8128
Mag@@ 8125
hoch 8124
gs 8120
Dann 8119
Meer 8116
Innovation 8113
unk@@ 8113
automatisch 8112
umwelt@@ 8112
he, 8110
umfassende 8107
Strand 8105
mus@@ 8103
iel@@ 8100
Vergleich 8097
nahme 8096
Engagement 8095
Straßen@@ 8094
ET@@ 8084
Schlüssel@@ 8083
Plat@@ 8077
Hal@@ 8072
wa@@ 8069
Liefer@@ 8062
waren, 8058
Menschenrechts@@ 8056
ON@@ 8056
ast@@ 8053
aktuelle 8052
üb@@ 8052
Freiheit 8049
gestellt, 8048
ben. 8043
Nor@@ 8041
sorgen, 8041
wand@@ 8041
Ausbildung 8040
ungsverfahren 8039
ev@@ 8033
chen. 8030
hin, 8030
ters 8029
zufolge 8029
AG 8028
dis@@ 8024
.000 8023
tionen, 8018
ens, 8013
eindeutig 8010
Kor@@ 8009
zurückzu@@ 8009
len 8007
gewal@@ 8006
Aufenthalt 8005
tim@@ 8004
from 7999
sse 7998
behandelt 7997
fa@@ 7997
lauf@@ 7997
o. 7989
schutz 7988
enthalten 7985
ts. 7985
Sta@@ 7983
IM@@ 7982
Urlaub 7981
Kin@@ 7979
Industri@@ 7977
gerecht 7977
daten 7974
Aufnahme 7971
statt 7970
uren 7962
heit. 7956
vorgeschlagenen 7955
fahrt 7946
San 7944
ori@@ 7941
zeigen 7941
Ser@@ 7933
best@@ 7932
Doppel@@ 7929
lass@@ 7927
2. 7922
Betrieb@@ 7919
ack@@ 7918
OR@@ 7915
wasser@@ 7914
groß@@ 7906
französischen 7905
app@@ 7904
Server 7903
arbeit 7901
Pi@@ 7899
ch, 7898
az@@ 7897
wur@@ 7897
ES 7896
Bank 7895
internationaler 7895
moderne 7893
vertrau@@ 7893
aktiv 7892
Mass@@ 7891
bringt 7890
Kredit@@ 7888
at, 7888
ile 7888
Förder@@ 7887
vertre@@ 7886
entweder 7881
Überprüfung 7881
geschaffen 7880
würde, 7874
tri@@ 7872
satz 7871
Analyse 7865
tischer 7861
tritt 7856
Cas@@ 7855
lieb@@ 7855
Besuch 7852
keit@@ 7852
wes@@ 7850
gestellten 7842
Zimmer, 7839
ös@@ 7839
übrigen 7839
tag@@ 7837
ep@@ 7834
genutzt 7834
ms 7834
steuer@@ 7834
zentrale 7832
kulturellen 7829
Sor@@ 7827
außer 7825
gebiet 7824
künftigen 7818
auswärtige 7817
t! 7809
deck@@ 7808
Regel@@ 7807
ön@@ 7807
DI@@ 7806
Berücksichtigung 7803
gten 7802
danken. 7797
bestehen 7794
zeigen, 7794
Q@@ 7793
/0@@ 7792
Du@@ 7792
deine 7789
ort 7789
Investitions@@ 7770
4.@@ 7769
Bio@@ 7768
fi@@ 7760
Aufbau 7756
sion@@ 7755
h. 7748
Gesch@@ 7747
weg 7744
kel 7733
2,@@ 7732
sprechen, 7717
ke, 7713
kar@@ 7709
fähigkeit 7704
tes@@ 7703
Zunächst 7701
teilweise 7700
ener@@ 7698
schließen 7698
Bro@@ 7694
Hau@@ 7693
stand@@ 7693
gem 7691
Antrag 7688
tigte 7686
Sol@@ 7684
Werk@@ 7681
te: 7678
verbessern. 7676
Weiter@@ 7675
sicherzustellen, 7675
Voraussetzungen 7674
ator@@ 7673
keit. 7673
Gleichzeitig 7671
su@@ 7669
zieh@@ 7668
weiterer 7667
steht. 7662
Lage, 7658
Ges@@ 7655
könnte. 7654
Hin@@ 7653
Bilder 7650
daran, 7646
offen@@ 7646
tens 7637
Dokument 7635
gruppe 7635
gelegt 7631
ris@@ 7631
Angelegenheit 7628
schwer 7627
Meeres@@ 7626
ordnung 7623
Herstellung 7621
Medi@@ 7619
U 7617
Beschluss 7616
ard 7612
re, 7611
fre@@ 7608
Brüssel 7604
ill@@ 7603
fördern. 7599
Wander@@ 7598
Foto@@ 7596
industrie 7595
gän@@ 7586
net 7585
Rau@@ 7584
dor@@ 7583
weg@@ 7581
danken, 7576
darum, 7574
alismus 7570
schafts@@ 7566
erreichen, 7565
Bre@@ 7564
leb@@ 7563
tun. 7563
wer 7561
Verfassung 7558
oll@@ 7557
www.@@ 7551
las@@ 7547
/9@@ 7545
klare 7543
preis@@ 7543
Arten 7541
träge 7538
Tre@@ 7534
Wann 7531
fach@@ 7525
Vorhaben 7522
Frühstück 7519
Prozent 7518
alität 7518
Europa, 7517
Gebiete 7509
Herren! 7509
199@@ 7507
bt 7506
gestimmt, 7506
Übereinkommen 7504
cher 7501
positive 7495
(siehe 7493
fallen 7489
hatte, 7489
Aussch@@ 7488
verbessert 7488
itz@@ 7485
Dateien 7484
Struktur@@ 7484
chten 7482
e) 7482
West@@ 7479
organis@@ 7477
ausschuss 7475
Märkte 7473
oo@@ 7473
cks 7471
mann 7471
denk@@ 7468
Gebäude 7458
Verb@@ 7458
ehr@@ 7457
nam@@ 7456
Pat@@ 7454
kommt, 7453
begrüßt 7449
staat@@ 7449
i-@@ 7443
40@@ 7441
Agenda 7441
welcher 7438
Nicht 7435
Treffen 7433
ec@@ 7433
End@@ 7430
werk@@ 7430
C-@@ 7429
?@@ 7428
log@@ 7428
Kunden@@ 7427
Rom@@ 7427
helfen, 7424
ali@@ 7421
dienst@@ 7419
plan@@ 7414
sol@@ 7413
starke 7413
bedarf 7408
Richtlinien 7407
Süd@@ 7402
Vorsitz 7397
hält 7396
ckt 7395
arbeitet 7392
VER@@ 7390
Terrorismus 7386
Wunsch 7386
bericht 7385
pres@@ 7384
rat 7380
up@@ 7380
zeiten 7376
Öl@@ 7375
Maßnahmen, 7374
glaube 7373
tl@@ 7369
defin@@ 7368
kam@@ 7367
son 7360
dienste 7359
zul@@ 7358
besseren 7357
Stellen 7356
Verbraucher@@ 7356
dank 7355
k. 7355
ging 7354
unterschiedliche 7345
Sie@@ 7344
gefunden 7343
gener@@ 7343
freue 7339
einiger 7338
Mitteln 7336
Frei@@ 7335
et, 7335
stes 7333
Familien@@ 7332
Suche 7331
ven 7331
Zwe@@ 7329
tion. 7328
Ac@@ 7327
Einfluss 7327
Länder, 7326
Krieg 7325
be, 7324
spar@@ 7324
zuletzt 7322
kommt. 7321
woll@@ 7321
Polen 7320
markt@@ 7317
28@@ 7315
tsp@@ 7314
voller 7314
Standards 7313
tiv 7309
Regel 7306
D-@@ 7300
Union. 7298
anz 7298
erklär@@ 7294
unabhängig 7293
ow@@ 7283
UND 7282
entlich 7282
no 7280
Musik 7274
wal@@ 7273
zw@@ 7273
frei@@ 7269
Anpassung 7265
festgelegt 7258
aufgenommen 7257
isierung 7257
anti@@ 7252
Leistungen 7250
tiert. 7245
spezifischen 7238
helfen 7236
liefer@@ 7234
fte 7233
Regelungen 7232
nächste 7232
Multi@@ 7226
o-@@ 7226
me. 7223
gre@@ 7222
alte 7221
weiß, 7220
1998 7217
umfasst 7216
por@@ 7215
IP@@ 7212
beschäf@@ 7209
punkt 7209
Internationalen 7208
Ka@@ 7205
getan 7205
Delegation 7204
Jahrhunder@@ 7204
:00 7203
beschränk@@ 7202
Kollegen! 7201
antwor@@ 7199
Geb@@ 7197
sag@@ 7196
Gr@@ 7194
gn@@ 7193
führenden 7192
lit@@ 7192
Res@@ 7191
größeren 7191
Berichte 7189
Präsidentin! 7189
Partei 7188
umfassenden 7186
stehen, 7183
Osten 7182
d'@@ 7182
satz@@ 7182
gro@@ 7179
steht, 7177
verwal@@ 7174
bewer@@ 7172
behörden 7170
ste, 7160
you 7160
Haltung 7159
Verringerung 7159
els 7158
tere 7157
Homepage 7155
Schwe@@ 7147
ände 7146
Nieder@@ 7144
BIP 7143
ator 7143
Hel@@ 7139
O-@@ 7138
Banken 7137
Anti@@ 7136
Währungs@@ 7136
Har@@ 7135
sollten, 7131
änder@@ 7127
strategie 7126
Lehr@@ 7122
Finanzierungs@@ 7120
könn@@ 7119
Ukraine 7118
ien. 7118
lat@@ 7118
greif@@ 7114
keit, 7113
ker 7105
ler@@ 7101
rasch 7097
verbundenen 7096
realis@@ 7095
speziell 7090
IG@@ 7086
nachhaltigen 7084
sämtliche 7084
win@@ 7083
Veränderungen 7081
Ir@@ 7077
Warum 7077
AC@@ 7074
(C@@ 7073
's 7071
Lesung 7070
its 7070
selbstverständlich 7069
bereit, 7065
darüber, 7064
27 7062
Bildungs@@ 7061
Justiz 7060
gegenwärtigen 7059
17 7053
kenn@@ 7050
Irland 7047
enzen 7046
Vorbereitung 7045
Inhalte 7043
jährlich 7043
Spieler 7040
Fischerei 7039
betrieb@@ 7035
Achtung 7027
ner, 7027
anten 7026
Mel@@ 7024
laden 7024
teilt 7024
Friedens@@ 7022
vergleich@@ 7022
о@@ 7021
sicherlich 7017
Dat@@ 7016
einander 7014
trägt 7014
Abkommens 7012
wirk@@ 7012
Person@@ 7010
Empfehlung 7008
län@@ 7008
Grundsatz 7006
Mobil@@ 7004
dem, 7003
öpf@@ 7000
Auffassung, 6999
Tor@@ 6999
richtigen 6997
freiheit 6996
ili@@ 6996
vorliegenden 6995
richtlinie 6994
optim@@ 6992
u. 6992
Post@@ 6985
beschlossen, 6985
nung 6979
Nachbar@@ 6977
Teile 6977
waren. 6973
del@@ 6972
Menge 6970
Schiff@@ 6968
.. 6967
miteinander 6965
Bru@@ 6961
Ansicht, 6960
Festlegung 6960
Verkehr@@ 6959
Datei 6957
tig. 6957
durchaus 6953
drück@@ 6951
Kommission. 6950
Ele@@ 6948
dig 6947
EW@@ 6946
Unterkategorien 6944
gr@@ 6940
Bal@@ 6939
legen, 6934
str@@ 6934
zahlen 6932
kul@@ 6927
miss@@ 6923
tätig 6923
gewährleistet 6922
jederzeit 6921
Ha@@ 6920
legung 6918
fälle 6916
braucht 6914
Sommer 6911
hauptsächlich 6910
glichen 6905
mp@@ 6904
ents 6902
Fu@@ 6901
heim@@ 6901
Fin@@ 6900
Dem@@ 6899
Musik@@ 6899
Windows 6898
brauch@@ 6890
konnten 6888
erten 6887
Benutz@@ 6884
Prüf@@ 6875
Hersteller 6874
Karte 6874
Fer@@ 6873
erklärte 6873
Wi@@ 6871
201@@ 6866
Haus@@ 6863
vorgelegt 6863
britischen 6862
sicher, 6861
licherweise 6860
Span@@ 6859
gte 6858
ierungen 6855
Zentral@@ 6851
Bas@@ 6848
klein@@ 6840
000@@ 6838
hätten 6837
mö@@ 6836
liert 6835
mich, 6834
sier@@ 6834
dien@@ 6833
aussch@@ 6829
Nicht@@ 6827
Israel 6826
beg@@ 6823
gesehen 6821
belieb@@ 6818
Produkten 6816
genug 6814
besteht, 6812
sion 6812
solcher 6811
gestimmt. 6810
OL@@ 6805
Vielzahl 6805
hör@@ 6803
Wohl@@ 6802
Mu@@ 6798
Zeichen 6797
igung 6796
en- 6795
regel@@ 6794
Augen 6788
Grundsätze 6786
tieren. 6784
kop@@ 6783
werden@@ 6781
Sek@@ 6777
verpflich@@ 6777
usw. 6775
2-@@ 6773
6.@@ 6772
Regional@@ 6771
stimme 6771
IL@@ 6769
san@@ 6769
(B@@ 6766
Volk 6765
August 6761
Erhöhung 6760
Lie@@ 6757
amp@@ 6757
1-@@ 6756
5.@@ 6756
kontrol@@ 6755
Pressemitteilung 6753
irgend@@ 6750
Dennoch 6749
ingen 6748
sprech@@ 6742
Österreich 6740
Berlin 6738
ert. 6734
versuchen, 6734
einfach@@ 6732
rit@@ 6729
land, 6728
inform@@ 6726
tisch@@ 6726
weiß 6725
+ 6723
erheblich 6723
erwartet 6723
Design 6722
Information@@ 6719
tern, 6718
Kommunikation 6716
anische 6716
27@@ 6713
fr@@ 6709
ausdrücklich 6708
verbreit@@ 6705
Boo@@ 6702
voran@@ 6699
netz@@ 6696
bit@@ 6694
hier@@ 6694
Schad@@ 6693
sicht 6693
Angebo@@ 6691
heits@@ 6691
not 6691
leistungs@@ 6688
ub@@ 6686
met@@ 6685
schaft, 6684
Personal 6683
Versch@@ 6679
gegenwärtig 6678
geschlossen. 6678
erte 6675
zuständige 6674
Technologi@@ 6671
Küche 6669
Mau@@ 6669
Risiken 6669
wenigen 6669
anderes 6667
zugunsten 6667
onn@@ 6665
Produkt 6662
basier@@ 6662
60@@ 6661
ere@@ 6659
AP@@ 6649
Bestandteil 6647
AG@@ 6644
che, 6644
wel@@ 6644
Verpflichtung 6643
Mitte 6641
Standard@@ 6640
Agentur 6638
kürz@@ 6633
dungen 6631
Mitgliedern 6629
stellte 6628
starken 6625
ziehen. 6624
Priorität 6623
getroffen 6621
gewährleisten, 6620
dat@@ 6619
Hälfte 6617
Em@@ 6614
Hause 6611
anders 6609
Absch@@ 6607
Europa@@ 6605
wo@@ 6605
f, 6601
Nun 6600
verantwortlich 6598
nutzen, 6596
Parlament, 6595
rechtliche 6595
Formen 6593
hand@@ 6593
Phase 6592
iten 6592
ten: 6592
einig@@ 6591
KMU 6590
ick@@ 6590
aller@@ 6588
Kindern 6586
möchten, 6584
treffen 6584
wie@@ 6582
Leider 6581
rau@@ 6579
Kommissarin 6578
): 6574
fal@@ 6568
Menschen@@ 6567
keits@@ 6567
Industrie@@ 6564
verbessern 6563
Afri@@ 6561
hinter@@ 6554
erwarten 6553
bern 6545
reg@@ 6545
dro@@ 6544
Hö@@ 6542
inn@@ 6537
Abschließend 6530
Bedürfnisse 6530
etz@@ 6529
schlägt 6528
relativ 6527
spezifische 6527
möglich. 6526
weist 6524
Funktionen 6523
leben@@ 6523
Vol@@ 6522
stat@@ 6520
Fü@@ 6519
Sitz@@ 6519
Teilnahme 6519
geltenden 6519
sicht@@ 6514
Druck@@ 6511
Maßnahme 6507
ges 6507
ks 6507
300 6505
Waren 6504
Status 6502
spor@@ 6502
dliche 6501
ca 6500
Pres@@ 6498
demokratische 6498
legen. 6497
sagte 6497
humanitäre 6493
Paket 6492
Verhältnis 6492
worden, 6491
Jetzt 6488
Aufgrund 6487
Jo@@ 6487
gl@@ 6486
beobach@@ 6481
werke 6480
off@@ 6478
Übernahme 6478
sofern 6477
H 6475
res 6475
struktur@@ 6475
ion@@ 6474
notwendig, 6474
dennoch 6473
art 6470
Währung 6469
Vielen 6464
klär@@ 6464
70 6463
sobald 6463
zustellen. 6463
staaten 6462
Deutsch@@ 6460
laufen 6460
Aktionen 6459
Staat@@ 6457
itä@@ 6457
EG 6454
genießen 6453
lig@@ 6452
L-@@ 6449
zeugen 6449
Atmosphäre 6448
globale 6448
Maße 6447
ds 6447
führer 6446
seite 6446
gigen 6443
Zweitens 6442
kur@@ 6440
schau@@ 6440
digung 6439
handel@@ 6439
dar, 6438
Berufs@@ 6437
Stimme 6436
verein@@ 6435
fördern 6431
the@@ 6427
kra@@ 6421
lige 6421
Sprachen 6420
sollen, 6418
Stellung 6417
Meinung, 6413
1997 6410
Welche 6407
lieren, 6406
Del@@ 6404
lik@@ 6403
Gesetz 6402
Laufe 6402
EIB 6401
abl@@ 6393
3,@@ 6392
Geh@@ 6391
enheit 6388
ana 6387
reis@@ 6387
s: 6387
unterstütz@@ 6387
übersch@@ 6387
akzep@@ 6385
junge 6384
tenen 6379
losen 6378
trag 6378
wichtigste 6378
Bis 6377
luss@@ 6376
Kam@@ 6374
Land, 6374
Bedarf 6373
t) 6370
wür@@ 6370
Schwerpunkt 6369
el. 6369
Liberalisierung 6367
kom@@ 6366
AB@@ 6365
zy@@ 6365
Risik@@ 6364
berg 6363
erzeug@@ 6363
wiesen 6355
fu@@ 6354
Strategien 6353
denken 6353
offen 6346
bestimm@@ 6344
ungen@@ 6343
Fo@@ 6342
deutsche 6341
Lauf@@ 6340
fordern 6338
enst@@ 6337
Bedenken 6336
W 6336
21 6335
II 6335
enden, 6335
Betrieb 6334
zentrum 6328
Haup@@ 6327
fiz@@ 6326
treten. 6326
ständigen 6324
sum@@ 6324
cker 6320
regelmäßig 6316
we 6314
bildung 6312
Bur@@ 6310
Wirkung 6309
verkehr@@ 6309
ft. 6308
2011 6306
Organis@@ 6306
ente, 6306
rechts@@ 6306
wirtschaf@@ 6303
age@@ 6301
ung) 6296
Such@@ 6294
Irak 6288
benötigen 6281
erfüllt 6281
ationen, 6276
ni@@ 6276
our 6275
Leute 6271
wählen 6271
Far@@ 6269
Fehl@@ 6269
Lei@@ 6269
zü@@ 6269
Komm@@ 6268
tik 6268
Z 6267
1, 6265
Proz@@ 6265
in. 6265
35@@ 6263
medi@@ 6259
Ben@@ 6257
vollständige 6257
enti@@ 6254
produz@@ 6254
Mach@@ 6253
euch 6253
täglich 6251
gewährleisten. 6249
ments 6248
Tätigkeiten 6247
Forderungen 6245
jungen 6242
Finanzen 6241
Tur@@ 6239
stellungen 6238
Vertrag@@ 6236
Webseite 6234
Jahr@@ 6232
3. 6227
80@@ 6227
bestell@@ 6226
that 6225
Hü@@ 6222
Ziel, 6222
wünsch@@ 6221
Afrika 6220
ay@@ 6217
Management 6216
Klicken 6214
italienischen 6213
bezug 6212
wissenschaftlichen 6212
schaften 6210
Modell 6206
künftig 6204
Titel 6203
(A@@ 6202
olo@@ 6202
Infrastruktur 6201
196@@ 6199
bri@@ 6199
isch-@@ 6199
." 6198
ve@@ 6194
lü@@ 6192
zeigt, 6190
Fern@@ 6189
ausschusses 6189
dan@@ 6188
Aktionsplan 6186
Gro@@ 6185
weltweiten 6185
absolut 6183
gruppen 6181
leisten 6181
positiven 6181
entwickeln 6179
koordin@@ 6179
kraft 6179
nden 6177
Ku@@ 6175
DE@@ 6173
dient 6173
ermöglichen 6172
glich 6172
E-Mail 6171
keinerlei 6171
Portugal 6170
denke 6169
veränder@@ 6166
Seine 6165
1/@@ 6161
mittels 6161
wäre, 6154
dritten 6152
gering@@ 6151
halten@@ 6150
Anwendungen 6149
Bade@@ 6149
Sehr 6145
art@@ 6144
iens 6141
Arbeitslosigkeit 6137
Raum@@ 6125
Stu@@ 6124
Zimmer@@ 6123
SCH@@ 6122
Erklärungen 6121
ard@@ 6121
Forderung 6120
spezielle 6120
EG-@@ 6119
atur 6119
hn@@ 6119
Welt. 6118
Computer 6117
wodurch 6115
ga@@ 6113
schein@@ 6112
mern 6105
assen 6104
berech@@ 6104
woh@@ 6101
folgen 6097
verkauf@@ 6097
Universität 6095
ierungs@@ 6093
van 6093
Meter 6092
private 6092
schließen. 6091
asi@@ 6087
ons 6086
Austausch 6080
ate@@ 6080
1996 6079
Tex@@ 6075
denken, 6075
room 6070
90@@ 6068
ie. 6067
inen 6067
lichkeiten 6067
Kollegen, 6066
bleiben. 6064
Einbeziehung 6061
Gast@@ 6060
Wirk@@ 6060
gelöst 6059
nutz@@ 6059
Nachfolgend 6058
überall 6058
Mehr 6057
Europ@@ 6056
ut 6056
Herz@@ 6055
Studie 6052
bekommen 6050
geschlossen 6049
gerich@@ 6047
ierter 6044
tig, 6041
ban@@ 6040
f. 6039
Rede 6037
ent. 6036
Bra@@ 6035
Japan 6034
welchen 6032
ase 6030
erklärt 6030
liz@@ 6030
Park@@ 6028
ehemaligen 6028
einzigen 6027
zusätzlich 6026
Wes@@ 6024
gar@@ 6024
tigt. 6023
Effizienz 6022
erheb@@ 6020
EU, 6019
Nachdem 6016
erhebliche 6015
va 6015
lebens@@ 6014
., 6013
enten, 6013
großes 6013
sten, 6012
Reaktion 6010
were 6007
diejenigen, 6006
gutes 6005
seh@@ 6005
verstehen 6005
betreffend 6004
sieben 6004
Herausforderung 6002
Globalisierung 6000
id 6000
programms 6000
Sorge 5999
Städte 5999
zen@@ 5998
ano 5996
weisen. 5993
ise 5991
San@@ 5988
Entwickl@@ 5985
gaben 5984
ierenden 5982
uner@@ 5981
vertreten 5981
mis@@ 5980
Wissen 5979
bestimmt 5979
Berichterstatterin 5978
bemerk@@ 5977
Gemein@@ 5976
tern@@ 5975
Verhandlungs@@ 5974
systems 5970
90 5969
beitragen, 5967
schwer@@ 5965
künftige 5962
Beitritts@@ 5958
Termin@@ 5958
behörde 5958
bring@@ 5958
erforderlich, 5958
gefördert 5957
Maß@@ 5956
Iran 5951
Trotz 5951
freuen 5949
= 5947
Europäer 5947
ID@@ 5946
fen. 5946
übernachten? 5944
Sub@@ 5942
ermöglichen, 5942
let@@ 5942
bü@@ 5939
ette 5937
Familien 5936
voraus@@ 5936
unge@@ 5935
dagegen 5934
hinweisen, 5930
Euro-@@ 5927
Tatsache 5924
pen@@ 5924
Kat@@ 5922
.“ 5920
har@@ 5919
anwend@@ 5917
tigten 5917
wesentliche 5917
gesellschaft 5916
könnten. 5911
Les@@ 5909
Interess@@ 5908
Adresse 5907
Problemen 5907
schwe@@ 5906
Beim 5905
verständ@@ 5905
ig, 5904
jene 5904
Wo@@ 5903
kürzlich 5902
–@@ 5899
tene 5898
beruh@@ 5896
wohn@@ 5896
Gesam@@ 5894
tiert, 5894
Mat@@ 5890
forder@@ 5886
gige 5884
länger 5884
bekann@@ 5883
Unabhängigkeit 5882
hau@@ 5882
Straße 5881
jen@@ 5878
os@@ 5877
punk@@ 5876
untersuch@@ 5871
Prin@@ 5869
online 5869
wä@@ 5869
Fort@@ 5868
i. 5868
е@@ 5868
jahr@@ 5866
Test@@ 5862
aktive 5862
verpflichtet, 5862
gerech@@ 5861
zusätzlichen 5861
Met@@ 5859
bilden 5859
Forsch@@ 5858
elles 5857
akt 5856
Idee 5852
Jugend@@ 5852
tell@@ 5852
Abgeordne@@ 5851
Drogen@@ 5851
wach@@ 5850
Ide@@ 5848
leich@@ 5848
schönen 5847
entwicklung 5846
konkreten 5846
liebe 5846
pre@@ 5844
Rad@@ 5839
ku@@ 5839
); 5833
bereiche 5833
fragen, 5833
29@@ 5832
Sen@@ 5832
angemessene 5831
une 5831
Gegensatz 5830
2020 5829
Kir@@ 5829
ys 5827
International 5825
daraus 5824
dige 5824
sorgen 5824
benutzt 5823
19 5820
Verbrauch@@ 5819
Normen 5818
grund@@ 5818
fo@@ 5815
aufmerksam 5814
dienen 5814
institutionellen 5814
ME@@ 5810
Bereitstellung 5809
Konferenz@@ 5808
Teilen 5808
lierten 5807
hatte. 5806
SA@@ 5803
plat@@ 5802
teilen. 5801
ings 5800
kennen 5800
will@@ 5800
SE@@ 5799
Gericht 5797
Wal@@ 5797
2, 5795
II@@ 5793
bestimmter 5793
veranstal@@ 5793
eröff@@ 5792
Wider@@ 5790
a) 5789
zogen 5789
Park 5786
würden. 5786
zunehmend 5785
ED@@ 5784
Autom@@ 5783
Führ@@ 5775
trau@@ 5775
Elemente 5774
spanischen 5771
gliche 5770
Des@@ 5767
Konzep@@ 5766
ic 5766
eng 5763
nachzu@@ 5763
Einsatz@@ 5761
Gästebewertungen 5761
hoher 5761
3-@@ 5757
weiteres 5755
vorbe@@ 5754
Fel@@ 5753
langfristige 5753
spä@@ 5752
höhere 5751
Flu@@ 5748
Innen@@ 5747
с@@ 5747
Dienstleistungs@@ 5744
alle@@ 5744
fand 5744
bal@@ 5743
uss 5743
zugleich 5743
35 5742
befürwor@@ 5741
ton 5737
T-@@ 5736
Zeiten 5736
bild@@ 5736
Son@@ 5735
Herren, 5734
mb@@ 5734
berich@@ 5733
Red@@ 5732
EU-Mitgliedstaaten 5731
tieren, 5731
barer 5728
buch@@ 5723
sionen 5717
stä@@ 5716
unmittelbar 5715
heißt, 5712
2012 5711
echte 5711
speziellen 5710
garanti@@ 5709
ar, 5708
steh@@ 5708
grenz@@ 5707
preis 5706
Eisenbahn@@ 5705
Gesetz@@ 5705
beitragen 5705
Insel@@ 5704
Tr@@ 5704
rier@@ 5704
seitens 5698
Mü@@ 5696
kann@@ 5696
bei. 5694
spricht 5694
itäten 5692
Kl@@ 5691
Jeder 5688
Stand@@ 5685
persönlich 5685
Projekt@@ 5684
weite 5684
Besucher 5682
1995 5680
Sanktionen 5678
ahn@@ 5677
spek@@ 5677
dienst 5675
fern@@ 5675
haften 5675
ergänz@@ 5671
Fortschritt 5670
Gal@@ 5668
Meiner 5667
Win@@ 5667
ger, 5667
fs 5666
fle@@ 5664
Diskriminierung 5663
verstärkt 5662
Dimension 5660
hängt 5659
mess@@ 5659
ße 5657
dazu, 5656
Prinzip 5655
100@@ 5653
Kommissions@@ 5653
Körper@@ 5652
Leistungs@@ 5652
weisen, 5652
Fuß@@ 5651
Regierungs@@ 5651
laufenden 5649
schließ@@ 5648
Ländern, 5646
(EN) 5645
Meinungs@@ 5645
Rumänien 5642
в@@ 5642
Spezial@@ 5639
Eigen@@ 5638
tlicher 5635
schw@@ 5634
zentralen 5634
lim@@ 5632
möchte, 5631
zo@@ 5630
ante 5628
danach 5628
&@@ 5626
ment 5625
Vereinbarungen 5623
zurück 5621
Nam@@ 5618
offenen 5618
Aspekt 5617
ologie 5617
lichem 5616
kraft@@ 5615
Paris 5613
dem@@ 5606
nern 5603
Direk@@ 5599
überzeugt, 5599
fühl@@ 5597
tour@@ 5596
Dadurch 5595
wirtschaftlicher 5595
iere 5592
2013 5590
Datenschutz@@ 5590
Restaurants 5590
Hilfs@@ 5588
Institu@@ 5588
Leistung 5586
4. 5582
rechten 5582
schließen, 5580
4-@@ 5579
Wachstums@@ 5578
Pf@@ 5577
Dem 5576
ativ@@ 5575
entspricht 5574
wesen 5574
ssystem 5573
Niveau 5572
sub@@ 5570
Drittländern 5568
führende 5567
klar, 5567
grundlegenden 5563
nehmer 5563
ausreich@@ 5562
ates 5559
einfache 5559
Schweden 5558
Fälle 5556
einzelne 5556
erlaubt 5555
Ihnen, 5553
erinnern, 5553
kämpf@@ 5552
Genehmigung 5550
@@@ 5545
genommen. 5545
nisse, 5545
anc@@ 5543
Tab@@ 5542
fällen 5542
glaub@@ 5540
Unterschiede 5539
u.a. 5538
regeln 5537
Abend 5535
Berich@@ 5535
Europa. 5534
hafte 5534
gangen 5531
tar@@ 5531
wichtiges 5531
Bau 5530
führte 5530
wär@@ 5529
Mail@@ 5528
stieg 5527
Erzeugnisse 5525
Sü@@ 5520
icht 5518
vorge@@ 5516
haltung 5515
gehenden 5513
soweit 5513
22 5510
Urteil 5510
ade 5510
alter 5510
haft 5509
traditionellen 5508
UR@@ 5507
genommen, 5507
bekannten 5506
Straf@@ 5504
mod@@ 5504
Atom@@ 5499
System@@ 5499
und/oder 5497
Tour@@ 5496
beteiligt 5494
Bad 5493
politisch 5493
Fernseh@@ 5491
Zahlungs@@ 5490
Teilnehmer 5489
leis@@ 5489
Ausbau 5488
erschein@@ 5488
herunter@@ 5488
ändern 5488
Ebenso 5487
preise 5487
verfüg@@ 5487
Gemeinsame 5486
Nachfrage 5486
sonst 5486
bauen 5485
meist 5485
vers@@ 5484
Deutschland, 5483
gest@@ 5483
Da@@ 5481
Mittelpunkt 5481
ligen 5481
Bei@@ 5480
Präsident@@ 5480
sach@@ 5480
guter 5477
hoffe 5476
Lö@@ 5475
geschä@@ 5475
Großbritannien 5473
Motor@@ 5473
Verwirklichung 5472
Winter@@ 5472
lag 5472
Vi@@ 5471
positiv 5471
Minister@@ 5470
empf@@ 5468
Begriff 5464
zählen 5464
198@@ 5462
Syste@@ 5462
halb 5461
hän@@ 5461
proz@@ 5460
und, 5460
breite 5458
Date@@ 5457
wiederum 5457
Tran@@ 5455
Krisen@@ 5450
Sitz 5450
komplett 5450
Erstens 5448
einheitlichen 5445
fl@@ 5445
reise 5442
stein 5442
Gi@@ 5441
gem@@ 5441
nehm@@ 5437
Entscheidungs@@ 5434
Militär@@ 5433
Flexibilität 5432
Umständen 5432
verursach@@ 5432
us, 5431
Anlagen 5429
nütz@@ 5429
stri@@ 5429
nieder@@ 5428
Leist@@ 5427
könnte, 5426
lei@@ 5426
tung. 5425
Führung 5424
Risiko 5423
Unternehmens 5423
lung 5423
prüfen, 5422
unden 5422
Dr. 5419
Monat 5419
DE 5416
Netz 5415
Zahlen 5414
sagte, 5414
Wettbewer@@ 5413
unterstützt. 5412
Dienst 5410
Unternehmen@@ 5409
dam@@ 5409
intensi@@ 5404
out 5404
Super@@ 5403
dau@@ 5403
fü@@ 5402
genen 5401
Strom@@ 5399
pas@@ 5399
öff@@ 5398
verfol@@ 5396
ach 5394
arten 5394
gend 5393
Texte 5392
yp@@ 5391
verwenden 5389
ischen, 5388
Kooperations@@ 5386
Star@@ 5385
westlichen 5383
Villa 5382
nutzen. 5382
Bon@@ 5381
Holz@@ 5381
hö@@ 5380
Go@@ 5377
Sil@@ 5377
persönliche 5377
integrier@@ 5376
halt 5375
Indien 5374
Entwicklung, 5372
Personen, 5371
zuvor 5370
2) 5368
Ap@@ 5368
Plan 5368
stoffen 5368
Ob@@ 5361
sätze 5361
land: 5360
sprache 5360
vorbereit@@ 5360
scher 5358
teilen, 5358
eingeführt 5357
verkehrs@@ 5357
such@@ 5356
Infrastruktur@@ 5355
gehend 5355
Bestell@@ 5354
Verständnis 5354
co 5354
zus@@ 5354
inzwischen 5352
far@@ 5350
ken, 5350
5. 5349
Fortschrit@@ 5348
Kauf@@ 5347
Lan@@ 5346
liegen. 5339
öl@@ 5339
Voraussetzung 5338
Mil@@ 5336
Verträge 5336
vorgesehenen 5335
ziehen, 5334
gestal@@ 5331
gewisse 5331
nunmehr 5331
klicken 5330
ron@@ 5328
aktualis@@ 5327
Punk@@ 5326
gemeinschaftlichen 5326
Russ@@ 5325
manchmal 5323
Bar 5322
Verbesserungen 5321
Größe 5319
Mobilität 5319
ausreichend 5319
freund@@ 5318
OS@@ 5317
br@@ 5316
digt 5316
stadt 5316
wiederhol@@ 5315
gemacht. 5314
fäl@@ 5312
''@@ 5311
zeichen 5310
ert, 5309
schie@@ 5308
gekommen 5305
zähl@@ 5305
is. 5304
der. 5303
Kosten@@ 5302
Name 5302
amen 5301
betonen, 5300
Chance 5299
behinder@@ 5299
ett@@ 5299
gut, 5295
eten 5294
kulturelle 5291
verpflichtet 5290
ierende 5289
wiss@@ 5288
Nutzer 5286
Zweifel 5286
Gre@@ 5284
d.h. 5284
uf@@ 5284
fil@@ 5283
Char@@ 5282
die, 5282
glich@@ 5282
mangel@@ 5279
Ideen 5276
Farb@@ 5275
ater@@ 5275
Gründung 5273
Kosovo 5271
selbst@@ 5271
S. 5270
Zielen 5270
dürfte 5269
а@@ 5269
Schweiz 5268
zeichn@@ 5266
Bed@@ 5265
Sam@@ 5265
asse 5264
gebo@@ 5263
ing. 5261
Video@@ 5260
ok@@ 5260
«@@ 5259
fähig 5257
prozesses 5257
Mikro@@ 5256
vorgesehen 5255
will, 5255
ied@@ 5254
sei@@ 5253
verfolgt 5253
menschlichen 5252
ausgestattet 5251
bestehende 5251
spielt 5251
sprechen. 5248
Pan@@ 5247
(+32 5246
stehende 5246
Film@@ 5245
Worte 5243
spür@@ 5243
Vom 5241
Reise@@ 5239
icht@@ 5239
sal@@ 5239
wirksam 5239
...@@ 5238
19. 5236
LE@@ 5236
informiert 5234
sage 5233
Dienst@@ 5232
kräf@@ 5232
soll@@ 5232
Installation 5231
llen 5231
ton@@ 5231
tru@@ 5228
MO@@ 5227
Kirche 5225
übermittel@@ 5225
unternehmen, 5223
Welt, 5222
Grunde 5221
praktisch 5221
Kunst 5220
Tag@@ 5220
ck, 5218
international 5218
natürlichen 5218
entwickelten 5216
Verbot 5215
SS@@ 5213
richten 5213
Übergangs@@ 5213
I-@@ 5212
Verbreitung 5212
geleistet 5210
formen 5209
Pap@@ 5208
liegenden 5208
abhängig 5207
linie 5204
gestat@@ 5202
Y 5201
andererseits 5200
fläche 5200
breit@@ 5199
strategischen 5198
produktion 5196
70@@ 5195
Ohne 5195
habe. 5194
schaff@@ 5193
Harmonisierung 5192
terung 5191
Patienten 5190
3) 5188
schreiben 5187
Beihilfe 5185
Antworten 5183
damals 5181
9.@@ 5179
hel@@ 5178
veröffentlicht 5176
fizierung 5174
Ausland 5173
kompliz@@ 5172
sprachen 5172
schneller 5171
Ereignisse 5170
1) 5169
our@@ 5168
Grundrechte 5167
Alp@@ 5166
benutz@@ 5166
engag@@ 5164
zurückge@@ 5163
8.@@ 5159
teilung 5159
keiten, 5158
wann 5157
abgeschlossen 5154
Kritik 5153
%. 5152
Moment 5151
bewusst 5151
wirksame 5150
Struktur 5149
Mod@@ 5147
keiner 5147
Kontrollen 5145
kin@@ 5145
entier@@ 5144
les@@ 5143
zwing@@ 5143
Nahen 5142
ks@@ 5142
schlag@@ 5141
sozi@@ 5140
stan@@ 5140
Aktiv@@ 5139
Anbieter 5138
freundliche 5138
AD@@ 5135
ne. 5134
All 5133
entwurf 5133
Wegen 5131
dokum@@ 5131
welt 5131
feld 5128
füll@@ 5126
Rund@@ 5124
schöne 5124
pri@@ 5123
berühmten 5122
ete 5121
j 5121
Insbesondere 5120
bieten. 5120
erwar@@ 5119
lesen 5115
ober@@ 5115
ser 5115
flü@@ 5114
entgegen@@ 5113
gh@@ 5113
Rechts 5112
VI@@ 5111
kurzem 5110
Definition 5108
Demokrati@@ 5108
gewähr@@ 5105
zeu@@ 5105
Kombination 5104
Pra@@ 5104
go 5104
Vorschlägen 5102
genehmig@@ 5101
grundlegende 5101
führt. 5099
bahn 5096
SI@@ 5095
amerikanische 5095
Diskussionen 5094
St. 5093
bezieh@@ 5093
tisches 5092
Ter@@ 5090
(G@@ 5087
gs@@ 5086
hat@@ 5085
keiten 5084
Golf@@ 5083
bekämpfung 5083
ideale 5080
x-@@ 5076
this 5075
Sozi@@ 5074
begrenz@@ 5073
person@@ 5073
Partnern 5071
ber, 5071
darstellt. 5071
UN-@@ 5070
7.@@ 5068
Booking.com: 5068
bereich@@ 5068
tenden 5068
DA@@ 5066
Politiker 5065
Letz@@ 5062
erkennen 5060
Dollar 5059
Sonn@@ 5059
al-@@ 5058
allgemein 5057
ichten 5057
but 5056
derartige 5056
regelung 5054
schwierigen 5054
This 5053
rate 5053
tur 5053
höchste 5052
» 5052
zei@@ 5051
Modernisierung 5049
so, 5049
DIE 5048
sek@@ 5046
Rel@@ 5044
32 5043
Presse@@ 5043
bewahr@@ 5041
wünsche 5040
fällt 5039
cken@@ 5038
liegt. 5037
hoffen, 5036
erkennen, 5035
Entwicklungsländern 5034
Telefon@@ 5034
bürger@@ 5033
ffen 5032
Reise 5031
Kraft@@ 5030
elektronischen 5029
Gewährleistung 5028
techn@@ 5028
cken, 5027
struktur 5027
Methode 5024
EF@@ 5023
deut@@ 5021
Bedeutung, 5020
Hauses 5020
sto@@ 5019
Kra@@ 5018
Strukturfonds 5018
früher 5018
erkenn@@ 5017
Erd@@ 5016
gesetzt, 5015
attrak@@ 5014
lam@@ 5014
zuständig 5013
früheren 5012
siehe 5010
IK@@ 5009
Allgemeinen 5008
zählt 5008
kleiner 5006
28 5005
Recht, 5003
Ph@@ 5001
My@@ 4999
Schl@@ 4998
treib@@ 4991
20. 4989
Zivilgesellschaft 4989
en“ 4989
Beratungen 4988
ermöglichen. 4988
Vo@@ 4987
Beiträge 4986
Schlaf@@ 4985
Syn@@ 4984
zurück. 4984
nis. 4983
Sicherheit@@ 4982
mäßig 4981
Gespräche 4979
Klimawandel 4978
Vorgehen 4977
anhand 4977
begleit@@ 4977
esch@@ 4976
verur@@ 4976
vielmehr 4976
Führungs@@ 4975
ath@@ 4975
Fraktion. 4974
cu@@ 4973
ilen 4973
ets 4972
tierung 4972
dritte 4971
Zusatz@@ 4969
en). 4966
umfass@@ 4966
Kurz@@ 4965
Indi@@ 4963
Mitgliedschaft 4962
ore 4960
Vir@@ 4959
betrachtet 4958
mein@@ 4958
Jahrhunderts 4957
Chi@@ 4954
treten, 4954
fördern, 4952
ute 4952
Mand@@ 4951
haus 4951
liegen, 4951
Methoden 4949
OS 4947
gehör@@ 4947
Fuß 4946
Fein@@ 4943
Inhal@@ 4941
Aussicht 4940
Verkauf 4939
Vertrags@@ 4938
Bedeutung. 4936
Auftrag 4935
gewesen 4935
ir 4935
Grenze 4934
äum@@ 4934
stimmen 4933
Betriebs@@ 4932
Famili@@ 4930
Projekten 4930
unter: 4930
Bulgarien 4929
früh@@ 4929
stoff 4928
Terror@@ 4924
schaft. 4924
..." 4919
23 4919
aden 4919
gene 4919
iso@@ 4919
unterstütze 4917
ret@@ 4916
heutige 4914
enh@@ 4913
Kop@@ 4909
sm@@ 4909
neuesten 4908
Trans@@ 4907
tief@@ 4907
WTO-@@ 4906
bieten, 4906
heiten, 4906
testen 4905
wohl@@ 4905
lokale 4904
š@@ 4904
Vier@@ 4900
einerseits 4900
ars 4899
blick@@ 4897
sel 4897
Hor@@ 4896
Staaten, 4893
Botschaft 4892
fest 4892
jährigen 4892
lierte 4892
eben@@ 4891
esten 4891
Mitgliedstaaten. 4890
ns 4890
vorgeschlagene 4890
’@@ 4888
Kommunikations@@ 4886
abhäng@@ 4886
ig. 4886
vorgeschlagen 4885
gebracht, 4884
Steuern 4882
fähig@@ 4882
Justiz@@ 4881
erscheint 4881
vollkommen 4881
beizu@@ 4880
be. 4878
echten 4877
val@@ 4877
erer 4876
tak@@ 4876
Generation 4875
bl@@ 4874
hr 4874
Zeich@@ 4873
have 4873
festgelegten 4871
pel 4870
weisung 4870
Einstellung 4868
Mün@@ 4868
g-@@ 4868
ther@@ 4868
Abfall@@ 4867
na 4866
Lag@@ 4865
Flü@@ 4864
höheren 4862
ip@@ 4862
ou 4862
Rich@@ 4861
ken@@ 4861
Landwirte 4859
aten, 4859
Tiere 4858
Gemeinschaft@@ 4857
beantwor@@ 4857
ak 4856
bedau@@ 4856
ständige 4856
bung 4855
flu@@ 4855
verschiedener 4852
tab@@ 4851
entschieden 4850
Märkten 4849
Nich@@ 4846
Entschließungsantrag 4844
l'@@ 4844
erweise 4842
präsentier@@ 4842
lus@@ 4841
lig 4839
EA@@ 4837
qualität 4837
Haf@@ 4836
2/@@ 4835
45 4835
graph@@ 4835
Beschlüsse 4833
beige@@ 4833
75 4831
(P@@ 4829
Angriff 4827
Le 4827
tag 4827
Programmen 4826
schnell@@ 4826
Mitgliedsta@@ 4824
Pl@@ 4824
Spe@@ 4823
begrüßen 4823
B-@@ 4822
Forum 4820
»@@ 4819
Beschäftig@@ 4817
Gener@@ 4816
mil@@ 4816
gewährt 4813
Verfügbarkeit 4810
herrsch@@ 4810
rach@@ 4810
Kommissarin, 4808
enden. 4808
д@@ 4808
fern 4806
wären 4806
zeich@@ 4806
Verhalten 4804
iste 4804
Agrarpolitik 4803
entfern@@ 4802
güns@@ 4801
herzlich 4801
Belgien 4798
TV 4797
nis, 4797
Veröffentlichung 4796
erneu@@ 4796
spe@@ 4793
Film 4792
beeindruck@@ 4792
räume 4792
Ministerin 4791
höchsten 4791
Medien@@ 4790
Tages@@ 4789
bie@@ 4788
5-@@ 4787
Einkaufs@@ 4787
as. 4787
ens. 4787
Anlage 4786
London 4786
Asyl@@ 4785
Anschluss 4783
zimmer 4782
Ham@@ 4781
ats 4778
entspann@@ 4778
Parlaments, 4777
diejenigen 4776
Gebäu@@ 4775
Nahrungsmittel@@ 4775
objek@@ 4775
Mer@@ 4773
Mittelmeer@@ 4772
exis@@ 4772
verantwor@@ 4771
Hauptstadt 4770
teils 4770
welt@@ 4769
Air@@ 4763
instal@@ 4763
Internet-@@ 4762
Tatsächlich 4762
begrüß@@ 4762
ino 4762
l. 4761
Zug@@ 4759
Amt 4758
entscheidender 4757
na@@ 4757
ppe 4757
stimm@@ 4756
chinesischen 4755
See 4754
Them@@ 4750
IS 4749
on-@@ 4749
flug@@ 4748
Vizepräsident 4746
ursprünglichen 4746
igkeiten 4743
besitz@@ 4741
beteiligten 4739
Sektoren 4737
tt 4737
37@@ 4735
Technik 4735
genauso 4735
wissenschaftliche 4735
nahezu 4734
sinn@@ 4734
Dor@@ 4733
ré@@ 4733
y. 4733
Arbeitsplätzen 4732
rein@@ 4732
für@@ 4731
politik. 4730
(N@@ 4729
Sim@@ 4729
mitge@@ 4729
Kenn@@ 4727
Auto 4726
weitgehend 4726
Erwartungen 4725
reicht 4725
genehmigt 4721
geändert 4721
beziehen, 4720
teilt. 4720
tigungen 4720
Tit@@ 4719
pol@@ 4719
ziele 4719
Kompromiss 4718
richtung 4718
.) 4717
geführt. 4716
gebracht. 4715
einzel@@ 4714
Fähigkeiten 4713
Hohen 4713
wert@@ 4713
merk@@ 4712
tein@@ 4712
historische 4711
mes 4711
s) 4711
Zahl@@ 4710
industri@@ 4710
mm 4710
wander@@ 4709
standards 4708
werden? 4708
Konzer@@ 4707
läuft 4707
ass 4706
stellt, 4706
Ungarn 4705
fass@@ 4703
Geschäft@@ 4700
angemessen 4700
0.@@ 4699
Aufsichts@@ 4699
Beruf@@ 4699
MP@@ 4699
Erfüllung 4698
Museum 4698
ja, 4698
Übereinstimmung 4698
Charta 4696
Miss@@ 4695
Vorschlags 4694
leisten. 4693
Darlehen 4691
wan@@ 4689
pflich@@ 4688
weshalb 4688
Pen@@ 4687
rin@@ 4687
erhält 4686
Rat, 4685
Spar@@ 4685
Gründe 4684
aktiven 4682
greifen 4681
lös@@ 4681
Ausnahme 4680
Off@@ 4680
fan@@ 4680
druck@@ 4678
gestern 4677
sorgt 4677
Entwicklungsländer 4676
IF@@ 4676
9/@@ 4675
Val@@ 4674
Willen 4674
erfordert 4672
statt@@ 4672
Wissenschaft 4671
bislang 4670
Mein 4669
hil@@ 4666
Beseitigung 4664
Sehenswürdigkeiten 4663
atoren 4663
Lab@@ 4661
Fran@@ 4658
zimmer, 4658
Fi@@ 4657
car@@ 4657
Unterkunft 4656
Anwend@@ 4655
versucht, 4653
geworden 4652
ka@@ 4652
wirkt 4651
pi@@ 4648
ñ@@ 4648
land. 4647
36@@ 4646
6. 4645
Anstieg 4644
Verbindungen 4644
bahn@@ 4643
€@@ 4642
Schlusselwortern, 4641
Gesetzgebung 4640
Weg@@ 4640
Binnenmark@@ 4639
AU@@ 4637
dlich 4637
ierung, 4636
,00 4635
notwendige 4635
vel@@ 4635
entscheidende 4634
Gestaltung 4633
jahr 4632
Bericht, 4630
Cre@@ 4630
beginnt 4630
geräum@@ 4630
offensichtlich 4630
heben 4629
Design@@ 4628
Ausarbeitung 4625
Beratung 4624
Zahlungen 4623
gkeit 4622
beach@@ 4621
beruf@@ 4619
gü@@ 4619
inner@@ 4619
plan 4619
pon@@ 4618
kor@@ 4617
tierten 4617
unde 4617
Zwischen@@ 4616
e" 4616
sitz@@ 4615
wagen 4615
Besuch@@ 4614
Bor@@ 4614
Vorteil 4610
Vari@@ 4608
erforder@@ 4608
gezeigt, 4608
vorgeschlagen, 4608
tigt, 4607
zustellen, 4607
Anliegen 4605
Beispiele 4604
gehalten 4604
Charakter 4602
Ob 4602
21. 4600
Links 4600
betroffen 4600
gebiete 4600
Strukturen 4599
bitten, 4599
tun@@ 4598
Roh@@ 4597
aufgefordert, 4597
Untersuchungen 4596
gesetzt. 4596
Schlusselwortern 4595
una 4594
Abgeordnete 4593
Oper@@ 4593
produkte 4593
wünschen 4593
liegt, 4592
ät@@ 4592
26 4591
zeichnet 4590
3/@@ 4589
Experten 4588
sichere 4587
Licht 4584
Vielleicht 4583
sagt 4583
on. 4582
wid@@ 4582
elektronische 4581
Real@@ 4580
Roll@@ 4580
famili@@ 4579
Arbeitsmarkt 4577
nochmals 4577
Hol@@ 4575
Wird 4575
3, 4574
Stil 4574
absch@@ 4574
Gesetze 4570
and. 4569
derung 4569
erwähn@@ 4566
russischen 4564
letz@@ 4563
schrift 4563
%@@ 4561
Che@@ 4561
tiver 4561
unten 4560
spann@@ 4556
änden 4556
Erhaltung 4555
esen 4555
Berichterstat@@ 4553
Neue 4553
26@@ 4550
Dan@@ 4550
Kü@@ 4550
are@@ 4550
ke. 4550
vereinbar@@ 4544
Barcelona 4542
profi@@ 4540
würdig@@ 4540
Standard 4539
kanischen 4539
LA@@ 4538
davon, 4536
Informationen, 4535
World 4534
lernen 4534
beton@@ 4533
näher 4533
BER@@ 4532
ings@@ 4532
Fon@@ 4531
direkten 4530
zerstör@@ 4530
Fähigkeit 4529
fon@@ 4529
hinaus@@ 4529
spielen. 4529
м@@ 4525
(F@@ 4523
ergriffen 4523
ziemlich 4522
Mrd. 4521
yn@@ 4521
Automobil@@ 4520
begrün@@ 4520
Program@@ 4519
schaf@@ 4519
Österreich@@ 4516
enthalten. 4515
EUR@@ 4514
garantiert 4514
niedri@@ 4514
rö@@ 4514
zugänglich 4514
teren 4513
Vers@@ 4512
ses 4512
unverzüglich 4507
kontrolle 4506
trags 4506
innovative 4505
park 4505
gut@@ 4504
Buch 4503
Ster@@ 4503
EIN@@ 4501
verantwortungs@@ 4501
bra@@ 4498
ren 4498
isen 4497
Maß 4496
freu@@ 4496
bru@@ 4495
vereinfach@@ 4495
beinhaltet 4494
Luxemburg 4493
Wil@@ 4493
Komfort 4491
Amsterdam 4490
satzes 4490
hatten, 4489
städ@@ 4489
Zugriff 4488
mat@@ 4487
eigen@@ 4486
rie@@ 4486
Gelegenheit, 4485
Tal@@ 4484
keiten. 4484
Unions@@ 4482
Fang@@ 4481
versucht 4481
voranzu@@ 4481
US 4480
Schrift@@ 4479
omm@@ 4479
bekommen. 4478
forsch@@ 4478
Dritt@@ 4476
Tradition 4476
humanitären 4474
äm@@ 4473
Gemeinschaften 4471
Dokumente 4470
Umwel@@ 4470
Zuständigkeit 4470
handelt, 4469
Ab 4468
eigenes 4468
Konz@@ 4466
zufrieden 4466
Vereinfachung 4465
x, 4465
dra@@ 4463
Aktion 4461
beträgt 4461
reser@@ 4461
ENT@@ 4458
Kapit@@ 4458
Realität 4458
Stein@@ 4457
Umgang 4457
zusammenzu@@ 4457
Schw@@ 4456
UNG@@ 4456
Objek@@ 4455
auch@@ 4455
erfolgreiche 4455
imm@@ 4455
oh@@ 4455
EU. 4453
Fraktionen 4452
glauben, 4451
Übersch@@ 4451
Politiken 4450
illegalen 4450
pass@@ 4450
Fak@@ 4449
wirken 4448
Beihil@@ 4447
Des 4446
bean@@ 4446
Angebote 4445
bewäl@@ 4445
form 4445
gemacht, 4445
beur@@ 4444
üch@@ 4444
grundsätzlich 4443
able 4442
gere@@ 4442
ump@@ 4442
Emissionen 4441
Standor@@ 4441
strategische 4441
entwickeln. 4440
hilfe 4440
Best@@ 4439
bestä@@ 4438
diskrimin@@ 4437
fein@@ 4437
stands@@ 4437
wollte 4437
alle, 4436
erfüllen 4436
gebaut 4436
erfahr@@ 4434
Fotos 4433
Option 4433
ideal 4432
Nacht 4431
sauber@@ 4431
sozialer 4429
gegeben. 4428
Posi@@ 4427
geeignete 4426
(die 4424
Frankreich, 4424
195@@ 4422
luß 4422
Dies@@ 4421
enger 4421
verfügbar 4420
versuchen 4420
Jedes 4418
forschung 4418
Lern@@ 4417
R-@@ 4417
Ansch@@ 4416
entwickeln, 4414
lichkeit, 4414
eingerichtet 4413
Tabak@@ 4412
oren 4412
verhindern, 4411
Business 4410
bereichen 4410
Geschäftsordnung 4409
betreib@@ 4409
deiner 4409
Alt@@ 4408
LI@@ 4408
hervorragende 4408
service 4408
effek@@ 4407
Sign@@ 4406
ue 4406
zweifellos 4406
Net@@ 4405
eit@@ 4405
übernehmen 4405
Netzwerk 4404
Firmen 4403
Vertretern 4403
beschreib@@ 4403
nahme@@ 4403
jedoch, 4401
minister 4401
Vorbe@@ 4400
fun@@ 4400
verhält@@ 4400
Dokum@@ 4399
Sport 4399
Straß@@ 4398
EH@@ 4397
anstatt 4397
glück@@ 4397
UNGEN 4396
ländliche 4396
see 4396
bildet 4395
drän@@ 4394
reit@@ 4394
Auftrag@@ 4390
üh@@ 4389
tigungs@@ 4386
vorhandenen 4386
sions@@ 4384
4/@@ 4381
behandel@@ 4381
entwickelt. 4381
finanziert 4380
fähigen 4380
sicherung 4380
q@@ 4378
geeignet 4376
verleih@@ 4375
teste 4374
con 4373
gegebenenfalls 4373
trotzdem 4373
erfolgreichen 4372
gehende 4372
enge 4370
öst@@ 4370
Serie 4369
Reduzierung 4368
Gästen 4367
Eis@@ 4366
fügt 4365
effiziente 4364
Kooperation 4363
schri@@ 4362
Herren 4361
Vereinigte 4361
direkte 4361
räger 4361
verwand@@ 4361
Transport@@ 4360
ole 4360
Denk@@ 4359
Inseln 4359
führt, 4358
get@@ 4358
sicherstellen, 4358
verfügbaren 4358
Bewer@@ 4357
4,@@ 4356
priv@@ 4356
Instrum@@ 4355
Ess@@ 4352
SO@@ 4352
einheit@@ 4349
Club 4347
Verteidigung 4346
hergestellt 4346
Frau@@ 4345
blo@@ 4345
brech@@ 4344
management 4344
Veranstaltungen 4343
errich@@ 4343
gesellschaften 4343
ro 4343
IP-@@ 4342
Hei@@ 4340
mitten 4340
De 4339
Ski@@ 4337
sten. 4336
Spezi@@ 4335
igen, 4335
niemals 4335
Dialo@@ 4334
Männer 4334
Sollte 4334
niemand 4333
entscheiden, 4332
Tu@@ 4330
erhöht 4330
gig 4330
wertung 4330
1994 4329
Rent@@ 4328
ehemalige 4328
konferenz 4328
bre@@ 4327
issen 4327
Gegenstand 4326
breiten 4325
lieren 4325
ungser@@ 4324
Zustand 4323
ausgezeichnete 4323
Qual@@ 4321
suchen, 4321
französische 4319
Kontakt@@ 4318
Veranstaltung 4318
würden, 4318
iß@@ 4317
Krank@@ 4316
bezahl@@ 4316
A) 4315
Kategorie 4314
britische 4314
genannte 4314
Dauer 4313
Herr@@ 4312
KM@@ 4312
danken 4312
tern. 4311
kurze 4310
FR@@ 4309
Gol@@ 4308
beschleunig@@ 4308
schaft@@ 4308
vieler 4308
Schaden 4307
45@@ 4306
ai@@ 4306
enes 4305
räum@@ 4305
bewe@@ 4303
position 4301
CA@@ 4300
Gästebewertungen. 4300
A, 4298
arbeitet. 4297
wirken. 4297
Geheim@@ 4296
229-@@ 4295
Gleichgewicht 4295
PR@@ 4295
Sit@@ 4295
Ze@@ 4295
bisherigen 4295
langfristigen 4293
4) 4292
dlichen 4290
feststellen, 4289
top@@ 4289
alistischen 4287
eth@@ 4287
Gri@@ 4285
Mc@@ 4285
tho@@ 4285
Mann 4284
vorher@@ 4284
isten, 4282
werden: 4280
bei, 4279
Kroatien 4278
geprüft 4278
teil. 4278
Bri@@ 4276
Datenbank 4275
El 4275
Organe 4275
entdeck@@ 4274
gen: 4274
einz@@ 4273
letztlich 4273
nor@@ 4272
Kunde 4271
endung 4271
erhöh@@ 4270
tliches 4270
Europa-@@ 4268
verbesser@@ 4268
wonach 4267
Betrag 4265
wirksam@@ 4264
erstellt 4263
herr@@ 4262
internen 4262
tionen. 4262
ologi@@ 4261
verbessern, 4261
l, 4260
fris@@ 4258
Ausführungen 4257
Konflikt 4256
bestehen, 4256
eingeleit@@ 4256
quote 4256
gal@@ 4255
38@@ 4254
betre@@ 4252
histor@@ 4251
Praktiken 4250
weiten 4248
yl@@ 4247
ausgezeichneten 4245
erwähnt 4245
verkehrs 4244
Up@@ 4243
ur, 4243
Abschnitt 4240
Eng@@ 4237
maß@@ 4237
rechtlich 4236
setzt. 4235
mati@@ 4234
ums@@ 4231
Höchst@@ 4229
zes 4229
11. 4228
Br@@ 4227
Sin@@ 4227
dit@@ 4227
groß 4227
Ra@@ 4226
welchem 4226
Fragen, 4225
Mitarbeit@@ 4225
bur@@ 4225
ju@@ 4225
Pass@@ 4224
bestätigt 4224
Kno@@ 4223
Dialogs 4221
Lizenz@@ 4221
hne 4221
Poli@@ 4220
kostenlos 4220
wäre. 4220
fallen. 4219
licht 4219
ausgestattet. 4218
dr@@ 4218
einheitliche 4218
genau@@ 4218
7. 4217
Brenn@@ 4217
menschliche 4217
ändern. 4217
öffentlicher 4217
Bahn@@ 4216
Kann 4216
WTO 4216
zuerst 4216
mischen 4215
ast 4214
vari@@ 4213
trägen 4212
Besonders 4211
muß. 4211
ss 4211
Westen 4210
lad@@ 4210
Nah@@ 4209
400 4208
od@@ 4208
tem@@ 4208
zusammen. 4208
Dort 4207
Stahl@@ 4206
etc. 4206
posi@@ 4206
schä@@ 4205
Wirtschaftswachstum 4204
Landes@@ 4203
Zwecke 4203
anerkann@@ 4203
sen, 4202
Mitglieds@@ 4201
richtet 4201
Milch@@ 4200
beherrsch@@ 4200
Geist 4199
Herstell@@ 4199
Umweltschutz@@ 4199
5, 4198
geber 4198
unbe@@ 4196
bequem 4195
Krankheiten 4194
hlen 4194
gesprochen 4193
rei@@ 4193
werden; 4192
Halb@@ 4191
sper@@ 4191
Beweis 4190
ik, 4190
Gesellschaften 4188
pool 4188
renz@@ 4188
entlang 4187
fak@@ 4187
F-@@ 4186
Erstellung 4185
Kas@@ 4185
Sommer@@ 4185
Völker@@ 4185
beitragen. 4184
profitieren 4184
schnelle 4181
8. 4180
frem@@ 4179
schönsten 4179
dürfen. 4177
ütz@@ 4177
Besitz@@ 4176
fri@@ 4176
unterschied@@ 4176
schlag 4175
che@@ 4174
ht 4174
Lau@@ 4172
wirtschaftlich 4172
mehr. 4171
Prozess@@ 4169
Sachver@@ 4169
last 4169
General@@ 4168
IN 4168
Besorgnis 4167
griechischen 4167
(z.B. 4166
Beteiligten 4166
IR@@ 4166
derzeitige 4166
geln 4166
UM@@ 4165
nachdrücklich 4165
ry 4165
klaren 4163
2015 4162
Sonnen@@ 4162
Ausführung 4160
Site 4160
beschlossen 4160
deutsch@@ 4159
sicheren 4159
Notwendigkeit, 4158
begann 4158
einfachen 4158
erstmals 4158
Nummer 4157
Raums 4157
integrierten 4155
lagen, 4155
mittleren 4155
Süden 4154
bestand 4154
Immobilien@@ 4153
Fr@@ 4152
Massen@@ 4152
Meer@@ 4152
ada 4151
Est@@ 4150
ste. 4150
Konsultation 4149
Semin@@ 4148
geschützt 4148
unternommen 4148
Norden 4147
loss@@ 4147
niveau 4147
Ital@@ 4146
benötigt 4146
ätz@@ 4144
Frist 4142
Binnenmarktes 4141
Marktes 4141
Wirklichkeit 4138
lands 4138
griffen 4137
Material 4136
gratu@@ 4133
verstehen, 4133
Bewegung 4132
Mutter@@ 4132
tele@@ 4132
Glück@@ 4131
deckt 4131
Absicht 4130
bank@@ 4130
emp@@ 4130
vollständigen 4130
‑@@ 4129
Inform@@ 4127
ring@@ 4127
к@@ 4127
Boden@@ 4125
Handeln 4125
Pu@@ 4121
Strategi@@ 4121
schaften, 4121
genannt 4120
besonderer 4119
geplanten 4118
höher 4118
hören 4118
lieren. 4118
Handels 4117
züge 4117
angemessenen 4116
dungs@@ 4115
Apartments 4114
th 4114
Video 4112
seiten 4112
Erde 4111
Hil@@ 4111
Verbrechen 4111
schwierig 4111
Freizeit@@ 4110
projekte 4110
Persön@@ 4109
ließ@@ 4109
4, 4108
Rechn@@ 4108
Schule 4108
kombin@@ 4108
lösen 4108
Faktoren 4107
Gebrauch 4107
Sinn 4107
anlagen 4107
vollem 4107
Königreich@@ 4105
iff@@ 4105
recht@@ 4105
uß@@ 4105
Kapitel 4103
geste@@ 4103
überwach@@ 4103
punkte 4101
Chin@@ 4099
tlich@@ 4099
Hintergrund@@ 4098
ausschuß 4098
tum 4098
unabhängigen 4097
könnten, 4090
veröffentlich@@ 4090
interessier@@ 4088
EP@@ 4087
solange 4087
Völker 4086
Websit@@ 4086
Beide 4085
Waffen@@ 4085
he. 4085
hoff@@ 4085
ische, 4085
bekannt, 4083
organ@@ 4082
Ministerium 4081
Grupp@@ 4079
Pe@@ 4079
Personal@@ 4079
vorschlag 4078
Musi@@ 4077
Services 4076
prüfen 4076
ungefähr 4076
Presse 4075
extrem 4073
Trau@@ 4072
vergessen, 4072
Liebe 4071
aktiv@@ 4071
technik 4071
Glob@@ 4070
ergreifen, 4070
–, 4070
Abstimm@@ 4069
Anfragen 4068
AUS@@ 4067
Ach@@ 4067
fik@@ 4067
sieren 4067
sorgfältig 4067
Amerika 4066
stärkere 4066
Beziehung 4065
Pri@@ 4065
stütz@@ 4065
zahlung 4065
erin 4064
Ausbildungs@@ 4063
erfüllen. 4063
Je@@ 4062
bedeutende 4062
bevorzu@@ 4062
150 4061
Ordnung 4060
Tod 4059
seien 4059
Alter 4058
Zentr@@ 4057
en.@@ 4056
leben, 4056
Hier@@ 4055
Can@@ 4054
Waren@@ 4054
chn@@ 4054
194@@ 4053
Aufenthal@@ 4053
Formular 4053
Kun@@ 4051
bestimmungen 4051
angeht, 4050
unterbreit@@ 4049
ähnliche 4049
Hotel, 4048
einschlägigen 4048
reduz@@ 4048
ruhigen 4048
erhol@@ 4047
Sicherung 4046
sodass 4045
Typ@@ 4044
erb@@ 4042
kurzen 4042
ätze 4042
erreich@@ 4041
praktische 4041
Stunde 4040
fordere 4040
regionaler 4040
militärischen 4039
Errichtung 4038
Ruhe 4038
bietet. 4037
herz@@ 4037
verletz@@ 4036
Schäden 4035
Regierungschefs 4034
om 4034
wichtig@@ 4034
Bürger, 4033
Wirksamkeit 4033
ail@@ 4033
macht. 4033
t" 4033
wissenschaf@@ 4033
Lang@@ 4032
Erreichung 4030
Rumän@@ 4030
ordn@@ 4030
verbin@@ 4030
out@@ 4029
ausführ@@ 4028
berat@@ 4028
Dru@@ 4026
Not@@ 4026
stand, 4026
Ratsvorsitz 4025
dé@@ 4025
dern, 4024
ele@@ 4023
vorhanden 4023
Garten 4022
besser@@ 4022
grenzüberschreitenden 4022
netz 4021
riesigen 4018
wehr@@ 4018
Will@@ 4017
bekämpf@@ 4016
staat 4016
ine@@ 4015
Ehr@@ 4014
flä@@ 4014
beteili@@ 4013
("@@ 4012
gestellte 4011
interess@@ 4009
angenommen. 4008
Microsoft 4007
ion 4007
Wellness@@ 4006
te-@@ 4006
muß, 4005
Männern 4003
ermu@@ 4002
ly 4002
Hochschul@@ 4001
6/@@ 4000
gemeinschaft 3999
anspruchs@@ 3998
Noch 3997
empfehl@@ 3996
Train@@ 3995
isten@@ 3995
mus 3994
Chancen 3992
18. 3991
Kontext 3991
tierte 3991
eres 3990
erwer@@ 3990
schafft 3990
treff@@ 3990
Durchsetzung 3989
Hy@@ 3989
Planung 3988
ester 3987
See@@ 3986
zun@@ 3986
Versicherungs@@ 3985
jegliche 3985
renn@@ 3985
Punkten 3984
karte 3984
ssi@@ 3984
%, 3983
11.@@ 3983
Kollege 3983
behör@@ 3983
teilungen 3983
Bereich@@ 3982
Behinder@@ 3980
erforderlich. 3980
Cap@@ 3979
Regierungskonferenz 3978
Fl@@ 3977
digitalen 3977
an: 3976
beding@@ 3975
besitzt 3974
dischen 3974
beste@@ 3973
institutionelle 3972
ECU 3971
ismus, 3971
tau@@ 3971
Regime 3970
verabschiedet 3970
Et@@ 3969
esti@@ 3969
EIT@@ 3964
dies@@ 3964
lichen, 3962
che. 3961
schützen. 3960
verlang@@ 3960
Schu@@ 3959
Gem@@ 3958
Sto@@ 3958
Dek@@ 3955
laut 3955
zone 3955
enthaltenen 3954
Abschaffung 3953
links 3953
Uhr@@ 3952
8/@@ 3951
9. 3951
Adres@@ 3951
Werk 3951
Wohlstand 3951
Schön@@ 3950
Stimm@@ 3950
л@@ 3949
langfristig 3948
möchten. 3947
sie@@ 3947
Freund@@ 3946
Seit@@ 3946
gewährleisten 3946
Wir@@ 3945
Wirtschaft, 3945
trifft 3944
Steigerung 3943
stände 3943
Vorsitzes 3941
liefert 3941
Erholung 3939
Firmen@@ 3939
Beispiel@@ 3937
Speicher@@ 3937
Waffen 3937
offiziellen 3937
Altstadt 3936
jährige 3936
lern 3936
tung@@ 3936
IT-@@ 3935
Studien 3935
vis@@ 3935
zip@@ 3935
Liber@@ 3934
linien 3934
wäch@@ 3934
schlagen 3933
Unterschied 3930
eingehalten 3929
funktioniert 3929
Eigenschaften 3928
(200@@ 3925
kehr 3925
Dom@@ 3924
Elektro@@ 3924
appel@@ 3924
lic@@ 3922
Erfol@@ 3921
Erweiter@@ 3921
Richt@@ 3921
Senkung 3921
darf. 3921
Ba@@ 3920
Fir@@ 3920
alo@@ 3920
bauen, 3919
einf@@ 3919
nu@@ 3919
pr@@ 3919
angebo@@ 3917
leitung 3917
Bemerkungen 3916
erstat@@ 3916
mensch@@ 3916
ursprünglich 3916
Gedanken 3914
wachsenden 3914
angespro@@ 3913
Körper 3912
Afghanistan 3910
Dre@@ 3910
Fitness@@ 3910
Initiativ@@ 3910
weiß@@ 3910
Pla@@ 3908
Arbeit, 3907
Haftung 3907
Män@@ 3907
Parlam@@ 3906
ov@@ 3906
up 3906
graf@@ 3905
wil@@ 3903
ähr@@ 3903
leistungen 3902
Flüchtlinge 3901
Problem, 3901
(in 3900
Staats- 3900
iertes 3900
leistung 3899
Hinter@@ 3898
trans@@ 3898
Vertrau@@ 3897
Schweiz@@ 3896
PC 3895
Plattform 3895
gä@@ 3894
Tourismus 3893
projek@@ 3893
Google 3892
erleb@@ 3892
Jede 3891
Rückkehr 3890
Bedrohung 3889
neid@@ 3889
versorgung 3887
Element 3886
heiß@@ 3886
gegeben, 3885
sur@@ 3884
Ausstellung 3880
zeichnen 3880
Übergang 3880
gangs 3879
verlie@@ 3878
Konsens 3877
boo@@ 3876
gebühr@@ 3875
gefordert 3875
mir, 3873
Veranstal@@ 3872
Ag@@ 3870
fähige 3870
kohär@@ 3870
Kind 3869
ini 3869
trit@@ 3869
ten) 3868
jemand 3867
arbeitet, 3866
1992 3865
stands 3865
steu@@ 3865
einzigartige 3864
gegenüber@@ 3864
Verteidigungs@@ 3863
ame 3862
eren, 3861
kost@@ 3861
treffen. 3861
(FR) 3860
Landschaft 3860
char@@ 3859
Ara@@ 3858
Freizügigkeit 3858
Polizei@@ 3858
Sar@@ 3858
utz@@ 3857
Gott 3856
Star 3856
Umfeld 3856
Wei@@ 3855
gens 3854
tigkeiten 3853
Mann@@ 3852
oc@@ 3851
präsentiert 3851
т@@ 3851
burg 3850
Schrit@@ 3849
ativ 3849
ps 3849
rein 3847
deu@@ 3846
sogenannten 3846
stärk@@ 3846
Alternative 3845
geschrieben 3845
ausgewo@@ 3844
Mio 3842
ssyste@@ 3842
Fried@@ 3841
treffen, 3841
Gerichts@@ 3840
Pläne 3840
800 3838
$@@ 3837
Hoffnung 3837
Start@@ 3836
ica 3835
ruh@@ 3835
erei 3834
Muse@@ 3832
Brü@@ 3831
Gran@@ 3831
Haushal@@ 3831
angesprochen 3831
Zusätzlich 3830
Lam@@ 3829
Deswegen 3828
Informationen: 3828
Küste 3828
Zü@@ 3828
Energien 3827
Verwal@@ 3827
Gerichte 3826
Sollten 3825
austausch 3824
gezogen 3824
Finnland 3822
Gewal@@ 3822
Minder@@ 3822
Italien@@ 3821
hierzu 3821
interessante 3821
Analy@@ 3820
stätigkeit 3820
York 3819
buch 3818
wasser 3818
är 3818
č@@ 3818
Einkommen 3817
gas@@ 3816
Nä@@ 3815
solches 3815
stil@@ 3815
Chinas 3814
6, 3812
USA, 3812
Vertre@@ 3812
ßen, 3812
wichtig. 3811
Todes@@ 3810
-F@@ 3809
Fron@@ 3809
bleiben, 3809
entwickelt, 3809
Akteure 3808
Energies@@ 3808
einbezogen 3808
ften, 3807
hierbei 3807
respek@@ 3807
wirksamen 3807
") 3806
gender 3806
ka, 3806
1993 3804
Autor@@ 3804
ernst 3804
genutz@@ 3803
müs@@ 3803
doppel@@ 3800
fei@@ 3800
zweit@@ 3799
OM@@ 3797
Karten 3796
]]@@ 3796
geführte 3796
Deutschen 3795
ler, 3795
tö@@ 3795
Internationale 3794
Ressourc@@ 3793
39@@ 3792
Städten 3792
genügend 3792
Einwanderung 3791
M-@@ 3791
gewissen 3791
AK@@ 3790
Eig@@ 3789
dienen. 3789
ermöglicht, 3789
infolge 3789
vol@@ 3789
Kommun@@ 3788
großem 3787
Personen@@ 3786
bad 3786
finde 3786
überwin@@ 3786
port@@ 3784
=@@ 3783
bs@@ 3783
setzt, 3783
Ja, 3782
Je 3782
Sy@@ 3782
Werbe@@ 3782
wahlen 3782
gänge 3781
Fahrzeug@@ 3780
Freunde 3780
Zentralbank 3780
entfernt, 3780
währ@@ 3779
Spiele 3778
Staatssekretär 3778
druck 3778
kle@@ 3778
Ausgabe 3777
Center 3776
besteht. 3773
bekräf@@ 3770
atur@@ 3769
brauch 3769
mag@@ 3769
vereinbar 3769
Insgesamt 3768
ergeb@@ 3768
Parti@@ 3767
steigen 3767
tin@@ 3767
your 3767
verfolgen 3766
Link 3764
Lös@@ 3764
erheblichen 3764
maschin@@ 3764
weig@@ 3764
Reich@@ 3763
erfolgreich@@ 3763
legi@@ 3763
unabhängige 3763
Glas@@ 3762
Kontakte 3762
ands 3762
aren 3762
Cam@@ 3761
pul@@ 3761
qual@@ 3761
Schulden@@ 3759
Werbung 3759
Wirtschaft@@ 3759
ll 3757
Erzeug@@ 3756
Mangel 3756
rufen 3756
Optionen 3755
hü@@ 3755
net, 3755
sie, 3755
vorher 3754
Pop@@ 3753
vertrag@@ 3752
ble@@ 3750
DS@@ 3749
Kommissionsmitglied 3749
Städ@@ 3749
bezeichnet 3749
d.@@ 3749
sozial@@ 3748
Bahnhof 3747
stabil@@ 3747
gesell@@ 3746
CD@@ 3745
IV@@ 3744
Ton@@ 3743
landwirtschaftlichen 3743
Reg@@ 3742
hervor, 3742
ital@@ 3740
kund@@ 3740
ritten 3739
Saf@@ 3738
individuellen 3738
ms, 3738
FT@@ 3737
lichsten 3737
Stoffe 3736
effizient 3736
ind@@ 3736
teilt, 3736
Bou@@ 3735
Costa 3735
Überblick 3735
(und 3734
Prinzipien 3733
ungsh@@ 3733
Zus@@ 3732
Schiffe 3731
schreib@@ 3730
Zwei 3729
Anhang 3728
Offen@@ 3728
ell, 3728
sat@@ 3728
gle@@ 3727
ils 3727
mag 3726
uten 3723
Lebensmittel 3720
Na@@ 3720
Bestimm@@ 3718
anpass@@ 3718
betrach@@ 3718
15. 3717
Funktionieren 3717
Kol@@ 3715
Prozesses 3715
Jun@@ 3714
Sobald 3714
Geräte 3713
nötig 3713
Farben 3712
betont 3712
erei@@ 3712
ationen. 3711
Dam@@ 3710
fas@@ 3710
flo@@ 3710
macht, 3710
geführt, 3708
verloren 3708
Anlass 3707
can 3707
Gleichstellung 3706
Leb@@ 3706
Verletzung 3706
Wahrheit 3705
einrichtungen 3705
beachten 3704
handeln 3702
Aktion@@ 3701
Kontin@@ 3701
Erfahr@@ 3700
Mis@@ 3700
ON 3700
Worten 3700
aktivi@@ 3700
besuchen 3699
helfen. 3699
Cal@@ 3698
ahl 3698
straße 3698
Bucht 3697
ear@@ 3697
körper@@ 3697
Mus@@ 3696
Wahrung 3696
lüsse 3696
offene 3696
Kamer@@ 3695
zer 3695
reform@@ 3693
Zuge 3690
ker@@ 3690
Vertragsverletzungsverfahren 3689
ungen: 3689
nur, 3688
Überlegungen 3688
Schluss 3687
Wald@@ 3687
Wind@@ 3687
zahl 3687
gehol@@ 3686
pä@@ 3686
tende 3686
Don@@ 3685
8-@@ 3684
füg@@ 3684
angeboten 3683
Computer@@ 3681
ien: 3681
Ul@@ 3679
verehrte 3679
Comm@@ 3678
lage, 3678
station 3678
sektors 3677
konnte. 3676
tter 3676
zuzu@@ 3676
— 3676
ch. 3675
roman@@ 3675
iler 3674
Öffnung 3674
Hindernisse 3672
Tel@@ 3672
individuelle 3672
Bir@@ 3671
jenigen, 3671
stel@@ 3671
Ungleich@@ 3670
Funk@@ 3669
reich 3669
staatlicher 3669
verhindern. 3669
vermittel@@ 3668
Patent@@ 3667
Probleme, 3667
Rechnungs@@ 3667
gol@@ 3667
zieht 3667
Drittel 3666
Vorlage 3666
gehört, 3666
verlor@@ 3666
Foto 3665
AN 3664
äus@@ 3664
Andere 3663
Flä@@ 3663
anda 3661
spiel 3661
Klima 3660
Verteilung 3659
enschutz@@ 3659
TR@@ 3658
gebrau@@ 3658
nich@@ 3657
prob@@ 3657
Ausweitung 3655
Innovations@@ 3655
abe 3655
jährlichen 3655
(E@@ 3653
cker@@ 3652
Schau@@ 3651
Blu@@ 3650
hohem 3649
Plenum 3648
alt 3648
anschließend 3648
com@@ 3646
gebieten 3646
DES 3645
ever@@ 3645
warten 3645
BR@@ 3644
Garantie 3644
kostet 3644
umfangreiche 3644
Stadtzentrum 3643
via 3642
Servic@@ 3641
tungen, 3640
6) 3639
Frauen, 3639
reiche 3639
tex@@ 3639
Zypern 3638
Anbetracht 3637
Lieferung 3637
Mak@@ 3637
adi@@ 3637
bezieht 3637
dir 3637
reno@@ 3637
sichergestellt 3637
ähn@@ 3637
DER@@ 3636
dauer 3636
verwenden, 3636
UT@@ 3635
legte 3635
Boden 3633
Verarbeitung 3633
rank@@ 3633
29 3632
externen 3632
verfahr@@ 3632
Potenzial 3631
Runde 3631
kri@@ 3631
oper@@ 3631
Dra@@ 3629
Weit@@ 3629
erst@@ 3629
Last@@ 3628
Out@@ 3628
reisen 3628
Bewältigung 3626
arti@@ 3626
verschär@@ 3626
és 3626
Küsten@@ 3625
bauen. 3623
stück 3623
anerkannt 3622
33 3621
schön@@ 3621
Frankreich@@ 3620
etab@@ 3620
hierfür 3620
olog@@ 3620
Dank, 3619
Details 3619
geschätz@@ 3619
Gest@@ 3618
entstehen 3618
erfahren 3618
fordern, 3618
Sein 3617
fen@@ 3617
Mom@@ 3616
Verhandl@@ 3616
auff@@ 3615
Tür@@ 3614
entwickl@@ 3614
wirtschaftlich@@ 3614
Kohäsionspolitik 3613
hinder@@ 3613
Bestellung 3612
ignor@@ 3611
Pin@@ 3608
politisches 3608
will. 3608
erzielen. 3607
tin 3605
wirtschafts@@ 3605
geo@@ 3603
vereinbarten 3602
Übereinkommens 3602
basiert 3601
vorgelegten 3600
Format 3599
veran@@ 3599
lauf 3598
Verfahrens 3597
afrikanischen 3597
Französ@@ 3596
Komponenten 3596
vorgenommen 3596
rahmen 3595
erleben 3594
verabschie@@ 3592
vierte 3592
Delegationen 3591
ym@@ 3591
formu@@ 3590
anges@@ 3589
besuch@@ 3589
fallen, 3589
vorschläge 3589
ück@@ 3588
Futter@@ 3587
Problems 3587
Wirtschaftspolitik 3587
ausdrück@@ 3586
fassung 3586
harmonis@@ 3585
militärische 3585
Ausgangspunkt 3584
Ratspräsidentschaft 3584
enschaft 3584
gemeinsamer 3583
drit@@ 3581
übertragen 3581
Neben@@ 3579
besonder@@ 3579
bank 3578
schweren 3578
Drit@@ 3576
Urheber@@ 3576
mitzu@@ 3576
ologischen 3576
stal@@ 3576
sc@@ 3575
Mö@@ 3574
zehn@@ 3574
Hinweis 3573
virtu@@ 3573
wesentlicher 3573
Kilometer 3572
Materialien 3571
Zw@@ 3571
ign@@ 3571
regu@@ 3571
zugän@@ 3571
.00 3570
sten@@ 3570
Col@@ 3569
Dienstleist@@ 3568
stärken. 3567
9, 3566
Deutsche 3566
Einzelheiten 3566
ION@@ 3566
bungen 3564
etten 3564
erklärt, 3563
großzü@@ 3563
Hafen 3562
Schulen 3562
beruflichen 3562
bin, 3562
ha 3562
Code 3561
probleme 3561
theit 3561
ç@@ 3561
9) 3560
ativer 3560
Rechtsgrundlage 3559
schnit@@ 3559
traditionelle 3558
verwenden. 3557
Frü@@ 3556
ash@@ 3556
Michael 3555
Terra@@ 3554
anbelangt, 3554
7) 3553
Ren@@ 3553
ire 3553
nete 3552
kü@@ 3551
vergessen 3551
Selbst 3550
zulässi@@ 3550
Spitzen@@ 3548
konstruk@@ 3548
у@@ 3548
itäten, 3547
á 3547
Kriegs@@ 3546
Stück 3546
effektiv 3546
schlü@@ 3546
Start 3545
entscheidend 3545
Terrasse 3544
USS 3544
Weiteren 3544
bezogene 3544
bilateralen 3544
Fa@@ 3543
ausgesetzt 3543
Freude 3541
Maschinen 3541
Beste@@ 3540
Hom@@ 3539
irischen 3539
Selbstverständlich 3538
ausgaben 3538
Europe 3537
qui@@ 3537
ül@@ 3537
John 3536
cor@@ 3536
erhöhen. 3536
modern@@ 3536
(L@@ 3535
6-@@ 3535
App@@ 3535
Camp@@ 3535
Ti@@ 3533
gestütz@@ 3533
Intel@@ 3532
Wissenschaf@@ 3532
fördert 3532
tic@@ 3531
Eltern 3530
Softwar@@ 3530
ktion@@ 3530
Straßen 3529
darstellt, 3529
zweifel@@ 3529
era 3528
verstärkte 3528
len@@ 3525
Buchung 3523
handels@@ 3523
worfen 3522
н@@ 3519
ständig@@ 3518
ira@@ 3517
Industrie, 3516
itu@@ 3516
Gerä@@ 3515
stärken 3515
Übersetzung 3515
Dach@@ 3514
Marke 3514
übergreif@@ 3514
34@@ 3513
Lebens 3513
Med@@ 3512
Metho@@ 3511
Rö@@ 3510
klag@@ 3510
34 3509
Kriminalität 3509
Winter 3509
bekannte 3509
passier@@ 3509
täglichen 3509
Mission 3508
Parlaments@@ 3508
benen 3508
fes 3508
deutlich, 3506
> 3505
Dorf 3505
Europä@@ 3505
beginnen 3505
ändern, 3505
lo 3504
machte 3504
us. 3504
eindeu@@ 3501
politisch@@ 3501
verwendet. 3501
geplante 3500
länger@@ 3500
gerä@@ 3499
Werke 3498
geschehen 3498
handelt. 3498
kanische 3498
Brüssel, 3497
EL 3497
Grund, 3497
http://ec.europa.eu/@@ 3497
Cli@@ 3495
Kauf 3494
Telekommunikations@@ 3494
mm@@ 3494
optimale 3494
verk@@ 3494
übrigens 3494
Bestimmung 3493
Form@@ 3493
verarbeit@@ 3493
z-@@ 3493
kaufen 3492
Rede@@ 3491
hilft 3491
Materi@@ 3490
Ban@@ 3489
Funktion@@ 3489
eter 3489
greifen, 3489
schu@@ 3489
Techn@@ 3488
Tschechische 3488
Zusammenhalt 3487
gungs@@ 3487
Beschreibung 3486
organisationen 3486
steller 3486
Woh@@ 3485
verste@@ 3485
Bü@@ 3484
angegebenen 3484
%) 3483
Risiko@@ 3483
Eigentum 3482
iken 3482
verbo@@ 3482
bild 3481
technisch 3481
heu@@ 3480
lage. 3480
schützen 3480
atz 3479
karten 3479
mäßige 3479
31 3477
König@@ 3477
Mechanismen 3477
Region@@ 3476
Verlust 3476
gaben, 3476
Engl@@ 3475
Gebie@@ 3475
empfehlen 3475
spartner 3475
liste 3474
Tauch@@ 3473
nde 3473
Architektur 3472
Transport 3472
n: 3472
Vertrieb@@ 3471
5) 3470
hingewiesen, 3470
staff 3470
Fassung 3469
bekommen, 3469
sion, 3466
stag@@ 3466
Umweltschutz 3465
schlim@@ 3465
öffentlich 3465
natürliche 3464
Gewicht 3463
Mensch 3463
esischen 3462
sit@@ 3462
III 3461
ents@@ 3461
minim@@ 3461
fisch@@ 3460
Preisen 3459
in-@@ 3459
• 3458
Gemäß 3457
lungen 3456
Landwirtschaft, 3455
Mac@@ 3455
Unterzeichnung 3455
billi@@ 3455
den: 3455
sy@@ 3455
schick@@ 3454
Rückgang 3453
Außenpolitik 3452
Bildung, 3452
Speich@@ 3452
ann 3451
Grand 3450
befug@@ 3450
Enterprise 3449
Inkrafttreten 3449
Kurs 3449
Behörde 3448
Staates 3447
beschäftigt 3447
erfreu@@ 3447
nenn@@ 3447
Hohe 3446
letztendlich 3446
wähl@@ 3446
!@@ 3444
b, 3443
Kontak@@ 3442
Minderheiten 3442
Möglichkeiten, 3442
festgestellt 3442
turen 3442
Beschränkungen 3441
Bedien@@ 3440
aff@@ 3440
Rest 3439
unterstützt, 3439
Weise, 3438
dramati@@ 3437
olle 3437
transpar@@ 3437
Leitung 3436
Pati@@ 3435
aufgenommen. 3435
zeig@@ 3435
Transpor@@ 3434
ats@@ 3434
darstellen. 3434
nummer 3434
schlech@@ 3434
Nation@@ 3433
Pas@@ 3433
jetzigen 3433
Identität 3432
fr 3432
tari@@ 3432
Rou@@ 3431
brauchen, 3431
dach@@ 3431
Angel@@ 3430
angeleg@@ 3430
entwickelte 3430
(M@@ 3429
icher@@ 3429
ppen 3429
sehr, 3429
still@@ 3429
1990 3427
Kli@@ 3427
aten. 3427
äs@@ 3427
schwach@@ 3426
gestaltung 3425
Provinz 3424
Wiederaufbau 3424
griff@@ 3422
leisten, 3422
High@@ 3421
verlassen 3421
verursacht 3421
(H@@ 3420
Sä@@ 3420
de: 3420
Konkur@@ 3419
Morgen 3419
entscheiden 3419
5,@@ 3418
Handlungs@@ 3418
Stadt. 3417
neun 3417
organisierten 3417
ros 3417
ty@@ 3417
beschrieb@@ 3416
Log@@ 3415
17. 3413
Wesentlichen 3413
Zimmern 3413
G-@@ 3411
ance 3411
had 3411
Ern@@ 3409
hatten. 3408
mäß@@ 3408
Kampf@@ 3407
Verabschiedung 3406
ds, 3406
informationen 3406
tter@@ 3406
Back@@ 3404
Finanzkrise 3404
gab@@ 3404
sen. 3404
tage 3404
Energiever@@ 3403
krimin@@ 3402
Koordin@@ 3401
menten 3401
Websites 3400
leben. 3400
page 3400
Grad 3399
fügen 3399
glie@@ 3399
hören, 3399
Änderungsanträgen 3399
Auge 3398
good 3398
Italien, 3397
beispiel@@ 3397
gewi@@ 3397
gewöhn@@ 3397
stechn@@ 3397
Cha@@ 3396
Gefühl 3396
alles, 3396
fließ@@ 3395
ologische 3395
sei, 3395
unden. 3395
CD 3394
36 3392
Klar@@ 3392
einzelstaatlichen 3392
scheinen 3392
gebau@@ 3391
Amts@@ 3390
Bran@@ 3390
geni@@ 3390
el-@@ 3389
Mechanismus 3388
ende, 3388
los@@ 3388
umfassend 3388
City 3387
Geschäfte 3387
Kräfte 3387
dynam@@ 3387
indi@@ 3387
tives 3387
Institution 3386
hingegen 3386
kauf@@ 3386
2014 3385
Ware 3385
waff@@ 3385
Compu@@ 3384
PUNKTE 3384
Produktion@@ 3384
bus 3384
detail@@ 3384
As@@ 3383
disku@@ 3383
entar@@ 3383
gebor@@ 3383
sensi@@ 3383
spunk@@ 3383
trieben 3383
zukünftigen 3383
Versammlung 3382
Ziffer 3382
don@@ 3382
Chr@@ 3381
Vorschlag, 3381
praktischen 3381
Änderungsan@@ 3381
Tisch 3380
geeigne@@ 3380
Niederlande 3377
Verlauf 3377
Aqu@@ 3376
Ausmaß 3376
Wandel 3376
berücksichtigen 3376
Versorgung 3375
schwar@@ 3375
PH@@ 3374
Premierminister 3374
Referenz@@ 3374
C. 3373
Viertel 3373
Beschaff@@ 3372
ome@@ 3372
programmen 3372
rechtzeitig 3372
ange 3371
stärksten 3371
Gefahren 3370
Sicherheit, 3370
prak@@ 3370
schließt 3370
schule 3369
Dänemark 3368
Nachhaltigkeit 3368
aktu@@ 3368
enter 3367
studi@@ 3367
west@@ 3366
Tonnen 3365
mehr, 3365
Sektors 3364
geladen 3364
negativen 3363
Hostels 3362
besei@@ 3362
festgestellt, 3362
waffen 3362
erzielten 3361
syste@@ 3361
verteidig@@ 3361
OT@@ 3360
darf, 3360
veröffentlicht. 3360
vent@@ 3359
zz@@ 3359
Regierung, 3357
paket 3357
Stufe 3355
einzigar@@ 3355
Übertragung 3355
Wünsche 3354
16. 3352
EV@@ 3352
Großteil 3352
Wo 3352
bestre@@ 3352
förm@@ 3352
politik@@ 3352
Ausrichtung 3351
geschaff@@ 3351
Ander@@ 3350
ah 3350
en.“ 3349
xi@@ 3349
;@@ 3348
außerordentlich 3348
gewählt 3348
Pfer@@ 3347
bekannt. 3347
stör@@ 3347
zahlt 3347
Ganz 3346
at. 3345
strukturen 3345
Innov@@ 3344
jener 3344
suche 3344
п@@ 3344
Dusch@@ 3343
sa 3343
ya 3343
(„@@ 3342
Ebenen 3342
Eindruck 3342
Peter 3342
zeichnung 3342
5/@@ 3341
bek@@ 3341
berufliche 3341
sagen: 3341
ß, 3341
Fehler@@ 3340
Entlastung 3339
Tel.: 3339
alem 3339
bedürf@@ 3339
richten. 3339
manche 3337
möglich@@ 3337
zusammen, 3337
+32 3336
Fremden@@ 3336
allzu 3336
Fenster 3335
Tim@@ 3335
isiert 3334
stimmen. 3334
Newsletter 3333
vorschlä@@ 3333
Aspek@@ 3332
abkommens 3332
48 3331
Wien 3331
dich 3331
technologie 3331
Abhängigkeit 3330
ierung. 3330
läß@@ 3330
slo@@ 3328
zugs@@ 3328
Korruption 3327
behaup@@ 3327
übernimmt 3327
Einheit 3325
enc@@ 3325
uneingeschränkt 3325
Fahrzeuge 3324
atische 3324
my 3324
v. 3324
zielt 3324
Ausstattung 3323
tradition@@ 3323
ay 3322
Work@@ 3321
komme 3321
lick 3321
mut@@ 3321
rates 3321
straf@@ 3321
ung" 3320
üsse 3320
en), 3319
konzentrier@@ 3319
-T@@ 3318
normalen 3318
zurück, 3318
12. 3317
Atlan@@ 3317
Weiterentwicklung 3317
akzeptiert 3317
analy@@ 3317
schei@@ 3317
Gesundheit@@ 3316
rolle 3316
yste@@ 3314
Befugnisse 3313
Passag@@ 3313
erhielt 3313
8, 3312
Außen- 3312
faßt 3312
handel 3311
Rahmenbedingungen 3310
denden 3310
entscheidenden 3309
Erwä@@ 3308
aufen 3308
Prozent@@ 3307
getragen 3307
sehe 3307
schütz@@ 3306
10. 3304
Betrach@@ 3304
material 3303
senden 3303
Mas@@ 3302
Pak@@ 3302
Wa@@ 3302
seit@@ 3302
weltweite 3302
Botschaf@@ 3300
moder@@ 3300
pak@@ 3300
modell 3299
tre 3299
Download 3298
Rechtsstaatlichkeit 3298
Geschlech@@ 3297
Refer@@ 3297
geleis@@ 3297
Oder 3296
sagen. 3296
ten? 3296
Arbeitnehmer@@ 3295
Gerichtshofs 3295
Stim@@ 3295
berücksichtigen. 3295
sied@@ 3295
Energieeffizienz 3294
finanzierung 3294
Freihandels@@ 3293
beziehen 3293
weiterzu@@ 3293
Übersetz@@ 3293
frü@@ 3292
Schwellen@@ 3291
da, 3291
ski 3291
Ansichten 3290
Projekts 3290
Sel@@ 3290
meister@@ 3290
Haushaltsplan 3289
betreffen 3289
enth@@ 3289
genü@@ 3289
reibungs@@ 3289
transpor@@ 3289
zentren 3289
Protokolls 3288
diskutiert 3287
Bar, 3286
Somit 3286
größeres 3286
betroff@@ 3285
enschaf@@ 3285
Steuerung 3283
Die@@ 3282
We 3281
ahl@@ 3281
Abbau 3280
Heil@@ 3280
richten, 3280
Maria 3279
schlä@@ 3279
ff 3278
itz 3278
Alles 3277
Online 3277
Politik, 3277
eignet 3277
es-@@ 3276
At@@ 3274
Kr@@ 3274
ermittel@@ 3274
Stad@@ 3273
Versorgungs@@ 3273
erklären, 3273
ors 3273
müß@@ 3272
vous 3272
wendung 3272
zufried@@ 3272
entliche 3271
spezialis@@ 3271
zig 3271
bedeutenden 3270
benutzen 3270
italienische 3270
korrigi@@ 3269
siert 3269
Kroati@@ 3268
enthal@@ 3268
gemeinsames 3268
perfek@@ 3268
Golf 3267
Verfahrens@@ 3267
Zy@@ 3267
afri@@ 3267
zugrunde 3267
Klasse 3266
AS 3264
Investoren 3264
Verbrauchern 3264
endgültigen 3264
ennen 3264
ain@@ 3263
ero@@ 3263
kat@@ 3263
resul@@ 3263
Glaubwürdigkeit 3262
Systemen 3262
fer, 3261
leichter 3261
Publik@@ 3260
ausgerich@@ 3260
palästinensischen 3260
Ferien@@ 3259
schön 3259
bes 3258
gelangen 3258
wirklichen 3258
Ther@@ 3257
erreicht. 3257
ssysteme 3257
zahlungen 3257
Arbeitsplatz 3256
Betreiber 3256
Herkunfts@@ 3255
U-@@ 3255
festen 3255
raums 3255
Export@@ 3254
Schwar@@ 3254
Sorgen 3254
digitale 3254
schläge 3254
Voraus@@ 3253
normalerweise 3253
Einstellungen 3252
dy@@ 3252
gelegenen 3251
seits 3251
Fall, 3249
gegenseitigen 3249
sum 3249
hochwertige 3248
stor@@ 3247
verknüpf@@ 3247
äußer@@ 3247
auer@@ 3246
ore@@ 3246
Ret@@ 3245
enthalten, 3245
kette 3245
nungs@@ 3245
Ambi@@ 3244
enthalt 3244
vielfäl@@ 3244
1000 3242
block@@ 3242
elektr@@ 3242
werten 3241
Differ@@ 3240
Eurozone 3240
Web 3240
assen. 3240
ket@@ 3240
tors 3240
verhindert 3240
CI@@ 3239
überrasch@@ 3239
Luft 3238
Wol@@ 3238
hor@@ 3238
übernommen 3238
Sicher@@ 3237
isch. 3236
Ergebnissen 3235
prüf@@ 3235
einzigartigen 3234
Hu@@ 3233
mo 3233
pan@@ 3233
(T@@ 3232
bares 3232
schrittweise 3232
ter-@@ 3232
600 3231
Auswahl@@ 3230
Ev@@ 3230
OP@@ 3230
izi@@ 3230
programm@@ 3230
Schlüssel 3229
Studenten 3229
kamen 3229
« 3229
Quell@@ 3228
Tun@@ 3228
Vision 3228
ara 3228
e/@@ 3227
Jahren, 3226
gestimmt 3226
geworden. 3226
raum, 3226
wirken, 3226
bruch 3225
Krankenh@@ 3224
Wiss@@ 3224
Gebiet@@ 3223
Plug@@ 3223
gül@@ 3223
umzu@@ 3223
Gerade 3222
Verantwor@@ 3222
ax@@ 3222
Streit@@ 3221
Angst 3219
Doll@@ 3219
Sind 3219
regi@@ 3219
größer 3218
Rechtsvorschri@@ 3216
Sied@@ 3216
geschlossenen 3216
ueber 3216
erfolgen 3215
platz@@ 3215
Sur@@ 3213
Zer@@ 3213
â@@ 3213
Mandat 3212
hen, 3212
7/@@ 3211
Regulierung 3211
Trotzdem 3211
debat@@ 3211
sorgen. 3211
zukünftige 3211
Anwendungs@@ 3210
Dafür 3209
beschränkt 3209
verz@@ 3209
vorliegende 3209
Beam@@ 3208
Kürz@@ 3208
vorschlag@@ 3208
A. 3207
effizienter 3207
heben. 3207
Fru@@ 3205
za 3205
Asien 3204
ando 3204
geräte 3204
übernehmen. 3204
Verfassungs@@ 3203
schwerwie@@ 3203
Prior@@ 3202
ist: 3202
relevanten 3202
rechtfer@@ 3201
ECH@@ 3200
Ep@@ 3200
FA@@ 3200
möchte. 3199
*@@ 3198
begeister@@ 3198
stattfin@@ 3198
Signal 3197
gegrün@@ 3197
ox@@ 3196
Vorstellung 3195
schreit@@ 3195
10.@@ 3194
Herbst 3194
Kamera 3194
kap@@ 3194
keinem 3193
Inn@@ 3192
service, 3192
suchen. 3192
vieles 3192
FOR@@ 3191
gegenwärtige 3191
tes, 3191
Serbien 3190
endgültige 3190
zuseh@@ 3190
DEN 3189
hunder@@ 3189
psych@@ 3188
Stadt, 3187
gericht@@ 3187
lok@@ 3187
stuf@@ 3187
Wein 3186
enschaften 3186
gestell@@ 3186
größ@@ 3186
organisiert 3186
Darum 3185
Haar@@ 3185
Zwar 3185
hof 3185
pal@@ 3185
reib@@ 3185
gend@@ 3184
inmitten 3184
trenn@@ 3184
Bad@@ 3183
anzuneh@@ 3182
äuser 3182
bs 3181
Koh@@ 3180
Künstler 3178
tos 3178
ud@@ 3178
Berat@@ 3177
Schne@@ 3177
Tem@@ 3177
Verpflich@@ 3177
ale, 3177
Fes@@ 3176
produziert 3176
typ@@ 3175
Derzeit 3174
Nachrichten 3174
Perspektive 3174
Stell@@ 3174
burger 3174
can@@ 3174
Ech@@ 3173
Kraftfahr@@ 3173
vernünf@@ 3173
Krankheit 3172
tor, 3172
hohes 3171
Wechselkur@@ 3170
Dreh@@ 3169
gestaltet 3169
ino@@ 3169
sur 3168
beziehen. 3167
fang@@ 3167
registrier@@ 3167
vorüber@@ 3167
IT 3166
engl@@ 3166
musi@@ 3166
Weiß@@ 3165
betrieben 3165
kräfte 3165
lück@@ 3165
terror@@ 3165
Caf@@ 3164
Gesetzes@@ 3164
dans 3164
Zahlung 3163
ten; 3162
gri@@ 3161
views 3161
zon@@ 3161
ähnlich 3161
Asi@@ 3160
Kampagne 3160
Versionen 3160
läuf@@ 3160
bedauer@@ 3159
jo@@ 3159
Weg, 3158
handeln. 3158
Mensch@@ 3157
erforderliche 3157
stellung, 3157
gek@@ 3156
isl@@ 3156
überprüfen, 3156
einander@@ 3155
ous 3155
Beihilfe@@ 3154
ausgerichtet 3154
Netze 3153
aro@@ 3153
kurzfris@@ 3153
türkischen 3153
Audio@@ 3152
gelegen 3152
grenzüberschreitende 3151
mittlere 3150
nimmt. 3150
toren, 3150
Vorausschau 3149
mittlerweile 3149
tigkeit, 3149
Heran@@ 3148
chs@@ 3148
has 3148
qualitativ 3148
schn@@ 3148
Bevölkerungs@@ 3147
lierung 3147
zur@@ 3147
zweck@@ 3147
Gefahr, 3146
Verbind@@ 3146
berühm@@ 3146
Vil@@ 3145
systemen 3145
jenen 3143
südlichen 3143
Währungsunion 3142
inklusive 3142
neten 3142
verstärk@@ 3142
Aufforderung 3141
Künst@@ 3141
gestärkt 3141
Ablehnung 3140
Also 3140
num@@ 3139
her, 3138
ware 3138
ernsthaft 3137
heiz@@ 3137
Gelder 3136
Verlängerung 3136
Wür@@ 3136
angewandt 3136
Chem@@ 3135
gerichtet 3135
Gebur@@ 3134
nehmen@@ 3134
beeinfluss@@ 3133
liert. 3133
direk@@ 3132
ano@@ 3131
Daten, 3130
Lohn@@ 3130
gebiet@@ 3130
gesetzten 3130
weilen 3130
wunderschönen 3130
las 3129
olle@@ 3129
Netzwerk@@ 3128
gezeigt 3128
EWG 3127
letzter 3127
sive 3126
tation 3126
Konsequenzen 3125
Schon 3124
Studi@@ 3124
beiträ@@ 3124
cal@@ 3124
gesundheit@@ 3124
installiert 3124
sü@@ 3124
Dritten 3123
Group 3123
s/@@ 3123
sprach 3122
einfacher 3121
gegründet 3121
greifen. 3121
lösen. 3121
lehr@@ 3120
enten@@ 3119
erhöhen 3119
eröffnet 3119
iel 3119
Bedürfnissen 3118
Roma 3118
angenommenen 3118
gang@@ 3118
musste 3118
enter@@ 3117
problemati@@ 3117
sch, 3117
vierten 3116
Positionen 3115
bedroh@@ 3115
Entdeck@@ 3114
abil@@ 3114
gewinn@@ 3114
Rein@@ 3113
bietet, 3113
erseits 3113
Freiheit, 3112
Gewinn@@ 3112
enswer@@ 3112
erinnert 3111
prozeß 3111
verlangt 3111
Linux 3110
Wählen 3110
ki 3110
le: 3110
Dien@@ 3109
Rom 3109
fe, 3109
dienen, 3108
Kommissar@@ 3107
Ni@@ 3107
gesetzlichen 3107
'' 3106
Bereich, 3106
Veränderung 3106
achten 3106
wahl@@ 3106
Widerspruch 3105
individuell 3105
ständ@@ 3105
HR@@ 3104
begriff@@ 3104
Frühstück@@ 3103
ium@@ 3103
Antwor@@ 3102
Schle@@ 3102
besetz@@ 3102
stabilität 3102
künstler@@ 3101
Dikt@@ 3100
Diplom@@ 3100
Entscheid@@ 3100
entstanden 3100
heb@@ 3100
konsoli@@ 3100
Überarbeitung 3100
() 3099
Bay@@ 3098
National 3098
dauer@@ 3098
effektive 3098
bestehen. 3097
bro@@ 3097
eln, 3097
8) 3096
bemüh@@ 3096
vermeiden. 3096
1991 3095
Wiederauf@@ 3095
erfol@@ 3095
Polizei 3094
blau@@ 3094
ends 3094
selben 3094
verweig@@ 3094
Organ@@ 3093
maschinen 3093
13. 3092
Menschenrechte, 3092
illegale 3092
Prof@@ 3091
anzen 3091
sofor@@ 3091
Human@@ 3090
ender@@ 3090
gepf@@ 3090
Nov@@ 3089
geeigneten 3089
schwere 3089
Slowakei 3088
Tast@@ 3088
europäisches 3088
soli@@ 3087
Kompetenzen 3086
Schn@@ 3086
TE 3086
verfügbar. 3086
Niederlass@@ 3084
spielen, 3084
enorme 3082
umzusetzen. 3081
Beachtung 3080
entes 3079
frühen 3079
terungen 3078
bor@@ 3077
sagt, 3077
Brand@@ 3076
freundlichen 3076
pour 3076
Gefan@@ 3075
mie@@ 3075
weiter. 3075
Gang 3074
Fischer 3073
kleines 3073
nord@@ 3073
Hon@@ 3072
partner@@ 3072
Berichten 3071
erör@@ 3070
Modelle 3068
gesellschaftlichen 3068
wiesen, 3068
arbeitete 3067
erfüll@@ 3067
methoden 3067
12.@@ 3066
PRO@@ 3065
Tour 3065
Umstrukturierung 3065
stag 3065
Essen 3064
Katastrophe 3064
harmon@@ 3064
pflanz@@ 3064
stück@@ 3064
vorschlagen 3064
Lad@@ 3063
Kreuz@@ 3062
empfohl@@ 3062
Is@@ 3061
14. 3060
Mari@@ 3060
Salz@@ 3060
ong 3060
Kapital 3059
Richtlinien@@ 3059
raten 3059
Aufhebung 3058
Feuer@@ 3058
vermeiden, 3058
2008@@ 3057
Anmeldung 3057
Treff@@ 3057
schlecht 3057
Republi@@ 3056
s" 3056
statt, 3055
genaue 3054
20-@@ 3053
Vertrages 3053
age, 3053
Demokratie, 3051
rel@@ 3051
Miß@@ 3050
Beurteilung 3049
Bosnien 3049
folge 3049
hebung 3049
bere@@ 3048
de-@@ 3048
entsprechen. 3048
Schreiben 3047
atischen 3047
hebt 3047
konzip@@ 3047
spart@@ 3047
gestalten. 3046
gelegen, 3045
märkte 3044
tief 3044
vern@@ 3044
aul@@ 3043
t). 3043
AV@@ 3042
Aktu@@ 3042
gefra@@ 3041
lem 3041
ms. 3041
märkten 3041
Fla@@ 3040
Santa 3040
test@@ 3040
effizi@@ 3039
jem@@ 3039
Anhörung 3037
Bus 3037
Jugend 3037
7-@@ 3035
kol@@ 3035
rän@@ 3035
ment, 3034
Berichterstatter, 3033
Kopenhagen 3033
Luftfahrt@@ 3033
Station 3033
expor@@ 3033
dank@@ 3032
inger 3032
stellungs@@ 3029
AKP-@@ 3028
Beschluß 3028
lern@@ 3028
technischer 3028
nimmt, 3027
time 3027
Gegend 3026
Vie@@ 3026
bringt. 3026
informieren 3026
leiten 3026
offizielle 3026
popul@@ 3026
ty 3026
Ca@@ 3025
ese 3025
gestri@@ 3025
(9@@ 3024
Innen 3024
Seever@@ 3024
Stellungnahmen 3024
angekündig@@ 3024
angenommen, 3023
gewinnen 3023
GE@@ 3022
rak@@ 3022
wies 3022
David 3020
GR@@ 3020
Jung@@ 3019
dabei, 3019
komp@@ 3019
sind: 3019
stattfinden 3019
Ablauf 3018
Anreize 3018
uer 3018
Räum@@ 3017
liche, 3017
wäl@@ 3017
ökonomische 3017
Flor@@ 3016
Szen@@ 3016
ablehn@@ 3016
wiederholt 3016
hnt 3015
jahres@@ 3014
stimmen, 3014
gesag@@ 3013
Statistiken 3012
hen@@ 3012
integrierte 3012
Defiz@@ 3010
Garanti@@ 3010
SM@@ 3010
jur@@ 3010
pos@@ 3010
bürger 3009
frag@@ 3009
Kanada 3008
Verpack@@ 3008
anlage 3008
sei. 3008
lon@@ 3007
stellt. 3007
zustellen 3007
a: 3006
ella 3005
ökologischen 3005
Unternehmen. 3004
Wiederherstellung 3004
geführten 3003
European 3002
ce@@ 3002
handeln, 3002
strahl@@ 3002
verbrauch@@ 3002
grös@@ 3001
kel@@ 3001
Individu@@ 3000
Miet@@ 3000
alisten 3000
normen 3000
Air 2999
Konflikte 2999
Niederlan@@ 2999
schriftlich 2999
Wirtschaftskrise 2998
wör@@ 2998
EB@@ 2997
Ursachen 2997
fahren. 2996
ausländischen 2995
erungen 2995
grupp@@ 2995
ßt 2995
beschloss@@ 2994
förderung 2994
Urlaub@@ 2993
beit@@ 2993
enz, 2992
Erwerb 2991
Extre@@ 2991
ches 2991
gespielt 2991
sah@@ 2991
EU-Ebene 2990
Flughäfen 2990
Jahrzehnten 2990
trock@@ 2990
.... 2989
Mitarbeitern 2989
Ersatz@@ 2988
post@@ 2988
which 2988
bereitgestellt 2987
wählen. 2987
ée 2987
Farbe 2986
ot@@ 2986
Nacht@@ 2985
Niederlanden 2985
flexib@@ 2985
Dass 2984
Tausende 2984
ade@@ 2984
brach@@ 2984
eingesch@@ 2984
(mit 2983
Schweizer 2983
kris@@ 2983
Turn@@ 2982
definiert 2982
Volkswirtschaften 2981
sätz@@ 2981
werken 2981
Pil@@ 2979
lösung 2979
prech@@ 2978
Investitionsbank 2977
Seite. 2977
zentral 2977
Men@@ 2976
Standort 2976
dienstleistungen 2976
gerufen 2975
anforderungen 2974
folgender 2974
profession@@ 2974
Besteuerung 2973
kostenlo@@ 2973
Hung@@ 2972
Oliven@@ 2971
gerechte 2971
wa 2971
Erst 2970
Nachbarn 2970
denken. 2970
si 2969
verwaltung 2969
Herausforder@@ 2968
Verbraucherschutz 2968
gewünschten 2968
hen. 2968
Kapazitäten 2967
liber@@ 2967
Blo@@ 2966
Staatsangehöri@@ 2966
gilt, 2966
hu@@ 2966
Wand@@ 2965
lokaler 2965
vorhaben 2965
übri@@ 2965
Open@@ 2964
.0@@ 2963
Bereits 2963
Institut 2963
Kongres@@ 2963
Litau@@ 2963
38 2962
Mittag@@ 2962
last@@ 2962
überaus 2962
Kopf 2961
37 2960
enttäusch@@ 2960
entwickel@@ 2960
inhal@@ 2960
them@@ 2960
Genießen 2959
Kolle@@ 2959
O, 2959
arischen 2959
entspricht. 2959
geren 2959
Š@@ 2959
Ed@@ 2957
Sachen 2957
selb@@ 2957
stolz 2957
tten 2957
weise, 2956
Zunahme 2955
au, 2954
kas 2954
langsam 2954
Rechten 2953
Web-@@ 2953
bewusst, 2953
dann, 2953
urch@@ 2953
ê@@ 2953
Aufgabe, 2952
NATO 2952
geförder@@ 2952
Server@@ 2951
bestände 2951
lässi@@ 2951
48@@ 2950
Gemeinde 2950
Mitglie@@ 2950
Bereitschaft 2949
Innovationen 2949
Südo@@ 2949
Webseiten 2949
entsprechen 2949
grosse 2949
ändert 2949
Faktor 2948
betont, 2948
Öffent@@ 2948
Besonder@@ 2947
verhindern 2947
(PL) 2946
Erforder@@ 2946
Grünbuch 2946
Photo@@ 2945
Schwer@@ 2945
Umwelt, 2945
Konto 2944
Kopf@@ 2943
Licht@@ 2943
ration@@ 2943
Kommissar! 2942
betrifft. 2942
demo@@ 2942
ösen 2942
ai 2940
bitten 2940
ganz@@ 2940
lieber 2940
Christ@@ 2939
Forschung, 2939
angesehen 2939
einsch@@ 2939
lei 2937
schnellen 2937
widerspiegel@@ 2937
Quellen 2936
Tourismus@@ 2936
ressourcen 2936
konnten. 2935
multi@@ 2935
Sammlung 2934
30. 2933
Sand@@ 2933
erinnen 2933
innen@@ 2933
prim@@ 2933
bequem@@ 2932
konzep@@ 2932
erstellen 2931
Regier@@ 2930
hervorragenden 2930
europa@@ 2929
Andererseits 2928
außer@@ 2928
baus 2928
behalten 2928
fortzusetz@@ 2928
just 2928
AF@@ 2927
Freiheiten 2927
Wohnung 2927
an-@@ 2927
zustimmen. 2927
49@@ 2926
bewus@@ 2926
Branche 2925
Grundsätzen 2925
Mes@@ 2925
interne 2925
mechanismus 2925
thal@@ 2925
richtig, 2924
samen 2924
verfügen, 2924
geringen 2923
versuch@@ 2923
Kä@@ 2922
gendes 2922
impor@@ 2922
min 2922
ple@@ 2922
fahren, 2921
gearbeitet 2921
geändert. 2921
überein, 2921
begüns@@ 2920
diesbezüglich 2920
enswert 2920
erlaub@@ 2920
Eröffnung 2919
Kürze 2919
Sowohl 2919
ausländische 2917
tran@@ 2917
(oder 2916
wässer@@ 2916
2010@@ 2915
Gehminuten 2915
fried@@ 2915
55 2914
Slowenien 2914
bereit. 2913
gegenseitige 2913
On@@ 2912
Verfügung, 2912
46@@ 2911
EUROPÄISCHEN 2911
fäh@@ 2911
gesam@@ 2911
glauben 2911
selbst, 2911
spätestens 2911
Ratifizierung 2910
knapp 2910
schwedischen 2910
Wettbewerbs 2908
dern. 2908
erweitert 2908
gelö@@ 2908
grad 2908
Balkan@@ 2907
ley 2907
Präz@@ 2906
Regulierungs@@ 2906
begrenzt 2906
beihilfen 2906
Fass@@ 2905
Zeitplan 2905
gelegt. 2905
lle 2905
mes@@ 2905
Erzeugung 2903
anden 2903
Möglich@@ 2902
gewonn@@ 2902
7, 2901
Beitra@@ 2900
began@@ 2900
ektor 2900
umgeben 2900
zeichnen. 2900
Frühstücks@@ 2899
Mängel 2899
agen@@ 2899
Restaurant, 2898
Chancengleichheit 2896
TH@@ 2896
Jahren. 2895
führten 2894
Versicher@@ 2893
beginn@@ 2893
kollek@@ 2893
Öko@@ 2893
Einwohner 2892
Kompromis@@ 2892
Studio 2892
kommun@@ 2892
sonstigen 2892
warn@@ 2892
Vermittl@@ 2891
Verstärkung 2890
GF@@ 2889
Meines 2889
stimmt 2889
stän@@ 2889
mögen 2888
Beschäftigung, 2887
gelegen@@ 2887
steuer 2887
es: 2886
nisse. 2886
Prozesse 2885
ßen. 2885
Allianz 2884
konzentrieren 2884
ziehung 2884
Deck@@ 2883
Wirtschaftsraum 2883
opp@@ 2883
Angelegen@@ 2882
Schiff 2882
stein@@ 2882
39 2881
Radi@@ 2881
Werden 2881
arch@@ 2881
Darstellung 2880
Gesicht@@ 2880
gelten. 2880
österreichischen 2880
Kap@@ 2879
Wild@@ 2879
abgestimmt 2879
Bö@@ 2878
Gold@@ 2878
Identi@@ 2878
gewählten 2878
mel 2878
Strand@@ 2877
ichen 2877
jüng@@ 2877
beabsich@@ 2876
rad 2876
EK@@ 2874
Allgemeine 2873
Info@@ 2873
gungen 2873
sign@@ 2872
institu@@ 2871
lagen@@ 2871
läne 2871
mittl@@ 2871
tatsächlichen 2871
stam@@ 2870
Ged@@ 2869
Zwischen 2869
este 2869
halt@@ 2869
älteren 2869
Nachricht 2868
test 2868
äuß@@ 2868
amt 2867
erhäl@@ 2867
ide 2867
Aktions@@ 2865
gangen, 2865
mung 2865
Berliner 2864
Tschechischen 2864
austausch@@ 2864
sam 2864
Fundam@@ 2863
Sonne 2863
exzell@@ 2863
ón 2863
… 2863
entiert 2862
Ständigen 2861
gangen. 2861
alt@@ 2860
besorgt 2860
grossen 2860
liger 2860
maßen 2860
Vertretung 2858
küm@@ 2858
Kulturen 2857
S) 2857
Applik@@ 2856
Art, 2856
It 2856
maßnah@@ 2856
plus 2856
ausgeführt 2855
erstklassi@@ 2854
innovativen 2854
zerti@@ 2854
"Die 2853
endet 2853
Registrierung 2852
pat@@ 2852
sonstige 2851
-Sterne-Hotel 2850
zuge@@ 2850
E, 2849
Impf@@ 2849
MA@@ 2849
Rest@@ 2849
pra@@ 2849
technologische 2849
NAT@@ 2848
geschütz@@ 2848
medizinische 2848
Volksgesundheit 2847
ersetzt 2847
sä@@ 2847
ausgesprochen 2846
Würde 2845
baut 2845
klassischen 2845
bleibt. 2844
deswegen 2844
ola 2844
beauftrag@@ 2843
hang@@ 2843
iv@@ 2843
ura@@ 2843
zuverlässi@@ 2843
gewerb@@ 2842
konkret 2842
ständiger 2842
Todesstrafe 2841
te) 2841
unterzeichnet 2841
EZB 2840
ado 2840
or, 2840
radik@@ 2840
reck@@ 2840
ag 2838
ung; 2837
Betrugs@@ 2836
TER@@ 2836
durchgeführt. 2836
industriellen 2835
plätze 2835
ruft 2835
us-@@ 2835
Team@@ 2834
haus@@ 2834
k-@@ 2834
schreck@@ 2834
Versuch@@ 2833
eigener 2833
eln. 2833
sorg@@ 2833
dierte 2832
ften. 2832
Informationsgesellschaft 2831
Rin@@ 2831
le-@@ 2830
Bearbeitung 2829
GD 2829
Kontakt: 2829
Stoff@@ 2829
Waff@@ 2829
haber 2829
sph@@ 2829
zeigen. 2829
Bestre@@ 2828
Generationen 2828
Kategorien 2828
Zucker@@ 2828
aufs 2828
sammel@@ 2828
erklärte: 2827
Übernachtung 2827
östlichen 2827
erörter@@ 2825
fühlen 2825
hoffentlich 2825
Migration 2824
angehör@@ 2824
ita 2824
Brasilien 2823
dru@@ 2823
gleichermaßen 2823
lieben 2823
ständen 2823
Benutzung 2822
Arbeitsplätz@@ 2821
ee 2821
speich@@ 2821
verändert 2821
Freunden 2820
Schreib@@ 2820
Debian 2819
erstre@@ 2819
mt 2819
sinstrum@@ 2819
Mittel, 2818
fiziert 2818
sche@@ 2818
wege 2818
Navig@@ 2817
Präsenz 2817
Quelle 2817
ba 2817
bestän@@ 2817
Casino 2816
Defizit 2816
entlichen 2816
sho@@ 2816
zunehmen. 2815
wählen, 2814
Macht@@ 2813
it. 2813
seig@@ 2813
Erst@@ 2812
Situationen 2812
enser@@ 2812
genießen. 2812
vorgesehen, 2812
Benutzer@@ 2811
Dritte 2811
(wie 2810
EU-Kommissar 2810
Gerät 2810
Stimmen 2810
Vater 2810
ena 2810
gend, 2810
6,@@ 2809
Aktien@@ 2808
Fortsetzung 2808
artige 2808
cken. 2808
sse, 2808
unabhäng@@ 2808
Lis@@ 2807
ache 2807
ergänzt 2807
spanische 2807
Betracht 2806
Unternehmer@@ 2805
chs 2805
zentraler 2805
Sicherheitspolitik 2804
UK@@ 2804
Zyper@@ 2804
Krieg@@ 2803
wand 2803
Viel@@ 2802
gebung 2802
späteren 2802
Gam@@ 2801
Messe 2801
Tari@@ 2801
Window@@ 2801
bli@@ 2801
generell 2801
leiten. 2801
mer, 2801
richt@@ 2801
Europar@@ 2800
Lim@@ 2800
angemess@@ 2800
fung 2800
komplette 2800
oni@@ 2800
Agenturen 2799
Bord 2799
Direkt@@ 2799
Entwicklungshilfe 2799
Feld 2799
Spanien, 2799
chinesische 2798
Ausübung 2797
Kommunikation@@ 2797
angewendet 2797
ergreifen 2797
partner 2797
räumen 2797
ting 2797
unzureich@@ 2797
Eu@@ 2796
Grundlagen 2796
bereitet 2796
einmal@@ 2796
hervorge@@ 2796
nisses 2796
präz@@ 2796
Ökonom@@ 2796
dens 2795
Arbeitnehmern 2794
Konjunktur@@ 2794
Repar@@ 2794
dert 2794
polnischen 2794
trieb@@ 2794
™ 2794
Tief@@ 2793
Tradition@@ 2793
perfekt 2793
Büro 2792
Verk@@ 2792
erkennt 2792
Sym@@ 2791
ar. 2791
ausreichende 2791
kön@@ 2791
ner. 2791
IV 2790
Ort, 2790
Versuch 2790
my@@ 2790
verurteilt 2790
vorgesehen. 2790
Nu@@ 2789
Ärz@@ 2789
TV, 2788
größter 2788
km@@ 2788
Gü@@ 2787
Integra@@ 2787
vertreten. 2787
New@@ 2786
Landwirtschafts@@ 2785
io 2785
Aspekten 2784
hinzuge@@ 2784
Augen@@ 2783
atz@@ 2783
gemü@@ 2783
uro@@ 2783
Quar@@ 2782
wahl 2780
Prozeß 2779
angebot 2779
ließ 2779
sogenannte 2779
-0@@ 2778
Detail@@ 2778
dur@@ 2778
günstigen 2778
kurz@@ 2778
schriftliche 2778
gut. 2777
bran@@ 2776
d’@@ 2776
miß@@ 2776
65 2775
Menü@@ 2775
Pflicht 2775
Schengen-@@ 2775
Zusammensch@@ 2775
issi@@ 2775
Drittens 2774
inves@@ 2773
unten. 2773
Ankunft 2772
Eingang 2772
versicher@@ 2772
Kil@@ 2771
bevölkerung 2771
Inflation 2770
fairen 2770
teil, 2770
anwesend 2769
Bild, 2768
Problem@@ 2768
eingeleitet 2767
offiziell 2767
Hilf@@ 2766
Kompon@@ 2766
befinden. 2766
Getre@@ 2765
berühr@@ 2765
liefern 2765
rahmens 2765
stren@@ 2765
р@@ 2765
Emissions@@ 2764
überein@@ 2764
Altern@@ 2763
Heimat@@ 2763
ick 2763
optimal 2763
way 2763
Behandl@@ 2762
Terrorismus@@ 2762
essen. 2762
heili@@ 2762
kapit@@ 2762
kas@@ 2762
konkur@@ 2762
Spann@@ 2761
Wen@@ 2761
ett 2761
länder@@ 2761
perfekte 2761
ähnlichen 2761
IP 2760
erneuerbaren 2760
ichts 2760
Einen 2759
chron@@ 2759
rieren 2759
zweif@@ 2759
Wur@@ 2758
para 2758
s.@@ 2758
Gerechtigkeit 2757
Jugendlichen 2757
’ 2757
250 2756
soeben 2756
verwendeten 2756
Vorsitzenden 2755
f-@@ 2755
leiden 2755
siven 2755
ier, 2754
richtungen 2754
DR@@ 2753
Länder@@ 2753
weltweit@@ 2753
zunehmen, 2753
Renn@@ 2752
gegebenen 2752
mater@@ 2752
versammlung 2752
Danach 2750
Englisch 2750
Luftverkehrs@@ 2750
effizient@@ 2750
endem 2750
CS@@ 2749
Prop@@ 2749
separ@@ 2749
unmittelbarer 2749
untersucht 2749
ökonomischen 2749
75@@ 2748
faß@@ 2748
geschlossen, 2748
inst@@ 2748
Haben 2747
Reisen 2747
Stamm@@ 2747
gebaut. 2747
Marktan@@ 2746
Punkt, 2745
lebenden 2745
Fäl@@ 2744
günstige 2744
Gipfeltreffen 2743
it, 2743
kompati@@ 2743
Entschließungsan@@ 2742
Fle@@ 2742
LAN@@ 2742
erhalten@@ 2742
gesehen, 2742
Van 2741
unterschei@@ 2741
zwölf 2741
b. 2740
euro@@ 2740
schwierige 2740
ws 2740
Stat@@ 2739
en... 2739
hl 2738
Jedoch 2737
Kennzeichnung 2737
begonnen 2737
tal 2737
Besitz 2736
Liter@@ 2736
Pakete 2736
Text@@ 2736
Cur@@ 2735
Wechsel@@ 2735
lässt. 2735
�n@@ 2735
Pflanz@@ 2734
S.@@ 2734
Stud@@ 2734
wachsende 2734
Restauran@@ 2733
effizienten 2733
erle@@ 2732
freier 2732
herausra@@ 2732
netze 2732
wenden, 2732
Abschluß 2731
Bezeichnung 2731
Mir 2731
en." 2731
eventuell 2731
manchen 2730
Leiter 2729
Manager 2729
Priv@@ 2729
ablen 2729
ergeben 2728
hochwer@@ 2728
location 2728
fün@@ 2727
и 2726
Auswirk@@ 2725
Geschäf@@ 2725
Willkommen 2725
grenzübergreif@@ 2725
vertei@@ 2725
zweiter 2725
Der@@ 2724
Ergeb@@ 2724
LICH@@ 2724
Quad@@ 2724
sichern. 2724
Gruppen@@ 2723
garantieren 2723
-/@@ 2722
Lizenz 2722
gast@@ 2722
verstanden 2722
ves 2722
Seh@@ 2721
Belarus 2720
erzielen 2720
union 2720
t.@@ 2719
verhän@@ 2719
Pet@@ 2718
dessen, 2718
zeichneten 2718
Weißbuch 2717
Zertifik@@ 2717
gegeb@@ 2717
Sicht@@ 2715
Vermögens@@ 2715
umen 2715
überprüft 2715
Spa 2714
ungsmaßnahmen 2714
Stabilitäts- 2713
sorge 2713
Reak@@ 2712
og@@ 2712
prin@@ 2712
Best 2711
ans@@ 2711
Ordn@@ 2710
Thema, 2709
Touristen 2709
faszin@@ 2709
(Beifall) 2708
Vorrang 2708
genomm@@ 2708
Übrigen 2708
Fig@@ 2707
pe, 2707
Zugangs 2706
ität@@ 2706
zeichnungen 2706
überzeugt 2706
г@@ 2706
2009@@ 2705
projekt 2704
tie@@ 2704
grenzen 2703
regierung 2703
Dör@@ 2702
Kultur, 2701
Laut 2701
angepasst 2701
fang 2701
ministerium 2701
sektor@@ 2701
vention@@ 2701
zugute 2701
initi@@ 2700
man, 2700
negative 2700
essi@@ 2699
obligator@@ 2699
zin@@ 2699
tte 2698
Kennt@@ 2697
Play@@ 2697
entscheid@@ 2697
EG-Vertrag 2696
Hä@@ 2696
am, 2696
häl@@ 2696
Wäh@@ 2695
herauszu@@ 2695
ungsverfahrens 2695
ium 2694
ktion 2694
lichkeits@@ 2694
näch@@ 2694
Ambiente 2693
ligen@@ 2693
"-@@ 2692
Einrich@@ 2692
armen 2692
Debatten 2691
süd@@ 2691
Güter@@ 2690
besonderes 2690
kn@@ 2690
tausch@@ 2690
Krimin@@ 2689
Pakistan 2689
grü@@ 2689
interessiert 2689
ollen 2689
vorlie@@ 2689
Oberflä@@ 2688
hochran@@ 2688
uche 2688
wohnen 2688
langer 2687
wettbewer@@ 2687
Haft@@ 2686
ferenz@@ 2686
gerät 2686
künst@@ 2686
vertrag 2686
Band 2685
aria 2685
Gäste@@ 2684
Verbrech@@ 2684
altung 2684
zunehmen 2684
Einf@@ 2683
Geschäft 2683
Ke@@ 2683
Schulden 2683
Stück@@ 2683
Umgeb@@ 2683
Union@@ 2683
gefas@@ 2683
„Die 2683
Kandidaten 2682
Pool 2682
Wissens@@ 2682
set@@ 2682
willig@@ 2682
änderungen 2682
Badezimmer 2681
avec 2681
erstaun@@ 2681
http://www.@@ 2680
systemati@@ 2680
unterschiedlich 2680
unterschiedlicher 2680
entscheidung 2679
korrekt 2679
Distribution 2678
zeitraum 2678
Bekann@@ 2677
erweiter@@ 2677
m² 2677
CO2-@@ 2676
Hierzu 2676
selten 2676
zeichnet, 2676
Dokumenten 2675
ansässi@@ 2675
Ernährungs@@ 2674
tra 2674
Malta 2673
Martin 2673
kern 2673
proble@@ 2673
Auftrags@@ 2672
Flo@@ 2672
angemel@@ 2672
jährliche 2672
wiesen. 2672
China, 2671
Krie@@ 2671
aktion 2671
jüngste 2671
verfolgen. 2671
voraussichtlich 2671
Gegenteil 2670
Tom@@ 2670
akzeptieren 2670
hren 2670
25. 2669
43 2669
ordnungsgemäß 2669
I) 2668
Maschinen@@ 2668
geäußer@@ 2668
zie@@ 2668
Einnahmen 2667
Prote@@ 2667
stand. 2667
version 2667
Digital@@ 2666
Marken@@ 2666
pas 2666
überschreit@@ 2666
taus@@ 2665
Führer 2664
Proble@@ 2664
mittel- 2664
ol, 2664
Ori@@ 2663
offenbar 2663
sichern 2663
sprechend 2663
übt 2663
Lernen 2662
freundlich 2662
oftmals 2662
rec@@ 2662
schi@@ 2662
GAP 2661
elem@@ 2661
teilnehmen 2661
Kinder, 2660
Produkte, 2660
en/@@ 2660
komple@@ 2660
Entwicklung. 2659
demokra@@ 2659
volles 2659
з@@ 2659
Hinweise 2658
Kul@@ 2658
IB@@ 2657
liert, 2657
abgelehnt 2656
Cro@@ 2655
Kollegin 2655
Kontinent 2654
äh@@ 2654
Den@@ 2653
Migrations@@ 2653
freut 2653
if 2653
Anträge 2652
Zulassung 2652
Zusammenarbeit, 2652
geleitet 2652
Kaffe@@ 2651
Lebensmittelsicherheit 2651
Tieren 2651
illa 2651
wiederher@@ 2651
Erleb@@ 2650
Mazedonien 2649
dürf@@ 2649
gehört. 2649
niederländischen 2649
problem 2649
zeichnete 2649
beeinträch@@ 2648
erstes 2648
erweiterten 2648
fig@@ 2648
schiff@@ 2648
zusammenhän@@ 2648
Aufenthalts@@ 2647
akzeptieren, 2647
beglück@@ 2647
Kritik@@ 2646
fantas@@ 2646
Kohärenz 2645
energie 2645
orientier@@ 2645
ziel 2645
Fahrt 2644
geheim@@ 2644
wirkliche 2644
Verordnungen 2643
beleg@@ 2643
Wort@@ 2642
Respekt 2641
ister@@ 2641
rupp@@ 2641
î@@ 2641
Quo@@ 2640
geistigen 2640
unglaub@@ 2640
Größ@@ 2639
München 2639
Region, 2639
gelangen. 2639
wies@@ 2639
enormen 2638
Regionen, 2637
aufzunehmen. 2637
freiwil@@ 2637
Garantien 2636
Haushalts 2636
niedrigen 2636
scho@@ 2636
stieg@@ 2636
chä@@ 2635
re. 2635
Madrid 2634
Palette 2634
Textil@@ 2634
beginnen, 2634
eins 2634
Großbritann@@ 2633
arbeiteten 2633
entstand@@ 2633
gewähl@@ 2633
Alumin@@ 2632
Einer 2632
Betriebe 2631
Fertig@@ 2631
belgischen 2631
folgen@@ 2631
Hof 2630
enken, 2630
EADS 2629
Veranstaltungs@@ 2629
burg@@ 2629
technologischen 2629
Get@@ 2628
Papier@@ 2628
bekräftigt 2628
ente. 2628
produkten 2628
König 2627
Manage@@ 2627
Syrien 2627
Wissenschaftler 2627
betrag 2627
deutliche 2627
gebie@@ 2627
dio@@ 2626
erneuerbare 2626
umfangreich@@ 2626
vertreten, 2626
üblichen 2626
S, 2625
Ram@@ 2624
Rechnungsho@@ 2624
aber, 2624
bleib@@ 2624
gesto@@ 2624
prüfen. 2624
Metro@@ 2623
erleichtern. 2623
isse 2623
meister 2623
nötigen 2623
Baum@@ 2622
Legislativ@@ 2622
fuhr 2622
kling@@ 2622
räsidenten 2622
Stärke 2621
Tsch@@ 2621
net. 2621
schen@@ 2621
solide 2621
Verkaufs@@ 2620
berücksichtigen, 2620
liere 2620
nehmer@@ 2620
zogen. 2620
Einleitung 2619
Rats@@ 2619
Spaß 2619
Telefon 2619
ga 2619
verwende 2619
stär@@ 2618
vorgelegt. 2617
Vereinigtes 2616
Wirtschaf@@ 2616
politiken 2616
zunehmende 2616
mus, 2615
Gemeinschaft, 2614
Hafen@@ 2614
Panoram@@ 2614
Regionalpolitik 2614
V-@@ 2614
ersucht 2614
grundsätz@@ 2614
position@@ 2614
beunruhig@@ 2613
dy 2613
esen. 2613
natür@@ 2613
ú@@ 2613
aly@@ 2612
beschä@@ 2612
reden 2612
FÜR 2611
arbeitungs@@ 2611
king 2611
zell@@ 2611
Banken@@ 2610
Lager@@ 2610
brachte 2610
eren. 2610
sucht 2610
sz@@ 2610
Beschwerden 2609
her. 2609
Gemü@@ 2608
Papier 2608
alistische 2608
erhältlich. 2608
schäd@@ 2608
entschlossen 2607
modern 2607
unternehmen@@ 2607
Ansprech@@ 2606
Argum@@ 2606
Käufer 2606
Norwegen 2606
dürfen, 2606
Frauen@@ 2605
Verein@@ 2605
durchgeführten 2605
sitz 2605
ст@@ 2605
Bab@@ 2604
HAL@@ 2604
Häfen 2604
a.@@ 2604
prozesse 2604
quellen 2604
Mut 2603
Schauspiel@@ 2603
geringe 2603
legt, 2603
s- 2603
BS@@ 2602
funk@@ 2602
geleg@@ 2602
Power@@ 2601
\@@ 2600
dende 2599
eff@@ 2599
tiere 2599
Assoziations@@ 2598
auseinander@@ 2598
bewertung 2598
fertig 2598
konzentriert 2598
ärm@@ 2598
Vorsch@@ 2597
ensyste@@ 2597
glichkeit 2597
kir@@ 2597
tut 2597
Tages 2596
geöffnet 2596
grünen 2596
Player 2595
Schutzes 2595
chemische 2595
lagen. 2595
trat 2595
unmöglich 2595
Armee 2594
Frankfurt 2594
Genehmig@@ 2594
rasche 2594
Dynamik 2593
Qualifik@@ 2593
Rechnungshof 2593
Finn@@ 2592
innov@@ 2592
konfrontiert 2592
zimmer@@ 2592
(D@@ 2591
Vogel@@ 2591
befinden, 2591
kontroll@@ 2590
rischen 2590
verbind@@ 2590
49 2589
Schül@@ 2589
Slowen@@ 2588
Teilnehmer@@ 2588
bürokra@@ 2588
Eisen@@ 2587
Paul 2587
einverstanden 2587
kore@@ 2587
Arbeitsweise 2586
Einwander@@ 2586
arbeits@@ 2586
Kamp@@ 2585
assi@@ 2585
blu@@ 2585
engen 2585
geschichte 2585
…@@ 2585
Organisationen, 2584
Schlußfolgerungen 2584
Well@@ 2584
bildungs@@ 2584
erse@@ 2584
mehrfach 2584
wachsen 2584
Tests 2583
ack 2583
beträchtliche 2583
lien 2583
ma, 2583
span@@ 2583
umfas@@ 2583
vorläuf@@ 2583
Mad@@ 2582
auer 2582
ilfe 2582
landwirtschaftliche 2582
Menü 2581
ki@@ 2581
geber@@ 2580
mechanismen 2580
reduziert 2580
typischen 2580
Parlamente 2579
T, 2579
Assoziierungs@@ 2578
domin@@ 2578
flug 2578
kostenlose 2578
Debian-@@ 2577
Erfolge 2577
Si@@ 2577
gelegt, 2577
porte@@ 2577
Harmon@@ 2576
Zinss@@ 2576
gelang@@ 2576
unentgeltlich 2576
Speis@@ 2575
Spektrum 2575
ifen 2575
betra@@ 2574
Standpunk@@ 2573
e.@@ 2573
komplex@@ 2573
Fenst@@ 2572
Post 2572
getrenn@@ 2572
Poly@@ 2571
beziehungen 2571
Kund@@ 2570
geschäft 2570
auffordern, 2569
Entschlossenheit 2568
Erkrank@@ 2568
Sterne 2568
außen@@ 2568
tis 2568
unternehmer@@ 2568
Kern 2567
Konflik@@ 2567
verkauft 2567
fs@@ 2566
äter 2566
ausser@@ 2565
Exper@@ 2564
tierenden 2564
Gebühren 2563
Pfe@@ 2563
falsch 2563
handlungen 2563
komfortable 2563
nö@@ 2563
werks 2563
langem 2562
leiten, 2562
unterst@@ 2562
ökonom@@ 2562
ermöglicht. 2561
gan 2561
verdi@@ 2561
7,@@ 2560
Heim@@ 2560
Marken 2560
Schwerpunk@@ 2560
oll 2560
Belgi@@ 2559
regul@@ 2559
traum@@ 2559
Mitglied@@ 2558
Rab@@ 2558
annehm@@ 2558
Inspek@@ 2557
Kenntnisse 2557
PL@@ 2557
PS@@ 2557
Platt@@ 2557
geograph@@ 2557
ken. 2557
konsul@@ 2557
nen@@ 2557
tigsten 2557
verordnung 2557
95 2556
Erarbeitung 2556
reichhal@@ 2556
Merk@@ 2555
Opposition 2555
The@@ 2555
charakter@@ 2555
ister 2555
verlänger@@ 2555
Parameter 2554
same 2554
sichtlich 2554
klu@@ 2551
Aktionsp@@ 2550
Schä@@ 2550
Strecke 2550
erwarten, 2550
ot 2550
inakzep@@ 2549
zufriedenstell@@ 2549
tet: 2548
42 2547
Dank@@ 2547
füllen 2547
konzentrieren, 2547
Demonstra@@ 2546
Informations- 2546
Rates, 2546
Redner 2546
herrlichen 2546
zunehmenden 2546
Georgien 2545
Nachdruck 2545
General 2544
Ingenie@@ 2544
Kle@@ 2544
Videos 2544
abend 2544
em, 2544
immer@@ 2544
(PT) 2543
Grü@@ 2543
minister@@ 2543
· 2543
Reservierung 2542
ellen, 2542
erlan@@ 2542
Eines 2541
erfolgen. 2541
Erinnerung 2540
Kommission@@ 2540
zusetzen 2540
Barroso 2539
Bin@@ 2539
Domin@@ 2539
Erkennt@@ 2539
ane 2539
gestar@@ 2539
190@@ 2538
Besuchen 2537
Business@@ 2537
einsetzen, 2537
entierung 2537
sse@@ 2537
Hit@@ 2536
Keine 2536
eingesetzt. 2536
ergibt 2536
lands@@ 2536
ordnungs@@ 2536
iche 2535
Bemerkung 2534
Michel 2534
Weil 2534
kleinere 2534
läßt 2534
verschieden@@ 2534
UNION 2533
europä@@ 2533
keit 2533
schützen, 2533
Fernsehen 2532
Leben@@ 2532
Result@@ 2532
beschließ@@ 2532
gebrachten 2532
lan 2532
vorzulegen. 2532
zurzeit 2532
Zone 2531
laub@@ 2531
schriften 2531
Haushalte 2530
reagieren 2530
realer 2530
rom@@ 2530
-und 2529
Euch 2529
Länge 2529
grafische 2529
reform 2529
zuständig@@ 2529
2007@@ 2528
Fremd@@ 2528
führungs@@ 2527
inc@@ 2527
kontrollen 2527
Völ@@ 2526
absolu@@ 2526
gen? 2526
pack@@ 2526
verschmutzung 2526
verzich@@ 2526
zeigt. 2526
Adri@@ 2525
Konsu@@ 2525
Test 2524
fort 2524
länd@@ 2524
maximal 2524
Beschluss@@ 2523
aufnahme 2523
mäßigkeit 2523
Abteilung 2522
Arbeitsmark@@ 2522
genehmigt. 2522
willkommen 2522
Generaldirek@@ 2521
ater 2521
gäste 2521
region 2521
Komple@@ 2520
fur@@ 2520
1989 2519
Europas, 2519
Verzeichnis 2519
Wasch@@ 2519
code 2519
Original@@ 2518
(Artikel 2517
Revolution 2517
Sohn 2517
geis@@ 2517
mobil@@ 2517
under 2517
linken 2516
statisti@@ 2516
SA 2515
Software-@@ 2515
derselben 2515
verbesserte 2515
Einkommens@@ 2514
Entwicklungszusammenarbeit 2514
Maßnahmen@@ 2514
Sou@@ 2514
heimischen 2514
verw@@ 2514
view 2514
Hum@@ 2513
fügen. 2513
bir@@ 2512
gespeicher@@ 2512
gewesen, 2512
Wachstumsp@@ 2511
bus@@ 2511
momentan 2511
Fläche 2510
Zweiten 2510
bereich. 2510
versichern, 2510
Überzeugung 2510
Kenntnis, 2509
LE 2509
Pilot@@ 2509
Wahr@@ 2509
Apartment 2508
Vergnü@@ 2508
genauer 2508
kreis 2508
Datum 2507
Inner@@ 2507
Ratspräsident, 2507
Rezep@@ 2507
dauert 2507
Finanzmittel 2506
Vizepräsidentin 2506
hafter 2506
recht, 2506
Partnerschafts@@ 2504
Regen@@ 2504
Anforder@@ 2503
Zerti@@ 2503
drasti@@ 2503
hart 2503
ía 2503
Bis@@ 2502
diert 2502
Ganz@@ 2501
ck. 2501
hochwertigen 2501
Diagno@@ 2500
Litauen 2500
jed@@ 2500
alisierungs@@ 2499
ausgeschlossen 2499
eingehen. 2499
gescho@@ 2498
selber 2498
Kandidaten@@ 2497
beruht 2497
Open 2496
Vertragsverletz@@ 2496
aushal@@ 2496
ht. 2496
Lü@@ 2495
fahrts@@ 2495
wuch@@ 2495
Apart@@ 2494
B, 2494
brü@@ 2494
schätzen 2494
desto 2493
handels 2493
sech@@ 2493
Sat@@ 2492
luß@@ 2492
professionelle 2492
Volkes 2491
get 2491
hingewiesen 2491
angenehmen 2490
verringert 2490
vieren 2490
öl 2490
’s 2490
enfalls 2489
informieren. 2489
korrek@@ 2489
zustimmen, 2489
“) 2489
Ausgrenzung 2488
Fünf@@ 2488
Partnerschaften 2488
Planeten 2488
Seg@@ 2488
Georgi@@ 2487
Institutionen, 2487
Ungar@@ 2487
cc@@ 2487
ländern, 2487
Ausnahmen 2486
arabischen 2486
ers, 2486
umfangreichen 2486
verlag@@ 2486
AL 2485
Lett@@ 2485
ł@@ 2485
Großen 2484
IP/0@@ 2484
Nizza 2484
Wochenende 2484
Begriff@@ 2483
Urlaubs@@ 2483
anzuzeigen. 2483
DVD 2482
CD-@@ 2481
fehlt 2481
Rand@@ 2480
aufer@@ 2480
bilden. 2480
fahrer 2480
gespeichert 2479
umfassen 2479
Gibt 2478
Sich@@ 2478
ses@@ 2478
umgehend 2478
I. 2476
Kompetenz 2476
erkann@@ 2476
tis@@ 2476
700 2475
Wh@@ 2475
ek 2475
Ferienwohnung 2474
messen 2474
wahrschein@@ 2474
Cent@@ 2473
französ@@ 2473
nd 2473
tiken 2473
ira 2472
Gemeinden 2471
billig@@ 2471
ur. 2471
von@@ 2471
RAT@@ 2470
veröffentlichte 2470
Überwachungs@@ 2470
abruf@@ 2469
ehn@@ 2469
Erhol@@ 2468
aj@@ 2468
ambi@@ 2468
beitre@@ 2468
cia 2467
integriert 2467
mittag 2467
Erhalt 2466
innere 2466
Binnenmarkts 2465
e- 2465
natur@@ 2465
Vit@@ 2464
einstimmig 2464
te! 2464
Aussprach@@ 2462
Kün@@ 2462
sil@@ 2462
sis 2462
"...@@ 2461
Ih@@ 2461
festzustellen, 2461
fünf@@ 2461
Ausgangs@@ 2460
erzeugt 2460
höchst 2460
ish@@ 2459
Ägypten 2459
Fal@@ 2458
Genau@@ 2458
Konvent 2458
bereich, 2458
Ernährung 2457
lichkeit. 2457
Transak@@ 2456
Vorstellungen 2456
außen 2456
stab@@ 2456
rooms 2455
wick@@ 2455
68@@ 2454
Geldbu@@ 2454
angegeben 2454
Vorsitzender 2453
befindet. 2453
kostenlosen 2453
wünschen, 2453
б@@ 2453
Grafi@@ 2452
Inst@@ 2452
Sei@@ 2452
diskutieren 2452
artigen 2451
medizinischen 2451
Amerikaner 2450
Teams 2450
Themen@@ 2450
angeboten. 2450
einher@@ 2450
Ansprüche 2449
izz@@ 2449
Kab@@ 2448
festgelegt, 2448
ko 2448
Autobahn 2447
ds@@ 2447
Flüchtlings@@ 2446
Loc@@ 2446
Rezeption 2446
Stabilisierungs- 2446
nächster 2446
Entschließ@@ 2445
nicht-@@ 2445
parti@@ 2445
Auslegung 2444
Glück 2444
einseiti@@ 2444
mit, 2444
tor. 2444
Zusammensetzung 2443
achten, 2443
arm@@ 2443
foto@@ 2443
5% 2442
Arbeitsgruppe 2442
Sum@@ 2442
teilte 2442
C, 2441
Inn 2441
ad, 2441
bedeuts@@ 2441
bein@@ 2441
besag@@ 2441
ders 2441
erscheinen 2441
gewiesen 2441
Überein@@ 2441
Anstreng@@ 2440
Stro@@ 2440
Vorbereitungen 2440
aku@@ 2440
erlauben 2440
suchte 2440
е 2440
gemel@@ 2439
rus@@ 2439
use@@ 2439
Bevor 2438
Europäisches 2438
Lück@@ 2438
Mutter 2438
beraten 2438
ökolog@@ 2438
Solidar@@ 2437
Still@@ 2437
enor@@ 2437
Jahresbericht 2436
Mengen 2436
Studier@@ 2436
Zusch@@ 2436
500@@ 2435
Mich@@ 2435
dieselben 2435
ei 2435
entschieden, 2435
gravier@@ 2435
platz, 2435
Medikam@@ 2434
Parlamentar@@ 2434
Reinig@@ 2434
Revision 2434
buchen 2434
ergriff@@ 2434
individu@@ 2434
Ã@@ 2434
christ@@ 2433
externe 2433
rich 2433
sichtlich, 2433
Entfernung 2432
ting@@ 2432
Besatz@@ 2431
Kapazität 2431
Forst@@ 2430
Pul@@ 2430
branche 2430
diensten 2430
fällig 2430
Geschich@@ 2429
Verkauf@@ 2429
anstre@@ 2429
spreche 2429
Vertrieb 2428
berühmte 2428
verringern. 2428
wesent@@ 2428
ž@@ 2428
Mexiko 2427
IWF 2426
Konsultationen 2426
entschied@@ 2426
spiele 2426
til@@ 2426
ver, 2426
System, 2425
Versand@@ 2425
geschieht 2425
halb@@ 2425
tragung 2425
47@@ 2424
Heiz@@ 2424
Kompromiss@@ 2424
erfüllen, 2424
ling 2424
parlamentarischen 2424
reichung 2424
Vorfeld 2423
geprä@@ 2423
hält, 2423
zel@@ 2423
EX@@ 2422
ansch@@ 2422
biologischen 2422
loss 2422
strit@@ 2422
wachs@@ 2422
Steuer 2421
Sz@@ 2421
betrachten 2421
hinweg 2421
ller 2421
origin@@ 2421
Klassi@@ 2420
kontrolliert 2420
planung 2420
um-@@ 2420
Spa@@ 2419
erkennen. 2419
Argentin@@ 2418
Ministerrat 2418
Verlag@@ 2418
folgen. 2418
organisierte 2418
sieht. 2418
yer 2418
Entscheidung, 2417
tisch, 2417
urs 2417
use 2417
BO@@ 2416
Dimen@@ 2416
ad. 2416
erho@@ 2416
konnte, 2416
Linu@@ 2415
Pack@@ 2415
Pflichten 2415
Antrag@@ 2414
Geschwindigkeit 2414
behält 2414
gekommen, 2414
genie@@ 2414
jedenfalls 2414
tungen. 2414
tätig. 2414
Öl 2414
Durchführungs@@ 2413
Zuständigkeiten 2413
verwendet, 2413
31. 2412
Integrations@@ 2412
speziel@@ 2411
zwischen@@ 2411
LIN@@ 2410
Verbraucherschutz@@ 2410
hervorra@@ 2410
vereinbart 2410
Verfolgung 2409
Charak@@ 2408
Frühjahr 2408
geliefer@@ 2408
katastro@@ 2408
portugiesischen 2408
Erschein@@ 2407
Folge@@ 2407
Lesen 2407
Zuwander@@ 2407
ung“ 2407
Anwender 2406
Dienstleistungen, 2406
Jur@@ 2406
Menschenrech@@ 2406
immer, 2406
pel@@ 2406
LO@@ 2405
Wähler 2405
berücksichtigt. 2405
bewegen 2405
ão 2405
änge 2405
KL@@ 2404
gen; 2404
Basis@@ 2403
Inneres 2403
by@@ 2403
technologi@@ 2403
о 2403
,5 2402
Existenz 2402
Pic@@ 2402
Schri@@ 2402
fassen 2402
gefasst 2402
intensiv 2402
mass@@ 2402
Situ@@ 2401
aner 2401
mann@@ 2401
manu@@ 2401
Diskrimin@@ 2400
Trag@@ 2400
erleichtern 2400
ssel@@ 2400
”, 2400
Einschätzung 2399
Schlag@@ 2399
X-@@ 2399
gewicht 2399
zir@@ 2399
Beschlusses 2398
ISO 2398
begrenzte 2398
ia, 2398
itäten. 2398
24. 2397
betreu@@ 2397
ly@@ 2397
keineswegs 2396
rung 2396
ergeben, 2395
aum 2394
bringung 2394
operation@@ 2394
ure@@ 2394
dische 2393
Bl@@ 2392
Symb@@ 2392
anwal@@ 2392
Ausschreib@@ 2391
bewähr@@ 2391
legt. 2391
44 2389
Gast 2389
ausgewählten 2389
indirek@@ 2389
krieg@@ 2389
motivi@@ 2389
weis 2389
Schüler 2388
well 2388
Robert 2386
Straßburg 2386
anmel@@ 2386
erreicht, 2386
fanden 2386
leihen 2386
setzungen 2386
vorbereitet 2386
Klimawandels 2385
autor@@ 2385
gezwungen 2385
hnen 2385
mien 2385
zivil@@ 2385
zurückkehr@@ 2385
Strahl@@ 2384
darstellen, 2384
Zusammenschluss 2383
sich. 2383
Gesellschafts@@ 2381
Lateinamerika 2381
Vene@@ 2381
krank@@ 2381
schal@@ 2381
Belastung 2380
Software@@ 2380
Therap@@ 2380
bestra@@ 2380
kriterien 2380
erleichtert 2379
horizon@@ 2379
atisier@@ 2378
ausüb@@ 2378
weitaus 2378
Banan@@ 2377
ger. 2377
zäh@@ 2377
Aktionsplans 2376
beeinflus@@ 2376
derart 2376
mau@@ 2376
os, 2376
dacht 2375
dit 2375
enten. 2375
urlaub 2375
P) 2374
Schloss 2374
emo@@ 2374
ess, 2374
herausge@@ 2374
Flugzeug@@ 2373
Herz 2373
Situation, 2373
ungst@@ 2373
NICHT 2372
Phar@@ 2372
Zeit. 2372
unterliegen 2372
viertel 2372
Brun@@ 2371
Jahr, 2371
Premier@@ 2371
annt 2371
bildung, 2371
durchzuführen. 2371
geschloss@@ 2371
(W@@ 2370
RAT 2370
angebotenen 2370
Г@@ 2370
Binn@@ 2369
Rei@@ 2369
dos 2369
fort. 2369
sprü@@ 2369
Programm, 2368
derer 2368
dri@@ 2368
parte@@ 2368
potenti@@ 2368
Krä@@ 2367
Resolution 2367
eingerichtet. 2367
essen, 2367
ey 2367
Solche 2366
Truppen 2366
]@@ 2366
geringer 2366
schar@@ 2366
zeug 2366
zunehmen@@ 2366
85 2365
Europäischer 2365
Nicht-@@ 2365
Richtlin@@ 2365
rat@@ 2365
Darin 2364
genann@@ 2364
ô@@ 2364
….. 2364
Geträn@@ 2363
MS 2363
Menschen. 2363
Nutzungs@@ 2363
Personen. 2363
a" 2363
vermieden 2363
Ergänzung 2362
amm@@ 2362
modified 2362
Browser 2361
Unterstütz@@ 2361
anschau@@ 2361
beider 2361
cas@@ 2361
gesprochen. 2361
russische 2361
Bom@@ 2360
Studien@@ 2360
Tau@@ 2360
dex 2360
Fax@@ 2359
Frak@@ 2359
Produktivität 2359
bür@@ 2359
erklären 2359
rup@@ 2359
Genau 2358
Gut@@ 2358
met 2358
standard 2358
globaler 2357
notwendig. 2357
zog 2357
Armuts@@ 2356
Bedürf@@ 2356
Kunden, 2355
gabe@@ 2355
gesicher@@ 2355
lädt 2355
Allgemein@@ 2354
Konvention 2354
beträch@@ 2354
Begleit@@ 2353
Klo@@ 2353
Ministerpräsident 2353
Plas@@ 2353
arz@@ 2353
legitim@@ 2353
Indikatoren 2352
Nehmen 2352
Restaurants, 2352
gesprä@@ 2352
leist@@ 2352
angezeigt 2351
maschine 2351
ärmsten 2351
Pflanzen 2350
findung 2350
tom@@ 2350
M. 2349
Spitze 2349
richt 2349
Rußland 2348
inneren 2348
nel 2348
schuldig@@ 2348
Abendessen 2347
Journalisten 2347
Konzern@@ 2347
Resort 2347
Rindfle@@ 2347
Siehe 2347
Souveränität 2347
befre@@ 2347
fir@@ 2347
gesprochen, 2347
l-@@ 2347
9-@@ 2346
Camping@@ 2346
EIT 2346
Schlafzimmer 2346
Universitä@@ 2346
erstellt. 2346
habt 2346
vorlegen. 2346
cher@@ 2345
Auflösung 2344
Leg@@ 2344
Optim@@ 2344
din 2344
fällig@@ 2344
Aktualisierung 2343
Investi@@ 2343
KOM@@ 2343
Empfän@@ 2342
Operation 2342
Passwort 2342
Gefahr@@ 2341
behandlung 2341
entsteht 2341
knüpf@@ 2341
mäßigen 2341
schluss 2341
Gewährung 2340
Satz 2340
tei@@ 2340
ze. 2340
Öff@@ 2340
Rahmens 2339
bezo@@ 2339
Beschreibung: 2338
Betreuung 2338
Blick@@ 2338
erteilt 2338
ez 2338
lieferung 2338
qualifizierte 2338
geworden, 2337
Handlungen 2336
Rek@@ 2336
agentur 2336
ester@@ 2336
heim 2336
kunft 2336
sion. 2336
betrieb 2335
ble 2335
ch-@@ 2335
maxim@@ 2335
Durchschnit@@ 2334
Gär@@ 2334
erzeugnisse 2334
gener 2334
komplexen 2334
Geschmack 2333
dierung 2333
eingehen, 2333
dich@@ 2332
EWSA 2331
Tar@@ 2331
zuste@@ 2331
Universitäten 2330
Comp@@ 2329
Debat@@ 2329
grammatisch 2329
mün@@ 2329
professionellen 2329
58@@ 2328
Ol@@ 2328
Service@@ 2328
dein 2328
inn 2328
kä@@ 2328
lock@@ 2328
120 2327
Beobach@@ 2327
Festival 2327
Site" 2327
benötigen, 2327
folglich 2327
gab, 2327
sinnvoll 2327
wirkungs@@ 2327
Griechenland, 2326
ages 2326
d: 2326
gelern@@ 2326
Außenminister 2325
Stabil@@ 2325
Erweiterungs@@ 2324
ball 2324
dien 2324
hält. 2324
hält@@ 2324
hätte. 2324
usses 2324
iegel 2323
iker 2323
sprüche 2323
Begründung 2322
Ratschlag: 2322
Schlusselphrase 2322
agu@@ 2322
erfahren, 2322
web@@ 2322
"Finde 2321
ANT@@ 2321
Schlusselwort/der 2321
bemüht 2321
kontextuell, 2321
stattfinden. 2321
Histor@@ 2320
Polen, 2320
Vorgaben 2320
empfiehlt 2320
Diesen 2319
aufgezahlt 2319
eser@@ 2319
gebühren 2319
Million 2318
riff@@ 2318
Können 2317
eingegangen 2317
identifiz@@ 2317
kontextuellen 2317
ständi@@ 2317
Schluss, 2316
Tat@@ 2316
solch 2316
unternehmen. 2316
Angabe 2315
Kompro@@ 2315
basierten 2315
lis@@ 2315
umso 2315
Fischereipolitik 2314
Lebensqualität 2314
Schi@@ 2314
bringt, 2314
irak@@ 2314
mussten 2314
partei@@ 2314
DV@@ 2313
angeneh@@ 2313
betreffende 2312
verstärkten 2312
Kreditkar@@ 2311
ther 2311
Euro. 2310
Listings 2310
bezogenen 2310
gebil@@ 2310
(K@@ 2309
ASS@@ 2309
Beamten 2309
alternative 2309
bed@@ 2309
gehandelt 2309
regionen 2309
tivität 2309
Glauben 2308
dad 2308
Argumente 2307
Erleichterung 2307
Gesprä@@ 2307
benachteili@@ 2307
kunden 2307
Album 2306
aufgefordert 2306
bewaff@@ 2306
höchster 2306
konsequent 2306
Mittelmeerraum 2305
WE@@ 2305
fertig@@ 2305
gestalten 2305
Ausfuhr@@ 2304
Journ@@ 2304
beinahe 2304
eindeutige 2304
entdeckst, 2304
geehrte 2304
ik. 2304
Änder@@ 2304
Österreich, 2304
Zielsetzungen 2303
anta@@ 2303
elle, 2303
komplexe 2303
leidung 2303
länder, 2303
Av@@ 2302
Netzes 2302
Schalt@@ 2302
Via 2302
Vorgän@@ 2302
bewertet 2302
flich@@ 2302
ige, 2302
persön@@ 2302
sprüf@@ 2302
Kein 2301
Widerstand 2301
gie 2301
iser 2301
konvention@@ 2301
relev@@ 2301
steil@@ 2301
Stiftung 2300
:30 2299
Mittelmeer 2299
gesonder@@ 2299
port 2299
AP-@@ 2298
Prax@@ 2298
allem, 2298
energi@@ 2298
gewinnen. 2298
hören. 2298
sicherzustellen. 2298
Gemeinschaftsrecht 2297
festgelegt. 2297
fordern. 2297
verwirklich@@ 2297
wahren 2297
(R@@ 2296
Fußball@@ 2296
Investition@@ 2296
Renten@@ 2296
Symbol 2296
Wertpapier@@ 2296
alisiert 2296
ausch@@ 2296
bun@@ 2296
dition@@ 2296
mitglieder 2296
Trink@@ 2295
Strukturfon@@ 2294
hinzufugen. 2294
mit…"...@@ 2294
schaffen,/i> 2294
Einfuhren 2293
fälsch@@ 2293
Clu@@ 2292
Gesell@@ 2292
Schönheit 2292
Zug 2292
langsam@@ 2292
verschie@@ 2292
®@@ 2292
öder@@ 2292
Schnell@@ 2291
ausgebil@@ 2291
beigetragen 2291
n; 2291
stellten 2291
wertvolle 2291
Inv@@ 2290
cel@@ 2290
mechan@@ 2290
x. 2290
Maschine 2289
angezeigt, 2289
gelungen 2289
hervorheben, 2289
region@@ 2289
Ursprung 2288
Vermeidung 2288
anbieten. 2288
beginnen. 2288
lebt 2288
Anbie@@ 2287
Augenblick 2287
Empf@@ 2287
Parkplätze 2287
gent@@ 2287
überprüfen 2287
akadem@@ 2285
außerord@@ 2285
erne 2285
gründen 2285
telefonisch 2285
(Die 2284
EST@@ 2284
kritischen 2284
spa@@ 2284
teilten 2284
herrscht 2283
ti 2283
ust 2283
Global 2282
ruhig 2282
Eta@@ 2281
dass, 2281
vorlegen 2281
änder 2280
Fast 2279
gekenn@@ 2279
häufig@@ 2279
mittelalter@@ 2279
chem@@ 2278
stärkeren 2278
verschlech@@ 2278
Betre@@ 2277
Grünen 2277
klin@@ 2277
konzentrieren. 2277
sex@@ 2277
steigt 2277
>@@ 2276
Typ 2276
gesetz 2276
phys@@ 2276
steuern 2276
verteilt 2276
‚@@ 2276
Hat 2275
Klage 2275
bahnen 2275
kommerziellen 2275
selbst. 2275
', 2274
Erinner@@ 2274
Wall@@ 2274
situ@@ 2274
Arch@@ 2273
Europas. 2273
Messe@@ 2273
hiel@@ 2273
leih@@ 2273
organisation 2273
weich@@ 2273
Gewinne 2272
Strom 2272
Wör@@ 2272
behandeln 2272
roh@@ 2272
ät 2272
Werten 2271
Arbeitgeber 2270
Effek@@ 2270
Versuch, 2270
durchführen 2270
Bericht@@ 2269
Tabelle 2269
Verfahren, 2269
bett 2269
lungs@@ 2269
erischen 2268
ursprüngliche 2268
Maxim@@ 2267
bt, 2267
funktion 2267
liegende 2267
Ã¼@@ 2267
Interpre@@ 2266
PDF 2266
Währ@@ 2266
Alters@@ 2265
Elektriz@@ 2265
falsche 2265
Tie@@ 2264
Vel@@ 2264
Weiterhin 2264
jeglicher 2264
lösungen 2264
stellvertre@@ 2264
Übersicht 2264
üssen 2264
Ausgleich 2263
instrumente 2263
theore@@ 2263
ulation 2263
verges@@ 2263
vorange@@ 2263
Breitband@@ 2262
Wart@@ 2262
line 2262
plätz@@ 2262
$ 2261
gelassen 2261
knapp@@ 2261
konsequ@@ 2261
stü@@ 2261
unzäh@@ 2261
äd@@ 2261
64 2260
1:@@ 2259
Ausrüstung 2259
Blut@@ 2259
Garten@@ 2259
Reser@@ 2259
erhiel@@ 2259
lia 2259
n? 2259
Bestätigung 2258
Rolle, 2258
Russlands 2258
derartigen 2258
kum@@ 2258
Lissabon-Strategie 2257
fahrzeuge 2257
freig@@ 2257
sah 2257
wöch@@ 2257
Übertrag@@ 2257
setzte 2256
sport 2256
Rohstoff@@ 2255
atemberau@@ 2255
stitu@@ 2255
Konzentration 2254
Normal@@ 2254
Problematik 2254
gefährliche 2254
gelungen, 2254
Immun@@ 2253
Micro@@ 2253
Region. 2253
Zigar@@ 2253
bas@@ 2253
#@@ 2252
AH@@ 2252
Erklär@@ 2252
beru@@ 2252
reag@@ 2252
rieben 2252
text 2252
23. 2251
aktuell 2251
kultur@@ 2251
regelungen 2251
Energie, 2250
Ken@@ 2250
b) 2250
senk@@ 2250
Gewich@@ 2249
tschaft 2249
unverzicht@@ 2249
lehn@@ 2248
restrik@@ 2248
unde@@ 2248
Gebrau@@ 2247
hundert 2247
örtlichen 2247
Hör@@ 2246
W-@@ 2246
ь@@ 2246
Generaldirektion 2245
Lit@@ 2245
heiten. 2245
Brow@@ 2244
G) 2244
Stütz@@ 2244
press@@ 2244
ungsverfahr@@ 2244
vermutlich 2244
Denken 2243
Stau@@ 2243
Vorgehensweise 2243
erzielt. 2243
verring@@ 2243
Fabri@@ 2242
Gaz@@ 2242
Merkmale 2242
Mol@@ 2242
dul@@ 2242
näher@@ 2242
räu@@ 2242
zulassen, 2242
bleibt, 2241
flicht 2241
ungsweise 2241
uns. 2241
IM 2240
Know-how 2240
Wachstums 2240
brauchen. 2240
andel@@ 2239
e! 2239
tritt, 2239
0.000 2238
CR@@ 2238
Grundsätz@@ 2238
I, 2238
decken 2238
Büro@@ 2237
George 2237
ario 2237
eingereicht 2237
ffek@@ 2237
multilateralen 2237
verfügen. 2237
Block@@ 2236
potenziellen 2236
schränk@@ 2236
st-@@ 2236
(1@@ 2235
Meister@@ 2235
ausgewogenen 2235
å@@ 2235
berg@@ 2234
bert 2234
grundlegender 2234
mas@@ 2234
verdeut@@ 2234
Mittel- 2233
geschaffen, 2233
gig@@ 2233
lusses 2233
rah@@ 2233
symbol@@ 2233
VON 2232
Ziels 2232
muß@@ 2232
vention 2232
IA@@ 2231
Immer 2231
Pro 2231
Los 2230
größerer 2230
Fall@@ 2229
wit@@ 2229
Gesellschaft, 2228
Sensibil@@ 2228
Wett@@ 2228
gewonnen 2228
miet@@ 2228
pac@@ 2228
t), 2228
Orte 2227
gleichzei@@ 2227
verbunden. 2227
Arzneimittel 2226
erwartet, 2225
mediterran@@ 2225
verantwortlich. 2225
vere 2225
Belgien, 2224
Ursache 2224
angel@@ 2224
befas@@ 2224
elektron@@ 2223
israelischen 2223
lar@@ 2223
Ernennung 2222
Flexibil@@ 2222
Hotel. 2222
Thomas 2222
gemeinsam@@ 2222
maßgeb@@ 2222
ART@@ 2221
Dingen 2221
de.htm 2221
etc@@ 2221
ine, 2221
mente 2221
Lich@@ 2220
bevorstehenden 2220
chenen 2220
erhöhen, 2220
kündig@@ 2220
Drogen 2219
Kau@@ 2219
Klarheit 2219
ht@@ 2219
Alternativen 2218
Bilanz 2218
Flag@@ 2218
pe. 2218
EU-Vorschriften 2217
House 2217
basis 2217
kompon@@ 2217
rahmen@@ 2217
(IT) 2216
infra@@ 2216
verstöß@@ 2216
UNO 2215
all-@@ 2215
nehme 2215
ri 2215
A3@@ 2214
ausges@@ 2214
dahin 2214
militär@@ 2214
aufnehmen 2213
gelten, 2213
lob@@ 2213
teile, 2213
verteilung 2213
22. 2212
Erkenntnisse 2212
darstellen 2212
dieselbe 2212
ielle 2212
ms@@ 2212
regelmäßigen 2212
kurzer 2211
mittel, 2211
verdient 2211
Edel@@ 2210
Verluste 2210
nive@@ 2210
D, 2209
geplan@@ 2209
gewohn@@ 2209
irische 2209
rats 2209
Gold 2208
Schnitt@@ 2208
ente@@ 2208
ès 2208
Sieg 2207
begleitet 2207
ernsthafte 2207
haftet 2207
rufe 2207
strenge 2207
tags 2207
Fotogra@@ 2206
Sozialpartner 2206
gilt. 2206
verank@@ 2206
auber@@ 2205
einsetzen 2205
(199@@ 2204
Fluss 2204
Kommission: 2204
PC@@ 2204
amb@@ 2204
e“ 2204
gewich@@ 2204
gib@@ 2204
ration 2204
reiz@@ 2204
sität 2204
Brutto@@ 2203
d) 2203
ment-@@ 2203
bon@@ 2202
of@@ 2202
verfahrens 2202
Einwanderungs@@ 2201
Metall@@ 2201
Patri@@ 2201
dia 2201
rufen, 2201
völ@@ 2201
Rolle. 2200
col@@ 2200
institution@@ 2200
jek@@ 2200
ungarischen 2200
vermeiden 2200
Ama@@ 2199
Innerhalb 2199
Schwarz@@ 2198
Verbesser@@ 2198
Volk@@ 2198
fro@@ 2198
lied 2198
yo@@ 2198
Gesetzgeb@@ 2197
Griechen@@ 2197
meine, 2197
wirkungen 2197
Weltwirtschaft 2196
jähri@@ 2196
nes 2196
Erwar@@ 2195
Filme 2195
Konsult@@ 2195
eingestellt 2195
skosten 2195
Katalog 2194
Vorbereit@@ 2194
ismus@@ 2194
konfigur@@ 2194
only 2194
Architektur@@ 2193
Fas@@ 2193
JavaScript 2193
Konsolidierung 2193
Zwangs@@ 2193
funktionieren 2193
kleineren 2193
kämpfen 2193
tü@@ 2193
äle 2193
festzu@@ 2192
fiel@@ 2192
ges, 2192
ist; 2192
übertrag@@ 2192
Digit@@ 2191
aktivitäten 2191
f�r 2191
mals 2191
66@@ 2190
Kyoto-@@ 2190
find@@ 2190
gehöri@@ 2190
thin 2190
Arbeitslosen@@ 2189
Desig@@ 2189
feste 2189
Cock@@ 2188
Freitag 2188
diskutieren, 2188
Gott@@ 2187
Ursprungs@@ 2187
absol@@ 2187
begrüßte 2187
ergreifen. 2187
Sitzungen 2186
gewöhnlich 2186
moderner 2186
multination@@ 2186
E-Mail: 2185
gelegene 2185
nä@@ 2185
stur@@ 2185
vorgelegt, 2185
:0@@ 2184
abe@@ 2184
altern@@ 2184
ge-@@ 2184
gres@@ 2184
Umstände 2183
Beratungs@@ 2182
krise 2182
terer 2182
elt. 2181
hätte, 2181
Gerichtsho@@ 2180
Minib@@ 2180
Reservier@@ 2180
rufen. 2180
z.@@ 2180
Scho@@ 2178
hoben. 2178
wirksamer 2178
Werkzeug@@ 2177
breakfast 2177
lösen, 2177
verbindet 2177
veröffentlichten 2177
Install@@ 2176
Ländern. 2176
Stur@@ 2176
besich@@ 2176
hoffen 2176
nötige 2176
ränken 2176
Anim@@ 2175
hoben 2175
ket 2175
Brasili@@ 2174
atives 2174
schwä@@ 2174
sicherheit, 2174
würfe 2174
Durchschnitt 2173
Freund 2173
Gesundheit, 2173
Tür 2173
erörtert 2173
stim@@ 2173
tige, 2173
ult@@ 2173
ungsergeb@@ 2173
Island 2172
Mädchen 2172
befassen 2172
viert 2172
Bevölker@@ 2171
Demokraten 2171
Drittstaaten 2171
Korrek@@ 2171
sou@@ 2171
strategi@@ 2171
Abend@@ 2170
Arbeitskrä@@ 2170
Industriel@@ 2170
endgültig 2170
ity 2170
schür@@ 2170
Chance, 2169
Haupts@@ 2169
Kommissionsvorschlag 2169
besitzen 2169
detaillierte 2169
erwä@@ 2169
Hoffn@@ 2168
spiegel@@ 2168
Fahrer 2167
egal 2167
getö@@ 2167
nfalls 2167
Bauern@@ 2166
Einvernehmen 2165
Western 2165
halts@@ 2165
verhalten 2165
dazu@@ 2164
isp@@ 2164
ist? 2164
Abfälle 2163
Energiequellen 2163
Klimawand@@ 2163
Künstler@@ 2163
Satellit@@ 2163
TO@@ 2163
geregelt 2163
Minute 2162
TV@@ 2162
Wachstum@@ 2162
Erzeuger 2161
Magaz@@ 2161
Missi@@ 2161
TS@@ 2161
Uns 2161
erische 2161
ison 2161
software 2161
Vill@@ 2160
defiz@@ 2160
gegründet. 2160
s; 2160
Datei@@ 2159
Num@@ 2159
Stund@@ 2159
aux 2159
bestimmtes 2159
erzielte 2159
gran@@ 2159
toler@@ 2159
!! 2158
mehrerer 2158
menge 2158
religiösen 2158
stammt 2158
MEMO/@@ 2157
aktionen 2157
hersteller 2157
sichtbar 2157
daher, 2156
erhoben 2156
verschwin@@ 2156
angewand@@ 2155
gesetzte 2155
nation@@ 2155
ten! 2155
Fleisch@@ 2154
Konvergenz@@ 2154
Oze@@ 2154
any 2154
behalten. 2154
hende 2153
personen 2153
Konflikt@@ 2152
durchzu@@ 2152
more 2152
ventions@@ 2152
Bewusstsein 2151
But@@ 2150
ader 2150
aufrechter@@ 2150
kontak@@ 2150
stärken, 2150
verletzt 2150
Lissabon-@@ 2149
koh@@ 2149
kontaktieren 2149
set 2149
zwanzig 2149
Bundesrepublik 2148
Verletzungen 2148
Wochen@@ 2148
eigentliche 2148
(der 2147
Gleichbehandlung 2147
Jugoslawien 2147
Mur@@ 2147
NRO 2147
Problem. 2147
anstal@@ 2147
enken. 2147
Für@@ 2146
betriebe 2146
präzise 2146
Anmel@@ 2145
CH 2145
Häuser 2145
IP/@@ 2145
ausgestattete 2145
berichte 2145
einiges 2145
geschmack@@ 2145
ELL@@ 2144
Sup@@ 2144
leichte 2144
Berechnung 2143
Stock@@ 2143
Umstellung 2143
geprägt 2143
konstruktive 2143
Jean-@@ 2142
Verordn@@ 2142
angeb@@ 2142
Progno@@ 2141
konkre@@ 2141
warten, 2141
Anbindung 2140
Ministerp@@ 2140
Schicksal 2140
klick@@ 2140
verstärken. 2140
1990@@ 2139
bisher@@ 2139
gas 2139
gebro@@ 2139
Bürgerbeauftragten 2138
Gesprächen 2138
schwäch@@ 2138
Autos 2137
Europol 2137
Marokko 2137
dürften 2137
schmerz@@ 2137
tori@@ 2137
(im 2136
Bit@@ 2136
Spannungen 2136
aktivieren. 2136
erläu@@ 2136
fest. 2136
stad@@ 2136
ämpf@@ 2136
Akte@@ 2135
Ausnahmeregel@@ 2135
Biblioth@@ 2135
Mobilfunk@@ 2135
begeg@@ 2135
drücken 2135
parallel 2135
(Das 2134
Arbeit. 2134
Privatsphäre 2134
anderen, 2134
faire 2134
ta, 2134
überzeu@@ 2134
Deutschlands 2133
Islam@@ 2133
Lebensmitteln 2133
Oberfläche 2133
Verstoß 2133
diplom@@ 2133
Dokumentation 2132
Maschin@@ 2132
blick 2132
ix 2132
nah 2132
sicherheits@@ 2132
.de 2131
Betrug 2131
runde 2131
vermiet@@ 2131
Nat@@ 2130
ethn@@ 2130
etzt 2130
merkt 2130
schlechte 2130
heil@@ 2129
run@@ 2129
Themen, 2128
Volkspartei 2128
administra@@ 2128
kunden@@ 2128
lautet 2128
müsste 2128
Gedanken@@ 2127
akzeptieren. 2127
erzielen, 2127
müssten 2127
wechsel 2127
HO@@ 2126
Suiten 2126
ells 2126
inger@@ 2126
strö@@ 2126
werfen 2126
alität, 2125
au. 2125
entari@@ 2125
prior@@ 2125
Motor 2124
Stellung@@ 2124
Wissenschaftl@@ 2124
ago@@ 2124
eingeschränk@@ 2124
gespiel@@ 2124
reis 2124
Arbeitskräfte 2123
Komp@@ 2123
geleit@@ 2122
te; 2122
womit 2122
Blog 2121
Infrastrukturen 2121
Kons@@ 2121
dauerhafte 2121
iellen 2121
nachhaltig 2121
nat@@ 2121
sonn@@ 2121
tätigen 2121
Vorred@@ 2120
1,5 2119
automati@@ 2119
ies 2119
schieden 2119
Beweg@@ 2118
bereiten 2118
erkannt 2118
inf@@ 2118
Aussagen 2117
Sens@@ 2117
Unterkünfte 2117
achen 2117
realen 2117
tan 2117
Emp@@ 2116
Eri@@ 2116
Zurück@@ 2116
etwas, 2116
gemä@@ 2116
rasch@@ 2116
städtischen 2116
verfolg@@ 2116
Plaza 2115
Spaziergang 2115
ausschließ@@ 2115
ona 2115
zeigte 2115
Kommissionspräsid@@ 2114
bers 2114
Aussichten 2113
F, 2113
ue@@ 2113
41 2112
Balkon 2112
Entspannung 2112
u.@@ 2112
ID 2111
Unterneh@@ 2111
Zusagen 2111
fertigung 2111
gerei@@ 2111
instrum@@ 2111
lick@@ 2111
reifen 2111
steck@@ 2111
tragt 2111
Г¤@@ 2111
Ass@@ 2110
DN@@ 2110
Gebir@@ 2110
enswerte 2110
zielen 2110
Überzeugung, 2110
Fernse@@ 2109
Que@@ 2109
abhän@@ 2109
ameri@@ 2109
grenze 2109
osteuropäischen 2109
zweitens 2109
Ci@@ 2108
Diszipl@@ 2108
Ly@@ 2107
Milliar@@ 2107
Mittl@@ 2107
Ruf 2107
massi@@ 2107
n-@@ 2107
spunkt 2107
streng 2107
D. 2106
Mischung 2106
Solar@@ 2106
Verfass@@ 2106
abel@@ 2106
eigentlichen 2106
fts@@ 2106
niss@@ 2106
zeuge 2106
Änderungs@@ 2106
äußerster 2106
Bisher 2105
Klau@@ 2105
Nahrungs@@ 2105
Sem@@ 2104
Vermarktung 2104
begrüßen, 2104
erungs@@ 2104
istischer 2104
lernen. 2104
NE 2103
Republik, 2103
ror@@ 2103
syn@@ 2103
verbindungen 2103
ölle 2103
Schienen@@ 2102
betr@@ 2102
ethnischen 2102
va@@ 2102
kritisier@@ 2101
BA@@ 2100
bilaterale 2100
dün@@ 2100
gefährlichen 2100
standen, 2100
Hinsichtlich 2099
Invest@@ 2099
erstellen. 2099
vorrangig 2099
Beschäftigten 2098
Spielen 2098
bezahlt 2098
bul@@ 2098
fac@@ 2098
gefährdet 2098
igkeit, 2098
inischen 2098
is-@@ 2098
lie 2098
verfolgen, 2098
atik 2097
deshalb, 2097
klus 2097
verhinder@@ 2097
Anti-@@ 2096
Umweltfragen, 2096
Zerstörung 2096
itor@@ 2096
Acc@@ 2095
Anwendungsbereich 2095
Vertreters 2095
enthält. 2095
forderte 2095
nungen 2095
Belast@@ 2094
Betroffenen 2094
Univer@@ 2094
Update 2094
diver@@ 2094
kontinuierlich 2094
sch. 2094
José 2093
KO@@ 2093
erwähnten 2093
shop 2093
stem 2093
umgekehr@@ 2093
Bulgari@@ 2092
Key@@ 2092
Nachhal@@ 2092
Pho@@ 2092
agnen 2092
ruhige 2092
tritt. 2092
welle 2092
Güter 2091
Katastroph@@ 2091
Phil@@ 2091
enthält, 2091
jap@@ 2091
kompet@@ 2091
Einschränkungen 2090
Publikum 2090
industrielle 2090
Fac@@ 2089
Mrd 2089
Nep@@ 2089
automatische 2089
geschafft 2089
sämtlichen 2089
wort 2089
{{@@ 2089
Detail 2088
Föderation 2088
Media 2088
PP@@ 2088
T) 2088
bekommt 2088
diesbezüglichen 2088
grund 2088
umfassendes 2088
vertritt 2088
weitreich@@ 2088
wenigsten 2088
überwiegend 2088
demokratischer 2087
Ann@@ 2086
Freis@@ 2086
Vergabe 2086
argum@@ 2086
befürch@@ 2086
einfach, 2086
esen, 2086
finanzieller 2086
greift 2086
tete, 2086
Festiv@@ 2085
Präsidentschafts@@ 2085
benann@@ 2085
fehler@@ 2085
restaurant 2085
ulen 2085
Forder@@ 2084
aktiviert 2084
beleb@@ 2084
einig, 2084
eken 2084
m-@@ 2084
starkes 2084
Kn@@ 2083
sachen 2083
spektakul@@ 2083
Obama 2082
Rechtsrahmen 2082
ausstattung 2082
back 2082
gefordert, 2082
geklärt 2082
gemütliche 2082
gesichert 2082
Behörden, 2081
NI@@ 2081
Räume 2081
abschließ@@ 2081
wahre 2081
öffnen 2081
Hinweis: 2080
Vereinbar@@ 2080
ager 2080
entspannen 2080
geschrieb@@ 2080
tritts@@ 2080
Mul@@ 2079
berechtigt, 2079
drückt 2079
kommissar 2079
Unternehmer 2078
gos 2078
poli@@ 2078
ystem 2078
Fremdenverkehr 2077
Orientier@@ 2077
angezeigt. 2077
Rande 2076
Südafrika 2076
vorhand@@ 2076
Anfang@@ 2075
Einzelnen 2075
Erwägung 2075
Reit@@ 2075
Schwimm@@ 2075
ahr@@ 2075
ge: 2075
gemessen 2075
gesor@@ 2075
modernis@@ 2075
Mehrwert 2074
Mehrwertsteuer@@ 2074
News@@ 2074
ela 2074
vorsitz@@ 2074
Krisen 2073
ehl@@ 2073
Bah@@ 2072
Fluggesellschaften 2072
Holz 2072
Sky@@ 2072
agent@@ 2072
durch. 2072
geboten 2072
insofern 2072
nahme, 2072
sorgungs@@ 2072
ung? 2072
verbindung 2072
Rahmenprogramm 2071
geschäft@@ 2071
kli@@ 2071
prüfung 2071
Dok@@ 2070
Inten@@ 2070
absolute 2070
¶@@ 2070
Гј@@ 2070
bemühen, 2069
bestätigt, 2069
durchschnittlich 2069
renomm@@ 2069
í 2069
Frage. 2068
Märk@@ 2068
Orten 2068
einzig 2068
ritt 2068
29. 2067
ations 2067
Ball@@ 2066
E-Mail-@@ 2066
Erfolgs@@ 2066
Gegner 2066
Traditionen 2066
gefäl@@ 2066
här@@ 2066
junger 2066
kritische 2066
luxuri@@ 2066
schicken 2066
Montag 2065
Wertsch@@ 2065
Zimmerbeschreibung: 2065
geltend 2065
let 2065
Betrifft: 2064
Stabilitätsp@@ 2064
beschei@@ 2064
daten@@ 2064
gl. 2064
lernen, 2064
Appartements 2063
Speisen 2063
denn, 2063
einst 2063
häus@@ 2063
German 2062
J 2062
Repräsent@@ 2062
terin 2062
zeit, 2062
elegante 2061
entstand 2061
ess 2061
Aussage 2060
Bezir@@ 2060
Gewässer@@ 2060
Oli@@ 2060
Poker 2060
Protokoll@@ 2060
aufgebaut 2060
behaupten, 2060
leuch@@ 2060
protok@@ 2060
verkün@@ 2060
ч@@ 2060
mie 2059
Bewirtschaftung 2058
Krieges 2058
Mein@@ 2058
ais 2058
gingen 2058
japanischen 2058
mal, 2058
trop@@ 2058
21@@ 2057
Bul@@ 2057
Formulierung 2057
Händler 2057
Nuklear@@ 2057
SU@@ 2057
Visum@@ 2057
Zahn@@ 2057
alisier@@ 2057
biologische 2057
Diensten 2056
Regis@@ 2056
Royal 2056
zif@@ 2056
Drei 2055
Frankfur@@ 2055
ruf@@ 2055
Missbrauch 2054
entsp@@ 2054
größer@@ 2054
Estland 2053
annehmen 2053
pap@@ 2053
sexuellen 2053
sse. 2053
zwei@@ 2053
ältere 2053
Ker@@ 2052
Modul 2052
assoziierten 2052
ausgesch@@ 2052
gesp@@ 2052
Bush 2051
Fachle@@ 2051
Kohlen@@ 2051
Kämpf@@ 2051
Standpunkte 2051
ham 2051
ssen@@ 2051
zurückzuführen 2051
Verbün@@ 2050
fürch@@ 2050
gewünschte 2050
wend@@ 2050
Konzepte 2049
flexibel 2049
hervorgehoben 2049
ichte 2049
schwierig, 2049
teter 2049
to, 2049
Infek@@ 2048
UL@@ 2048
andel 2048
telefon@@ 2048
Q 2047
flexible 2047
klass@@ 2047
schlagen. 2047
GVO 2046
Heizung, 2046
Küche, 2046
Treib@@ 2046
WLAN 2046
anbieten 2046
angepas@@ 2046
dauerhaften 2046
schied@@ 2046
typisch 2046
vit@@ 2046
Bör@@ 2045
Ebene, 2045
lüssel@@ 2045
tivi@@ 2045
uh@@ 2045
Dro@@ 2044
Han@@ 2044
Kön@@ 2044
nach, 2044
russ@@ 2044
ssen, 2044
there 2044
Offenheit 2043
Prodi 2043
Türkei, 2043
frie@@ 2043
hier, 2043
israel@@ 2043
neh@@ 2043
strengen 2043
99 2042
Anwesenheit 2042
Bars 2042
Gewin@@ 2042
Anfän@@ 2041
Dossi@@ 2041
Rubrik 2041
Wohnungen 2041
England 2040
Verhaltens@@ 2040
tausend 2040
verbund@@ 2040
Dokument@@ 2039
Moder@@ 2039
geld 2039
Haut 2038
befrie@@ 2038
multilater@@ 2038
ökologische 2038
laufen. 2037
Fraktion, 2036
Perspektiven 2036
Verträgen 2036
entdecken 2036
erlaubt, 2036
Lasten 2035
Richter 2035
Rob@@ 2035
Verfahr@@ 2035
beinhal@@ 2035
spiegelt 2035
Ähn@@ 2035
allgemein@@ 2034
fikation 2034
setzungs@@ 2034
Beschränkung 2033
Ferienh@@ 2033
Zusammen 2033
ement 2033
griechische 2033
s! 2033
verbringen 2033
werde. 2033
wurfs 2033
EC 2032
Ehe@@ 2032
ISCH@@ 2032
Mehrere 2032
geboren 2032
lev@@ 2032
ture@@ 2032
wendungen 2032
Tochter@@ 2031
begrenzten 2031
frucht@@ 2031
mitteilen, 2031
noch, 2031
präs@@ 2031
samm@@ 2031
ufen 2031
28. 2030
gewe@@ 2029
visu@@ 2029
Schwerpunkte 2028
außergewöhn@@ 2028
ment. 2028
niem@@ 2028
starten 2028
Interes@@ 2027
PHP 2027
Spir@@ 2027
erwe@@ 2027
fortgesetzt 2027
gewiss@@ 2027
l’@@ 2027
Austausch@@ 2026
befassen. 2026
drei@@ 2026
methode 2026
then 2026
99@@ 2025
Amtszeit 2025
Befug@@ 2025
Behaup@@ 2025
Lettland 2025
dar 2025
gekauf@@ 2025
system@@ 2025
26. 2024
Ausbeutung 2024
FF@@ 2024
Steuerzahler 2024
Top@@ 2024
bene 2024
schreiben, 2024
Suite 2023
Tag, 2023
fähiger 2023
geöffnet. 2023
interessanten 2023
investitionen 2023
Barcelon@@ 2022
U, 2022
ausgewähl@@ 2022
qualifizierten 2022
tus 2022
Graph@@ 2021
basierte 2021
c-@@ 2021
heutzutage 2021
verboten 2021
Kapaz@@ 2020
Schei@@ 2020
fund@@ 2019
ungs 2019
Berlin@@ 2018
Deutschland. 2018
Funktionsweise 2018
Gewer@@ 2018
Kunststoff@@ 2018
Prävention 2018
Richtlinie, 2018
Texti@@ 2018
Wet@@ 2018
gebillig@@ 2018
gleicher 2018
MIT@@ 2017
Saison 2017
mengen 2017
situation 2017
stamm@@ 2017
stet 2017
Öffentlichkeit: 2017
überprüf@@ 2017
Mah@@ 2016
Mitentscheid@@ 2016
Mitwirkung 2016
Tagungen 2016
Zeitpunkt, 2016
ele 2016
zusetzen. 2016
Hunder@@ 2015
bele@@ 2015
ber. 2015
http://@@ 2015
korea 2015
nützlich 2015
verlangen 2015
versehene 2015
Empfehl@@ 2014
flächen 2014
nes@@ 2014
strik@@ 2014
tiz@@ 2014
wendet 2014
äß@@ 2014
Bug@@ 2013
Kabel@@ 2013
Provin@@ 2013
qualifiz@@ 2013
beauf@@ 2012
denselben 2012
weib@@ 2012
Auflagen 2011
ausführlich 2011
dies, 2011
gesellschaftliche 2011
raum@@ 2011
richt. 2011
CC@@ 2010
Euro, 2010
Mär@@ 2010
Ratspräsident@@ 2010
Trend 2010
`@@ 2010
ama 2010
jü@@ 2010
wird? 2010
Lieferanten 2009
Professor 2009
Radio@@ 2009
Zweif@@ 2009
abweich@@ 2009
ende@@ 2009
alp@@ 2008
sem@@ 2008
verwen@@ 2008
würdige 2008
Bett@@ 2007
Job@@ 2007
Part@@ 2007
Referendum 2007
Sank@@ 2007
kommende 2007
ungeachtet 2007
wun@@ 2007
DO@@ 2006
Meinungen 2006
Mitgliedstaats 2006
Organen 2006
Tal 2006
akte 2006
Support 2005
abgesehen 2005
befindet, 2005
berechtigt 2005
finanziell 2005
jeweilige 2005
Nik@@ 2004
energie@@ 2004
istan 2004
Ner@@ 2003
Basi@@ 2002
Feier@@ 2002
burg, 2002
cm 2002
fän@@ 2002
Bern@@ 2001
entr@@ 2001
gemütlichen 2001
pe 2001
rum@@ 2001
stoß 2001
Liberalen 2000
Militä@@ 2000
aufwand 2000
fährt 2000
geruf@@ 2000
Samm@@ 1999
spr@@ 1999
Präsidentin 1998
Qualität, 1998
TEN@@ 1998
demonstri@@ 1998
denen, 1998
maximale 1998
niedriger 1998
ums, 1998
zugelassen 1998
27. 1997
HAN@@ 1997
Leh@@ 1997
Zulass@@ 1997
ohnehin 1997
rats@@ 1997
vorteil@@ 1997
Artikels 1996
Engage@@ 1996
Inhalten 1996
Ratspräsid@@ 1996
about 1996
erstreckt 1996
jah@@ 1996
schir@@ 1996
Kris@@ 1995
Schluss@@ 1995
UC@@ 1995
erfolgen, 1995
gegenseitig 1995
iter@@ 1995
makro@@ 1995
46 1994
Feststellung 1994
Königreichs 1994
rechen 1994
Anmerkungen 1993
Fleisch 1993
analysier@@ 1993
hy@@ 1993
züglich 1993
Diskus@@ 1992
anschließ@@ 1992
jemals 1992
mobile 1992
prinzip 1992
sieht, 1992
bank, 1991
fassen. 1990
uropa 1990
(1) 1989
Art. 1989
Unterstützung, 1989
erfolgte 1989
leitungen 1989
Eindruck, 1988
F) 1988
Wach@@ 1988
Zuverlässigkeit 1988
ison@@ 1988
uchte 1988
Überwach@@ 1988
öse 1988
Py@@ 1987
hef@@ 1987
Hän@@ 1986
theit@@ 1986
voneinander 1986
Ausblick 1985
Projekte, 1985
geseh@@ 1985
B) 1984
Hotels, 1984
Peti@@ 1984
Registrier@@ 1984
Wie@@ 1984
beam@@ 1984
entschlossen, 1984
ity@@ 1984
nennen 1984
ände, 1984
beschaff@@ 1983
betreffen, 1983
größt@@ 1983
lüssen 1983
siniti@@ 1983
Bezieh@@ 1982
übermittelt 1982
Kandi@@ 1981
Lok@@ 1981
cke, 1981
e? 1981
ohn@@ 1981
ters, 1981
Aufträge 1980
Heimat 1980
center 1980
entscheiden. 1980
gewisser 1980
la, 1980
laufen, 1980
nice 1980
schnitt 1980
Hypo@@ 1979
Subventionen 1979
een 1979
stätten 1979
E-Mail@@ 1978
Erhebung 1978
Fehlen 1978
Folglich 1978
Plenar@@ 1978
Quoten 1978
Religion 1978
Shop 1978
Vorsitzende 1978
etten@@ 1978
exklusi@@ 1978
friedlichen 1978
klen 1978
zukommen 1978
Direktor 1977
Fakten 1977
Jugendliche 1977
Rechner 1977
i) 1977
leitet 1977
ney 1977
Medizin@@ 1976
konstruktiven 1976
lässt, 1976
Attrak@@ 1975
Bestände 1975
Brau@@ 1975
Innenstadt 1975
Kri@@ 1975
Vorschri@@ 1975
bau, 1975
inwieweit 1975
jan@@ 1975
konz@@ 1975
O) 1974
Schaf@@ 1974
Slowake@@ 1974
anlässlich 1974
benö@@ 1974
Angriffe 1973
program@@ 1973
Erwachsene 1972
Höhe@@ 1972
Investition 1972
begegn@@ 1972
genheit 1972
wollten 1972
Dampf@@ 1971
Hände 1971
Interessen@@ 1971
ernste 1971
sexu@@ 1971
Entwickler 1970
Schwim@@ 1970
ate, 1970
erfreut 1970
Bereit@@ 1969
Buff@@ 1969
Download@@ 1969
EU-Recht 1969
gon@@ 1969
abo@@ 1968
andere, 1968
angenehme 1968
gers 1968
tiefen 1968
würdigen 1968
CP@@ 1967
SK@@ 1967
abgelehn@@ 1967
eingeh@@ 1967
untergra@@ 1967
zeuge, 1967
Herzegowina 1966
angenehm 1966
einzelner 1966
wunderschöne 1966
xis 1966
Folgendes 1965
Sex@@ 1965
einzurich@@ 1965
modi@@ 1965
tten@@ 1965
Amtsblatt 1964
Champ@@ 1964
Konstruk@@ 1964
Vergü@@ 1964
geachtet 1964
initiative 1964
Schuld@@ 1963
Wiederein@@ 1963
gering 1963
gewünsch@@ 1963
identi@@ 1963
setzung, 1963
vorherigen 1963
Marketing 1962
Transaktionen 1962
ehrgeiz@@ 1962
früh 1962
verkaufen 1962
verlieren 1962
ürz@@ 1962
Hamburg 1961
Haushaltsplans 1961
Irak@@ 1961
Sammel@@ 1961
ausgezeichne@@ 1961
abschließend 1960
entstehen, 1960
ild@@ 1960
(NL) 1959
Anle@@ 1959
befrei@@ 1959
gste 1959
plo@@ 1959
ssystems 1959
Bücher 1958
Nichtraucherzimmer, 1958
jetzt, 1958
Ausschüsse 1957
Cu@@ 1957
Hauptbahnhof 1957
Jahr. 1957
Verbindungs@@ 1957
ahr 1957
herstell@@ 1957
verlangen, 1957
Á@@ 1957
Übernach@@ 1957
Landes, 1956
Luftrau@@ 1956
Rah@@ 1956
bö@@ 1956
durchschnittliche 1956
hei@@ 1956
racht 1956
unkt 1956
übernehmen, 1956
Leiden@@ 1955
ite@@ 1955
kurzfristig 1955
ry@@ 1955
üt@@ 1955
Büch@@ 1954
dänischen 1954
hielt 1954
sicherer 1954
would 1954
Beendigung 1953
Nichtraucherzon@@ 1953
bedeuten 1953
präsentieren 1953
Kunden. 1952
Vermittlungs@@ 1952
angestreb@@ 1952
beendet 1952
einsetzen. 1952
erläuter@@ 1952
ers. 1952
konzept 1952
tiefe 1952
zeitig 1952
Kräften 1951
Millenn@@ 1951
Nachmittag 1951
ausgewogene 1951
brau@@ 1951
kündigt 1951
Amsterdam@@ 1950
Nive@@ 1950
Parkplatz 1950
Wich@@ 1950
dasselbe 1950
en". 1950
erinnern 1950
steigenden 1950
67@@ 1949
PO@@ 1949
Resid@@ 1949
Tätig@@ 1949
mithilfe 1949
stab 1949
Bem@@ 1948
GES@@ 1948
Vorschläge, 1948
ame@@ 1948
entstehen. 1948
gefunden. 1948
gsten 1948
konstitu@@ 1948
Arbeitsbedingungen 1947
Inflations@@ 1947
Weltkrieg 1947
effektiven 1947
kooper@@ 1947
spezif@@ 1947
stattdessen 1947
tigem 1947
Jag@@ 1946
organisieren 1946
scheint, 1946
van@@ 1946
verabschiedete 1946
verstärken 1946
zeichnen, 1946
Bedar@@ 1945
Bud@@ 1945
Einfuhr@@ 1945
Las 1945
Taten 1945
gefühl 1945
gewer@@ 1945
stag, 1945
Vizep@@ 1944
englischen 1944
geeignet. 1944
national@@ 1944
Amerikas 1943
Sicherheits- 1943
Somm@@ 1943
klasse 1943
55@@ 1942
Quartal 1942
Stabilisierung 1942
erfordern 1942
kanz@@ 1942
konnten, 1942
Flughaf@@ 1941
Immobilien 1941
Philosophie 1941
besseres 1941
tika 1941
unterstreichen, 1941
Transpar@@ 1940
biet@@ 1940
stru@@ 1940
Hall@@ 1939
Norwe@@ 1939
Ostse@@ 1939
Tä@@ 1939
Webseit@@ 1939
gehören. 1939
sches 1939
versicherungs@@ 1939
wird; 1939
reagieren. 1938
riff 1938
vernich@@ 1938
Haushaltsjahr 1937
Intervention 1937
U-Bahn@@ 1937
té@@ 1937
unmittelbaren 1937
vertraut 1937
Gastfreund@@ 1936
Libanon 1936
Weis@@ 1936
gekennzeichnet 1936
istisch 1936
rüstung 1936
Bauern 1935
Experim@@ 1935
Gewinner 1935
Sound@@ 1935
Versprechen 1935
prozess@@ 1935
sth@@ 1935
Hierbei 1934
Näch@@ 1934
Steu@@ 1934
kurs 1934
they 1934
Brüssel@@ 1933
MI@@ 1933
Mem@@ 1933
agra@@ 1933
angemessener 1933
befasst 1933
engere 1933
metho@@ 1933
zips 1933
Albanien 1932
Felder 1932
Zugriff@@ 1932
ent-@@ 1932
krip@@ 1932
luss, 1932
sun@@ 1932
vorherige 1932
bemüht, 1931
das@@ 1931
erinner@@ 1931
Möbel@@ 1930
UR 1930
eleganten 1930
wissens@@ 1930
Datenschutz 1929
Indem 1929
OSZ@@ 1929
gutem 1929
luft@@ 1929
Liquid@@ 1928
Tipp@@ 1928
Vide@@ 1928
als, 1928
unberühr@@ 1928
wäsche 1928
Ebene. 1927
Energiepolitik 1927
Gipfels 1927
Konv@@ 1927
Liebl@@ 1927
itigkeiten 1927
klarer 1927
orientierte 1927
Rennen 1926
Vertragsparteien 1926
Wortlaut 1926
erlassen 1926
Autor 1925
Erwachsen@@ 1925
Wünschen 1925
aktiver 1925
erwähnt, 1925
Alban@@ 1924
Alter@@ 1924
P, 1924
leistet 1924
(KOM@@ 1923
Schott@@ 1923
Stil@@ 1923
beliebigen 1923
eigenem 1923
folger@@ 1923
frist 1923
47 1922
Berg 1922
Häus@@ 1922
Immobili@@ 1922
Rezession 1922
cou@@ 1922
verabschied@@ 1922
Bewertungen 1921
also, 1921
anten@@ 1921
intellig@@ 1921
kapazität 1921
Bibliothek 1920
Fahrzeug 1920
Kurz 1920
ong@@ 1920
vorzulegen, 1920
Annäherung 1919
Arbeitsprogramm 1919
Binnen@@ 1919
Datenbank@@ 1919
Deb@@ 1919
Einschränkung 1919
ata 1919
ed, 1919
änderung 1919
Frühstücksbuffet 1918
Objekte 1918
Segel@@ 1918
erweit@@ 1918
Irland, 1917
Wär@@ 1917
azz@@ 1917
bewegung 1917
esische 1917
Airport 1916
Fün@@ 1916
Klimaan@@ 1916
Schluß@@ 1916
erlebt 1916
new 1916
Cookies 1915
Früh@@ 1915
Katastro@@ 1915
Kontrol@@ 1915
Labor@@ 1915
berichten 1915
pfen 1915
rad@@ 1915
Mig@@ 1914
Stich@@ 1914
Zuständig@@ 1914
bisschen 1914
gesellschaf@@ 1914
heben, 1914
old 1914
Gewerk@@ 1913
any@@ 1913
bestand@@ 1913
bis@@ 1913
gemeinschaftliche 1913
uropäischen 1913
Jac@@ 1912
Lux@@ 1912
Mail 1912
ebene 1912
müss@@ 1912
Empfänger 1911
Termin 1911
Uni@@ 1911
erober@@ 1911
erschwer@@ 1911
trin@@ 1911
zugang 1911
(8@@ 1910
Jack@@ 1910
Lehren 1910
Osteuropa 1910
Sn@@ 1910
Verantwortlichen 1910
enz. 1910
gin@@ 1910
heraus, 1910
Auß@@ 1909
Onlin@@ 1909
vic@@ 1909
Fristen 1908
Hongkon@@ 1908
gesundheits@@ 1908
lor@@ 1908
Exeku@@ 1907
Experten@@ 1907
Finanzmärkte 1907
Gewinn 1907
eindrucks@@ 1907
problemlos 1907
trieb 1907
Ausflü@@ 1906
Schätzungen 1906
Strategie, 1906
Wäl@@ 1906
eischen 1906
gerechten 1906
teur@@ 1906
Administra@@ 1905
Erreichen 1905
Generalsekretär 1905
Grundrech@@ 1905
Verteidigungspolitik 1905
günstig@@ 1905
hi@@ 1905
vorgesehene 1905
Anmerk@@ 1904
bevor@@ 1904
gelingt, 1904
(5@@ 1903
gefäll@@ 1903
maßnahmen, 1903
zogen, 1903
autom@@ 1902
komfortablen 1902
standes 1902
Aufrechterhaltung 1901
Entstehung 1901
Klimaanlage, 1901
Unabhäng@@ 1901
beteiligen. 1901
dic@@ 1901
entscheidungen 1901
treiben. 1901
wozu 1901
zahlreicher 1901
§ 1901
Abstand 1900
Häu@@ 1900
entschei@@ 1900
feind@@ 1900
künf@@ 1900
sprüchen 1900
Bewohner 1899
Terroristen 1899
Zimmer. 1899
been@@ 1899
zeitgenöss@@ 1899
Aufmerksam@@ 1898
Umsatz 1898
aufzunehmen, 1898
ausgewählt 1898
demokratisch 1898
gebeten, 1898
kommens 1898
one, 1898
regelmäßige 1898
schätzung 1898
zeichnet. 1898
ündel@@ 1898
“-@@ 1898
Arzneimittel@@ 1897
Genuss 1897
Moldau 1897
Zugangs@@ 1897
ag, 1897
gang, 1897
Konfigura@@ 1896
PRESS@@ 1896
breit 1896
fizierungs@@ 1896
geänder@@ 1896
ließen 1896
Absicht, 1895
Angelegenheiten, 1895
Effekt 1895
Kommunik@@ 1895
Minderheit 1895
Vermittlung 1895
grafie 1895
unerläss@@ 1895
vielfältigen 1895
Marktwirtschaft 1894
Summe 1894
beschrieben 1894
like 1894
mar 1894
mium 1894
Kohl@@ 1893
Pflanzen@@ 1893
Satelliten@@ 1893
TEILNEHMER 1893
Theat@@ 1893
Ant@@ 1892
Katastrophen 1892
Schiffs@@ 1892
istungen 1892
lich: 1892
mak@@ 1892
Lig@@ 1891
profitieren. 1891
schle@@ 1891
C) 1890
Lager 1890
benötigen. 1890
itären 1890
schen, 1890
schlechten 1890
Beförderung 1889
Herkunft 1889
Kaffee 1889
Portal 1889
heißen 1889
nör@@ 1889
schutzes 1889
würdig 1889
äufe 1889
übertragen. 1889
Balkon@@ 1888
TEN 1888
USD 1888
empfängt 1888
frequ@@ 1888
normale 1888
Alger@@ 1887
Management@@ 1887
QU@@ 1887
Sev@@ 1887
benutzen. 1887
berechtigten 1887
ony@@ 1887
Distribu@@ 1886
Kernkraft@@ 1886
Sig@@ 1886
geschaffen. 1886
lässlich 1886
sorgfäl@@ 1886
zustande 1886
Erbe 1885
Geburt@@ 1885
Karten@@ 1885
cre@@ 1885
intensive 1885
rumän@@ 1885
V. 1884
Zimm@@ 1884
einverstanden, 1884
gültig 1884
ha-@@ 1884
Frühjahr@@ 1883
Lek@@ 1883
beschleun@@ 1883
er: 1883
gemäß@@ 1883
jenigen 1883
standen. 1883
wenden. 1883
Analysen 1882
Fähigkeit, 1882
Inhaber 1882
NO@@ 1882
Private 1882
Rüst@@ 1882
befin@@ 1882
co, 1882
ines 1882
kommerzielle 1882
stammen 1882
verbessert. 1882
Nachbarschaftspolitik 1881
Wasser, 1881
möglichkeit 1881
namen 1881
positiv@@ 1881
wirkung 1881
Däne@@ 1880
Händen 1880
Soldaten 1880
gegangen 1880
Partei@@ 1879
Selb@@ 1879
Südti@@ 1879
ernden 1879
erstens 1879
fäll@@ 1879
glob@@ 1879
strategien 1879
Eg@@ 1878
Formul@@ 1878
beu@@ 1878
bewuß@@ 1878
fahrt@@ 1878
Übermittlung 1878
Außengrenzen 1877
hinreich@@ 1877
triff@@ 1877
verheer@@ 1877
Gerichten 1876
Himmel@@ 1876
gerechtfertigt 1876
könnt 1876
plötzlich 1876
standen 1876
Bereichen, 1875
Menschenrechtsverletzungen 1875
Taus@@ 1875
Unterlagen 1875
damit, 1875
den? 1875
handlung 1875
überzeug@@ 1875
Bericht. 1874
Russland, 1874
entschloss@@ 1874
ermöglich@@ 1874
gesunden 1874
publi@@ 1874
träge, 1874
300@@ 1873
Pon@@ 1873
gewesen. 1873
laufende 1873
privater 1873
tels 1873
ueber@@ 1873
Unterstützung. 1872
internationales 1872
nem 1872
ranken 1872
Sandstr@@ 1871
Vereinigung 1871
acc@@ 1871
gaben. 1871
oberen 1871
rechnung 1871
'. 1870
(Dok. 1870
Donnerstag 1870
Konkurrenz 1870
Wälder 1870
breites 1870
path@@ 1870
Begrenzung 1869
Gefähr@@ 1869
angeblich 1869
musikal@@ 1869
ratifiz@@ 1869
Übersetzungs@@ 1869
Armen@@ 1868
Fusionskontroll@@ 1868
SQ@@ 1868
Soweit 1868
Tax@@ 1868
gehören, 1868
gesellschaft, 1868
passende 1868
Einfl@@ 1867
Spezialitäten 1867
Strände 1867
abziel@@ 1867
endsten 1867
ständigkeit 1867
territori@@ 1867
uz@@ 1867
Frage: 1866
Gas 1866
Wat@@ 1866
ads 1866
benden 1866
kommiss@@ 1866
oul@@ 1866
unde, 1866
Eben@@ 1865
Kuba 1865
getan, 1865
hervorragend 1865
schwung 1865
sili@@ 1865
spät 1865
ärk@@ 1865
(* 1864
Land. 1864
Weltbank 1864
Zie@@ 1864
ij@@ 1864
schauen 1864
tiqu@@ 1864
erreichbar. 1863
fru@@ 1863
unterstreicht 1863
wartet 1863
Gottes 1862
Tagesordn@@ 1862
Tel. 1862
bereitgestellt. 1862
gestattet 1862
räume, 1862
Eink@@ 1861
Illu@@ 1861
Touristen@@ 1861
behoben. 1861
einspar@@ 1861
gehandel@@ 1861
kombiniert 1861
Brief@@ 1860
praktiz@@ 1860
verringern 1860
è 1860
AND 1859
BSE-@@ 1859
Rechtssache 1859
Vordergrund 1859
Zeu@@ 1859
haft@@ 1859
klein 1859
namens 1859
Aufforder@@ 1858
Betrei@@ 1858
Gö@@ 1858
Putin 1858
Tisch@@ 1858
abgestimm@@ 1858
geführ@@ 1858
kommission 1858
tägliche 1858
zeitlich 1858
zoll@@ 1858
Reaktionen 1857
gemisch@@ 1857
phen@@ 1857
rägern 1857
zugeschnit@@ 1857
chi@@ 1856
gesamt@@ 1856
günstig 1856
Beobachtungs@@ 1855
Identitä@@ 1855
Rotary 1855
minister, 1855
physi@@ 1855
under@@ 1855
äumen 1855
2000@@ 1854
Behör@@ 1854
Eth@@ 1854
Menschheit 1854
Mobiltelef@@ 1854
Schwach@@ 1854
Spor@@ 1854
Street 1854
Untersuchungs@@ 1854
qualifizierter 1854
strukturellen 1853
Gute 1852
Lehrer 1852
Produktiv@@ 1852
Präsentation 1852
beteiligen 1852
denjenigen 1852
märk@@ 1852
Akadem@@ 1851
Bildern 1851
VII@@ 1851
Werkzeug 1851
gelangen, 1851
gelesen 1851
lektu@@ 1851
neutr@@ 1851
GI@@ 1850
Gesich@@ 1850
Stadtzentr@@ 1850
TEILUNG 1850
Zugleich 1850
gam@@ 1850
legten 1850
medizin@@ 1850
schrau@@ 1850
smärk@@ 1850
überwacht 1850
Anpassungen 1849
Inanspruchnahme 1849
geno@@ 1849
habe@@ 1849
rische 1849
willigen 1849
”. 1849
Brit@@ 1848
Ki@@ 1848
beabsichtigt, 1848
benutzen, 1848
bereiten. 1848
projekten 1848
stattung 1848
unvergess@@ 1848
Hoheitsgebiet 1847
Konflikts 1847
Toler@@ 1847
Unsicherheit 1847
erneuerbarer 1847
fangen 1847
lindustrie 1847
sieb@@ 1847
sser 1847
Neuer@@ 1846
della 1846
dorf 1846
Instrumenten 1845
blieb 1845
gebenen 1845
tatsächliche 1845
te" 1845
Abweich@@ 1844
Erör@@ 1844
Rechtssicherheit 1844
Vorder@@ 1844
Wert@@ 1844
eingesetzt, 1844
fung@@ 1844
itäre 1844
raschen 1844
en", 1843
erreichte 1843
ie-@@ 1843
12.00 1842
Erste 1842
GEN@@ 1842
Impulse 1842
Zinsen 1842
]], 1842
beleuch@@ 1842
hätten, 1842
neben@@ 1842
ux 1842
Zielvor@@ 1841
blen 1841
sozio@@ 1841
stro@@ 1841
usw.@@ 1841
Montenegro 1840
Theater 1840
extre@@ 1840
geschwindig@@ 1840
gratulieren. 1840
prinzip@@ 1840
Überprüf@@ 1840
äußerung 1840
Gegebenheiten 1839
Kommentare 1839
Konvergenz 1839
Sprech@@ 1839
Veröffentlich@@ 1839
haupt@@ 1839
α@@ 1839
com. 1838
ita@@ 1838
jene, 1838
я@@ 1838
Abwicklung 1837
Ausrüst@@ 1837
EIB-@@ 1837
Shut@@ 1837
bereichs 1837
läu@@ 1837
Office 1836
achtet 1836
aufgaben 1836
gel, 1836
Dienststellen 1835
Umfel@@ 1835
Louis 1834
ause 1834
auto@@ 1834
bedien@@ 1834
ernann@@ 1834
händler 1834
stattgefunden 1834
vereinbarung 1834
Wichtig 1833
mündlichen 1833
asse@@ 1832
diskutieren. 1832
smus 1832
wären. 1832
Tools 1831
University 1831
[ 1831
eure 1831
free 1831
gebund@@ 1831
gewählte 1831
great 1831
loser 1831
lux@@ 1831
umb@@ 1831
τ@@ 1831
Bereich. 1830
Informationsaustausch 1830
Museen 1830
Schwan@@ 1830
Seite, 1830
Vorschlag@@ 1830
auszur@@ 1830
engruppen 1830
son, 1830
vin@@ 1830
ys@@ 1830
Landwir@@ 1829
ausgegeben 1829
beibehalten 1829
da. 1829
einver@@ 1829
wachst@@ 1829
Andre@@ 1828
Schlussfolger@@ 1828
ansonsten 1828
chemischen 1828
flie@@ 1828
läufe 1828
vollständig@@ 1828
Bemerk@@ 1827
Einbindung 1827
dateien 1827
gesti@@ 1827
riffen 1827
sle@@ 1827
teilnehmenden 1827
BES@@ 1826
Bürgerbeauftrag@@ 1826
Hilfe, 1826
assung 1826
enken 1826
fers 1826
hand 1826
schwedische 1826
Blan@@ 1825
Sc@@ 1825
rüst@@ 1825
schreiben. 1825
unabding@@ 1825
Ägyp@@ 1825
äußern. 1825
Dolmet@@ 1824
Seiten@@ 1824
Wurzel@@ 1824
anhän@@ 1824
dist@@ 1824
kommunik@@ 1824
ous@@ 1824
por 1824
Storn@@ 1823
Verhält@@ 1823
beim@@ 1823
felder 1823
geplant 1823
te? 1823
Dienstleistung 1822
Jahre, 1822
West 1822
bedenk@@ 1822
betrachten. 1822
eingeräumt 1822
informieren, 1822
räsid@@ 1822
sind; 1822
to-@@ 1822
vernünftige 1822
Eingliederung 1821
Master@@ 1821
Ruh@@ 1821
Trennung 1821
age. 1821
ain 1821
erwor@@ 1821
glich. 1821
uren, 1821
ärz@@ 1821
Optimierung 1820
besucht 1820
enkt 1820
gend. 1820
heraus 1820
schwierig@@ 1820
ère 1820
Seel@@ 1819
ade, 1819
beschäftigungs@@ 1819
beseitigt 1819
ires 1819
tw@@ 1819
Schwein@@ 1818
ald 1818
dik@@ 1818
vorschlagen, 1818
Card 1817
Kredite 1817
ernsthaf@@ 1817
hnung 1817
quelle 1817
Nahr@@ 1816
Ziele, 1816
Zit@@ 1816
entierte 1816
giger 1816
MEN 1815
transparent 1815
versicherung 1815
Batter@@ 1814
Friedens 1814
Leistungsfähigkeit 1814
Orts@@ 1814
bestätigen, 1814
ungsverhält@@ 1814
88@@ 1813
Profi@@ 1813
TV-@@ 1813
Verbo@@ 1813
durchzuführen, 1813
elemente 1813
führender 1813
prochen 1813
var@@ 1813
)) 1812
Erzeugnissen 1812
Geben 1812
e; 1812
gion@@ 1812
mittelfris@@ 1812
uneingeschränkte 1812
verstehen. 1812
С@@ 1812
(7@@ 1811
Erläu@@ 1811
Ferienwohnungen 1811
Verzögerungen 1811
Zauber@@ 1811
E. 1810
Zur@@ 1810
ckt. 1810
kus@@ 1810
mul@@ 1810
offenkun@@ 1810
Profession@@ 1809
mässi@@ 1809
treiben 1809
verständlich 1809
zivilen 1809
Armu@@ 1808
Centre 1808
abgesch@@ 1808
entation 1808
ics 1808
nei@@ 1808
zukunfts@@ 1808
Argument 1807
eingerichteten 1807
elegan@@ 1807
festzulegen, 1807
periode 1807
risik@@ 1807
träger 1807
-- 1806
Freuen 1806
ka. 1806
rent@@ 1806
schlagen, 1806
-ho@@ 1805
Az@@ 1805
Domain@@ 1805
EU-Kommissarin 1805
Eigentums@@ 1805
Pek@@ 1805
Studium 1805
eingerichtete 1805
strateg@@ 1805
tschaf@@ 1805
verlieren. 1805
Berichterstatters 1804
Einwanderer 1804
belast@@ 1804
gelangt 1804
grundlage 1804
Ausführ@@ 1803
Gefängn@@ 1803
Religion@@ 1803
Zweit@@ 1803
funktioniert. 1803
konserv@@ 1803
IA 1802
Internation@@ 1802
Klin@@ 1802
Vorsitz@@ 1802
Wirtschaftswachst@@ 1802
ala 1802
erbau@@ 1802
erfüllt. 1802
à@@ 1802
ärer 1802
Laufzeit 1801
Roman@@ 1801
falschen 1801
James 1800
Os@@ 1800
sichts@@ 1800
Himmel 1799
Tempo 1799
bieter 1799
Gemeinsam 1798
Swimming@@ 1798
Transfer 1798
betrug 1798
friedliche 1798
getes@@ 1798
jugoslawische 1798
systematisch 1798
Herausforderungen, 1797
Portfoli@@ 1797
Wit@@ 1797
brechen 1797
getrennt 1797
interpre@@ 1797
Euroraum 1796
Kreativität 1796
Muster 1796
heute, 1796
isation 1796
par 1796
ø@@ 1796
Besonderheiten 1795
Langzeit@@ 1795
Plen@@ 1795
Portug@@ 1795
Rassismus 1795
Umfrage 1795
m) 1795
ен@@ 1795
65@@ 1794
Ereignis 1794
Modus 1794
Realisierung 1794
Sony 1794
Telef@@ 1794
information 1794
orientierten 1794
t- 1794
versteht 1794
arte 1793
quoten 1793
Berichterstatterin, 1792
Parlaments. 1792
betreffen. 1792
reichen. 1792
typische 1792
°@@ 1792
Anzeige 1791
Appartement 1791
Interne@@ 1791
bindung 1791
deutscher 1791
fähigkeit, 1791
äher@@ 1791
Abgeordneten, 1790
anzus@@ 1790
längere 1790
mische 1790
negativ 1790
streng@@ 1790
trägt. 1790
(3@@ 1789
Ausschuss@@ 1789
Errung@@ 1789
Gerich@@ 1789
einziges 1789
luss 1789
stücke 1789
zen, 1789
Chr. 1788
Ga@@ 1788
Hilfen 1788
Spielraum 1788
blä@@ 1788
bol@@ 1788
Beitrittsverhandlungen 1787
Sekunden 1787
Weiterbildung 1787
gebäude 1787
gestie@@ 1787
modu@@ 1787
produkt 1787
splat@@ 1787
stran@@ 1787
tragenen 1787
ull@@ 1787
Artikel@@ 1786
bekämpfen. 1786
fort, 1786
geforder@@ 1786
Gremien 1785
Guta@@ 1785
empfangen 1785
kräften 1785
stau@@ 1785
tigkeits@@ 1785
w, 1785
Gemeinschaftsebene 1784
beobachten 1784
kulture@@ 1784
laß 1784
meinen, 1784
nutzung 1784
weisungen 1784
Gebäuden 1783
Impul@@ 1783
Veränder@@ 1783
artner@@ 1783
funktionen 1783
Bildschir@@ 1782
Eigenschaft 1782
Mahl@@ 1782
R) 1782
angebote 1782
islam@@ 1782
orts 1782
wirtschaft, 1782
Aufteilung 1781
ary 1781
bezahlen 1781
bre 1781
tags@@ 1781
volumen 1781
Corporate 1780
Schuld 1780
einzusetzen. 1780
friendly 1780
liesslich 1780
ra, 1780
steigen. 1780
öhn@@ 1780
ika 1779
Forschungs- 1778
Komit@@ 1778
Verschied@@ 1778
däm@@ 1778
entran@@ 1778
ida 1778
internation@@ 1778
kennt 1778
langfris@@ 1778
vernachlässi@@ 1778
zusammenarbeiten, 1778
Dusche 1777
E-Mail-Adresse 1777
Jon@@ 1777
Marina 1777
Osteuro@@ 1777
Plätz@@ 1777
Regierungen, 1777
Sper@@ 1777
Wettbewerbsverzerr@@ 1777
Wü@@ 1777
(EW@@ 1776
Einfuhr 1776
Seri@@ 1776
bereitgestellten 1776
passiert 1776
Feld@@ 1775
Finanziellen 1775
Produzenten 1775
Umstruktur@@ 1775
fabri@@ 1775
fuehr@@ 1775
irre@@ 1775
sn@@ 1775
Press 1774
Stabilitäts@@ 1774
vertreter 1774
zep@@ 1774
Fischer@@ 1773
Informationen. 1773
Komment@@ 1773
Korrup@@ 1773
Tou@@ 1773
ach, 1773
ströme 1773
gesunde 1772
gipfel 1772
haushalts@@ 1772
mi 1772
zö@@ 1772
diox@@ 1771
genes 1771
räuch@@ 1771
top 1771
ANGENOMMENE 1770
Defizite 1770
Freil@@ 1770
Jan@@ 1770
Logik 1770
Menschenrechten 1770
fek@@ 1770
qualit@@ 1770
than 1770
untereinander 1770
Bürokratie 1769
Contain@@ 1769
Energiet@@ 1769
Geis@@ 1769
Stär@@ 1769
Telefon, 1769
bedeuten, 1769
beschäftigen 1769
stopp@@ 1769
zusammenarbeiten 1769
Öffentliche 1769
Überrasch@@ 1769
Mob@@ 1768
Rechtsprechung 1768
beherber@@ 1768
opol@@ 1768
schwerer 1768
testelle 1768
OLAF 1767
frisch@@ 1767
zustimmen 1767
Qualifikationen 1766
arab@@ 1766
es" 1766
Gitar@@ 1765
Live-@@ 1765
Meer, 1765
Beträge 1764
Effizi@@ 1764
apital@@ 1764
formular 1764
genauen 1764
Geschmack@@ 1763
Tschech@@ 1763
Zahlreiche 1763
buff@@ 1763
ferenzen 1763
gelag@@ 1763
monat@@ 1763
teure 1763
zumal 1763
ACH@@ 1762
Freu@@ 1762
Goo@@ 1762
Mehrwertsteuer 1762
abri@@ 1762
begonn@@ 1762
bilden, 1762
kühl@@ 1762
ð@@ 1762
Dal@@ 1761
Plätze 1761
Weine 1761
anders@@ 1761
erfasst 1761
ia@@ 1761
jähriger 1761
uss, 1761
Glaub@@ 1760
Universal@@ 1760
fehlende 1760
justi@@ 1760
marktes 1760
stechnik 1760
° 1760
Aufzug, 1759
Integrität 1759
Nic@@ 1759
SCHAFT 1759
dahin@@ 1759
erie 1759
feier@@ 1759
gestalten, 1759
größtenteils 1759
spezialisiert 1759
52 1758
Konserv@@ 1758
Ergebnis, 1757
Erneuerung 1757
Rechtsstaat@@ 1757
aufeinander 1757
ford 1757
plä@@ 1757
rieb@@ 1757
teln 1757
verbindliche 1757
Ã¤@@ 1757
Ec@@ 1756
Fähr@@ 1756
Portugal, 1756
Verschlechterung 1756
hängen 1756
tag, 1756
til 1756
Demokratischen 1755
Fri@@ 1755
Opfern 1755
Vollendung 1755
grafischen 1755
nachhaltiges 1755
palästinens@@ 1755
legungs@@ 1754
assen, 1753
aussprechen. 1753
energ@@ 1753
genetisch 1753
lehnen 1753
positionen 1753
Überschwemm@@ 1753
überzeugen, 1753
100% 1752
Beding@@ 1752
Beitrittskandi@@ 1752
gie@@ 1752
nische 1752
Aufsicht 1751
Vertriebs@@ 1751
Wiener 1751
adres@@ 1751
binnen 1751
com 1751
dah@@ 1751
het 1751
zulän@@ 1751
CO2-Emissionen 1750
ION 1750
Netto@@ 1750
Verfüg@@ 1750
differenz@@ 1750
garantieren. 1750
gene@@ 1750
Branchen 1749
GEMEIN@@ 1749
Kooper@@ 1749
Schnittstelle 1749
Theater@@ 1749
belas@@ 1749
pläne 1749
GU@@ 1748
Grundfreiheiten 1748
Komponente 1748
Model@@ 1748
Modell@@ 1748
Parlament. 1748
Wohnzimmer 1748
all, 1748
den; 1748
ds. 1748
entwicklungs@@ 1748
tert 1748
Benach@@ 1747
Beobachter 1747
ESS@@ 1747
Finanzier@@ 1747
dec@@ 1747
schär@@ 1747
Arab@@ 1746
Beruf 1746
PD@@ 1746
dort, 1746
gebaut, 1746
hilfs@@ 1746
hoben, 1746
ith 1746
wirtschaft. 1746
öhnung 1746
Las@@ 1745
Pension 1745
Sha@@ 1745
USA. 1745
able@@ 1745
aufmerk@@ 1745
behandelt. 1745
gefer@@ 1745
neue, 1745
schon@@ 1745
starker 1745
Gespräch 1744
bestens 1744
einmalige 1744
festgeleg@@ 1744
therap@@ 1744
Bewerberländer 1743
GB 1743
Installations@@ 1743
Kie@@ 1743
Konsequ@@ 1743
gedach@@ 1743
rechtlicher 1743
EU-Bürger 1742
Eck@@ 1742
Kathedr@@ 1742
din@@ 1742
holen 1742
sterben 1742
Markt, 1741
WIRT@@ 1741
alisierung, 1741
betreiber 1741
close 1741
q 1741
tle 1741
vierung 1741
Cra@@ 1740
Ermittlung 1740
Gesetzes 1740
schö@@ 1740
Ky@@ 1739
Verhinderung 1739
einlad@@ 1739
fte, 1739
irgendwo 1739
unterrich@@ 1739
werde, 1739
Akteuren 1738
Börse 1738
Dienstleis@@ 1738
Dolom@@ 1738
Fischereis@@ 1738
alleine 1738
chter 1738
egen. 1738
folg@@ 1738
personal 1738
schreibt 1738
unterscheiden 1738
Brücke 1737
Image 1737
Pflicht, 1737
ausgerü@@ 1737
Dri@@ 1736
Energiem@@ 1736
Festplatte 1736
Gescheh@@ 1736
belg@@ 1736
cra@@ 1736
eck 1736
geschieht, 1736
geänderten 1736
längst 1736
aspek@@ 1735
jähr@@ 1735
mas 1735
prü@@ 1735
richtlin@@ 1735
я 1735
Augenmerk 1734
Finanz- 1734
Lor@@ 1734
Ty@@ 1734
bedingten 1734
serviert. 1734
tel, 1734
Solidaritäts@@ 1733
Straft@@ 1733
Trends 1733
Wahrnehmung 1733
anzubieten. 1733
gesammel@@ 1733
nationales 1733
nutzt 1733
170@@ 1732
Aller@@ 1732
PER@@ 1732
bedür@@ 1732
nördlichen 1732
wü@@ 1732
Berge 1731
Markt. 1731
Rh@@ 1731
Sho@@ 1731
Zufriedenheit 1731
bestimmen 1731
dn@@ 1731
en“, 1731
tens, 1731
Gum@@ 1730
Kreditkarte 1730
beantrag@@ 1730
beizutragen. 1730
gelösch@@ 1730
lé@@ 1730
personenbezogenen 1730
serviert 1730
ITIK 1729
Uhr. 1729
Wesen 1729
Wäsch@@ 1729
besuchen. 1729
moral@@ 1729
Florenz 1728
Material@@ 1728
Redu@@ 1728
Umgebung. 1728
passt 1728
tschechischen 1728
Praktik@@ 1727
Sli@@ 1727
Tochter 1727
beglückwünschen. 1727
kan 1727
keinesfalls 1727
Händ@@ 1726
Kla@@ 1726
Sofern 1726
T. 1726
erstellen, 1726
p-@@ 1726
10-@@ 1725
Ausgleichs@@ 1725
Instruments 1725
Kohäsions@@ 1725
ral 1725
stöß@@ 1725
ı@@ 1725
Australien 1724
Bedingungen, 1724
Format@@ 1724
ING@@ 1724
MEN@@ 1724
Puerto 1724
Sonntag 1724
Wik@@ 1724
nennen. 1724
ungsplan 1724
vereinig@@ 1724
vision@@ 1724
wirft 1724
ßer 1724
Generalsekretär@@ 1723
Profil 1723
gg@@ 1723
kennen. 1723
schönes 1723
verleihen. 1723
vorhanden. 1723
Blau@@ 1722
Kühl@@ 1722
Seele 1722
Strafgericht@@ 1722
banken 1722
eingereichten 1722
kommuniz@@ 1722
lichste 1722
verständnis 1722
vorhandene 1722
59@@ 1721
Beiträ@@ 1721
Gebietskörperschaften 1721
VOR@@ 1721
Werkzeuge 1721
hätten. 1721
ome 1721
transeuropäischen 1721
Bereiche, 1720
Gesicht 1720
Operationen 1720
anfän@@ 1720
fassen, 1720
grüne 1720
ratifiziert 1720
vermittelt 1720
ра@@ 1720
Abschnit@@ 1719
Whirl@@ 1719
handl@@ 1719
nuklear@@ 1719
(das 1718
genannt. 1718
24-Stunden-Rezeption, 1717
Aufstellung 1717
Fahrrad@@ 1717
Norm@@ 1717
edi@@ 1717
jahre@@ 1717
mut 1717
nit@@ 1717
vorschri@@ 1717
Laden 1716
Manche 1716
Tor 1716
es) 1716
glicher 1716
machten 1716
teilnehmen. 1716
51 1715
Folgenab@@ 1715
Verhaltenskodex 1715
genannt, 1715
rücken 1715
vorangegangenen 1715
öffentlich-@@ 1715
2007-2013 1714
Angleichung 1714
Theorie 1714
abgeschlossen. 1714
bio@@ 1714
city 1714
hilf@@ 1714
verschmutz@@ 1714
zerstört 1714
Föder@@ 1713
Kongress 1713
Robo@@ 1713
Spiegel@@ 1713
bezogen 1713
defizit 1713
human@@ 1713
möch@@ 1713
Ce@@ 1712
DA 1712
Deutsch 1712
Export 1712
Fall. 1712
Idee, 1712
Kommissionspräsident 1712
TI@@ 1712
bege@@ 1712
pati@@ 1712
Abgesehen 1711
Erstens, 1711
Holl@@ 1711
PS 1711
Physi@@ 1711
sem 1711
а 1711
Edition 1710
Nordir@@ 1710
Verstöße 1710
dargelegt 1710
garten 1710
Äußerungen 1710
(auch 1709
64@@ 1709
Finanzdienstleistungen 1709
Geschichte, 1709
beitrag 1709
einräum@@ 1709
gewidmet 1709
ilität 1709
lage@@ 1709
olo 1709
Evaluierung 1708
Hektar 1708
ergänzen 1708
r. 1708
sämtlicher 1708
wesens 1708
.org 1707
Aktien 1707
GN@@ 1707
Ve@@ 1707
ehe 1707
Vertreterin 1706
oni 1706
äck@@ 1706
Horizon@@ 1705
Kriteri@@ 1705
News 1705
Tanz@@ 1705
Verbrauch 1705
entfal@@ 1705
gekommen. 1705
griff 1705
klares 1705
klim@@ 1705
komfort@@ 1705
unterhalb 1705
Agent@@ 1704
Hoffnung, 1704
Lissab@@ 1704
RI@@ 1704
künfte 1704
pfle@@ 1704
team 1704
ERÖRTERTE 1703
Gestatten 1703
ausführliche 1703
gehe 1703
modernes 1703
reale 1703
rise 1703
{@@ 1703
Beau@@ 1702
Bemühungen, 1702
Entschädigung 1702
Etiket@@ 1702
Stor@@ 1702
Vermö@@ 1702
ari 1702
gesehen. 1702
gewor@@ 1702
grup@@ 1702
interes@@ 1702
krieg 1702
tigung, 1702
(einschließlich 1701
Tennis@@ 1701
erweiterte 1701
gehörige 1701
genommenen 1701
nun, 1701
platz. 1701
t“ 1701
Tschetschen@@ 1700
anstelle 1700
verschiedensten 1700
Geschäftsreis@@ 1699
Gran 1699
Market@@ 1699
Red_marquis 1699
aci@@ 1699
ehrlich 1699
eingeführt. 1699
irgendwelche 1699
Koordination 1698
Scheitern 1698
Vereinbarkeit 1698
ación 1698
ago 1698
beschluss 1698
eingeführt, 1698
ost@@ 1698
Biokraft@@ 1697
Festplat@@ 1697
Ras@@ 1697
SEN@@ 1697
ball@@ 1697
9,@@ 1696
Billig@@ 1696
Dep@@ 1696
erarbeitet 1696
stechnologien 1696
Erwerbs@@ 1695
Jes@@ 1695
Module 1695
Tak@@ 1695
bemühen 1695
enswert, 1695
fassungs@@ 1695
zöger@@ 1695
‘@@ 1695
Tank@@ 1694
kehrungen 1694
verträ@@ 1694
ARB@@ 1693
entieren 1693
findet. 1693
kampf 1693
li, 1693
refle@@ 1693
spielte 1693
verarbeitung 1693
ó 1693
10/@@ 1692
ruhiger 1692
streck@@ 1692
GH@@ 1691
ck-@@ 1691
geräten 1691
gross@@ 1691
kennen, 1691
küste 1691
unge 1691
vertief@@ 1691
Feri@@ 1690
Hostel 1690
begrüßen. 1690
exklusiven 1690
freundlicher 1690
ministerin 1690
nützliche 1690
pflan@@ 1690
wunden 1690
(Der 1689
Aufruf 1689
Elektron@@ 1689
Programmier@@ 1689
Wunder@@ 1689
füllt 1689
polizei@@ 1689
Alltag 1688
Flüge 1688
Gebühr@@ 1688
Mont@@ 1688
Pressemit@@ 1688
Richard 1688
band 1688
fangs 1688
implemen@@ 1688
könne 1688
minder@@ 1688
män@@ 1688
th, 1688
u, 1688
verzöger@@ 1688
vorgeschlagen. 1688
wofür 1688
Liz@@ 1687
Pflege 1687
gebe@@ 1687
geblieb@@ 1687
links. 1687
Büros 1686
Jan 1686
Sozialpolitik 1686
ahn 1686
erem 1686
geäußert 1686
hiermit 1686
jün@@ 1686
kenntnis 1686
meistens 1686
sichert 1686
ten-@@ 1686
verdienen 1686
ziger 1686
klam@@ 1685
mangelnde 1685
verm@@ 1685
Behinderungen 1684
Beste 1684
Indik@@ 1684
Marketing@@ 1684
Terrasse, 1684
entsprech@@ 1684
höchstens 1684
lohn@@ 1684
other 1684
öffent@@ 1684
acion@@ 1683
bende 1683
datei 1683
froh, 1683
loc@@ 1683
progno@@ 1683
toff@@ 1683
verbreitet 1683
vertik@@ 1683
Assist@@ 1682
BI@@ 1682
bot 1682
ehrgeizige 1682
gerechnet 1682
norm@@ 1682
Europe@@ 1681
ant, 1681
eingehende 1681
elf 1681
geregel@@ 1681
live 1681
verd@@ 1681
Cat@@ 1680
Heiligen 1680
Zuschau@@ 1680
bah@@ 1680
frühere 1680
status 1680
({{@@ 1679
Lissabon@@ 1679
Verkehr, 1679
Zukunft. 1679
bind@@ 1679
höchst@@ 1679
jetz@@ 1679
zeigten 1679
Artik@@ 1678
Band@@ 1678
Bek@@ 1678
Les 1678
Nun, 1678
Reb@@ 1678
Tarif@@ 1678
ca@@ 1678
kulin@@ 1678
wag@@ 1678
wirkt. 1678
--@@ 1677
Getränke 1677
Tätigkeits@@ 1677
allmählich 1677
davor 1677
gericht 1677
letztes 1677
sing@@ 1677
temperat@@ 1677
territorialen 1677
Anders 1676
Ausflüge 1676
DE-@@ 1676
Energieversorgung 1676
erhöht. 1676
geschlossene 1676
nahmen, 1676
ungs-@@ 1676
verabschiedeten 1676
over 1675
umsetzen 1675
Register 1674
User 1674
alen, 1674
bestätigen 1674
bewältigen 1674
hard 1674
hervorzu@@ 1674
rt 1674
Free 1673
Jacques 1673
befassen, 1673
emm@@ 1673
gebe 1673
gescheit@@ 1673
Jahre. 1672
Schiffen 1672
dän@@ 1672
lichere 1672
Č@@ 1672
Klass@@ 1671
Kost@@ 1671
Zusammenarbeit. 1671
anner 1671
bedroht 1671
beinhalten 1671
sweise 1671
Martin@@ 1670
gram@@ 1670
liberalen 1670
scheit@@ 1670
sprachigen 1670
vers 1670
Anzeichen 1669
Spezialisten 1669
Stel@@ 1669
eingerichtet, 1669
existiert 1669
geeinig@@ 1669
misch@@ 1669
träch@@ 1669
wärtigen 1669
900@@ 1668
Autonom@@ 1668
ING 1668
Mal, 1668
angen 1668
erzähl@@ 1668
schöner 1668
tisch. 1668
vermehr@@ 1668
zahlen. 1668
400@@ 1667
Burg 1667
GER@@ 1667
Logistik@@ 1667
Sekret@@ 1667
Shar@@ 1667
behandeln. 1667
bestimmt. 1667
istik 1667
läuft. 1667
ritz@@ 1667
verwaltet 1667
Einwände 1666
Fisch 1666
Jugendherber@@ 1666
Last 1666
Stattdessen 1666
Stellvertreter 1666
aufw@@ 1666
etwa@@ 1666
glau@@ 1666
iko 1666
länen 1666
maß 1666
wenigstens 1666
CON@@ 1665
Donner@@ 1665
Entdecken 1665
Software, 1665
errichtet 1665
esse 1665
gehörigen 1665
mission 1665
siv@@ 1665
vergröß@@ 1665
Gläub@@ 1664
Tool 1664
WT@@ 1664
Wärme@@ 1664
freies 1664
irgen@@ 1664
Är@@ 1664
56 1663
Alkohol@@ 1663
Anhän@@ 1663
Kluft 1663
geordne@@ 1663
hn 1663
zuver@@ 1663
äusch@@ 1663
Saal 1662
Wiederaufnahme 1662
darstell@@ 1662
die@@ 1662
nennen, 1662
seg@@ 1662
stoß@@ 1662
tzeit@@ 1662
Ath@@ 1661
Buchungs@@ 1661
EFTA-@@ 1661
Empfang 1661
P. 1661
PK@@ 1661
Updates 1661
dauerhaft 1661
er) 1661
geschlech@@ 1661
intensiven 1661
Bat@@ 1660
Schattenberichterstat@@ 1660
höh@@ 1660
liefern. 1660
reagiert 1660
verschul@@ 1660
Bezahlung 1659
Flash 1659
K-@@ 1659
Pflich@@ 1659
machung 1659
one@@ 1659
Randlage 1658
Vulkan@@ 1658
eingestu@@ 1658
fasst 1658
gerufen, 1658
gio 1658
tro 1658
verehrten 1658
verstehe 1658
wärmung 1658
Hochschulen 1657
Kraftstoff@@ 1657
Motto 1657
gänz@@ 1657
hinzufügen, 1657
part 1657
Annehmlichkeiten 1656
Emissionsh@@ 1656
Kongo 1656
Kühlsch@@ 1656
ditionen 1656
getroffenen 1656
lans 1656
stür@@ 1656
но@@ 1656
Außenbeziehungen 1655
altet 1655
kaufen. 1655
verbundene 1655
Dokument, 1654
J. 1654
Pfle@@ 1654
Washington 1654
lis 1654
versorg@@ 1654
Kartell@@ 1653
ated 1653
gerade@@ 1653
interessant 1653
raum. 1653
tener 1653
SC@@ 1652
amerikanischer 1652
feststellen 1652
fragt 1652
gewand@@ 1652
hilfre@@ 1652
sexuelle 1652
Mac 1651
Wun@@ 1651
ausgeglich@@ 1651
leiter 1651
ness 1651
reduzieren. 1651
reine 1651
riert 1651
sorganisation 1651
südlich 1651
ältesten 1651
IE 1650
Prak@@ 1650
aufbau@@ 1650
eingereich@@ 1650
haben: 1650
spruch 1650
Airbus 1649
Finanzielle 1649
Nein, 1649
andau@@ 1649
been 1649
dep@@ 1649
gedacht 1649
zial@@ 1649
Dinge, 1648
Gemeinschaft. 1648
Tunesien 1648
bezauber@@ 1648
bulgar@@ 1648
radio@@ 1648
stabile 1648
unteren 1648
zwangsläufig 1648
Aro@@ 1647
Radio 1647
Rauch@@ 1647
Spekul@@ 1647
Techniken 1647
herrliche 1647
höher@@ 1647
iber 1647
mann, 1647
wald 1647
wesen, 1647
wiegend 1647
ye@@ 1647
Anreiz 1646
Herrschaft 1646
Klim@@ 1646
Rand 1646
anzeigen 1646
"S@@ 1645
Entwicklungspolitik 1645
Lösung, 1645
klassische 1645
sammeln 1645
teili@@ 1645
"Der 1644
Drei@@ 1644
Küchen@@ 1644
amtierender 1644
bekämpfen 1644
Beibehaltung 1643
cli@@ 1643
fühle 1643
nötig, 1643
Gir@@ 1642
Palästinenser 1642
ol 1642
rac@@ 1642
stasi@@ 1642
Balkan 1641
Doppelzimmer 1641
Dublin 1641
Erdgas@@ 1641
Parte@@ 1641
Zi@@ 1641
fron@@ 1641
iff 1641
landschaft 1641
part@@ 1641
verbesserten 1641
weiter, 1641
Beton@@ 1640
Hauptziel 1640
Klimaanlage 1640
Kontra@@ 1640
arische 1640
fter 1640
lug@@ 1640
rechnen 1640
türkische 1640
Handels- 1639
Medikamente 1639
fikationen 1639
thek@@ 1639
án 1639
örung 1639
Kommand@@ 1638
Objekt 1638
Wirtschaftszwe@@ 1638
ausbildung 1638
gang. 1638
korrekte 1638
ora 1638
teu@@ 1638
Fans 1637
Hand, 1637
]]. 1637
eds 1637
ernähr@@ 1637
geöff@@ 1637
potenziel@@ 1637
ruf 1637
Anwen@@ 1636
Erbringung 1636
Konferenzen 1636
Meer. 1636
Service, 1636
Sicherstellung 1636
Zustellbet@@ 1636
idealen 1636
Adressen 1635
Alb@@ 1635
Bewerber@@ 1635
Flach@@ 1635
Ordner 1635
Rio 1635
decken. 1635
geehr@@ 1635
optimalen 1635
Aufgaben@@ 1634
Internetseite 1634
Samstag 1634
aktualisiert 1634
asiatischen 1634
einzusetzen, 1634
entgegen 1634
Sierra 1633
Strafverfol@@ 1633
hüb@@ 1633
selek@@ 1633
wärts 1633
Absatz@@ 1632
Frühl@@ 1632
Funktions@@ 1632
Leuch@@ 1632
gezielt 1632
nissen, 1632
system, 1632
Ungarn, 1631
alisierten 1631
angs@@ 1631
benachbar@@ 1631
inge 1631
ländern. 1631
stie@@ 1631
veranlas@@ 1631
Einwoh@@ 1630
Prag 1630
bilanz@@ 1630
erfolg@@ 1630
gewinnen, 1630
mäl@@ 1630
Bühne 1629
Programme, 1629
beauftragten 1629
besor@@ 1629
ingen, 1629
latein@@ 1629
sitzen 1629
uni@@ 1629
DVD@@ 1628
G, 1628
Ins@@ 1628
frischen 1628
kamp@@ 1628
konstru@@ 1628
vorhin 1628
66 1627
Bla@@ 1627
Forscher 1627
Schließ@@ 1627
Zusammenbruch 1627
leichten 1627
Geräten 1626
Preis-@@ 1626
Türen 1626
W. 1626
behinderten@@ 1626
eingehen 1626
located 1626
ted 1626
unkte 1626
Hub@@ 1625
VN-@@ 1625
ada, 1625
geld@@ 1625
irgendeiner 1625
klusi@@ 1625
weili@@ 1625
Ero@@ 1624
Hen@@ 1624
erleichtern, 1624
freiem 1624
isten. 1624
unmittelbare 1624
54 1623
Flüchtlingen 1623
Gültigkeit 1623
fügte 1623
verbleibenden 1623
verhandlungen 1623
österreichische 1623
Beweise 1622
Schließung 1622
Verfasser@@ 1622
effektiver 1622
ests 1622
med@@ 1622
rachte 1622
übereinstimm@@ 1622
Budget 1621
Gepäckraum, 1621
Governance 1621
Mid@@ 1621
Wettbewerbspolitik 1621
behalten, 1621
Besich@@ 1620
Schal@@ 1620
anzuseh@@ 1620
genießt 1620
kapazitäten 1620
plant 1620
wären, 1620
ü 1620
Hardware 1619
Tru@@ 1619
alternativen 1619
dargestellt 1619
fran@@ 1619
gelegten 1619
gewach@@ 1619
handel, 1619
rank 1619
Bere@@ 1618
achtung 1618
benötigten 1618
festzulegen. 1618
ory 1618
parks 1618
shilfe 1618
American 1617
Ereig@@ 1617
Nationen, 1617
Stern@@ 1617
Verhütung 1617
gebilligt 1617
reden, 1617
schlechter 1617
tetes 1617
uch 1617
Überwindung 1617
aufgeführten 1616
fragen. 1616
n) 1616
sätzen 1616
Aufnahmen 1615
Flugzeuge 1615
Libyen 1615
Verwend@@ 1615
entsprechender 1615
hle 1615
partnern 1615
ungerech@@ 1615
widri@@ 1615
Beach 1614
Lounge 1614
Luxus@@ 1614
Staaten. 1614
enstoff@@ 1614
hof@@ 1614
SW@@ 1613
arbeiter 1613
beträchtlichen 1613
mit. 1613
pool, 1613
riesige 1613
ALL@@ 1612
Ari@@ 1612
Jahrzehnte 1612
Maßnahmen. 1612
Welthandelsorganisation 1612
anzupassen. 1612
gefährlicher 1612
r.@@ 1612
schwieriger 1612
vorrangigen 1612
Anschließend 1611
Email 1611
GV@@ 1611
Verfassungsver@@ 1611
investiert 1611
schließe 1611
Ersatz 1610
Person, 1610
begangen 1610
bör@@ 1610
einsetz@@ 1610
fundament@@ 1610
nachhal@@ 1610
smo@@ 1610
sé@@ 1610
Boot 1609
Kron@@ 1609
MwSt@@ 1609
außergewöhnliche 1609
ille 1609
tes. 1609
transatlantischen 1609
vil@@ 1609
weißen 1609
ро@@ 1609
bestimmung 1608
versto@@ 1608
öffnet 1608
Fragen. 1607
Glas 1607
Hinder@@ 1607
ato 1607
begründet 1607
geschickt 1607
72 1606
Abstimmungen 1606
Dritter 1606
EM 1606
Offic@@ 1606
egel@@ 1606
technolog@@ 1606
Dring@@ 1605
L, 1605
Subsidiarität 1605
alien, 1605
erreichten 1605
57@@ 1604
Atmosphäre. 1604
Manuel 1604
Tool@@ 1604
dierten 1604
fig 1604
Aktivität 1603
CHT 1603
Clubs 1603
Diam@@ 1603
Unregelmäß@@ 1603
dest 1603
gebu@@ 1603
gelad@@ 1603
konfron@@ 1603
liess@@ 1603
missi@@ 1603
ο@@ 1603
Begegn@@ 1602
Vielmehr 1602
bien 1602
stadt, 1602
verbinden 1602
Hart@@ 1601
erzeugung 1601
gebene 1601
s? 1601
samkeit 1601
Franz 1600
befürwortet 1600
sorganis@@ 1600
vielfältige 1600
vorgestellt 1600
Beitrittsländer 1599
Entschließungen 1599
Mineral@@ 1599
Service-@@ 1599
Transit@@ 1599
durchgeführt, 1599
(von 1598
Niemand 1598
Training 1598
UM 1598
fossi@@ 1598
lands, 1598
tausende 1598
12/@@ 1597
Ziff@@ 1597
box 1597
ergreif@@ 1597
erhältlich 1597
kompletten 1597
speichern 1597
(10@@ 1596
Port 1596
Put@@ 1596
Verantwortungs@@ 1596
sichern, 1596
sigkeit 1596
trag, 1596
ungsangebo@@ 1596
Not 1595
bef@@ 1595
fügt. 1595
stürz@@ 1595
telle 1595
ungsprozess 1595
zione 1595
Christdemokra@@ 1594
Downlo@@ 1594
Handel, 1594
Lom@@ 1594
Ten@@ 1594
Unterhaltungs@@ 1594
mert 1594
verwöhn@@ 1594
wissenschaftlicher 1594
zügig 1594
Devisen@@ 1593
Hygi@@ 1593
Zeug@@ 1593
wächst 1593
Synergi@@ 1592
andal@@ 1592
deinen 1592
italien@@ 1592
land) 1592
landes 1592
reihe 1592
signifikan@@ 1592
Entsor@@ 1591
Karriere 1591
Moz@@ 1591
Schlu@@ 1591
Weltkrieg@@ 1591
ards 1591
automatischen 1591
benachteiligten 1591
besser, 1591
eingegangenen 1591
folgendes 1591
restau@@ 1591
tale 1591
� 1591
Aktionsprogramm 1590
Län@@ 1590
OR 1590
Prim@@ 1590
dynamischen 1590
neueste 1590
teilung, 1590
vorgeschrieb@@ 1590
vorstellen, 1590
zugelass@@ 1590
Ox@@ 1589
dehn@@ 1589
ding 1589
drau@@ 1589
dun@@ 1589
grenzüberschreit@@ 1589
o.@@ 1589
&nbsp@@ 1588
N-@@ 1588
Verkäufer 1588
abwechslungs@@ 1588
tauch@@ 1588
Aufbau@@ 1587
Beförder@@ 1587
HT@@ 1587
May@@ 1587
audi@@ 1587
eil 1587
gangs@@ 1587
in: 1587
männ@@ 1587
mündliche 1587
sich: 1587
Ausstell@@ 1586
Flüssi@@ 1586
Hab@@ 1586
Juli@@ 1586
Lieb@@ 1586
Mobile 1586
Sech@@ 1586
beeinträchtigt 1586
fit@@ 1586
revolution@@ 1586
ttä@@ 1586
án@@ 1586
Arbeitslosig@@ 1585
Befürwor@@ 1585
Wichtigkeit 1585
fällt. 1585
trauri@@ 1585
verfügt, 1585
Tos@@ 1584
ancen 1584
etwaige 1584
gelegen. 1584
koordiniert 1584
neiden 1584
pflicht 1584
schlage 1584
tie 1584
(V@@ 1583
Ausgang 1583
Gewässern 1583
Ufer 1583
Weihnachts@@ 1583
Wetter@@ 1583
exklusive 1583
möglicher 1583
oppel@@ 1583
stabilen 1583
tzahl@@ 1583
EZ@@ 1582
Große 1582
Linien 1582
Prüfungen 1582
ausgeweit@@ 1582
empfin@@ 1582
glichkeiten 1582
harte 1582
mobilis@@ 1582
überprüfen. 1582
ET 1581
L'@@ 1581
Phänomen 1581
Statut 1581
work 1581
zellen 1581
Erfin@@ 1580
Vertiefung 1580
passen 1580
Enth@@ 1579
Got@@ 1579
Verur@@ 1579
beantwortet 1579
fortgeschrit@@ 1579
geordneten 1579
Andro@@ 1578
Ankündigung 1578
Flam@@ 1578
Fur@@ 1578
Lage. 1578
Wind 1578
diesmal 1578
eingebunden 1578
ledig@@ 1578
verändern 1578
zweimal 1578
é, 1578
Erfolg. 1577
Migranten 1577
akten 1577
su 1577
wachstum 1577
dat 1576
eingeb@@ 1576
umzusetzen, 1576
undes@@ 1576
unvermeid@@ 1576
Gewerkschaften 1575
Hotelsafe, 1575
Pix@@ 1575
Sicherheit. 1575
anter 1575
bezeichnet. 1575
einzur@@ 1575
pol 1575
rek@@ 1575
roll@@ 1575
veränderten 1575
Att@@ 1574
Freit@@ 1574
Jahrzehnt 1574
Versuche 1574
klimatisier@@ 1574
Än@@ 1574
Privatisierung 1573
Wachstum, 1573
agne 1573
anci@@ 1573
einzuführen, 1573
formuliert 1573
indirekt 1573
reisen, 1573
serklärung 1573
Internetzugang 1572
Sekund@@ 1572
Wirtschaftsp@@ 1572
abgegeben 1572
ni 1572
vo 1572
68 1571
Finanzinstitu@@ 1571
Standard-@@ 1571
Zäh@@ 1571
ausgedehn@@ 1571
erlauben, 1571
(EG) 1570
Schwierigkeiten, 1570
ador 1570
glich, 1570
or-@@ 1570
pake@@ 1570
t/@@ 1570
Ausdruck, 1569
Funktionalität 1569
Garten, 1569
Schokol@@ 1569
Zahlungsver@@ 1569
wiederholen, 1569
älter 1569
Aktivi@@ 1568
Arbeitsp@@ 1568
Gegen 1568
chin@@ 1568
ergeben. 1568
kampf@@ 1568
klausel 1568
losigkeit 1568
ünd@@ 1568
Cou@@ 1567
Haushaltsp@@ 1567
Bour@@ 1566
Eintritt 1566
Release 1566
sprak@@ 1566
ual 1566
ung! 1566
Arbeitnehmer, 1565
Familienz@@ 1565
Gor@@ 1565
anwäl@@ 1565
chtung 1565
dend 1565
ereig@@ 1565
gefallen 1565
timent 1565
ür 1565
Flug 1564
Kohä@@ 1564
Lehre 1564
Spo@@ 1564
TAC@@ 1564
U. 1564
chan@@ 1564
gefolgt 1564
gezielte 1564
188@@ 1563
Auseinander@@ 1563
Sing@@ 1563
Sowjetunion 1563
operative 1563
3D-@@ 1562
Bestellungen 1562
Konflikten 1562
Technologie@@ 1562
auen 1562
ausgehend 1562
server 1562
stün@@ 1562
Breakfast 1561
FIN@@ 1561
Zins@@ 1561
bekanntesten 1561
geschick@@ 1561
haben? 1561
steigende 1561
Ents@@ 1560
entdeckt 1560
erinnere 1560
gesetzlich 1560
parlamentarische 1560
schall@@ 1560
98@@ 1559
BIP@@ 1559
Fair@@ 1559
Lib@@ 1559
Verschie@@ 1559
Wetter 1559
Zut@@ 1559
demnächst 1559
gefangen 1559
läuft, 1559
ungssystem 1559
when 1559
(SV) 1558
2010. 1558
Hemm@@ 1558
Wechsel 1558
geziel@@ 1558
ograph@@ 1558
schen. 1558
1.0@@ 1557
5-0@@ 1557
finanzierten 1557
shof 1557
zusammenge@@ 1557
zuverlässige 1557
ко@@ 1557
Eigentümer 1556
IER@@ 1556
Israels 1556
Sauna 1556
Unterdrückung 1556
beihil@@ 1556
Data 1555
Gentoo 1555
Kup@@ 1555
Mittelme@@ 1555
Phas@@ 1555
Spazier@@ 1555
Statisti@@ 1555
Zielsetzung 1555
abilität 1555
erwartet. 1555
fizier@@ 1555
frei. 1555
here 1555
real 1555
schwier@@ 1555
super@@ 1555
tabel 1555
Besuchern 1554
Gut 1554
Ratsvorsitzes 1554
Schwä@@ 1554
Stellvertretender 1554
Zwecken 1554
add@@ 1554
elek@@ 1554
höherer 1554
mehrmals 1554
nachvoll@@ 1554
themati@@ 1554
189@@ 1553
Konfiguration 1553
Vergangen@@ 1553
WLAN@@ 1553
bestehender 1553
dex@@ 1553
ife 1553
send@@ 1553
vieren. 1553
Adobe 1552
Ali@@ 1552
Feder@@ 1552
Rap@@ 1552
apital 1552
erwähnen, 1552
innovativer 1552
klaus@@ 1552
lager 1552
schich@@ 1552
AKP-Staaten 1551
Kontinu@@ 1551
aufrechtzu@@ 1551
produzieren 1551
Ferien 1550
erleben. 1550
erzeugnissen 1550
nachteili@@ 1550
oph@@ 1550
2000-@@ 1549
Playa 1549
betrachten, 1549
bewegen, 1549
extra 1549
häufiger 1549
ihrerseits 1549
sagte: 1549
Landwirten 1548
Rhein@@ 1548
Sämtliche 1548
dei 1548
mischung 1548
niedrige 1548
ordnungsgemäße 1548
respektiert 1548
Kommunal@@ 1547
Zusammenfassung 1547
beteiligt. 1547
erreichbar 1547
m2 1547
pek@@ 1547
Ausfahrt 1546
Cann@@ 1546
Einrichtungen, 1546
Main@@ 1546
S&@@ 1546
Soziales 1546
Sun@@ 1546
Thermal@@ 1546
Unterschei@@ 1546
aben 1546
aturen 1546
Antrieb@@ 1545
Auskünfte 1545
Bewegungen 1545
Din@@ 1545
Gewe@@ 1545
Jav@@ 1545
Natur, 1545
erworben 1545
229-5@@ 1544
Ausnahme@@ 1544
Konstruktion 1544
Verbraucher, 1544
Verzögerung 1544
Wille 1544
ftung 1544
gemeinschaf@@ 1544
sinnvoll, 1544
ukra@@ 1544
örper@@ 1544
Ebenfalls 1543
bedingt 1543
dav@@ 1543
gebildet 1543
idealer 1543
installieren 1543
ligkeit 1543
pa 1543
schrift@@ 1543
zusätzlicher 1543
Aufwand 1542
Gebühr 1542
cer@@ 1542
damaligen 1542
legen@@ 1542
ě@@ 1542
33@@ 1541
Poker@@ 1541
Singap@@ 1541
gesetzliche 1541
gültigen 1541
haltungs@@ 1541
plant@@ 1541
sierung 1541
talen 1541
і@@ 1541
Anleger 1540
Charles 1540
Dür@@ 1540
Eh@@ 1540
Geor@@ 1540
Regimes 1540
bewunder@@ 1540
fer. 1540
kriti@@ 1540
mitg@@ 1540
these 1540
transparente 1540
unterbrochen 1540
Ja@@ 1539
Solange 1539
Technische 1539
Vergleich@@ 1539
Verschul@@ 1539
anerkannten 1539
ausgearbeitet 1539
verkauf 1539
Aufstockung 1538
Serbi@@ 1538
fahrten 1538
kaufen, 1538
unterstri@@ 1538
én@@ 1538
Entlass@@ 1537
Flugzeug 1537
ausländ@@ 1537
dienstleist@@ 1537
esen@@ 1537
ges. 1537
isierungs@@ 1537
punkt, 1537
3% 1536
Kreis 1536
bit 1536
eas@@ 1536
funktionier@@ 1536
kontinuier@@ 1536
recht. 1536
verursachten 1536
Bag@@ 1535
Legitimität 1535
Mun@@ 1535
Neues 1535
ehrgeizigen 1535
ments, 1535
th-@@ 1535
Anhänger 1534
Dänemark, 1534
Fun@@ 1534
Grafik@@ 1534
Wohler@@ 1534
alter@@ 1534
bedeut@@ 1534
chester 1534
gefährlich 1534
omp@@ 1534
seitigen 1534
vertrauen 1534
Betten 1533
Revolu@@ 1533
genug, 1533
schriftlichen 1533
se-@@ 1533
verwirklicht 1533
wus@@ 1533
Pake@@ 1532
Psych@@ 1532
geraten 1532
gewähren. 1532
Finanzierungen 1531
Instanz 1531
dam 1531
kenntnisse 1531
konto 1531
sau@@ 1531
sparen 1531
Alexander 1530
Mittelmeer-@@ 1530
Phasen 1530
Staatssekretär, 1530
comp@@ 1530
esta@@ 1530
geltende 1530
ich. 1530
islamischen 1530
noch@@ 1530
versäum@@ 1530
zukünftig 1530
Alpen@@ 1529
Charakter@@ 1529
Controll@@ 1529
Slo@@ 1529
ausgezeichnet 1529
enschaftsp@@ 1529
enswerten 1529
Ausdehnung 1528
neg@@ 1528
stadt. 1528
Strukturreformen 1527
[...]
