the 7692854
of 4074989
and 3542714
to 3339609
in 2460673
a 2136903
is 1600556
for 1325405
that 1210516
on 1038850
The 939566
with 831471
be 805820
are 757096
as 724938
by 636248
this 613371
I 606368
have 541075
will 538007
it 527011
not 514441
we 513732
which 477486
an 472303
from 457151
at 443209
or 434487
European 433061
has 423341
you 412570
@@ 335751
can 328187
was 314336
our 307469
. 301891
also 301859
, 300739
all 299283
- 298906
its 292031
(@@ 276611
their 246528
Commission 238863
In 238327
more 229854
would 226238
been 222661
your 221841
but 217871
This 214208
We 212699
Mr 210105
It 208099
should 201881
one 191884
new 187304
Member 172502
must 171388
they 171042
other 170527
ing 169276
EU 166270
s, 163957
-@@ 162955
very 157299
s. 156971
only 155685
S@@ 152796
these 152303
s 151024
about 148804
there 147059
do 146990
like 143082
Council 139731
C@@ 136929
into 134936
: 134878
"@@ 134435
up 133604
who 130848
any 129837
if 128154
such 126360
in@@ 125392
es 125334
re@@ 124990
ed 123814
between 123090
no 122442
out 121774
us 121549
were 120982
so 120865
A 119093
– 119041
than 118120
un@@ 117807
es, 116502
) 113368
need 111701
States 111425
A@@ 110326
's 110302
T@@ 109327
use 109003
P@@ 108653
time 108584
most 108065
what 107346
B@@ 106928
some 106541
when 105272
first 105213
President, 105033
y 104288
make 103806
es. 103073
his 101644
take 100412
c@@ 99901
my 97926
M@@ 97528
L@@ 97495
Union 97425
well 97056
able 96961
many 96779
people 95316
important 95176
F@@ 95050
s@@ 94766
support 93924
information 93433
D@@ 92915
ation 92267
countries 92089
E@@ 92022
two 91788
made 91065
those 90914
now 89753
work 89488
because 88482
H@@ 88464
where 87908
over 87417
had 86514
d@@ 86145
report 85643
economic 85030
may 84382
o 84103
N@@ 83764
er 83475
t@@ 82322
y@@ 82056
If 81483
under 81408
de 81027
Parliament 81010
just 80813
? 80708
am 80388
being 79811
ing, 79704
’s 79587
p@@ 79132
i 78697
he 78504
Europe 78339
way 78334
; 77975
through 77742
For 77249
W@@ 76704
order 76555
e@@ 76379
G@@ 76218
even 75894
within 75286
al 75064
ted 74869
public 74595
o@@ 73988
R@@ 73362
). 73339
t 73108
them 72878
political 72844
al@@ 72803
" 72347
'@@ 72292
O@@ 72207
/@@ 71984
development 71762
against 71607
part 71557
y, 70440
policy 70189
As 69875
could 69712
both 69517
after 69252
t, 69185
b@@ 69102
market 68842
international 68347
i@@ 68149
dis@@ 67842
same 67566
an@@ 67495
national 67453
social 67161
a@@ 67102
e, 66534
right 66186
ing. 66111
“@@ 65966
e. 65945
ate 65913
number 65062
e 64797
K@@ 64367
how 64359
financial 64301
y. 64167
good 63856
ts 63411
does 62960
hotel 62731
There 62365
n@@ 62086
g@@ 61963
used 61951
ar@@ 61604
own 61514
es@@ 61308
see 61126
without 60981
2 60721
ed. 60265
a, 60179
place 59747
ting 59504
system 59476
years 59452
set 59421
You 59374
de@@ 58793
en@@ 58273
measures 58103
! 58040
), 57935
already 57926
want 57833
still 57731
t. 57484
I@@ 57440
therefore 57374
find 57059
v@@ 56970
di@@ 56965
k@@ 56786
ers 56315
f@@ 56258
m@@ 56241
V@@ 56130
much 56015
available 55857
ti@@ 55655
end 55396
then 55032
ensure 54951
different 54843
ation, 54452
including 54226
... 54175
possible 53865
ation. 53855
1 53678
se@@ 53522
human 53337
area 53318
free 53253
last 53087
before 52559
is@@ 52472
further 52159
rights 52147
Community 52127
ated 51845
on@@ 51122
common 50596
services 50494
ch@@ 50438
ri@@ 50417
great 50356
l@@ 50224
provide 50064
during 49844
u@@ 49830
ad@@ 49662
co@@ 49576
le@@ 49564
.@@ 49349
er@@ 49068
since 48681
help 48498
cannot 48452
' 48395
year 48352
each 47962
ac@@ 47928
li@@ 47913
point 47783
view 47662
it@@ 47456
el@@ 47386
But 47354
high 47253
access 47236
ed, 47166
ro@@ 47051
proposal 47013
That 46993
However, 46936
th@@ 46841
d 46659
Committee 46603
believe 46502
get 46371
or@@ 45792
taken 45702
ra@@ 45656
data 45620
me 45571
means 45451
here 45440
based 45314
h@@ 45313
energy 45231
world 45174
3 45019
three 44907
am@@ 44897
m 44880
quality 44790
at@@ 44504
and, 44316
best 44183
every 44094
think 44059
j@@ 43976
a. 43969
products 43920
ating 43736
cooperation 43457
agreement 43443
case 43310
give 43252
Re@@ 43201
as@@ 43164
level 43077
next 43073
offers 42910
United 42774
say 42639
Hotel 42592
small 42569
fact 42462
p 42431
particular 42407
J@@ 42378
future 42345
On 42327
Con@@ 42133
put 42133
while 42077
ly 42018
U@@ 41896
country 41521
State 41471
long 41286
Our 41275
st@@ 41229
ations 41107
ic 41064
given 40957
current 40829
process 40823
clear 40792
main 40791
know 40618
aid 40453
To 40427
business 40348
5 40278
3@@ 40216
These 40129
Commissioner 40031
legal 40025
z@@ 39677
certain 39622
that, 39514
They 39441
service 39432
lo@@ 39385
less 39340
large 39319
situation 39302
go 39216
few 39178
trade 39166
it. 39140
con@@ 39129
al, 38951
necessary 38770
action 38655
All 38507
full 38294
si@@ 38280
At 38184
shall 38143
w@@ 38024
security 37931
areas 37843
protection 37800
With 37636
rules 37521
ent 37445
working 37337
offer 37316
adopted 37304
better 37297
tions 37231
4 37051
come 36965
particularly 36943
using 36819
whether 36753
em@@ 36720
d, 36603
day 36576
Y@@ 36569
specific 36474
following 36376
et@@ 36337
far 36329
im@@ 36273
po@@ 36243
te@@ 35879
What 35851
role 35698
4@@ 35683
Minister 35635
question 35603
President 35461
In@@ 35459
debate 35434
issue 35399
local 35303
k 35248
res@@ 35234
position 35183
tion 35142
form 35068
become 34901
tion, 34860
en 34854
her 34833
mo@@ 34765
continue 34756
tra@@ 34652
down 34614
ity 34596
back 34560
why 34492
state 34412
ur@@ 34369
around 34368
second 34363
fully 34320
ent@@ 34297
needs 34276
special 34251
us@@ 34220
million 34144
real 34012
tion. 33960
ally 33958
ts, 33931
d. 33909
room 33864
programme 33823
always 33735
major 33698
And 33493
no@@ 33247
” 33220
too 33097
global 33067
towards 33065
per@@ 33050
various 33048
basis 33011
per 32953
5@@ 32924
open 32917
production 32901
said 32705
c 32626
third 32607
change 32362
er, 32362
Al@@ 32351
present 32348
be@@ 32326
located 32299
ar 32226
today 32192
did 32172
S 31999
inter@@ 31812
ag@@ 31757
framework 31749
ant 31695
le 31687
ex@@ 31654
pro@@ 31492
der 31462
account 31455
making 31423
hope 31415
increase 31409
Mrs 31381
create 31367
health 31360
key 31357
problems 31346
especially 31329
When 31300
th 31153
city 31096
law 31087
to@@ 31078
company 31073
however, 31051
r@@ 31042
op@@ 30958
together 30940
Court 30902
terms 30896
ings 30841
research 30770
regional 30734
several 30671
companies 30663
conditions 30638
citizens 30576
ter 30559
sp@@ 30294
line 30286
led 30278
implementation 30149
als 30113
control 30087
decision 30059
general 30005
non-@@ 29982
another 29959
close 29957
6@@ 29944
6 29859
om@@ 29853
ts. 29796
9@@ 29597
ver@@ 29577
e-@@ 29557
progress 29530
single 29499
ab@@ 29368
management 29306
private 29304
pe@@ 29229
est 29153
ing@@ 29130
ve 29082
issues 29062
look 29053
10 29043
respect 28970
group 28953
proposed 28922
provided 28840
stay 28769
environmental 28762
rooms 28760
do@@ 28679
out@@ 28597
ol@@ 28505
l 28488
result 28477
growth 28452
power 28335
Commission's 28333
problem 28277
course 28270
8@@ 28220
vote 28213
qu@@ 28205
government 28050
car@@ 28011
going 28001
8 27925
ed@@ 27924
US 27912
2@@ 27907
ter@@ 27906
effective 27767
7@@ 27750
taking 27744
An@@ 27739
Z@@ 27734
Co@@ 27700
ic@@ 27673
Mar@@ 27624
ous 27563
German 27556
la@@ 27516
old 27431
um@@ 27356
vi@@ 27342
transport 27290
over@@ 27274
ci@@ 27256
time, 27181
7 27176
ce 27159
age 27143
regard 27140
authorities 26942
is, 26893
sh@@ 26869
found 26853
include 26813
really 26811
E 26786
ap@@ 26783
ment 26751
food 26692
until 26667
pre@@ 26661
water 26628
among 26615
vo@@ 26615
He 26612
ma@@ 26611
s: 26603
er. 26593
range 26569
allow 26504
ul@@ 26385
ine 26348
often 26333
subject 26327
whole 26310
ates 26296
ta@@ 26285
sector 26275
provides 26038
for@@ 25937
due 25920
Th@@ 25912
h 25886
bo@@ 25851
individual 25787
n 25745
improve 25734
least 25685
once 25683
ist 25667
budget 25633
ise 25573
tive 25503
par@@ 25457
il@@ 25397
project 25354
activities 25338
projects 25165
ask 25163
me@@ 25147
proposals 25140
life 25057
importance 25050
systems 25041
X@@ 25018
ability 24950
u 24934
ded 24863
ted. 24852
recent 24846
efforts 24831
something 24804
experience 24784
Europe. 24754
period 24731
he@@ 24700
ia 24683
x 24651
having 24650
again 24626
pa@@ 24626
start 24614
ding 24564
Treaty 24559
technical 24549
wish 24546
competition 24500
Pro@@ 24493
legislation 24492
tri@@ 24467
al. 24463
Union. 24441
gentlemen, 24421
internal 24413
call 24400
approach 24359
opportunity 24350
Ex@@ 24337
personal 24292
forward 24276
ge@@ 24252
ent, 24197
all, 24139
Directive 24125
ho@@ 24123
members 24088
example, 24086
States. 24050
rather 24046
te 24020
modern 23939
se 23933
might 23930
behalf 23902
Group 23848
safety 23737
ou@@ 23650
responsible 23620
greater 23607
called 23592
ne@@ 23569
interest 23553
After 23536
& 23491
existing 23480
done 23459
b 23423
meeting 23420
ations, 23377
agree 23313
so@@ 23302
x@@ 23302
field 23296
application 23292
little 23179
currently 23176
investment 23143
Madam 23125
developing 23115
T 23085
des 23073
it, 23052
thank 22981
10@@ 22972
makes 22954
matter 22921
welcome 22887
related 22873
gra@@ 22843
ds 22822
bring 22782
play 22762
countries. 22741
price 22687
su@@ 22623
O 22569
ans 22569
quite 22544
ations. 22484
achieve 22470
air 22468
women 22425
site 22409
product 22406
ir@@ 22384
light 22362
up@@ 22288
total 22252
bi@@ 22247
ha@@ 22245
cultural 22231
time. 22224
list 22141
EUR 22121
concerning 22118
industry 22112
yet 22111
ch 22095
et 22082
ak@@ 22073
mer@@ 22065
No 22052
training 22030
comm@@ 21989
la 21960
ance 21893
tax 21866
excellent 21849
Affairs 21778
States, 21771
resources 21738
building 21718
% 21666
strategy 21601
ladies 21584
ers, 21552
policies 21551
natural 21531
ste@@ 21529
value 21474
[[@@ 21460
directive 21423
20 21422
9 21412
Article 21364
One 21350
C 21337
essential 21312
institutions 21280
tic 21270
ber@@ 21246
four 21243
risk 21238
results 21237
off 21218
ted, 21198
ary 21189
ent. 21189
,@@ 21187
costs 21178
additional 21164
impact 21146
let 21092
serious 21071
1@@ 21044
favour 21041
D 21029
appropriate 21028
children 21027
man@@ 21012
complete 21010
International 20979
ph@@ 20899
end@@ 20890
crisis 20861
above 20838
responsibility 20831
young 20809
New 20798
sustainable 20792
course, 20779
name 20767
30 20707
ity, 20687
0@@ 20671
House 20667
step 20651
contact 20616
under@@ 20585
significant 20552
gu@@ 20534
meet 20529
ments 20523
centre 20481
across 20465
difficult 20446
el 20427
strong 20400
active 20385
Commission, 20322
deal 20322
enjoy 20318
fi@@ 20318
she 20264
held 20218
took 20212
known 20211
show 20202
World 20164
employment 20136
simply 20130
ten@@ 20130
Com@@ 20122
developed 20093
via 20012
rate 20008
agreed 20006
id@@ 19999
along 19981
go@@ 19979
days 19962
address 19961
money 19939
Ad@@ 19929
directly 19884
Ar@@ 19882
member 19839
attention 19808
comes 19807
ity. 19804
resolution 19778
ies 19765
red 19751
Commissioner, 19738
clearly 19733
/ 19704
upon 19693
central 19684
text 19658
tu@@ 19622
required 19609
region 19596
land 19590
itself 19555
countries, 19538
ke 19532
bu@@ 19505
share 19485
thus 19455
takes 19366
principle 19353
foreign 19307
15 19289
example 19236
". 19210
according 19208
fundamental 19196
19@@ 19193
P 19166
positive 19159
| 19152
software 19151
please 19135
min@@ 19110
mar@@ 19099
sub@@ 19077
democratic 18991
So 18945
consider 18910
Mo@@ 18905
lin@@ 18905
final 18898
environment 18879
reform 18872
ty 18871
aim 18869
longer 18869
away 18866
[@@ 18860
é@@ 18858
direct 18856
negotiations 18856
them. 18850
technology 18841
promote 18829
on, 18815
points 18795
try 18786
customers 18772
IN@@ 18743
family 18743
Europe, 18731
climate 18729
early 18723
work@@ 18709
en, 18706
staff 18699
an, 18669
gi@@ 18629
g 18613
joint 18608
side 18606
um 18587
agricultural 18582
war@@ 18571
low 18565
established 18499
lead 18497
us. 18472
keep 18457
decided 18452
Ma@@ 18443
things 18441
solution 18434
location 18417
and@@ 18382
left 18348
From 18311
wide 18290
amendments 18227
short 18227
sure 18210
standards 18204
parties 18180
t-@@ 18168
force 18166
almost 18146
sk@@ 18139
throughout 18130
tions. 18121
lic@@ 18114
ally, 18110
economy 18106
du@@ 18031
version 18025
fin@@ 18021
concerns 18005
designed 17989
men@@ 17972
Members 17952
General 17944
amount 17941
him 17933
o, 17933
develop 17899
der@@ 17882
ative 17878
EC@@ 17869
000 17862
potential 17848
opinion 17788
requirements 17755
beautiful 17740
benefit 17740
Le@@ 17736
‘@@ 17722
En@@ 17721
leading 17705
regulation 17704
changes 17683
page 17675
tes 17668
au@@ 17665
pay 17642
five 17641
os 17635
lot 17610
top 17592
ers. 17578
easy 17568
es: 17560
apply 17557
kind 17552
on. 17531
views 17525
either 17519
ian 17505
programmes 17502
voted 17465
y-@@ 17462
man 17458
:@@ 17440
pl@@ 17419
thing 17409
home 17400
receive 17400
Union, 17397
regions 17394
feel 17387
never 17376
ck@@ 17364
extremely 17361
heart 17352
Ro@@ 17348
assistance 17316
education 17314
ren@@ 17288
ge 17266
ment. 17257
visit 17247
tions, 17244
regarding 17243
Germany 17232
needed 17228
network 17224
und 17175
relevant 17174
ec@@ 17173
reduce 17164
remain 17156
18@@ 17149
years. 17121
we@@ 17113
12 17108
French 17103
questions 17096
ment@@ 17087
civil 17053
By 17036
near 17036
funds 17032
Economic 16992
reach 16992
involved 16984
times 16982
1.@@ 16970
us, 16954
Since 16935
commitment 16901
guarantee 16898
objective 16867
markets 16866
communication 16857
world. 16856
capital 16840
relations 16803
fight 16796
plan 16786
Please 16772
com@@ 16756
rec@@ 16752
wi@@ 16746
soon 16730
basic 16722
focus 16711
ass@@ 16658
decisions 16647
design 16642
fac@@ 16632
website 16605
mis@@ 16604
Tra@@ 16572
majority 16556
looking 16546
50 16540
carried 16538
act 16528
exchange 16519
outside 16507
s' 16506
road 16492
_@@ 16481
", 16448
market. 16445
created 16432
year. 16432
cost 16421
z 16418
den@@ 16399
actually 16395
groups 16368
tor@@ 16353
Presidency 16332
includes 16325
ad 16322
actions 16313
town 16311
Internet 16304
Development 16297
increased 16236
type 16236
ents 16224
interests 16222
ob@@ 16220
reason 16214
states 16207
ying 16201
providing 16196
que 16194
ari@@ 16179
How 16166
L 16142
seen 16131
bre@@ 16130
12@@ 16116
ck 16104
live 16084
freedom 16074
cases 16067
content 16060
industrial 16049
ever 16021
living 16019
peace 16019
ment, 16000
procedure 15997
external 15994
s; 15986
th, 15968
mon@@ 15954
ts@@ 15947
higher 15927
Mon@@ 15924
har@@ 15917
objectives 15907
Parliament, 15897
prevent 15874
Be@@ 15858
20@@ 15855
tion@@ 15838
ful 15814
For@@ 15811
enable 15810
concerned 15806
presented 15803
Ch@@ 15787
Council, 15778
An 15759
military 15759
allows 15707
pages 15671
ble 15670
ship 15664
M 15647
provisions 15642
months 15637
situated 15625
bar@@ 15605
trans@@ 15591
king 15580
online 15552
integration 15549
works 15548
tr@@ 15547
2.@@ 15546
mat@@ 15540
cre@@ 15535
en. 15520
accept 15486
draft 15466
ness 15447
although 15446
sur@@ 15426
society 15421
Republic 15406
traditional 15404
dialogue 15400
Y 15399
ters 15387
No@@ 15380
cor@@ 15367
pres@@ 15352
her@@ 15342
famous 15334
table 15329
De@@ 15308
policy. 15293
prices 15285
lack 15272
agreements 15268
years, 15268
minutes 15247
themselves 15244
request 15227
ence, 15224
unique 15223
ke@@ 15206
ence 15205
increasing 15200
received 15157
da@@ 15155
included 15142
coming 15092
Commission. 15090
THE 15086
ry 15081
Government 15071
] 15062
parts 15013
R 15008
tor 15005
past 15002
run 14965
funding 14955
context 14949
ways 14947
creation 14946
lu@@ 14946
ati@@ 14944
ess 14932
ess@@ 14932
ev@@ 14930
euro 14926
ran@@ 14921
American 14915
certainly 14914
professional 14909
ly, 14887
capacity 14886
initiative 14882
standard 14878
house 14850
ged 14844
17@@ 14789
previous 14788
13@@ 14765
report. 14760
regards 14740
contribution 14736
understand 14733
care 14730
Foreign 14711
solutions 14701
rates 14700
Bo@@ 14696
Press 14694
AN@@ 14693
2009 14687
ER@@ 14680
tic@@ 14679
considered 14672
200@@ 14670
IT@@ 14657
nature 14656
te, 14636
effect 14621
ite 14604
former 14570
ents. 14565
this, 14558
Par@@ 14550
whose 14526
car 14519
AR@@ 14515
ance. 14495
nuclear 14495
can@@ 14488
re 14483
note 14476
,000 14475
principles 14471
report, 14470
remains 14466
di 14461
ence. 14449
w 14433
send 14432
June 14412
idea 14406
entire 14399
RE@@ 14392
cu@@ 14392
EU's 14382
14@@ 14381
IS@@ 14378
though 14375
ents, 14373
fe@@ 14317
consumer 14314
turn 14307
event 14305
Central 14297
les 14297
sa@@ 14297
big 14292
rapporteur 14284
Car@@ 14268
men 14254
ves 14247
year, 14236
est@@ 14234
everything 14234
commercial 14221
priority 14218
char@@ 14200
doing 14191
il 14189
ation@@ 14185
de, 14174
possibility 14172
enough 14168
Un@@ 14148
hard 14146
move 14141
sta@@ 14130
Po@@ 14127
particular, 14108
ant@@ 14101
ten 14100
face 14097
annual 14096
Justice 14088
area. 14075
supply 14072
knowledge 14070
release 14068
reached 14052
term 14052
workers 14045
Ac@@ 14036
ven@@ 14027
goods 14016
return 14000
s) 13999
ors 13997
protect 13995
Some 13986
ve@@ 13963
win@@ 13952
wor@@ 13952
ba@@ 13940
aware 13920
limited 13915
contribute 13909
concern 13905
contains 13892
sea 13889
asked 13874
á@@ 13845
AL@@ 13839
ill@@ 13823
true 13800
anc@@ 13790
enc@@ 13774
successful 13770
space 13769
ms 13764
F 13761
ideal 13755
day, 13743
Lisbon 13737
opportunities 13733
original 13731
setting 13724
treatment 13709
date 13706
submitted 13701
you, 13701
add 13697
( 13696
My 13683
form@@ 13682
events 13676
cra@@ 13664
labour 13662
completely 13647
response 13647
brought 13636
half 13616
built 13572
highly 13551
language 13550
National 13545
ig@@ 13523
demand 13515
IC@@ 13514
k, 13504
comp@@ 13497
addition 13487
Finally, 13486
latest 13482
legislative 13481
South 13474
performance 13462
EC 13453
y: 13452
ep@@ 13432
’ 13400
av@@ 13363
sion 13363
long-term 13356
person 13351
art 13346
creating 13328
inc@@ 13315
effects 13308
hand 13301
ris@@ 13299
which, 13292
e: 13284
achieved 13282
efficient 13271
se, 13268
sal@@ 13262
balance 13257
hor@@ 13254
system. 13249
added 13245
population 13220
ties 13214
China 13212
seems 13207
media 13203
€@@ 13200
3.@@ 13192
loc@@ 13187
shows 13186
review 13185
package 13184
st 13160
body 13157
land@@ 13150
wa@@ 13150
team 13148
16@@ 13146
15@@ 13141
features 13141
25 13133
similar 13129
friendly 13121
partners 13114
gives 13108
series 13106
France 13089
accordance 13080
More 13072
ard 13070
vis@@ 13067
independent 13066
gen@@ 13060
le, 13052
implement 13038
equipped 13031
this. 13022
press 13014
overall 13004
December 12973
11 12967
mean 12965
establish 12964
aspects 12944
plan@@ 12939
later 12936
largest 12925
ging 12917
f 12909
procedures 12908
integrated 12906
bur@@ 12894
relation 12893
steps 12883
May 12873
levels 12866
as, 12862
Regulation 12861
ons 12854
iz@@ 12844
recently 12839
ure 12834
user 12810
ving 12796
sion, 12789
gas 12773
back@@ 12766
forms 12755
ow@@ 12755
connection 12736
nothing 12736
m, 12714
ru@@ 12713
structural 12700
supported 12699
es; 12695
reduction 12685
success 12666
star@@ 12636
book 12632
)@@ 12629
others 12619
St@@ 12610
Russia 12609
ys 12600
beginning 12597
boo@@ 12588
war 12583
Su@@ 12576
possible. 12565
huge 12552
financing 12551
0.@@ 12532
oc@@ 12515
a-@@ 12514
calls 12513
perfect 12501
ast@@ 12500
fishing 12500
relating 12490
sc@@ 12481
users 12479
self-@@ 12474
ings. 12473
benefits 12463
a's 12460
ist@@ 12460
addition, 12457
comprehensive 12451
100 12448
ide@@ 12446
ance, 12443
0 12435
Europe@@ 12435
internet 12433
uses 12430
shown 12423
expected 12421
monitoring 12407
comfortable 12404
EN@@ 12399
policy, 12392
reports 12387
ES@@ 12386
guests 12386
prepared 12384
test 12383
ut@@ 12369
consumers 12353
require 12353
six 12353
read 12350
words 12346
CO@@ 12344
off@@ 12339
file 12338
job 12321
Bank 12315
]] 12307
stop 12301
future. 12296
den 12289
in, 12289
movement 12289
party 12279
m. 12274
lower 12262
jobs 12255
produc@@ 12253
199@@ 12241
mentioned 12241
or, 12234
Cor@@ 12221
Social 12219
requires 12217
web 12211
equal 12191
etc. 12171
came 12168
history 12166
AT@@ 12157
ensuring 12141
published 12112
strengthen 12102
n, 12098
tru@@ 12089
te. 12086
gener@@ 12085
check 12084
improving 12084
Of 12078
work. 12078
people. 12071
fair 12070
paid 12069
scientific 12069
ks 12048
tur@@ 12044
author@@ 12040
choose 12038
2010 12021
Se@@ 12008
sec@@ 12005
bas@@ 11997
ther@@ 11958
billion 11954
To@@ 11953
all@@ 11929
Let 11926
ality 11921
id 11917
fer@@ 11913
travel 11898
level. 11897
Italian 11880
N 11880
avoid 11879
ments. 11877
sent 11876
democracy 11868
thanks 11861
During 11856
produced 11855
pu@@ 11851
able. 11847
credit 11837
oil 11823
dra@@ 11820
approved 11818
giving 11814
ang@@ 11811
ine@@ 11807
km 11806
ator 11805
wh@@ 11803
re-@@ 11800
choice 11789
strategic 11775
EU. 11762
challenges 11754
music 11751
B 11745
o. 11745
2000 11732
ism 11721
operation 11710
walk 11707
UN@@ 11696
process. 11691
rural 11688
behind 11683
facilities 11680
Gu@@ 11676
lies 11674
Parliament. 11671
breakfast 11666
minimum 11666
material 11657
i, 11646
build 11645
met@@ 11635
conference 11623
$@@ 11615
Bu@@ 11613
rule 11613
ical 11612
comple@@ 11609
le. 11608
n. 11607
Convention 11601
cas@@ 11594
services. 11587
administrative 11586
und@@ 11583
aimed 11581
stability 11581
sound 11580
rest 11579
Lo@@ 11578
G 11574
program 11572
construction 11553
ens 11539
customer 11534
you. 11533
governments 11532
guest 11525
perhaps 11525
distribution 11500
gre@@ 11492
ities 11491
tim@@ 11483
da 11481
UN 11478
growing 11477
study 11476
digital 11471
waste 11468
follow 11439
board 11438
hand, 11416
fa@@ 11410
Ho@@ 11409
Per@@ 11407
function 11404
produce 11403
ell@@ 11398
Fin@@ 11394
stage 11389
als, 11388
budgetary 11386
humanitarian 11381
January 11369
competitive 11369
ins 11367
model 11362
ish 11359
community 11355
AS@@ 11332
conclusions 11322
written 11314
day. 11311
direc@@ 11308
dec@@ 11305
official 11305
pleased 11304
quickly 11304
mobile 11299
Im@@ 11282
co-@@ 11281
allowed 11270
ear@@ 11263
payment 11252
OF 11249
bed 11249
ited 11247
carry 11246
assessment 11245
th. 11245
law@@ 11229
K 11200
cur@@ 11200
operating 11194
pan@@ 11187
cause 11177
way. 11177
values 11166
v 11159
enter 11155
ia, 11154
reference 11138
complex 11132
leave 11129
ter, 11126
instruments 11124
pressure 11121
practical 11119
2008 11118
popular 11115
aims 11109
people, 11108
d-@@ 11107
adopt 11094
became 11093
r 11076
ple@@ 11072
March 11070
encourage 11067
ists 11059
cover 11054
play@@ 11054
applied 11053
cap@@ 11052
Agreement 11048
fact, 11045
simple 11045
maximum 11043
practice 11035
." 11032
oper@@ 11028
Spanish 11010
X 11006
search 11003
acc@@ 11001
double 10993
equipment 10991
discussion 10990
sed 10981
one. 10971
purpose 10952
here. 10946
holiday 10945
highest 10936
types 10934
sense 10920
way, 10909
nor 10906
ali@@ 10886
easily 10881
se. 10879
effort 10869
nation@@ 10868
beyond 10865
adoption 10861
crucial 10861
bro@@ 10858
ver 10853
des@@ 10852
British 10837
July 10836
an. 10829
East 10826
Union's 10823
intended 10814
Public 10800
ES 10797
tal@@ 10796
participation 10787
ge, 10786
committed 10773
scope 10761
custom@@ 10759
night 10758
ff@@ 10747
k. 10737
implementing 10721
expressed 10719
’@@ 10716
variety 10714
Council. 10713
24 10712
22@@ 10708
clo@@ 10701
ments, 10672
ach@@ 10661
Here 10660
Spain 10656
del 10656
* 10655
innovative 10653
mainly 10650
started 10643
ger@@ 10636
image 10624
October 10616
link 10612
cal@@ 10610
accession 10597
ges 10596
ens@@ 10589
ins@@ 10587
speci@@ 10587
cy@@ 10586
tre@@ 10576
Q@@ 10574
bor@@ 10572
places 10568
ready 10567
hours 10565
Inter@@ 10560
card 10560
ders 10555
committee 10551
pri@@ 10549
40 10548
fil@@ 10538
document 10531
tors 10528
AC@@ 10512
Sh@@ 10509
ann@@ 10508
any@@ 10488
century 10487
restaurant 10487
st, 10480
water@@ 10471
Furthermore, 10469
promoting 10468
s? 10468
amendment 10467
00@@ 10464
opening 10458
source 10450
North 10439
front 10437
Its 10431
said, 10431
draw 10418
pen@@ 10418
Europe's 10407
answer 10397
partner 10392
af@@ 10390
Parliament's 10387
ah@@ 10378
�@@ 10372
eng@@ 10369
express 10366
initiatives 10360
ages 10348
So@@ 10345
Western 10339
speak 10323
offered 10318
Moreover, 10317
anti-@@ 10315
caused 10302
rich 10302
ina 10295
market, 10287
While 10283
organisations 10283
rise 10283
11@@ 10282
representatives 10278
implemented 10276
sive 10273
ta 10268
Although 10265
Fund 10262
ss@@ 10252
September 10250
culture 10241
bus 10240
files 10234
property 10224
+@@ 10218
criteria 10218
cli@@ 10215
size 10208
view, 10200
un 10190
sha@@ 10180
matters 10177
4.@@ 10157
establishment 10153
hold 10148
tell 10134
age. 10133
case, 10133
elements 10130
structure 10116
reasons 10090
La 10089
decide 10086
numerous 10086
electronic 10082
ly. 10079
covered 10071
ge. 10065
November 10063
ics 10062
in. 10062
applications 10061
g, 10058
historical 10053
2007 10052
able, 10038
pp@@ 10033
Italy 10025
Li@@ 10023
interested 10012
products. 10008
ently 9999
indeed 9989
oo@@ 9986
advantage 9983
ay@@ 9983
24@@ 9982
country. 9979
Di@@ 9976
services, 9975
Security 9974
analysis 9974
|@@ 9974
office 9965
game 9961
likely 9961
hand@@ 9960
institutional 9958
ate@@ 9957
enlargement 9955
ie 9948
efficiency 9932
person@@ 9930
priorities 9929
starting 9927
goes 9923
supporting 9923
hol@@ 9895
cal 9886
maintain 9883
de. 9882
Sch@@ 9877
ze 9858
infrastructure 9855
50@@ 9851
Ne@@ 9839
German@@ 9837
coun@@ 9834
offering 9831
target 9829
cent@@ 9828
are@@ 9817
30@@ 9815
despite 9810
Mediterranean 9804
stor@@ 9800
provision 9797
detailed 9795
Czech 9793
Dis@@ 9788
ground 9782
First 9776
Many 9773
activity 9773
EM@@ 9768
age, 9761
beach 9759
transfer 9759
res 9756
damage 9755
today. 9738
gl@@ 9732
charge 9723
ising 9721
system, 9721
í@@ 9721
Or@@ 9716
keyword 9716
all. 9705
item 9699
ties, 9693
18 9692
23@@ 9688
persons 9688
details 9685
EU-@@ 9680
Man@@ 9674
die 9674
everyone 9669
pi@@ 9667
/0@@ 9652
video 9651
ese 9647
increasingly 9644
click 9635
Turkey 9631
Therefore, 9630
ity@@ 9623
concept 9621
lines 9617
ps 9616
illegal 9613
dic@@ 9607
Russian 9601
bar 9601
status 9599
instead 9598
ses 9596
ences 9592
transparency 9584
ances 9579
Ms 9578
ei@@ 9575
14 9563
secure 9544
at, 9540
got 9540
law. 9527
sion. 9525
EL@@ 9520
border 9519
201@@ 9511
V 9511
Qu@@ 9504
development. 9501
Go@@ 9499
bl@@ 9494
tax@@ 9489
Me@@ 9486
cour@@ 9484
ely 9478
app@@ 9472
affected 9469
'. 9464
RO@@ 9460
reforms 9457
supports 9456
daily 9451
IM@@ 9439
ds, 9435
ce, 9431
historic 9421
ings, 9421
statement 9420
(C@@ 9415
world, 9412
ably 9402
TV 9398
mil@@ 9394
pool 9391
ve. 9385
tools 9383
cri@@ 9382
rights, 9376
Your 9372
today, 9371
the@@ 9370
plans 9369
bio@@ 9366
area, 9363
dy 9358
ches 9357
interesting 9355
econom@@ 9353
English 9349
sector. 9348
ties. 9335
said: 9333
station 9330
well. 9326
ton@@ 9322
1, 9321
links 9317
(S@@ 9316
refer 9313
5.@@ 9312
stand 9310
consequences 9301
tro@@ 9296
safe 9292
them, 9288
ik@@ 9287
innovation 9287
rights. 9282
rac@@ 9281
top@@ 9281
code 9280
ori@@ 9279
tool 9277
introduction 9274
partnership 9264
domestic 9262
alternative 9249
establishing 9243
Information 9239
met 9238
ju@@ 9221
below 9215
discuss 9212
€ 9211
message 9206
regular 9195
one, 9193
ser@@ 9192
expect 9191
moment 9185
Now 9179
eg@@ 9167
reduced 9164
animal 9162
sectors 9160
instrument 9156
congratulate 9155
forces 9154
therefore, 9154
OR@@ 9152
associated 9151
ated. 9144
dri@@ 9142
lan@@ 9140
inst@@ 9139
coordination 9137
sometimes 9136
work, 9135
ma 9130
businesses 9125
happy 9122
regulations 9121
ants 9120
computer 9120
son 9114
documents 9109
é 9104
ar, 9084
well-@@ 9084
stra@@ 9082
strengthening 9080
col@@ 9072
talk 9072
® 9072
Bar@@ 9067
base 9058
tas@@ 9055
ate. 9051
as. 9045
ised 9045
25@@ 9040
improved 9040
read@@ 9035
sales 9035
April 9021
style 9018
materials 9007
probably 9006
reducing 9004
nice 9003
accommodation 8999
proper 8995
join 8990
00 8977
class 8977
cut 8973
bank 8970
task 8969
developments 8963
Only 8962
writing. 8958
fall 8956
US@@ 8951
ne 8951
signed 8948
che@@ 8940
average 8938
IL@@ 8937
port 8929
linked 8920
placed 8917
air@@ 8915
ale 8914
year@@ 8914
ter. 8909
finance 8908
guidelines 8906
emissions 8905
reading 8905
voting 8904
16 8901
vital 8899
option 8898
represents 8896
sing 8892
closely 8891
entry 8890
ST@@ 8889
ago 8886
information, 8875
pat@@ 8872
begin 8870
conflict 8869
substantial 8863
center 8858
Conference 8854
13 8853
200 8850
ished 8850
ili@@ 8848
stri@@ 8848
section 8847
ce@@ 8844
week 8843
round 8835
ber 8825
raised 8825
useful 8825
usually 8819
Policy 8812
compromise 8810
sufficient 8808
ty@@ 8807
don@@ 8806
worked 8803
Ab@@ 8802
Association 8801
summer 8801
RA@@ 8794
g. 8793
ET@@ 8788
measure 8778
Lu@@ 8777
ER 8771
Pre@@ 8768
y's 8767
discussions 8764
wanted 8761
critical 8758
extra 8758
iti@@ 8753
Even 8751
finally 8746
country, 8743
sions 8734
separate 8729
concrete 8726
mark 8723
wer@@ 8717
SP@@ 8714
ly@@ 8713
UK 8710
optim@@ 8707
Dec@@ 8693
igh@@ 8693
speed 8687
ya 8687
bit 8682
ile 8682
discussed 8674
learn 8674
listed 8674
distance 8673
Ste@@ 8665
ni@@ 8664
considerable 8659
challenge 8658
serve 8656
sites 8656
ON@@ 8654
dro@@ 8654
broad 8653
ish@@ 8651
La@@ 8647
fisheries 8647
so-called 8647
ó@@ 8647
mu@@ 8646
region. 8639
500 8637
regulatory 8635
sin@@ 8635
197@@ 8633
fine 8633
leaders 8627
AND 8625
cy 8620
198@@ 8615
word 8613
Chinese 8612
Eastern 8608
school 8608
а@@ 8608
drive 8605
Do 8604
od@@ 8604
cross-border 8598
introduced 8596
granted 8588
Thank 8585
competitiveness 8585
medical 8580
anti@@ 8578
banks 8575
phone 8573
ling 8570
Prime 8568
et. 8561
ously 8561
relationship 8559
defined 8553
processing 8528
vari@@ 8526
-S@@ 8523
sm@@ 8522
ur 8516
fu@@ 8512
hom@@ 8511
continued 8500
mind 8498
too, 8497
ib@@ 8496
limit 8494
areas. 8492
Euro@@ 8478
ded. 8476
Action 8470
II 8467
High 8465
ME@@ 8461
sign@@ 8461
tics 8456
eb@@ 8444
extent 8436
namely 8432
2006 8430
um. 8424
late 8419
fo@@ 8417
getting 8415
el, 8402
not, 8402
suitable 8400
ship@@ 8397
ve, 8397
fiscal 8396
risks 8396
compared 8395
28@@ 8388
trying 8381
me, 8378
consultation 8377
selection 8375
Is 8371
ie@@ 8369
organised 8369
EU, 8364
hear@@ 8363
death 8351
(see 8347
Val@@ 8345
contract 8345
referred 8343
vel@@ 8340
mention 8338
''@@ 8331
now, 8331
He@@ 8329
ement 8329
29@@ 8327
absolutely 8327
hotels 8326
opened 8326
train 8323
green 8319
.com 8315
ures 8313
cohesion 8309
followed 8309
environment. 8304
ated, 8302
violence 8291
ful@@ 8289
gri@@ 8283
mi@@ 8281
managed 8279
Programme 8277
confidence 8276
cat@@ 8273
download 8271
changed 8262
imp@@ 8261
a’s 8256
ire 8240
enti@@ 8239
ll@@ 8235
on-@@ 8234
40@@ 8233
appear 8231
ities, 8230
pol@@ 8230
ure. 8221
fied 8220
sign 8216
60 8211
lam@@ 8206
ce. 8205
U 8203
chance 8200
apartment 8189
bra@@ 8189
Research 8187
ational 8186
criminal 8185
im 8184
Ver@@ 8181
saying 8177
powers 8175
immediately 8174
playing 8174
Germany, 8172
comply 8172
concluded 8172
combat 8171
Federal 8168
ard@@ 8167
exc@@ 8165
influence 8165
that. 8156
head 8155
urban 8155
Secondly, 8153
ici@@ 8150
ourselves 8149
27@@ 8144
ski 8138
traffic 8133
ft 8129
ra 8120
pay@@ 8118
clu@@ 8115
stated 8115
ir 8114
ators 8111
ture 8111
pass 8109
poor 8106
ology 8105
level, 8097
represent 8095
my@@ 8094
.” 8093
post@@ 8093
Middle 8088
shor@@ 8088
mission 8087
high-@@ 8086
val@@ 8086
и@@ 8086
ental 8084
solidarity 8078
becoming 8073
por@@ 8071
technologies 8071
compliance 8068
extensive 8067
raise 8065
According 8055
als. 8046
ana 8041
informed 8041
law, 8040
Trade 8033
conclu@@ 8027
income 8027
35@@ 8026
6.@@ 8026
cities 8018
sho@@ 8012
Financial 8009
Greece 8001
whom 8001
farmers 7998
sion@@ 7998
floor 7991
selected 7981
alised 7977
ner@@ 7975
monetary 7973
fish 7963
ideas 7962
organis@@ 7954
debt 7949
San 7928
played 7928
development, 7927
out, 7925
candidate 7923
Rights 7916
Party 7915
ological 7912
Background 7911
sets 7911
prior 7909
mountain 7906
s’ 7901
elections 7899
AM@@ 7898
direction 7896
participate 7895
ved 7892
clean 7890
um, 7887
(the 7886
ars 7886
every@@ 7867
trading 7861
trust 7859
Energy 7858
is. 7841
poverty 7841
facing 7830
tt@@ 7829
fields 7824
Indeed, 7819
ure, 7817
larger 7816
ID@@ 7814
rit@@ 7807
2005 7805
talking 7805
commitments 7801
ction 7799
leg@@ 7799
place. 7798
concerned, 7791
ning 7784
planning 7784
method 7778
x, 7778
hi@@ 7775
correc@@ 7772
2003 7770
launched 7768
re, 7768
multi@@ 7766
ster@@ 7759
village 7754
/9@@ 7750
lost 7744
agenda 7741
day@@ 7741
facilitate 7740
bes@@ 7736
film 7735
re. 7735
%. 7729
drawn 7727
mutual 7718
tour@@ 7718
We@@ 7717
es' 7714
000@@ 7713
ines 7709
enn@@ 7707
running 7707
Health 7703
Africa 7702
ize 7698
nam@@ 7696
bon@@ 7693
marketing 7691
effectively 7690
wine 7690
understanding 7689
mor@@ 7688
differ@@ 7687
methods 7685
cally 7684
announced 7683
Nations 7682
Most 7681
island 7680
recognition 7679
ets 7676
ally. 7674
bal@@ 7669
tourist 7666
began 7660
plant 7655
ze@@ 7654
Amendment 7653
ate, 7653
worth 7650
ans, 7648
seri@@ 7648
ther, 7648
ron@@ 7645
our@@ 7644
sti@@ 7639
Ministers 7638
protected 7633
welcomes 7633
Ser@@ 7627
child 7626
pas@@ 7624
run@@ 7624
life. 7622
EU@@ 7618
laid 7616
ces 7612
IP@@ 7607
sports 7607
goal 7599
е@@ 7599
African 7594
2, 7591
initial 7590
weak@@ 7585
generally 7584
distribu@@ 7583
here, 7578
delivery 7571
accepted 7567
specifically 7563
recommendations 7562
Pol@@ 7554
sol@@ 7552
tun@@ 7549
reviews 7542
University 7541
amp@@ 7538
st. 7538
shared 7537
heard 7533
allowing 7532
citizens. 7532
ft@@ 7532
sit@@ 7531
righ@@ 7529
Green 7528
2004 7527
thought 7527
ad, 7526
Windows 7525
Market 7524
closer 7521
ko@@ 7521
dealing 7512
e? 7510
market@@ 7510
es? 7508
eas@@ 7507
She 7506
information. 7503
products, 7503
port@@ 7497
loss 7496
27 7494
WTO 7488
immediate 7485
laws 7479
players 7471
wants 7471
introduce 7470
EN 7463
gave 7463
ight 7458
stress 7457
sector, 7456
ded, 7455
propose 7451
promotion 7448
sen@@ 7448
export 7446
actual 7445
liber@@ 7445
options 7443
quiet 7443
Not 7440
OS@@ 7438
sun@@ 7436
cies 7435
and/or 7430
cks 7430
degree 7430
gar@@ 7430
commun@@ 7428
alism 7425
police 7423
GDP 7422
operations 7422
airport 7421
with@@ 7418
Ber@@ 7414
alis@@ 7413
regul@@ 7413
tan@@ 7410
improvement 7408
went 7407
achieving 7399
shopping 7396
thousands 7396
powerful 7395
Berlin 7393
Cas@@ 7391
ash@@ 7386
presence 7380
ous@@ 7377
Her@@ 7376
inform 7367
served 7363
generation 7359
fra@@ 7358
ending 7357
limit@@ 7354
17 7352
processes 7343
fellow 7335
Secretary 7334
Such 7332
collection 7330
insurance 7328
swimming 7324
obligations 7323
bel@@ 7317
infringement 7314
demands 7311
д@@ 7311
unemployment 7309
gh@@ 7308
Free 7306
ice 7303
colleagues 7300
posi@@ 7296
dam@@ 7289
lives 7289
Greek 7286
al-@@ 7286
medi@@ 7286
loo@@ 7285
Gra@@ 7283
H 7280
harmon@@ 7279
wing 7277
employees 7269
); 7265
it's 7265
Pri@@ 7264
lab@@ 7262
victims 7252
America 7251
Sp@@ 7247
respond 7244
star 7244
continues 7239
wal@@ 7237
atory 7234
sum@@ 7234
anything 7231
seek 7231
considers 7229
nor@@ 7227
tem@@ 7222
industry. 7221
fication 7214
Cre@@ 7213
ute 7212
ones 7205
aries 7201
news 7201
indic@@ 7200
ration 7199
exactly 7195
exclusive 7195
precisely 7194
bodies 7193
IT 7192
investigation 7192
EA@@ 7190
advanced 7188
organiz@@ 7188
с@@ 7184
ately 7183
deb@@ 7182
apartments 7179
exp@@ 7178
rel@@ 7175
so, 7173
duty 7170
ago, 7169
payments 7168
3, 7166
administration 7162
fixed 7160
feature 7159
map 7156
cul@@ 7154
applies 7153
www.@@ 7153
organisation 7147
stand@@ 7147
ing-@@ 7146
relate 7146
connected 7145
tional 7145
popul@@ 7143
sou@@ 7143
Kingdom 7141
students 7136
ambi@@ 7135
son@@ 7135
ship. 7132
technological 7132
don't 7131
spend 7131
founded 7129
ca 7128
2001 7126
combined 7125
net 7125
collec@@ 7120
2002 7119
parliamentary 7117
ary, 7116
identi@@ 7116
Other 7113
Just 7111
pain@@ 7111
ds. 7106
mer 7103
negative 7103
Gre@@ 7100
ef@@ 7100
attrac@@ 7099
inf@@ 7098
lon@@ 7093
forced 7091
His 7090
server 7089
1. 7087
head@@ 7080
February 7079
systems. 7079
tel@@ 7079
Wh@@ 7075
correct 7073
hon@@ 7073
= 7072
possible, 7063
core 7060
seem 7055
walking 7050
Gi@@ 7045
experts 7044
va 7043
19 7041
Each 7034
West 7034
practices 7032
inv@@ 7031
jo@@ 7030
evidence 7028
mal@@ 7027
tiv@@ 7016
5% 7010
significantly 7008
Bel@@ 7003
cont@@ 6999
ingly 6999
sources 6998
ized 6996
2. 6994
mp@@ 6994
save 6994
Bur@@ 6991
parking 6984
words, 6984
super@@ 6983
rapporteur, 6982
21 6981
ine, 6981
UR@@ 6973
age@@ 6971
modified 6967
let@@ 6964
60@@ 6963
ain@@ 6962
doubt 6962
balanced 6957
tabled 6951
hotel. 6950
justice 6948
ke. 6946
vic@@ 6946
continuing 6939
Regional 6937
Can@@ 6933
economy. 6931
pre-@@ 6929
sor@@ 6928
fresh 6927
sub-categories 6927
automatically 6926
els 6925
ING 6924
ka 6914
discrimination 6907
was@@ 6907
Au@@ 6906
are, 6905
fast 6904
ner 6901
1,@@ 6898
motion 6894
Por@@ 6888
a) 6886
record 6886
Rom@@ 6884
Palestinian 6881
hal@@ 6878
Pal@@ 6869
changing 6868
ey 6866
operational 6866
defence 6859
born 6857
democra@@ 6856
Bre@@ 6855
process, 6855
atten@@ 6849
enables 6848
failure 6847
becomes 6844
atmosphere 6843
Austria 6842
fic@@ 6838
ell 6837
gam@@ 6837
constitu@@ 6836
sport 6835
adequate 6834
aging 6833
ED@@ 6828
br@@ 6823
state@@ 6823
ks, 6822
+ 6814
Human 6814
., 6813
DE@@ 6813
Office 6812
Tur@@ 6811
if@@ 6810
obtain 6806
weeks 6804
rapid 6797
enterprises 6791
flo@@ 6791
networks 6787
AL 6786
scheme 6786
formal 6782
ator@@ 6777
purchase 6774
unless 6774
IS 6768
Irish 6767
entirely 6765
genuine 6765
calling 6763
strongly 6762
bringing 6761
suggest 6761
paper 6757
gain 6756
ON 6755
regime 6753
cent 6750
sed. 6750
bilateral 6746
”. 6742
Tran@@ 6737
renewable 6736
ty, 6735
issue. 6734
deliver 6731
know, 6731
authority 6730
Gar@@ 6727
zi@@ 6726
conclusion 6722
positions 6722
Framework 6718
ching 6716
Investment 6715
ities. 6710
CH@@ 6709
represented 6708
tes@@ 6708
evaluation 6706
binding 6705
ess, 6705
peaceful 6705
War@@ 6704
ies, 6703
AD@@ 6699
power@@ 6697
buy 6696
Is@@ 6695
Under 6695
ency 6695
permanent 6695
normal 6691
fron@@ 6687
', 6686
or. 6683
appears 6682
bin@@ 6682
4, 6681
agriculture 6680
fl@@ 6677
functioning 6677
clear@@ 6676
sil@@ 6673
d: 6671
ban 6665
resulting 6663
urgent 6662
too. 6661
benef@@ 6658
ils 6655
Ap@@ 6653
kin@@ 6652
5, 6648
entitled 6648
activ@@ 6642
minute 6638
flexible 6637
typical 6636
Mal@@ 6632
fund 6629
out. 6627
noted 6626
der, 6623
au 6622
areas, 6621
keeping 6619
element 6618
ad. 6617
select 6617
covers 6613
ov@@ 6612
analy@@ 6611
inside 6611
parti@@ 6611
Wor@@ 6609
ched 6607
ous, 6604
expenditure 6603
ming 6597
ban@@ 6596
exercise 6592
ble. 6588
registered 6588
tical 6586
?@@ 6584
Ta@@ 6583
ano 6583
corporate 6583
contrac@@ 6582
prepare 6581
so. 6580
ak 6578
stands 6577
currency 6576
down@@ 6576
inform@@ 6572
atic 6571
differences 6568
outcome 6567
ular 6563
acts 6561
ail@@ 6558
ambitious 6551
-B@@ 6550
difficulties 6548
opinion, 6540
guarantees 6533
s-@@ 6533
stock 6531
consider@@ 6528
1/@@ 6527
ing: 6526
qualified 6525
Once 6522
Vice-President 6520
easier 6520
alization 6515
player 6510
ger 6507
Air@@ 6506
duc@@ 6504
love 6502
“ 6500
far@@ 6499
о@@ 6499
s). 6498
ver, 6498
Service 6490
combination 6490
reasonable 6490
Web 6489
public@@ 6487
room, 6487
(P@@ 6486
low@@ 6486
cou@@ 6485
launch 6482
Why 6481
bad 6480
comments 6479
truly 6477
medium-sized 6475
manage 6473
closed 6472
tar@@ 6471
e-mail 6467
contain 6464
asylum 6463
scale 6463
future, 6461
ast 6459
sch@@ 6459
80 6457
W 6457
standing 6457
a: 6454
experienced 6453
construc@@ 6451
animals 6449
ier@@ 6447
visitors 6447
white 6446
spent 6437
ero@@ 6435
80@@ 6433
”, 6432
e; 6430
ion 6430
Har@@ 6428
voice 6427
attempt 6424
counter@@ 6418
Jo@@ 6417
plac@@ 6417
in-@@ 6416
saw 6416
Mer@@ 6415
say, 6415
condition@@ 6412
hear 6411
arrangements 6409
recovery 6409
Common 6408
park 6408
stable 6407
extend 6406
el. 6403
action. 6398
300 6396
qual@@ 6395
monitor 6393
tex@@ 6393
Group. 6392
consistent 6388
dedicated 6387
es) 6387
pped 6387
tele@@ 6378
respon@@ 6377
involving 6376
bility 6373
wonderful 6372
competi@@ 6366
ends 6366
month 6366
ary. 6362
develop@@ 6362
biggest 6361
track 6360
France, 6356
d'@@ 6354
investments 6349
7.@@ 6347
railway 6347
email 6346
fol@@ 6342
dat@@ 6341
meetings 6341
planned 6339
society. 6339
Ireland 6337
bul@@ 6335
more. 6335
flexibility 6334
Brussels 6331
City 6329
6, 6328
skills 6328
inclu@@ 6326
conc@@ 6325
rooms, 6321
Austrian 6318
operate 6315
primary 6315
Communication 6312
definition 6307
DI@@ 6306
approximately 6306
Min@@ 6305
pul@@ 6305
Stat@@ 6304
lose 6304
greatest 6302
log@@ 6300
gan@@ 6296
affect 6295
VI@@ 6293
196@@ 6290
bank@@ 6288
mit@@ 6287
service. 6284
az@@ 6283
ub@@ 6279
y; 6278
e) 6277
customs 6276
helping 6276
marked 6275
th-@@ 6275
yer 6271
statements 6270
says 6269
contained 6268
again, 6266
machine 6265
failed 6264
ia. 6263
gs 6261
fle@@ 6259
ign@@ 6257
cl@@ 6256
co-operation 6256
ay 6253
spo@@ 6250
scre@@ 6249
ade 6242
at. 6241
otherwise 6239
thereby 6239
President-in-Office 6234
friends 6231
rent 6228
operators 6227
spirit 6225
syn@@ 6225
extended 6224
AG@@ 6221
Centre 6221
Environment 6219
ns 6218
threat 6218
support. 6216
elected 6215
path 6214
show@@ 6212
targets 6211
learning 6210
August 6207
vehicles 6207
pleasant 6204
happ@@ 6197
judicial 6194
ble, 6191
seven 6190
then, 6183
ga@@ 6179
borders 6172
.. 6164
ring 6163
proposes 6160
Sea 6155
isation 6155
t: 6154
end, 6152
respective 6151
identify 6145
worldwide 6139
GmbH 6138
markets. 6137
nearly 6132
seeking 6132
enhance 6131
EP@@ 6130
9.@@ 6128
difference 6128
ke, 6127
determined 6125
images 6123
intention 6123
crime 6122
Room 6120
Because 6116
warm 6113
ern@@ 6112
@@@ 6111
systems, 6108
there@@ 6107
design@@ 6106
session 6106
OM@@ 6103
ship, 6101
one-@@ 6099
Both 6096
alle@@ 6091
applicable 6089
fre@@ 6087
ek@@ 6086
waiting 6085
sensitive 6084
Ministry 6083
ancient 6082
ion@@ 6081
Due 6077
speaking 6077
22 6076
IG@@ 6074
sions. 6073
ung@@ 6071
OT@@ 6068
change. 6068
5-@@ 6065
Mor@@ 6063
described 6063
pack@@ 6063
consideration 6060
producers 6059
bri@@ 6054
attractive 6052
i. 6052
ial 6051
dem@@ 6050
ey@@ 6049
AP@@ 6048
Paper 6046
dr@@ 6046
terrorism 6046
ud@@ 6044
eding 6041
pointed 6041
industry, 6040
told 6040
consumption 6038
temporary 6036
dangerous 6035
pal@@ 6035
remember 6034
electricity 6029
Representative 6028
convinced 6028
approval 6024
commit@@ 6024
earlier 6024
sam@@ 6024
à 6024
Res@@ 6021
van 6021
Agriculture 6020
submit 6016
tures 6014
requested 6013
8.@@ 6012
properly 6012
2-@@ 6008
firm 6008
ges@@ 6008
ro 6008
environment, 6007
new@@ 6006
med 6004
crisis. 6002
fill 6002
sli@@ 6000
2) 5999
availability 5999
moving 5999
grant 5998
kept 5998
functions 5996
Great 5995
Regul@@ 5994
religious 5994
identified 5993
travel@@ 5985
possibilities 5984
alist 5982
dist@@ 5979
assist 5977
yourself 5976
mechanism 5974
putting 5974
sitting 5973
ening 5970
iting 5969
brings 5968
neither 5967
issues. 5965
transparent 5965
unable 5964
Turkish 5962
stat@@ 5962
Comm@@ 5960
multi-@@ 5955
you@@ 5955
Ri@@ 5952
tically 5952
problem. 5951
situation. 5947
installation 5946
sions, 5946
clients 5941
street 5938
structures 5938
election 5937
berg 5934
dly 5933
host 5932
remaining 5928
components 5927
outstanding 5926
ton 5925
1) 5924
Ko@@ 5924
rail 5923
ip@@ 5921
issued 5921
El@@ 5919
ground@@ 5919
na@@ 5919
pr@@ 5919
to, 5919
languages 5917
condition 5916
programme. 5915
т@@ 5913
available. 5908
ster 5906
oul@@ 5904
critic@@ 5903
aliz@@ 5902
abo@@ 5901
compatible 5901
p. 5901
process@@ 5898
s/@@ 5898
bil@@ 5897
soci@@ 5897
spending 5896
"The 5894
sale 5892
claims 5891
studies 5889
Europeans 5885
Latin 5875
capable 5874
ked 5874
ut 5874
AG 5873
confirmed 5865
controls 5865
saf@@ 5865
physical 5864
acy 5861
alisation 5861
problems. 5859
relatively 5858
cop@@ 5857
conduct 5854
ery 5853
ы@@ 5853
Netherlands 5851
Swiss 5851
spe@@ 5850
ck, 5844
human@@ 5844
Today, 5843
metres 5843
there, 5843
tour 5842
tion: 5840
tly 5836
communic@@ 5835
estate 5832
figures 5831
ahead 5830
sing@@ 5825
ty. 5825
co 5821
fuel 5820
glob@@ 5817
consists 5816
shar@@ 5816
Internal 5814
4. 5813
photo@@ 5812
thinking 5809
obligation 5807
alone 5804
bear 5801
Another 5794
plants 5793
Sal@@ 5791
remove 5791
reality 5790
break 5782
enormous 5781
ongoing 5781
there. 5779
connec@@ 5776
forc@@ 5775
primarily 5774
tions@@ 5774
mem@@ 5772
again. 5770
forget 5769
1999 5768
items 5765
older 5765
micro@@ 5764
now. 5764
tourism 5764
ization 5763
м@@ 5762
article 5761
asi@@ 5759
investig@@ 5758
completed 5757
viol@@ 5757
100@@ 5756
addressed 5753
combating 5752
welcomed 5752
reflect 5751
tle 5747
surrounding 5744
architec@@ 5739
Acc@@ 5737
numbers 5736
released 5735
emphasis 5733
examine 5733
Board 5730
reliable 5729
respec@@ 5723
covering 5722
er's 5722
change, 5721
jud@@ 5721
hum@@ 5719
membership 5719
EIB 5717
et, 5717
yang 5717
delegation 5713
rin@@ 5713
AB@@ 5712
exist 5708
looks 5707
passed 5707
Following 5705
Cooperation 5702
families 5700
hour 5700
eds 5699
fast@@ 5699
MP@@ 5697
ach 5697
TH@@ 5691
restaurants 5691
Des@@ 5690
OL@@ 5688
Treaty. 5688
fies 5687
update 5687
IN 5686
fying 5686
existence 5683
prin@@ 5683
Nor@@ 5682
Special 5682
aspect 5682
unto 5682
kan 5675
o-@@ 5674
desire 5671
ai@@ 5667
def@@ 5667
chosen 5666
amounts 5664
ward 5664
break@@ 5663
Sub@@ 5659
crisis, 5656
ada 5655
del@@ 5653
e! 5651
ks. 5649
Mil@@ 5648
summit 5646
asking 5644
lat@@ 5644
Fre@@ 5643
eri@@ 5642
blo@@ 5640
lic 5637
influ@@ 5634
ats 5632
der. 5632
Du@@ 5631
activities. 5629
(+32 5628
prevention 5626
w, 5625
totally 5624
mechanisms 5621
deficit 5619
2010. 5617
claim 5617
mobil@@ 5616
holding 5615
OP@@ 5614
establish@@ 5614
4-@@ 5612
cs 5612
games 5612
recommend 5611
yo@@ 5611
preparation 5609
Bro@@ 5606
3. 5603
Management 5603
steel 5599
rules. 5596
ck. 5595
ral 5590
pose 5583
Single 5582
ters, 5582
ligh@@ 5581
place, 5580
28 5579
city. 5579
emergency 5579
ja 5577
ships 5575
ch, 5572
consult@@ 5571
Park 5569
photo 5568
middle 5565
23 5564
mid@@ 5563
stu@@ 5562
Click 5561
presid@@ 5561
...@@ 5559
ure@@ 5559
tain@@ 5558
origin 5557
): 5555
restructuring 5555
Israel 5554
dynamic 5554
carefully 5551
ms, 5551
Services 5549
l. 5548
spread 5548
display 5546
pollu@@ 5546
von 5542
immigration 5540
Dutch 5538
Agency 5537
C. 5536
ors, 5532
driving 5531
extra@@ 5529
grounds 5528
maritime 5527
agreement. 5526
ess. 5525
legislation. 5525
proceedings 5524
web@@ 5523
measures. 5522
sed, 5518
s! 5517
sort 5513
equ@@ 5512
ase 5508
remind 5508
leads 5506
pon@@ 5505
economies 5503
tin@@ 5503
Commission’s 5502
conditions. 5501
merely 5501
recogn@@ 5501
hot 5500
advice 5499
missi@@ 5498
campaign 5496
court 5496
Firstly, 5495
Business 5494
istic 5494
involvement 5492
tackle 5491
invited 5490
70@@ 5488
largely 5488
stre@@ 5485
ther 5485
weight 5484
deep 5480
satellite 5480
storage 5480
phase 5476
cro@@ 5473
land, 5472
opposition 5469
use. 5468
determine 5467
intervention 5466
improvements 5464
menu 5464
Germany. 5462
3) 5461
applic@@ 5460
smaller 5460
comfort 5458
competent 5458
letter 5458
vision 5458
up. 5456
Chin@@ 5455
Paris 5455
qui@@ 5455
mass 5454
2009. 5453
ath@@ 5451
continu@@ 5449
yl@@ 5448
tively 5447
ch. 5446
gro@@ 5444
26@@ 5442
concerned. 5442
except 5440
ein@@ 5438
debate. 5433
manufacturing 5433
flow 5431
writ@@ 5431
holds 5429
pping 5429
valu@@ 5424
Structural 5422
vehicle 5422
circumstances 5420
medium 5419
Strategy 5418
limits 5418
migration 5416
finding 5414
kl@@ 5414
governance 5413
amongst 5412
institutions. 5411
sides 5407
ang 5405
dan 5404
wood 5404
system@@ 5402
A, 5398
OS 5398
pra@@ 5397
9/@@ 5396
leader 5395
individu@@ 5394
at: 5393
cc@@ 5392
Joint 5391
paragraph 5391
Nevertheless, 5390
reli@@ 5390
success@@ 5390
involve 5389
successfully 5387
hr@@ 5386
cases, 5385
SA@@ 5383
cked 5383
sto@@ 5383
9, 5382
advertising 5381
thin@@ 5381
inten@@ 5379
–@@ 5377
vol@@ 5376
è@@ 5376
accessible 5375
ious 5375
restrictions 5375
(DE) 5373
compensation 5372
ishing 5371
e's 5370
extension 5370
y’s 5369
Fran@@ 5365
LA@@ 5364
policies. 5364
requests 5364
charged 5363
yp@@ 5363
SE@@ 5361
wishes 5361
quality, 5359
votes 5359
CA@@ 5354
individuals 5354
ress 5354
8, 5351
entered 5350
exhibition 5349
EI@@ 5345
PR@@ 5345
euro@@ 5345
Those 5344
ual 5343
today's 5341
box 5339
profession@@ 5338
win 5338
itself. 5337
camp@@ 5336
VAT 5334
factors 5334
trac@@ 5334
Fe@@ 5331
focused 5329
tried 5329
recognised 5327
tered 5327
elec@@ 5325
constantly 5324
anyone 5323
selec@@ 5323
but, 5322
x. 5322
delivered 5320
sis 5319
transition 5319
mobility 5313
picture 5313
compromis@@ 5311
translation 5310
honourable 5309
servic@@ 5309
hotel, 5308
institutions, 5307
Plan 5306
ca@@ 5302
foo@@ 5302
gen 5302
anim@@ 5301
protecting 5301
y? 5301
ick@@ 5299
winter 5299
Guest 5293
controlled 5292
hu@@ 5292
Romania 5291
context, 5291
tasks 5291
order@@ 5288
pun@@ 5285
iss@@ 5283
90@@ 5282
Despite 5281
termin@@ 5280
Every 5277
rightly 5276
Can 5274
spacious 5274
treated 5272
Summit 5271
mag@@ 5271
ented 5270
dealt 5269
discover 5269
ush@@ 5269
screen 5267
ich@@ 5266
high@@ 5264
book@@ 5261
explo@@ 5261
maintenance 5259
arm@@ 5258
less@@ 5258
Vis@@ 5257
liability 5256
other@@ 5256
post 5256
ax@@ 5255
targe@@ 5255
she@@ 5253
Do@@ 5251
States' 5251
imposed 5251
more, 5250
Then 5249
presidency 5249
diseas@@ 5246
particip@@ 5246
ved, 5246
however 5245
sy@@ 5242
purposes 5241
Star 5239
Ukraine 5239
modi@@ 5239
territory 5238
ah 5237
notes 5237
registration 5236
ically 5234
eight 5233
stud@@ 5233
fund@@ 5232
test@@ 5231
conver@@ 5230
ory 5230
Tri@@ 5228
southern 5227
CON@@ 5226
know@@ 5223
na 5223
%, 5222
economy, 5222
vit@@ 5221
wn 5221
region@@ 5220
37@@ 5218
ended 5218
Kar@@ 5217
wrong 5217
Deputy 5216
plus 5216
St. 5214
burden 5212
rising 5212
valid 5212
garden 5211
ue 5210
polic@@ 5207
ture, 5207
1-@@ 5206
pe 5205
some@@ 5205
carbon 5204
confer@@ 5202
fear 5202
ll 5202
Poland 5200
pati@@ 5200
previously 5198
ites 5197
shop 5197
Char@@ 5191
black 5190
Cap@@ 5188
association 5187
y) 5186
participants 5184
position. 5184
ous. 5183
White 5180
collective 5180
dependent 5180
camera 5178
nu@@ 5178
appe@@ 5177
closed. 5176
sett@@ 5174
faced 5173
Sa@@ 5172
challen@@ 5172
-based 5171
objec@@ 5171
conf@@ 5170
buildings 5169
photograph@@ 5166
seeing 5165
ler 5164
tests 5163
programs 5162
urge 5162
lit@@ 5161
invest@@ 5160
ws 5157
See 5156
л@@ 5155
define 5154
ations@@ 5153
them@@ 5149
e.@@ 5148
region, 5144
science 5142
turned 5142
days. 5140
bag@@ 5139
Swedish 5138
willing 5136
citizens, 5135
contribu@@ 5134
drawing 5134
ic, 5134
producing 5134
proposal. 5134
bing 5133
explain 5130
zone 5130
meaning 5129
agre@@ 5128
Te@@ 5127
alized 5127
elegant 5126
effectiveness 5123
MO@@ 5121
che 5121
(A@@ 5120
whilst 5120
institu@@ 5119
representative 5118
Japan 5116
,” 5114
presentation 5114
decision-making 5111
onto 5111
pension 5111
ables 5109
brand 5108
26 5107
piece 5106
Commission@@ 5105
enforcement 5105
je@@ 5105
mark@@ 5105
mel@@ 5103
proper@@ 5102
Unfortunately, 5101
advance 5100
recognise 5097
result, 5097
surrounded 5097
Council@@ 5096
&@@ 5094
31 5094
es’ 5094
pe. 5092
2020 5091
Cent@@ 5090
mit 5088
mig@@ 5086
assess 5084
factor 5082
ino 5082
Star@@ 5078
causes 5078
named 5077
ation: 5076
ting, 5076
ession 5075
impossible 5073
les, 5071
woo@@ 5071
fair@@ 5069
imag@@ 5069
thre@@ 5069
Booking.com: 5068
me. 5068
ms. 5067
stone 5066
equality 5063
species 5063
acquisition 5062
measures, 5061
du 5060
television 5057
wers 5056
ability. 5055
ECU 5052
Decision 5051
perfectly 5050
needs. 5049
write 5049
voc@@ 5045
Tor@@ 5043
Rel@@ 5040
i.e. 5040
key@@ 5040
post-@@ 5039
wan@@ 5036
aro@@ 5034
character 5033
resolve 5033
45 5031
Monetary 5031
Grand 5029
fighting 5026
к@@ 5026
govern@@ 5024
Schengen 5023
point, 5023
appeal 5022
ises 5022
sourc@@ 5022
cast@@ 5020
models 5018
pleas@@ 5018
awareness 5017
vent@@ 5012
spec@@ 5011
accounts 5008
70 5000
platform 5000
cars 4999
testing 4997
actively 4993
Lin@@ 4991
Sloven@@ 4987
ble@@ 4987
well@@ 4987
kes 4986
Council's 4984
room. 4984
zz@@ 4983
obtained 4982
contributions 4981
database 4981
fire 4981
agencies 4979
ore 4978
2009, 4977
advantages 4977
appro@@ 4977
seriously 4975
increas@@ 4974
prohib@@ 4973
question. 4972
ans. 4971
ulation 4971
south 4970
helps 4968
ful, 4967
guide 4966
speech 4965
cooperation. 4963
heavy 4960
minim@@ 4960
eu@@ 4959
site. 4959
'' 4957
Any 4957
constitute 4956
Polish 4955
Web@@ 4954
constructive 4954
Bra@@ 4953
door 4953
concep@@ 4952
obviously 4951
relaxing 4951
— 4950
helped 4948
sel@@ 4947
wel@@ 4946
art@@ 4944
effec@@ 4944
bat@@ 4943
multiple 4943
I, 4941
projects. 4941
Ter@@ 4940
signal 4940
fores@@ 4939
Barcelona 4938
up, 4938
proposal, 4937
liv@@ 4936
dimension 4935
s), 4935
-up 4933
Bal@@ 4933
ased 4933
maintaining 4930
ini 4929
others. 4929
ATION 4928
Em@@ 4928
bathroom 4928
Wi@@ 4927
arms 4927
quality. 4926
provi@@ 4925
morning 4924
Protection 4923
cell@@ 4920
install 4920
evalu@@ 4919
dy@@ 4916
aff@@ 4913
Del@@ 4912
accoun@@ 4912
buil@@ 4910
slo@@ 4908
arri@@ 4907
discussing 4906
TR@@ 4904
tation 4903
adi@@ 4901
ump@@ 4901
reason, 4900
gran@@ 4899
talks 4897
someone 4894
thy 4893
two-@@ 4893
35 4892
fur@@ 4892
names 4892
courses 4891
replace 4891
will, 4891
..." 4888
world's 4885
gender 4884
Finance 4883
2/@@ 4881
budget. 4881
prove 4881
himself 4879
serves 4879
banking 4877
programme, 4877
Today 4873
London 4872
print 4870
felt 4862
Also 4861
acting 4861
writing 4861
Chi@@ 4860
Europe’s 4856
tive, 4855
arch@@ 4854
Affairs, 4851
Further 4850
ters. 4850
real@@ 4848
accompanied 4846
part@@ 4846
fun@@ 4845
Charter 4844
evening 4838
ism. 4836
wards 4836
S. 4832
passenger 4831
pursue 4829
terrorist 4829
mak@@ 4828
War 4827
happen 4827
companies. 4826
Transport 4825
ards 4824
cial 4824
ts: 4822
road@@ 4821
3/@@ 4820
client 4819
era 4817
ies. 4817
proved 4817
houses 4816
debate, 4815
mod@@ 4815
bet@@ 4814
education, 4814
emp@@ 4813
motor@@ 4813
reception 4810
sold 4809
India 4808
doc@@ 4808
highlight 4807
PRO@@ 4806
surface 4806
36@@ 4804
Home 4804
recommendation 4803
helpful 4802
las@@ 4802
happened 4800
life, 4799
flu@@ 4798
quo@@ 4798
Employment 4797
Over 4795
service, 4795
week@@ 4795
Loc@@ 4794
ou 4794
ven 4794
dre@@ 4793
ENT@@ 4792
ved. 4790
excessive 4789
transaction 4789
mail 4787
System 4786
valuable 4786
ages, 4784
independence 4784
fy 4783
installed 4783
(B@@ 4782
lec@@ 4782
IR@@ 4780
Rules 4779
growth. 4779
member@@ 4777
ION 4776
contemporary 4775
consensus 4773
projec@@ 4773
ar. 4772
substances 4769
tors, 4768
comment 4767
examples 4767
encouraging 4766
agreement, 4763
exceptional 4762
thro@@ 4761
Da@@ 4759
vast 4758
conducted 4757
institution 4754
cost@@ 4753
discus@@ 4751
moved 4751
eh@@ 4750
imports 4748
reservation 4748
access@@ 4747
attack 4747
bit@@ 4747
diversity 4744
stron@@ 4744
dar@@ 4741
ack 4740
months. 4740
repres@@ 4740
:00 4739
cau@@ 4739
temp@@ 4738
90 4737
Italy, 4737
ion, 4737
speak@@ 4737
Pi@@ 4735
Don@@ 4734
Swe@@ 4733
Liber@@ 4732
strategies 4732
taxation 4732
union 4732
use, 4732
"...@@ 4730
ports 4730
DE 4728
eing 4728
solve 4727
register 4726
tab@@ 4723
3% 4722
myself 4720
resources. 4720
Portugal 4718
increases 4716
Given 4714
appointed 4713
liberalisation 4712
sell 4712
ids 4711
promo@@ 4711
contracts 4710
4) 4709
lar@@ 4709
os@@ 4709
sexual 4708
standards. 4707
Ital@@ 4705
refugees 4705
н@@ 4705
millions 4704
exerc@@ 4698
orders 4698
appropri@@ 4697
curren@@ 4697
prec@@ 4696
domin@@ 4695
resort 4694
indicated 4693
tel 4691
Portuguese 4688
SMEs 4687
case. 4684
Safety 4683
oral 4682
gr@@ 4678
shares 4678
special@@ 4678
west 4678
Iraq 4677
Sum@@ 4677
intellectual 4676
2008. 4675
Luxembourg 4675
requirement 4675
Food 4674
adopting 4673
others, 4673
fun 4672
195@@ 4669
be. 4669
luxury 4669
(in 4667
impose 4667
owned 4667
hands 4666
below. 4664
applying 4662
relax 4662
tig@@ 4660
ert 4658
Debian 4657
kinds 4657
ep 4656
flight 4656
Treaty, 4654
Are 4653
Pres@@ 4653
coffee 4653
declared 4653
offic@@ 4652
world’s 4652
exclusively 4651
low-@@ 4650
thing, 4650
won 4650
mandate 4649
whe@@ 4648
chemical 4646
preparing 4645
time@@ 4645
ff 4644
long-@@ 4643
disc@@ 4640
Mr. 4639
7, 4638
be, 4635
main@@ 4635
protection. 4635
gone 4634
3-@@ 4633
security, 4632
Baltic 4631
exclu@@ 4631
Stability 4630
feed 4630
employ@@ 4628
infec@@ 4627
expression 4625
Fac@@ 4623
Vo@@ 4623
vulnerable 4623
ine. 4619
Rural 4618
cle@@ 4616
strict 4616
involves 4615
manner 4614
depends 4610
vor@@ 4607
website. 4606
Sol@@ 4604
das 4602
Sou@@ 4601
ass 4600
str@@ 4600
una 4600
meters 4599
Am@@ 4596
city, 4596
ands 4595
leaving 4595
position, 4595
ability, 4594
compar@@ 4594
matter. 4593
Amsterdam 4592
an-@@ 4592
29 4591
all-@@ 4590
quar@@ 4589
responsibilities 4589
ack@@ 4586
updated 4586
tomorrow 4585
visa 4584
else 4583
cards 4579
itor@@ 4579
Sta@@ 4578
en-@@ 4578
wo@@ 4578
import@@ 4577
plat@@ 4577
river 4577
phas@@ 4576
terrace 4575
pers@@ 4574
Very 4573
s" 4573
creates 4572
Cal@@ 4570
IP 4569
conclude 4567
issues, 4567
number@@ 4567
gets 4566
markets, 4565
aircraft 4563
firms 4563
opinions 4563
Cur@@ 4557
containing 4557
healthy 4557
inn@@ 4557
opportun@@ 4557
ors. 4557
thing. 4556
communications 4555
1990@@ 4554
weapons 4554
Ba@@ 4553
pap@@ 4551
handling 4548
estimated 4546
king, 4546
pe, 4546
ples 4543
aking 4542
period. 4542
32 4538
ologi@@ 4538
experim@@ 4537
bed@@ 4535
ethnic 4534
fail@@ 4534
ñ@@ 4533
dor@@ 4532
goals 4531
celeb@@ 4530
companies, 4530
grow@@ 4529
38@@ 4527
whatever 4527
ED 4526
page. 4526
volume 4526
Private 4523
telephone 4523
Mc@@ 4521
color 4521
prefer@@ 4520
spor@@ 4519
Den@@ 4518
basis. 4518
runs 4518
ct 4514
Report 4513
cru@@ 4512
Fi@@ 4511
ong 4511
ett@@ 4510
intend 4509
isting 4507
ans@@ 4505
bott@@ 4504
cip@@ 4504
automatic 4503
agu@@ 4502
notably 4502
wider 4501
reviews. 4500
trip 4499
issue, 4498
reg@@ 4498
universal 4498
vil@@ 4498
equally 4496
boost 4495
cer@@ 4495
priv@@ 4495
creative 4494
olog@@ 4493
Mag@@ 4492
important. 4492
separ@@ 4491
Partnership 4490
constant 4490
emphasise 4490
pac@@ 4488
well, 4487
Northern 4486
forthcoming 4486
attack@@ 4485
ential 4485
wind 4485
Bi@@ 4483
vin@@ 4483
Yet 4482
ug@@ 4480
engine 4479
fulfil 4478
sanctions 4477
Last 4476
ier 4476
agency 4475
demonstrate 4475
John 4473
depending 4472
rep@@ 4472
booking 4471
cep@@ 4471
latter 4469
Mi@@ 4468
chan@@ 4467
coast@@ 4467
2007. 4466
absence 4466
gue 4466
serv@@ 4465
Thanks 4464
enhanced 4464
floo@@ 4464
group@@ 4464
undertaken 4464
situation, 4463
growth, 4462
mid-@@ 4462
represent@@ 4462
effici@@ 4460
eastern 4459
title 4458
{{@@ 4458
do, 4456
II@@ 4455
ism, 4454
tory 4454
attacks 4453
able@@ 4451
load 4450
recommended 4450
background 4448
holi@@ 4447
refer@@ 4447
smo@@ 4445
Brussels, 4444
authorities. 4444
transport, 4444
requirements. 4443
forest 4441
194@@ 4439
contacts 4439
pictures 4438
deep@@ 4434
notice 4433
EF@@ 4431
emerging 4431
enabling 4431
ering 4431
mur@@ 4431
occup@@ 4429
f, 4428
fraud 4428
manufacturers 4428
ons, 4428
policies, 4426
sharing 4425
Mac@@ 4424
Global 4423
furnished 4422
IF@@ 4421
group, 4421
regularly 4421
expertise 4419
realis@@ 4419
nation 4417
opposed 4417
bs 4416
dies 4415
north 4414
detail 4412
ticul@@ 4412
ill 4410
its. 4410
machines 4410
Bor@@ 4409
cred@@ 4408
ps, 4408
," 4407
joined 4407
partner@@ 4406
Ju@@ 4405
security. 4405
Stu@@ 4404
devices 4403
obvious 4403
mess@@ 4400
beauty 4398
financed 4398
guaranteed 4398
packages 4398
stronger 4398
]], 4397
ai 4396
tain 4396
tradition 4396
situ@@ 4395
EUROPEAN 4394
Where 4394
presents 4392
soft 4392
wealth 4392
communities 4390
fisher@@ 4390
nearby 4390
voluntary 4390
confirm 4388
lasting 4385
reported 4385
negotiating 4383
sn@@ 4383
Ru@@ 4382
liter@@ 4381
allocated 4380
important, 4380
massive 4374
om 4373
survi@@ 4373
competence 4372
waters 4371
raw 4369
suffering 4369
suppor@@ 4369
elem@@ 4367
band 4362
practic@@ 4362
co, 4358
fix@@ 4358
CF@@ 4356
It's 4356
Group, 4355
figure 4355
recei@@ 4355
contents 4354
(and 4353
Col@@ 4353
Institute 4353
LI@@ 4353
You@@ 4353
oll@@ 4353
ust 4353
Roman@@ 4352
tage 4352
brow@@ 4351
illustra@@ 4350
organization 4350
officials 4348
procedure. 4346
2008, 4344
reply 4344
Japanese 4341
declaration 4341
intends 4341
leadership 4341
atives 4338
youth 4338
quick 4337
repe@@ 4336
DA@@ 4333
uring 4332
thir@@ 4331
2006. 4330
perform 4327
releas@@ 4327
los 4326
ace 4322
aria 4322
mental 4322
expec@@ 4320
ye 4320
mountain@@ 4318
purchas@@ 4318
Belgian 4315
intensi@@ 4314
ition 4314
Ben@@ 4312
AS 4311
awarded 4311
veget@@ 4311
widely 4311
schem@@ 4310
4/@@ 4309
j 4308
exports 4306
sav@@ 4301
question@@ 4300
zed 4299
Bulgaria 4298
memory 4297
ord@@ 4297
educational 4296
mostly 4296
barriers 4293
calcul@@ 4292
together. 4292
1998 4291
care@@ 4291
rating 4290
ads 4288
ony 4288
exemp@@ 4287
man, 4287
bly 4284
project. 4283
district 4282
radi@@ 4282
assure 4281
fit 4281
Cam@@ 4280
rapidly 4280
accep@@ 4279
tradition@@ 4279
charges 4276
TO 4275
technology. 4275
point. 4274
touch 4272
transfer@@ 4272
exam@@ 4271
hoo@@ 4271
regions. 4271
understand@@ 4271
defend 4270
graph@@ 4270
marks 4270
cons@@ 4268
settlement 4268
CS@@ 4266
countri@@ 4266
object 4266
clim@@ 4265
Asia 4263
conditions, 4263
Rule 4262
PC 4261
confron@@ 4261
glass 4261
technology, 4261
rus@@ 4258
Arab 4257
tors. 4255
sens@@ 4254
category 4253
children. 4252
unit 4251
eth@@ 4249
oblig@@ 4247
urs 4247
etc@@ 4246
tl@@ 4244
poss@@ 4243
to. 4243
present@@ 4241
5. 4239
edge 4239
fro@@ 4239
situations 4239
necessary, 4238
disposal 4237
e" 4237
fied. 4237
Member@@ 4235
coordinated 4234
reaching 4232
fla@@ 4231
ries 4231
Airport 4229
treat@@ 4228
UK@@ 4227
ago. 4227
associ@@ 4227
scen@@ 4226
Bas@@ 4225
Pe@@ 4225
Vi@@ 4225
route 4225
Use 4224
acceptable 4224
("@@ 4223
prev@@ 4222
vely 4222
corresponding 4221
ric 4221
residence 4220
appreciate 4219
feat@@ 4218
away. 4217
educ@@ 4216
tive. 4216
Che@@ 4215
ordin@@ 4214
con 4213
(E@@ 4212
Fisheries 4212
Lake 4209
square 4209
d) 4206
incid@@ 4206
succ@@ 4206
sending 4202
necessary. 4201
wait 4200
part, 4199
organized 4197
apart@@ 4196
„@@ 4196
deleg@@ 4195
awar@@ 4194
format 4194
remo@@ 4194
ide 4193
ensures 4191
inclusion 4191
tobacco 4191
Located 4189
believes 4187
ena 4187
carrying 4186
subsi@@ 4186
LE@@ 4184
mass@@ 4183
divided 4182
radio 4182
House, 4181
bound 4181
hit 4181
proof 4180
newly 4179
though, 4179
Sweden 4178
hel@@ 4177
reform@@ 4175
de-@@ 4174
directives 4174
faces 4174
fri@@ 4174
employment, 4173
northern 4173
Their 4172
support, 4172
constitutional 4169
land. 4169
import 4168
pollution 4167
shape 4167
collaboration 4166
fir@@ 4166
notified 4166
Op@@ 4165
block 4164
Hungarian 4162
amend@@ 4162
open@@ 4160
ently, 4159
ers' 4159
society, 4158
copy 4157
ist, 4157
regret 4157
z, 4157
feeling 4156
showing 4156
convenient 4155
Mat@@ 4154
participating 4152
end. 4149
ica 4146
hundreds 4145
ref@@ 4145
thers 4145
welfare 4145
oni@@ 4144
Tour@@ 4143
China, 4142
Tim@@ 4142
coordin@@ 4142
disease 4142
world@@ 4142
Cour@@ 4140
aid. 4140
do. 4139
centre. 4138
pic@@ 4137
š@@ 4137
nic@@ 4135
farm 4134
ders. 4131
39@@ 4129
A. 4129
C, 4128
ously, 4128
Agenda 4127
absolute 4126
democracy, 4126
Euro 4125
ham@@ 4125
use@@ 4125
modern@@ 4122
ages. 4121
sole 4121
visible 4120
6/@@ 4119
regarded 4118
safeguard 4118
meat 4117
targeted 4116
content, 4115
drug 4114
cking 4113
months, 4113
tou@@ 4113
camer@@ 4111
dates 4111
profit 4111
Consumer 4110
fruit 4110
exten@@ 4109
origin@@ 4109
page, 4109
competition. 4107
field. 4107
legislation, 4107
proposing 4107
rene@@ 4107
Two 4106
Plan@@ 4105
Ham@@ 4101
(or 4099
belie@@ 4098
til@@ 4098
demonstra@@ 4095
mand@@ 4095
2010, 4094
State. 4092
its, 4091
partly 4091
tra 4091
w. 4089
industri@@ 4086
multilateral 4086
SO@@ 4085
considering 4085
d; 4084
400 4082
legitimate 4082
mail@@ 4082
meant 4082
other. 4082
lie 4081
rant 4079
cam@@ 4078
funded 4078
invite 4078
fish@@ 4077
val 4077
ences, 4076
explore 4076
stimul@@ 4076
EU’s 4075
friend@@ 4075
ome 4075
store 4075
way@@ 4074
ought 4073
Tr@@ 4069
aside 4069
hin@@ 4069
ater 4068
energy, 4068
train@@ 4068
sup@@ 4067
authorities, 4066
frag@@ 4066
gas@@ 4066
ol, 4066
Christian 4065
contra@@ 4065
cho@@ 4064
data. 4064
story 4064
preventing 4063
your@@ 4063
regis@@ 4061
voic@@ 4061
rail@@ 4060
insul@@ 4059
res, 4059
embar@@ 4058
lay 4058
declar@@ 4057
information: 4057
demonstrated 4056
sci@@ 4056
assets 4055
Villa 4054
olo@@ 4054
treat 4054
2007, 4053
Permanent 4053
Kosovo 4052
hat@@ 4052
ano@@ 4050
instrum@@ 4050
outdoor 4050
ry@@ 4049
в@@ 4049
ture. 4048
tic, 4047
aver@@ 4046
delighted 4046
clean@@ 4045
acqu@@ 4044
attitude 4043
precise 4043
» 4043
Iran 4042
introducing 4041
one@@ 4041
politics 4041
sting 4041
Soviet 4039
fail 4039
2006, 4038
ish, 4037
business. 4036
(F@@ 4034
COM@@ 4034
distric@@ 4034
prepar@@ 4034
poin@@ 4033
intensive 4032
led. 4032
receiving 4032
Sec@@ 4031
Spain, 4031
invest 4031
spir@@ 4030
physi@@ 4029
adapt 4027
length 4027
spac@@ 4027
season 4026
Soci@@ 4025
unacceptable 4025
ists, 4024
8/@@ 4023
CD@@ 4023
York 4023
glad 4023
abl@@ 4021
advis@@ 4020
CE@@ 4018
suff@@ 4018
accommod@@ 4017
golf 4016
cycle 4015
oriented 4015
і@@ 4015
ders, 4014
obliged 4014
deliber@@ 4012
rules, 4009
Tro@@ 4008
ges, 4008
device 4005
discovered 4005
ultimately 4005
arly 4004
Cu@@ 4003
ss 4003
emo@@ 4001
iel@@ 4000
because, 3999
favourable 3999
sun 3999
western 3999
ists. 3997
plug@@ 3996
signs 3996
lets 3995
Museum 3994
centre, 3994
action, 3993
extreme 3993
mann 3993
charming 3992
expensive 3992
oured 3992
view. 3992
(FR) 3991
appli@@ 3991
mach@@ 3991
children, 3989
roll@@ 3989
suit@@ 3989
c, 3988
productive 3988
thes@@ 3988
prof@@ 3987
showed 3986
statistics 3986
change@@ 3985
territorial 3985
trafficking 3984
ined 3983
recover@@ 3983
Gro@@ 3982
health, 3982
kitchen 3982
research, 3982
Contacts 3981
tho@@ 3981
patients 3980
line, 3978
obstacles 3978
f. 3977
passengers 3977
raising 3977
Up@@ 3975
6) 3974
appeared 3972
le-@@ 3972
problems, 3972
opposite 3971
Pa@@ 3970
alo@@ 3969
devic@@ 3968
form. 3967
han@@ 3967
ths 3967
discre@@ 3965
expert 3965
spring 3965
church 3963
instance, 3963
tual 3961
Est@@ 3960
tern@@ 3960
7) 3959
drugs 3959
frequently 3959
t's 3958
overcome 3957
equivalent 3955
parliam@@ 3954
centres 3953
hous@@ 3953
2000, 3952
ick 3952
resources, 3952
rooms. 3952
meas@@ 3950
t? 3950
Before 3949
-- 3948
dig@@ 3948
DS@@ 3947
Hor@@ 3943
cooperation, 3942
p, 3942
") 3940
solid 3938
formul@@ 3935
interface 3935
delay 3934
generate 3934
pass@@ 3932
45@@ 3931
resid@@ 3931
stressed 3931
ture@@ 3930
Club 3928
ive 3928
plays 3928
aus@@ 3927
OR 3925
beaches 3925
danger 3925
75 3924
directive. 3924
ye@@ 3924
dio@@ 3922
justi@@ 3921
decisive 3920
knows 3920
150 3919
1% 3917
books 3917
ignor@@ 3917
line. 3917
determination 3916
performed 3916
proceed@@ 3916
race 3916
Nov@@ 3915
century. 3915
weigh@@ 3915
somewhat 3914
Fri@@ 3909
Group@@ 3908
Wil@@ 3908
ancy 3908
schools 3908
ACP 3907
ring@@ 3905
rul@@ 3904
Belgi@@ 3903
perspective 3903
je 3902
king. 3902
deals 3901
output 3901
maintained 3900
problem, 3900
Hung@@ 3899
cross 3899
reserve 3897
neighbouring 3895
scor@@ 3895
bom@@ 3894
cheap 3894
coast 3891
programmes. 3890
right, 3890
Pra@@ 3889
stocks 3889
elling 3887
pos@@ 3886
possibly 3884
swe@@ 3883
strength 3882
taxes 3881
nit@@ 3880
used. 3880
right. 3879
button 3877
ned 3876
protection, 3875
Pap@@ 3873
nations 3873
impressive 3870
million. 3869
legally 3868
puts 3867
of@@ 3865
strategy. 3865
respect, 3864
Costa 3863
articles 3863
cooperate 3863
and-@@ 3862
secre@@ 3862
naturally 3860
pleasure 3860
ap 3859
jobs. 3859
contributed 3858
hard@@ 3854
Offic@@ 3853
architecture 3852
arrival 3852
couple 3852
Cer@@ 3851
Growth 3850
generated 3850
authorised 3849
Agen@@ 3848
itors 3845
consumer@@ 3844
proud 3843
cris@@ 3842
800 3840
come. 3840
aid@@ 3839
fleet 3838
CO2 3837
wis@@ 3837
days, 3836
spaces 3836
experiences 3835
ry, 3835
watch 3835
Russi@@ 3833
Wal@@ 3832
quarter 3832
Air 3831
Center 3830
vers@@ 3829
vide@@ 3829
buffet 3827
50% 3826
assume 3825
ference 3824
cable 3823
fig@@ 3823
squ@@ 3823
motor 3821
winning 3821
alls 3820
vers 3820
addressing 3818
posed 3817
ances. 3816
Roma 3815
remained 3814
investors 3813
question, 3813
histor@@ 3811
Funds 3810
cross-@@ 3809
president 3809
6. 3808
holidays 3808
у@@ 3807
made. 3806
production. 3805
production, 3804
UT@@ 3803
Best 3802
cutting 3802
secon@@ 3801
tac@@ 3801
P, 3799
ard, 3799
cooper@@ 3798
depend 3798
hy@@ 3798
achie@@ 3797
movem@@ 3797
convergence 3796
instruc@@ 3795
returned 3795
chair@@ 3794
Ob@@ 3793
interven@@ 3793
paying 3793
independ@@ 3792
ministers 3791
Russia, 3790
neg@@ 3790
noise 3790
window 3790
monitor@@ 3788
perform@@ 3787
und. 3787
company. 3784
conflic@@ 3784
reflects 3784
entr@@ 3783
Israeli 3782
ION@@ 3781
employed 3781
ancing 3780
audio 3780
directed 3780
But, 3778
justified 3778
State, 3777
ball 3777
n-@@ 3777
abol@@ 3776
mm 3776
%@@ 3775
demanding 3775
doub@@ 3775
percentage 3774
constitutes 3773
chi@@ 3772
drop 3772
milk 3772
contain@@ 3770
9) 3769
IV@@ 3769
Minutes 3769
Prin@@ 3769
Sun@@ 3769
costs. 3769
issu@@ 3769
ting. 3768
foot 3767
not. 3767
by@@ 3766
Ara@@ 3765
activities, 3765
patent 3765
spa 3764
San@@ 3763
lag@@ 3762
2% 3761
Direc@@ 3759
gol@@ 3759
*@@ 3758
revision 3757
serving 3757
PL@@ 3755
U.S. 3755
water, 3755
ic. 3754
managing 3754
uss@@ 3754
Roman 3753
administra@@ 3753
nomin@@ 3753
´s 3753
looked 3752
parties. 3752
speakers 3750
fourth 3749
versions 3749
Gener@@ 3748
aviation 3747
programming 3746
suite 3746
cel@@ 3744
ranging 3744
Georgi@@ 3740
5) 3739
decor@@ 3739
Cha@@ 3738
women, 3738
expres@@ 3737
remin@@ 3737
high-quality 3736
found@@ 3735
red. 3735
shops 3734
solely 3734
=@@ 3733
leisure 3733
perio@@ 3733
E-@@ 3732
House. 3732
diver@@ 3732
temperature 3732
Net@@ 3730
centr@@ 3730
privacy 3730
ç@@ 3730
minority 3729
reserv@@ 3729
arising 3728
experience. 3728
account. 3727
artists 3727
club 3727
electric 3727
ft, 3727
USA 3726
refers 3726
On@@ 3725
20% 3723
d? 3723
frau@@ 3723
grow 3723
reject 3723
expectations 3722
identity 3722
-0@@ 3721
1997 3721
hotel@@ 3720
C-@@ 3719
б@@ 3719
ek 3718
]]@@ 3713
ara 3710
caf@@ 3710
award 3709
ining 3709
unity 3709
FR@@ 3708
S, 3708
(200@@ 3707
exists 3707
remote 3706
ump 3705
school@@ 3704
• 3704
Enjoy 3703
Get 3703
examined 3703
machin@@ 3703
ures, 3702
ation; 3701
stream 3701
armed 3700
ful. 3698
geographical 3698
marine 3698
success. 3698
Switzerland 3697
selling 3697
appear@@ 3696
dining 3696
TV, 3695
forwar@@ 3695
transport. 3695
ures. 3693
CD 3692
employment. 3692
wall 3692
install@@ 3691
period, 3691
reserves 3691
III 3690
after@@ 3690
reduc@@ 3690
saving 3690
ification 3689
formed 3688
lots 3688
specified 3687
vote. 3687
bour@@ 3685
mas@@ 3685
restore 3685
nar@@ 3684
O, 3683
Company 3681
interpretation 3680
(The 3679
expansion 3679
ium 3678
lif@@ 3678
Bri@@ 3677
Indi@@ 3676
amb@@ 3676
times. 3674
Technology 3673
sla@@ 3673
Mu@@ 3672
altern@@ 3672
gained 3672
results. 3672
discharge 3671
discrimin@@ 3671
ouse 3671
say@@ 3671
money. 3669
other, 3669
reflected 3668
tely 3668
(e.g. 3667
inflation 3666
Ph@@ 3665
management. 3665
prices. 3665
ants. 3664
chann@@ 3664
order. 3664
commission@@ 3663
sustainability 3662
visited 3662
xi@@ 3660
Ladies 3659
location, 3658
schemes 3658
slightly 3658
Book 3657
recorded 3657
External 3656
and. 3655
rela@@ 3655
adop@@ 3654
Linux 3653
engine@@ 3653
continuous 3651
sugges@@ 3651
subsequent 3650
cab@@ 3647
fabri@@ 3647
texts 3647
ions 3646
Protocol 3645
died 3645
hydro@@ 3645
replaced 3644
Cyprus 3643
characteristics 3643
gradu@@ 3642
itable 3642
l, 3642
Civil 3641
EG@@ 3641
Fer@@ 3641
Ger@@ 3641
cuisine 3641
tal 3641
Bet@@ 3639
Microsoft 3639
ga 3639
blood 3637
g-@@ 3637
ics, 3637
groups, 3635
grateful 3633
journ@@ 3633
depend@@ 3631
Hel@@ 3629
er-@@ 3629
manufactur@@ 3628
sensi@@ 3628
Thus, 3627
revised 3627
Within 3626
program@@ 3626
moun@@ 3624
organic 3622
res. 3622
34@@ 3621
Sil@@ 3621
Support 3621
applications. 3621
2005, 3620
Education 3620
follows 3618
ath 3617
nutri@@ 3617
spar@@ 3617
Commun@@ 3616
tly. 3616
CE 3615
duties 3615
add@@ 3614
engineering 3614
gap 3614
management, 3614
tari@@ 3613
careful 3612
rejected 3612
satisfactory 3611
Lat@@ 3610
gn@@ 3610
units 3609
e.g. 3608
impression 3608
satisfied 3608
lo 3607
coherent 3605
itself, 3605
seeks 3605
politicians 3603
impres@@ 3602
photos 3601
ame 3600
net@@ 3600
avi@@ 3599
times, 3598
understood 3597
Art 3596
industries 3596
percent 3596
sequ@@ 3596
ley 3595
van@@ 3595
Director 3594
budget, 3592
els, 3592
yn@@ 3591
fru@@ 3590
date. 3589
ordinary 3589
am, 3588
loy@@ 3588
1996 3587
cle 3587
foot@@ 3587
pec@@ 3587
amoun@@ 3586
restric@@ 3586
view@@ 3586
Vienna 3584
ol. 3584
shop@@ 3581
Le 3580
familiar 3580
ki 3580
2005. 3579
satisfaction 3579
subsidies 3579
Egyp@@ 3577
command 3577
east 3576
graphic 3576
solution. 3576
side. 3574
Spe@@ 3572
classic 3572
databas@@ 3572
leader@@ 3571
san@@ 3570
weap@@ 3570
prefer 3569
Croatia 3568
engage 3567
definitely 3566
fantastic 3565
landscape 3565
uni@@ 3565
crip@@ 3564
starts 3564
whereas 3564
amending 3563
Sk@@ 3562
personally 3562
red@@ 3562
savings 3562
visiting 3562
De 3560
UC@@ 3560
arian 3560
contac@@ 3557
labelling 3557
Area 3556
Mun@@ 3556
aw@@ 3556
pur@@ 3556
providers 3555
s.@@ 3555
sts 3555
specific@@ 3554
examination 3551
proportion 3550
za 3550
blue 3549
terror@@ 3548
transmission 3548
ore@@ 3547
severe 3546
default 3545
lea@@ 3542
10% 3541
rich@@ 3541
century, 3540
component 3540
defec@@ 3538
house@@ 3538
Danish 3537
ses@@ 3537
data, 3536
fran@@ 3536
arrive 3535
attached 3535
sufficiently 3534
Sen@@ 3533
actors 3532
governing 3532
chain 3531
decre@@ 3531
debates 3530
control. 3529
finished 3529
allow@@ 3528
error 3526
tend 3526
une 3526
rejec@@ 3525
Belgium 3524
realistic 3524
responsi@@ 3524
publication 3523
aid, 3519
ene 3519
locations 3519
Ha@@ 3518
iled 3518
here@@ 3517
upgra@@ 3517
2004. 3516
God 3515
extraordinary 3515
model@@ 3514
ances, 3513
democracy. 3513
distor@@ 3513
foc@@ 3513
Justice. 3512
eventually 3510
Director@@ 3509
addresses 3509
blu@@ 3509
nine 3509
c. 3508
8) 3505
Americ@@ 3505
event@@ 3505
regions, 3505
seat 3505
Having 3504
PP@@ 3504
control@@ 3504
ura@@ 3504
greatly 3503
necessarily 3503
ware 3503
http://ec.europa.eu/@@ 3502
sanc@@ 3502
Institu@@ 3500
attribu@@ 3500
habit@@ 3500
cy, 3499
things, 3499
ed: 3498
ily 3498
inser@@ 3498
zing 3498
affairs 3496
ital 3496
offices 3496
Constitution 3495
Software 3495
nex@@ 3495
esses 3494
clari@@ 3493
facilities. 3493
groups. 3493
immig@@ 3493
in-depth 3493
journey 3492
sugar 3492
diagno@@ 3491
done. 3491
plenty 3491
Over@@ 3490
Whether 3490
approach@@ 3490
enting 3490
follows: 3489
Fund@@ 3488
Aid 3487
taxpay@@ 3487
wise 3487
Code 3486
unfortunately 3486
church@@ 3484
functional 3484
people@@ 3484
moral 3482
happens 3479
rate. 3479
Boo@@ 3478
CI@@ 3478
directive, 3478
harmonisation 3478
ung 3478
Kur@@ 3477
Without 3477
observ@@ 3477
projects, 3477
FOR 3475
5/@@ 3474
Union@@ 3474
specially 3474
bia 3472
criticism 3472
interpre@@ 3472
indicate 3471
venture 3470
Je@@ 3469
gy@@ 3467
entrepreneur@@ 3464
stored 3463
1st 3462
date, 3462
toward 3462
wish@@ 3462
els. 3461
Good 3460
overview 3460
dru@@ 3459
conflicts 3457
defin@@ 3456
match 3456
2004, 3455
i-@@ 3455
suggested 3455
2000. 3453
á 3453
transitional 3452
fit@@ 3451
lap@@ 3451
LO@@ 3450
vessels 3450
ly-@@ 3449
removed 3448
sum 3448
aller@@ 3447
disast@@ 3446
diverse 3446
repeat 3446
Law 3445
categories 3445
allocation 3444
procurement 3444
firmly 3443
room@@ 3443
disaster 3442
arti@@ 3441
earli@@ 3441
boat 3439
diseases 3439
Enterprise 3438
ding, 3438
non@@ 3437
metho@@ 3436
call@@ 3435
deliver@@ 3435
Ra@@ 3434
adapted 3434
sustain@@ 3434
lor@@ 3433
AV@@ 3432
cold 3432
listen 3432
Copenhagen 3431
retail 3431
wron@@ 3431
2003, 3428
conduc@@ 3427
guarante@@ 3427
hundred 3427
driven 3426
mechanis@@ 3426
shipping 3426
negotiations. 3424
Br@@ 3422
Data 3422
Gen@@ 3422
makers 3422
vocational 3422
10.@@ 3420
ich 3420
tives 3420
aling 3417
chain@@ 3417
Alliance 3416
ella 3413
bridge 3412
connections 3412
ination 3412
initi@@ 3412
skin 3412
supplies 3411
6-@@ 3410
predic@@ 3410
7/@@ 3409
term, 3409
addres@@ 3408
lim@@ 3408
(9@@ 3407
tionary 3407
who, 3407
für 3406
A) 3405
unc@@ 3405
of, 3404
cash 3403
jointly 3402
sigh@@ 3402
count 3398
eligible 3398
exciting 3398
Coun@@ 3397
Old 3397
suffered 3397
conventional 3396
Question 3395
enz@@ 3394
power. 3394
themselves. 3394
T-@@ 3393
2011 3392
life@@ 3392
ness, 3392
va@@ 3392
Ca@@ 3390
Control 3390
dge 3390
metal 3390
buff@@ 3389
”@@ 3389
11.@@ 3388
mean@@ 3388
procedure, 3388
brid@@ 3387
proc@@ 3387
SS@@ 3386
ant, 3385
country's 3385
weather 3385
butt@@ 3383
dia 3383
detec@@ 3382
preliminary 3382
principle, 3380
judgment 3379
adv@@ 3378
izing 3378
tis@@ 3377
interest. 3375
Govern@@ 3374
customers. 3374
input 3374
pieces 3374
gal@@ 3372
sh 3372
(M@@ 3371
avo@@ 3371
burg 3371
solutions. 3371
suffer 3371
Ban@@ 3370
exhib@@ 3370
resolu@@ 3370
transactions 3370
A-@@ 3369
foundation 3369
trend 3368
approach. 3367
delegations 3367
ons. 3366
reporting 3364
п@@ 3363
Islamic 3362
occasion 3362
ration, 3361
answers 3360
originally 3359
virtual 3357
wonder@@ 3356
diplom@@ 3355
division 3355
dynam@@ 3354
happening 3354
proven 3354
updates 3354
Austria, 3353
lake 3353
ques@@ 3353
Greece, 3352
needed. 3352
eye 3351
messages 3351
Off@@ 3350
abilities 3350
integrate 3348
objectives. 3348
COUNCIL 3347
career 3347
brief 3346
company, 3346
cultur@@ 3346
decorated 3346
cut@@ 3344
liberal 3339
IC 3338
determin@@ 3338
forum 3338
cover@@ 3337
HO@@ 3335
9. 3334
tested 3334
loan 3333
concentrate 3332
™ 3332
]]. 3331
collabor@@ 3329
ion. 3328
practice. 3328
Vol@@ 3327
ail 3326
displayed 3326
hood 3326
path@@ 3326
pil@@ 3326
programmes, 3326
health. 3325
issi@@ 3325
presenting 3324
price. 3324
Develop@@ 3323
heat 3323
answer@@ 3322
ets, 3322
objects 3321
ative, 3320
present, 3320
tool@@ 3320
> 3319
exit 3319
everyday 3318
Presid@@ 3317
1995 3316
decline 3316
El 3315
affecting 3315
concent@@ 3315
gers 3315
tak@@ 3315
accord@@ 3314
memor@@ 3314
8. 3313
`@@ 3312
peoples 3311
minis@@ 3310
regardless 3310
plenary 3308
Take 3307
destination 3307
neighbour@@ 3306
proceed 3305
ants, 3304
pool, 3304
ences. 3303
engaged 3303
federal 3303
impro@@ 3303
oun@@ 3303
printing 3303
Through 3302
ft. 3302
(for 3301
lev@@ 3300
organizations 3300
ox@@ 3300
consci@@ 3299
facilit@@ 3299
(N@@ 3298
dominant 3298
fied, 3298
destin@@ 3297
So, 3296
adverti@@ 3296
dated 3295
bou@@ 3294
lessons 3294
slow@@ 3293
func@@ 3292
Directive. 3291
gs, 3291
autom@@ 3290
partners. 3290
falls 3288
loans 3288
environment@@ 3286
Asian 3285
h, 3285
Welcome 3283
personnel 3283
ines. 3282
tian 3282
conven@@ 3281
BR@@ 3280
flights 3280
Speci@@ 3279
strategy, 3279
Kyoto 3278
force. 3278
ps. 3278
bein@@ 3277
prime 3277
Perhaps 3276
approve 3276
combine 3276
consequ@@ 3276
les@@ 3276
Pac@@ 3275
Ire@@ 3274
power, 3274
si 3274
aqu@@ 3273
ola 3273
supervision 3273
websites 3273
psych@@ 3272
acceler@@ 3271
artistic 3271
extending 3271
ines, 3271
whole. 3271
contributing 3270
q@@ 3269
Lam@@ 3268
Serbi@@ 3268
attempts 3268
comparison 3268
license 3268
vac@@ 3265
AN 3264
concentration 3264
willingness 3264
7. 3263
lovely 3263
elled 3262
eller 3262
sought 3262
mus@@ 3261
Atlantic 3259
flexi@@ 3259
ben@@ 3258
Si@@ 3257
encouraged 3257
faster 3257
treaty 3257
—@@ 3256
(1@@ 3255
renowned 3255
absor@@ 3254
endor@@ 3254
ket 3253
occa@@ 3253
stations 3253
alists 3252
free@@ 3252
hardly 3252
EX@@ 3251
zu 3251
appointment 3250
men, 3250
Photo@@ 3249
claim@@ 3249
gage 3247
ain 3246
tours 3245
reinforce 3244
spectacular 3244
you'll 3244
child@@ 3243
fav@@ 3243
points. 3243
side, 3243
!@@ 3242
compens@@ 3239
parallel 3238
turning 3238
ym@@ 3238
Z 3237
ant. 3236
taste 3236
economic, 3235
enabled 3235
2012 3234
med@@ 3234
2,@@ 3233
Dr. 3232
thousand 3232
ently. 3231
stream@@ 3231
filled 3229
prior@@ 3229
’. 3227
fitness 3226
renovated 3226
Tel@@ 3224
Therefore 3224
ber, 3223
lian 3222
log 3222
2008@@ 3221
candidates 3221
resource 3221
structur@@ 3221
checks 3219
copy@@ 3219
dom@@ 3219
shift 3219
topic 3219
women. 3219
(including 3218
Bon@@ 3217
ader 3217
contrary 3217
uph@@ 3217
difficul@@ 3216
theme 3216
three-@@ 3216
Thirdly, 3215
entering 3215
capit@@ 3214
relates 3214
D. 3213
te: 3213
resulted 3212
colour 3211
packaging 3211
stic 3211
certific@@ 3210
hab@@ 3210
ino@@ 3210
provider 3210
spoke 3210
spoken 3210
swit@@ 3210
typ@@ 3210
attractions 3209
easi@@ 3209
representation 3209
ensu@@ 3208
progres@@ 3208
swi@@ 3208
museum 3207
p.m. 3207
reaffir@@ 3206
vice 3206
completion 3205
trade, 3205
es). 3204
enem@@ 3203
pilot 3203
ration@@ 3203
considerably 3202
Icel@@ 3200
Turkey, 3200
to-@@ 3200
drivers 3198
Vil@@ 3197
granting 3197
resolved 3197
tran@@ 3197
Legal 3196
Nos 3196
bottom 3196
crimin@@ 3196
suppliers 3196
apart 3195
dou@@ 3195
magnificent 3195
ses, 3195
till 3195
NATO 3194
ein 3194
reach@@ 3194
T) 3193
basis, 3193
copyright 3193
productivity 3193
abuse 3192
amended 3192
gradually 3192
ny 3192
parad@@ 3192
relative 3192
distributed 3189
normally 3189
coastal 3187
producer 3187
Mad@@ 3185
him@@ 3185
Croati@@ 3184
enjoyed 3184
lac@@ 3184
term. 3184
Alban@@ 3182
highlights 3182
tivity 3182
Red 3181
Rooms, 3181
survey 3181
behaviour 3180
rid@@ 3179
highlighted 3178
il, 3178
ators, 3177
corpor@@ 3174
em 3174
Austri@@ 3172
Executive 3172
business@@ 3172
crow@@ 3172
insur@@ 3172
Fo@@ 3171
citizens' 3171
representing 3171
(T@@ 3170
DVD 3170
group. 3170
cin@@ 3169
First, 3168
project, 3168
People's 3167
ette 3167
visual 3165
ata 3164
Royal 3163
supplier 3163
cuts 3162
«@@ 3162
dering 3161
essentially 3161
have, 3161
unds 3161
vacc@@ 3161
int 3159
meets 3158
corruption 3156
fan@@ 3156
resolution, 3156
shower 3156
transferred 3156
est, 3155
cosy 3154
deeply 3154
direction. 3154
č@@ 3154
irs 3153
contin@@ 3152
Community. 3151
expor@@ 3151
greenhouse 3151
lob@@ 3150
ba 3147
facility 3147
minor@@ 3147
though@@ 3147
LE 3145
author 3145
consumers. 3143
design, 3143
driver 3143
university 3143
Consequently, 3142
bac@@ 3142
rely 3142
warning 3142
acted 3141
flag@@ 3141
check@@ 3140
ee@@ 3140
mented 3140
Deutsche 3139
hearing 3138
level@@ 3138
resolutions 3138
Forum 3137
recep@@ 3137
ticket 3137
parents 3136
encies 3135
satisfy 3135
underlying 3133
colleague 3132
upper 3132
enterprise 3131
fres@@ 3130
р@@ 3130
WT@@ 3129
actions. 3129
freedom@@ 3129
Fundamental 3128
ID 3126
connect 3126
contrary, 3126
rock 3126
Democrats 3125
lied 3125
gy 3123
interior 3123
stabil@@ 3123
ums 3123
credibility 3122
fee 3122
teach@@ 3122
well-known 3122
IV 3121
ente 3121
ney 3121
alling 3120
bedroom 3119
dé@@ 3119
restricted 3119
Trans@@ 3118
incorpor@@ 3118
liable 3118
prospects 3118
Ge@@ 3116
straight 3116
100% 3115
Google 3114
female 3114
reconstruction 3114
Pact 3113
Sim@@ 3113
facts 3113
aim@@ 3111
Cro@@ 3110
Er@@ 3110
Presidency, 3110
acquired 3110
flat 3110
expendit@@ 3108
achievement 3107
spot 3107
--@@ 3106
manufacturer 3106
slow 3106
crimes 3105
exception 3105
ot 3105
dispute 3104
fon@@ 3104
shi@@ 3104
supposed 3104
libr@@ 3103
transportation 3103
terms, 3102
600 3101
cast 3101
ls 3101
reasons, 3101
wrote 3101
33 3100
earn 3100
negoti@@ 3100
subst@@ 3100
cultiv@@ 3099
realise 3099
cott@@ 3098
invites 3098
sized 3097
where, 3097
condem@@ 3096
ia@@ 3094
preserve 3094
beginn@@ 3093
clarify 3093
streets 3093
total@@ 3093
(PL) 3092
adjustment 3092
quick@@ 3091
decision. 3090
signing 3089
stret@@ 3088
Among 3087
ö@@ 3087
CAP 3085
ile@@ 3085
suspec@@ 3085
lists 3084
trade. 3084
PDF 3083
Will 3083
need@@ 3083
profile 3083
supplied 3083
towns 3083
ur, 3083
farming 3082
ror 3082
led, 3081
entertainment 3080
competen@@ 3079
explor@@ 3078
incentives 3077
master 3077
pick@@ 3077
rout@@ 3077
sim@@ 3076
2003. 3075
ker@@ 3075
MA@@ 3074
Vir@@ 3073
eyes 3073
produces 3073
red, 3073
't 3072
accounting 3072
mix 3072
mountains 3072
advoc@@ 3071
job@@ 3070
ker 3070
levels. 3070
ams 3068
energy. 3068
ner, 3068
resistance 3068
major@@ 3067
sound@@ 3067
49@@ 3066
centur@@ 3066
cross@@ 3066
Environment, 3065
Kon@@ 3063
recognized 3062
window@@ 3062
Media 3060
focuses 3060
harmful 3060
lik@@ 3060
nel 3060
MEPs 3059
Year 3059
joining 3059
2010@@ 3058
diversi@@ 3058
toler@@ 3058
ping 3057
arity 3056
dem 3056
explained 3056
innov@@ 3056
Santa 3055
decades 3055
emplo@@ 3055
reasoned 3055
curr@@ 3054
provision@@ 3053
ration. 3053
wit@@ 3053
asser@@ 3052
lock 3052
mode 3052
strengthened 3052
home. 3051
retain@@ 3051
Sar@@ 3050
funds. 3050
l'@@ 3050
nevertheless 3050
focusing 3049
indeed, 3049
periods 3049
trig@@ 3049
anda 3048
moment, 3048
uniform 3048
CR@@ 3047
Michael 3047
Policy, 3046
king@@ 3046
government, 3045
ler@@ 3045
organise 3045
aged 3044
ating, 3044
friend 3042
Africa, 3039
bath 3039
enthusias@@ 3039
united 3039
leaves 3038
approach, 3036
Heads 3034
len@@ 3034
Multi@@ 3032
entrance 3032
urgently 3031
wage 3031
CC@@ 3030
Vienn@@ 3030
dep@@ 3029
ech@@ 3029
nationals 3029
permitted 3029
zo@@ 3029
function@@ 3028
antly 3027
ously. 3027
bol@@ 3026
deal@@ 3026
endorse 3026
training, 3026
Gal@@ 3025
travelling 3025
dition@@ 3024
ré@@ 3024
#@@ 3023
Fra@@ 3023
las 3023
business, 3022
diplomatic 3021
heritage 3021
…@@ 3021
2002, 3020
Every@@ 3020
Wes@@ 3020
accid@@ 3020
les. 3020
telecommunications 3020
eliminate 3019
evol@@ 3018
Hungary 3017
collected 3017
leng@@ 3016
shoo@@ 3016
48 3015
UL@@ 3015
channel 3015
compo@@ 3015
conservation 3015
asse@@ 3014
beg@@ 3014
roads 3014
… 3014
surveillance 3013
SI@@ 3012
Chamber 3011
Socialist 3010
aci@@ 3009
eries 3009
public. 3009
agenda. 3008
lands. 3008
configuration 3006
secret 3006
und, 3006
New@@ 3005
ground. 3005
yesterday 3005
Also, 3004
Poland, 3004
Culture 3003
strictly 3003
beds 3002
gs. 3002
hopes 3002
http://www.@@ 3001
GN@@ 3000
freedom, 3000
hop@@ 2999
lig@@ 2998
clima@@ 2997
specialist 2997
Foundation 2996
cost-@@ 2996
Labour 2995
you're 2995
bars 2994
dating 2994
death@@ 2994
ger, 2994
'll 2993
alongside 2993
drink 2993
intern@@ 2993
stages 2993
bar, 2992
class@@ 2992
implications 2992
interests. 2992
recommend@@ 2992
resolution. 2992
flows 2991
kit@@ 2991
none 2991
owners 2991
acceptance 2990
processed 2990
said. 2990
sent@@ 2990
water. 2990
gement 2989
hair 2989
history, 2989
isol@@ 2989
rare 2989
staff. 2989
.... 2988
hardware 2988
musical 2988
tly, 2988
ha 2987
protec@@ 2987
depos@@ 2985
poly@@ 2985
rental 2985
scheduled 2985
GD@@ 2984
causing 2983
2013 2982
ren 2982
Dra@@ 2981
Van 2981
appearance 2981
г@@ 2980
compli@@ 2979
courts 2979
eth 2979
rati@@ 2979
together, 2978
Dar@@ 2977
terrac@@ 2977
guidel@@ 2976
il. 2976
world-@@ 2976
routes 2975
secondary 2975
te) 2975
undoubtedly 2975
Kingdom@@ 2974
Nether@@ 2974
breach 2974
D, 2973
housing 2973
sever@@ 2973
tail@@ 2973
techniques 2973
beach@@ 2972
required. 2972
Author@@ 2971
Department 2971
hau@@ 2970
Pas@@ 2969
department 2969
learn@@ 2969
sectors. 2969
warran@@ 2969
Black 2968
accurate 2968
utmost 2967
es-@@ 2965
guided 2965
operator 2965
Indones@@ 2964
Ireland, 2964
impe@@ 2964
() 2963
Amendments 2963
standards, 2963
BO@@ 2962
cription 2962
exploitation 2962
broader 2961
fort@@ 2961
informal 2961
part-@@ 2961
thetic 2960
tor, 2960
enhancing 2959
country’s 2958
compon@@ 2957
handle 2957
reiter@@ 2957
referring 2956
skill@@ 2956
Australi@@ 2955
Pen@@ 2955
finds 2955
him. 2955
mix@@ 2955
argument 2954
ecological 2954
forward. 2954
scra@@ 2954
like@@ 2953
deposit 2952
has, 2952
perfec@@ 2952
surely 2952
vehic@@ 2952
ails 2951
civilian 2951
dan@@ 2951
Colom@@ 2950
Community's 2950
clear, 2949
destruction 2949
pric@@ 2949
topics 2949
supervis@@ 2948
Countries 2947
Like 2947
imm@@ 2947
politically 2947
2009@@ 2946
ort 2946
stag@@ 2946
ebo@@ 2945
past, 2945
regulated 2945
stop@@ 2945
truth 2945
initially 2944
ise, 2942
Pack@@ 2941
Strateg@@ 2941
browser 2940
penalty 2940
IB@@ 2938
fairly 2938
gent@@ 2938
position@@ 2938
sector@@ 2937
wireless 2937
UM@@ 2936
a.@@ 2936
ners 2936
effor@@ 2934
opens 2934
ere 2933
Are@@ 2932
committees 2932
stock@@ 2932
46@@ 2931
Lastly, 2931
Pic@@ 2931
affects 2931
ered 2931
electron@@ 2930
operates 2930
%) 2929
subjec@@ 2929
undermin@@ 2929
8-@@ 2928
ESS 2928
desired 2928
CL@@ 2927
competition, 2927
complain@@ 2927
sa 2927
Confer@@ 2926
comparable 2926
ratification 2926
12.@@ 2925
Pl@@ 2925
bearing 2925
description 2925
milit@@ 2925
act. 2924
з@@ 2924
compulsory 2923
Organisation 2921
assess@@ 2921
glo@@ 2921
occur 2921
famili@@ 2920
offer@@ 2919
programm@@ 2918
Camp@@ 2917
follow-up 2917
professionals 2917
mm@@ 2916
fire@@ 2913
t’s 2913
authorisation 2912
else@@ 2912
2001, 2911
incorporated 2911
ingly, 2910
lived 2910
pillar@@ 2909
som@@ 2909
undertakings 2909
Assembly 2908
mentation 2908
.00 2907
vir@@ 2907
e/@@ 2906
follow@@ 2906
item@@ 2906
luxurious 2906
through@@ 2906
Day 2905
bound@@ 2904
heading 2904
past. 2904
tention 2904
Wel@@ 2903
\@@ 2903
battle 2903
7-@@ 2902
decision, 2902
not@@ 2902
losses 2901
stakeholders 2901
new, 2900
non-smo@@ 2900
safety, 2900
formally 2899
sight 2899
b, 2898
emission 2898
ind@@ 2897
+32 2896
Defence 2896
Should 2896
Technical 2896
push 2896
x-@@ 2894
(G@@ 2893
counter 2893
people's 2892
aspec@@ 2890
dit@@ 2889
adding 2888
ruling 2888
shel@@ 2888
sters 2888
fulfil@@ 2887
pes 2887
proposals. 2887
ink 2886
teaching 2886
4% 2885
believe, 2884
categor@@ 2884
MS 2883
ita 2883
safety. 2882
whereby 2882
substance 2881
applicant 2880
frame 2880
Constitutional 2879
River 2879
visi@@ 2879
weak 2877
it’s 2876
properties 2876
also, 2875
electoral 2875
ander@@ 2874
manufacture 2874
network. 2874
bench@@ 2873
bled 2873
decad@@ 2873
disabled 2873
tickets 2872
tigh@@ 2872
facilities, 2871
for. 2871
ign 2871
indicators 2871
Breakfast 2870
grown 2870
progress. 2870
Q 2869
ti 2869
China’s 2868
exper@@ 2868
owner 2868
castle 2867
inspec@@ 2867
mit, 2867
wild 2867
Eng@@ 2865
furniture 2865
row 2864
surpris@@ 2864
review@@ 2863
para 2862
shoul@@ 2862
(L@@ 2861
dinner 2861
flat@@ 2861
later, 2861
widespread 2861
difficulty 2860
stylish 2860
75@@ 2859
fications 2859
gon@@ 2859
nature, 2859
recre@@ 2859
PC@@ 2858
Tunis@@ 2858
retur@@ 2858
Minister, 2857
quotas 2856
character@@ 2855
general, 2855
station. 2855
victim@@ 2855
Alp@@ 2854
parties, 2854
е 2854
lift 2853
ise. 2852
te-@@ 2851
arrange@@ 2850
’t 2850
executive 2849
good. 2849
history. 2849
ret@@ 2849
simpl@@ 2849
album 2847
feder@@ 2847
scar@@ 2847
week, 2847
Federation 2846
IA 2846
48@@ 2845
ISO 2845
suggestions 2845
violations 2845
documentation 2844
36 2843
consent 2843
don’t 2843
ests, 2843
hence 2843
are: 2842
teams 2842
again@@ 2841
arrived 2841
heating 2841
sively 2841
Š@@ 2841
EEC 2840
fal@@ 2840
ific@@ 2840
iness 2840
strategi@@ 2840
undertake 2840
wonder 2840
34 2839
compu@@ 2839
government@@ 2839
lining 2839
Youth 2838
aud@@ 2838
ultimate 2838
trends 2837
derog@@ 2836
learned 2836
O. 2835
identification 2835
deci@@ 2834
Lord 2832
stal@@ 2832
Indian 2831
arguments 2830
Eff@@ 2829
acknowled@@ 2829
gold 2829
purely 2827
J 2826
error@@ 2826
expand 2826
500@@ 2825
Restaurant 2825
reaction 2825
suppl@@ 2825
2002. 2824
sponsor@@ 2824
Directive, 2823
financ@@ 2823
films 2822
seg@@ 2822
zy 2822
dead@@ 2821
virtually 2821
bir@@ 2820
intermedi@@ 2819
muse@@ 2819
1000 2818
ran 2818
remain@@ 2818
Does 2816
QU@@ 2816
Peter 2814
ne, 2813
permit 2813
pure 2813
exce@@ 2812
master@@ 2811
(with 2809
Canada 2809
P. 2809
tre 2809
Ed@@ 2808
Rome 2808
tom@@ 2808
a; 2807
Intergovernmental 2806
ater@@ 2806
collect 2806
acknowledge 2805
dishes 2805
principal 2805
worthy 2805
AT 2804
subjects 2804
Finland 2803
Hol@@ 2803
compete 2803
ing; 2803
usual 2803
Act 2802
unded 2802
stage. 2801
stay. 2801
manner. 2800
Netherlands, 2799
atmosphere. 2799
sit 2799
field, 2798
electrical 2797
roo@@ 2797
US, 2796
retain 2796
staff, 2796
bran@@ 2795
ading 2794
experienc@@ 2794
woman 2792
flow@@ 2791
worst 2791
As@@ 2789
Open 2789
dispos@@ 2789
poli@@ 2789
Sam@@ 2788
dres@@ 2788
jobs, 2788
practice, 2788
closure 2787
techn@@ 2787
DR@@ 2786
audit 2786
fiel@@ 2786
ment: 2786
exclusion 2785
manu@@ 2785
May@@ 2784
compres@@ 2784
unfair 2784
correspon@@ 2783
introduc@@ 2783
signific@@ 2783
thermal 2783
Autom@@ 2782
Republic, 2782
alities 2782
olive 2782
revenue 2782
states. 2782
cher 2781
solar 2781
can, 2780
eli@@ 2780
ators. 2779
culture, 2779
million@@ 2779
hostels 2778
zen 2778
sections 2776
execu@@ 2775
guaranteeing 2775
we, 2775
accompl@@ 2774
aring 2774
ury 2774
Auditors 2773
E, 2773
B, 2772
form, 2772
poses 2772
Pla@@ 2771
movements 2771
prosperity 2771
sement 2771
Southern 2770
domain 2770
sea. 2770
comprehen@@ 2769
worldwide. 2769
by-@@ 2768
community. 2768
graphics 2768
inner 2768
least, 2768
S.@@ 2767
environmentally 2767
os, 2767
population. 2767
sub-@@ 2767
walls 2767
guidance 2766
report@@ 2766
Authority 2765
k-@@ 2764
ordered 2764
combines 2763
internationally 2763
sen 2763
states, 2763
divi@@ 2762
tact 2762
(3@@ 2761
PS@@ 2761
example. 2760
Africa. 2759
nature. 2758
short-term 2758
3D 2757
doors 2757
poor@@ 2757
regim@@ 2757
spite 2757
adds 2756
poorest 2756
Dan@@ 2755
My@@ 2755
q 2755
restaurants, 2755
involved. 2754
lower@@ 2754
teen 2754
commit 2753
lia 2753
must, 2753
ped. 2753
promp@@ 2753
TER@@ 2752
complicated 2752
es" 2752
tonnes 2752
iner@@ 2751
acquis 2750
tic. 2750
effect. 2749
din@@ 2748
partners, 2748
AK@@ 2747
ix 2747
preparations 2747
Pan@@ 2746
Ven@@ 2746
dence 2746
ned. 2746
t) 2745
School 2743
dance 2743
des, 2743
Gran@@ 2742
minut@@ 2742
forec@@ 2741
matter, 2741
regulation. 2741
Union’s 2740
freely 2740
mo 2740
where. 2739
confirmation 2738
father 2738
hours. 2738
ama 2737
confid@@ 2737
questions. 2737
renewed 2737
sea, 2737
1980@@ 2736
Korea 2736
bling 2736
shadow 2736
(8@@ 2735
composed 2735
ks@@ 2735
citizen 2734
missing 2734
operation. 2734
M. 2733
ves, 2733
yers 2733
course. 2732
findings 2732
ull 2732
protection@@ 2731
struc@@ 2731
ky 2730
liked 2730
Afghanistan 2729
duration 2729
ground, 2729
welcoming 2729
Far@@ 2728
scrutin@@ 2728
yester@@ 2728
consulting 2727
fewer 2727
miles 2727
postal 2727
sers 2727
inhabitants 2726
protocol 2726
stipul@@ 2726
ado 2725
neighbor@@ 2725
ency, 2724
enforc@@ 2724
ole 2724
pressing 2724
trial 2724
(Applause) 2723
Several 2722
yed 2722
killed 2721
week. 2721
regulation, 2720
ways, 2720
ANT@@ 2719
with. 2719
ease 2718
suggests 2716
violation 2716
Chairman 2715
Finnish 2715
delicious 2715
doesn't 2715
dow@@ 2715
concepts 2714
partial 2714
ch-@@ 2713
emer@@ 2713
zon@@ 2713
significance 2712
tique 2712
Service, 2711
S-@@ 2710
government. 2710
sheet 2710
smooth 2710
table, 2710
operated 2708
cook@@ 2707
equipment, 2707
differenti@@ 2706
Tu@@ 2705
arise 2705
Based 2704
Sm@@ 2704
China. 2703
Sur@@ 2703
fly 2703
negotiation 2703
stres@@ 2703
aul@@ 2702
bus@@ 2702
t; 2702
brief@@ 2701
fees 2701
sul@@ 2701
conserv@@ 2700
expect@@ 2700
250 2699
itary 2699
son, 2699
events. 2698
Minister@@ 2697
label 2697
face. 2696
state. 2696
Yugoslav 2695
Gr@@ 2694
cham@@ 2694
parliaments 2694
ú@@ 2694
Fir@@ 2693
financi@@ 2693
fam@@ 2691
semin@@ 2691
ts; 2691
vacation 2691
workers, 2691
Congress 2690
Pat@@ 2690
site, 2690
non 2689
threats 2689
»@@ 2689
ation) 2688
made, 2688
publish@@ 2688
subsidiarity 2688
Cham@@ 2687
Desk, 2687
mother 2686
Network 2685
ador 2685
subsequently 2685
available, 2684
doubts 2684
romantic 2684
FT@@ 2683
name, 2682
scrip@@ 2682
stan@@ 2682
Russia. 2680
honour 2680
rap@@ 2680
3,@@ 2679
hun@@ 2679
ills 2679
Kal@@ 2678
ague 2678
islands 2678
Constitu@@ 2677
freight 2677
small@@ 2677
7% 2676
canc@@ 2676
mb@@ 2676
guar@@ 2675
immigrants 2675
scal@@ 2675
channels 2674
lau@@ 2674
organ@@ 2674
consult 2673
further@@ 2673
inspired 2673
complaints 2672
tured 2672
members, 2671
ough 2671
specul@@ 2671
Four@@ 2670
consolidation 2670
tourists 2670
Society 2669
comfor@@ 2669
location. 2669
ride 2669
balcon@@ 2668
circul@@ 2668
control, 2668
drin@@ 2668
statistical 2668
hostel 2667
margin@@ 2667
AU@@ 2666
instance 2666
1999, 2665
6% 2665
for, 2665
bike 2663
unforgettable 2663
]@@ 2662
dit 2662
bid@@ 2661
catch 2661
tering 2660
­@@ 2660
conclusion, 2658
recognize 2658
ken 2657
peace@@ 2657
Ni@@ 2655
Official 2655
adults 2655
appropriations 2655
tranqu@@ 2655
printed 2654
thorough 2654
ales 2653
elect 2653
football 2653
event, 2652
wave 2652
Now, 2651
air-condition@@ 2651
rapporteurs 2651
wear 2651
cleaning 2650
farm@@ 2649
missions 2649
switch 2649
EL 2647
eco@@ 2647
Ombudsman 2646
e). 2646
es! 2646
Medi@@ 2645
contractual 2645
Jul@@ 2644
clause 2644
cles 2644
docum@@ 2644
heav@@ 2644
ality. 2643
ness. 2643
ough@@ 2643
plas@@ 2643
force, 2642
heal@@ 2642
over-@@ 2641
relev@@ 2641
library 2640
ten, 2640
(which 2639
execution 2637
â@@ 2637
Fu@@ 2636
aj@@ 2636
coordinate 2636
health@@ 2636
lined 2636
Science 2635
devoted 2635
People 2634
nigh@@ 2633
pace 2633
six@@ 2633
aten 2632
distur@@ 2632
publish 2632
tor. 2632
Nice 2630
Quality 2630
events, 2630
oura@@ 2630
ians 2629
owner@@ 2629
radical 2629
twice 2629
minister 2628
band@@ 2627
oldest 2627
trained 2627
today’s 2626
belong 2625
dele@@ 2625
happen@@ 2624
airlines 2623
lines. 2623
Members, 2622
ges. 2622
Spa 2621
ite, 2621
last@@ 2621
allo@@ 2620
DG 2619
communicate 2619
hur@@ 2619
notic@@ 2619
ITY 2617
Sc@@ 2617
approaches 2617
co-ordin@@ 2617
defining 2615
corner 2614
respecting 2614
withdraw 2614
dimen@@ 2613
excluded 2613
request. 2613
responsibility. 2613
valid@@ 2613
attend 2612
mind, 2612
timely 2612
David 2611
self, 2611
sleep@@ 2611
I) 2610
build@@ 2610
co. 2610
ity-@@ 2610
des. 2609
ens, 2609
regre@@ 2609
elegan@@ 2608
fuels 2608
root 2608
Procedu@@ 2607
first-@@ 2607
lending 2607
mere 2607
Ti@@ 2606
dumping 2606
pretty 2606
method@@ 2605
motiv@@ 2605
stage, 2605
zation 2605
Digital 2604
Lan@@ 2604
down. 2604
placing 2604
textile 2604
cir@@ 2603
exact 2603
gress 2603
oppose 2603
appl@@ 2601
enlarged 2601
miss 2601
e’s 2600
food, 2600
B. 2599
asing 2599
losing 2599
ver. 2599
Time 2598
another. 2598
dela@@ 2598
Bosnia 2597
Hu@@ 2597
adjust@@ 2597
password 2596
wellness 2596
panoramic 2595
settings 2595
Belgium, 2593
ig 2593
itation 2593
potentially 2593
ality, 2592
audi@@ 2591
reservations 2591
amend 2590
foster 2590
Situated 2589
negotiated 2589
den, 2588
Munich 2587
scientists 2587
Comp@@ 2586
ext@@ 2586
picturesque 2586
ł@@ 2586
2007@@ 2584
agreements. 2584
integration. 2584
occur@@ 2584
alloc@@ 2583
lines, 2583
navigation 2583
stom@@ 2582
substantially 2581
damages 2580
ditional 2580
ely, 2580
hall 2580
ith 2580
viable 2580
Nu@@ 2579
colour@@ 2579
geo@@ 2579
initiated 2579
innovation, 2579
subsidiary 2579
row@@ 2578
1994 2577
Frankfurt 2577
Inn 2577
director 2577
long@@ 2577
(5@@ 2576
cell 2576
courage 2576
dered 2575
culture. 2574
funds, 2574
plastic 2574
FOR@@ 2573
Hotel, 2573
inclusive 2573
overlooking 2573
Parliamentary 2571
TO@@ 2571
costs, 2571
deser@@ 2571
minutes. 2571
panel 2571
promise 2571
fails 2570
maxim@@ 2570
ownership 2570
transit 2569
There@@ 2568
behavi@@ 2568
ber. 2568
km@@ 2568
passing 2568
patient 2568
tent 2568
minor 2567
tions: 2567
u, 2567
2001. 2566
destro@@ 2566
sophisticated 2566
lay@@ 2565
p-@@ 2565
value. 2565
universities 2564
peace, 2563
Cat@@ 2562
ze. 2562
come, 2561
gross 2560
relief 2560
58@@ 2559
Win@@ 2558
comb@@ 2557
excep@@ 2557
anniversary 2556
ation? 2556
senior 2556
tful 2556
cia 2555
specialized 2555
umin@@ 2555
enough. 2554
ses. 2554
assigned 2553
listings 2553
succeeded 2553
Flor@@ 2552
SM@@ 2552
correctly 2552
promised 2552
ago@@ 2550
ane 2550
bes 2550
enjoy@@ 2550
ia: 2550
imagine 2550
imported 2550
now@@ 2550
student 2550
47@@ 2549
Yes, 2549
fifth 2548
year's 2548
� 2548
feasi@@ 2547
matters. 2547
adequ@@ 2546
procedures. 2546
sights 2546
simul@@ 2546
varied 2546
first, 2545
inspection 2544
(D@@ 2543
NAT@@ 2543
saved 2543
19th 2542
30% 2542
Christi@@ 2541
ually 2541
Mediterrane@@ 2540
(H@@ 2539
economically 2539
succeed 2538
ón 2538
falling 2537
wise, 2537
een 2536
ories 2536
tariff 2535
threat@@ 2535
io 2534
set@@ 2534
Saint 2533
finish 2533
factor@@ 2532
negotiations, 2532
herit@@ 2531
injur@@ 2531
essi@@ 2530
proposals, 2530
sive, 2530
cker 2529
n't 2529
dissemin@@ 2528
beach, 2527
reason@@ 2527
Democratic 2526
referendum 2526
sty@@ 2525
theat@@ 2525
draw@@ 2524
guests. 2524
one's 2524
symbol 2524
ency. 2523
layer 2523
y! 2523
bility, 2522
workers. 2522
y" 2522
Space 2521
experience, 2521
systematic 2521
eradic@@ 2520
search@@ 2520
Fron@@ 2519
grants 2519
scienti@@ 2519
simplify 2519
Hong 2518
21@@ 2517
Portugal, 2517
gin@@ 2517
research. 2517
instructions 2516
isted 2516
Rights, 2515
borders. 2515
ding. 2515
self 2515
snow@@ 2515
tics, 2515
Britain 2514
upgrade 2513
;@@ 2511
Robert 2511
yon@@ 2510
wines 2509
genuinely 2506
interest@@ 2506
orts 2506
surround@@ 2506
used, 2506
worse 2506
Palace 2505
iv@@ 2505
repa@@ 2505
loss@@ 2504
’, 2504
blog 2503
liz@@ 2503
plann@@ 2503
exposed 2502
judge 2502
64 2501
asset 2501
stimulate 2501
thri@@ 2500
town. 2500
George 2499
Serbia 2499
bre 2499
consequence 2499
sex@@ 2499
short@@ 2499
circumstances, 2498
trees 2498
vie@@ 2498
Nic@@ 2497
b. 2497
est. 2497
imply 2497
presidential 2497
with, 2497
enlargement. 2495
operation, 2495
fusion 2494
men. 2494
night@@ 2494
army 2493
e-mail@@ 2492
Ren@@ 2491
elev@@ 2491
exec@@ 2491
supple@@ 2491
virtu@@ 2491
Hotel@@ 2490
Turkey@@ 2490
insist 2490
rapporteur. 2489
tious 2489
Die 2488
Emp@@ 2488
strength@@ 2488
amendments, 2487
macroeconomic 2487
rated 2487
adap@@ 2485
dura@@ 2485
legislat@@ 2485
ook 2485
tackling 2485
vulner@@ 2485
billi@@ 2484
esc@@ 2484
internation@@ 2484
hostel@@ 2483
AF@@ 2482
failing 2482
globalisation 2482
record@@ 2482
resor@@ 2482
roots 2482
shif@@ 2482
Cohesion 2481
dict@@ 2481
full-@@ 2481
190@@ 2480
Some@@ 2480
h. 2480
(R@@ 2479
Democra@@ 2479
alise 2479
complic@@ 2479
departure 2479
fashion 2479
ight@@ 2479
purposes. 2479
short, 2479
terrorism. 2479
transpar@@ 2479
amen@@ 2478
logical 2478
supplementary 2478
Bus@@ 2477
evaluate 2477
go, 2477
ital@@ 2477
text, 2477
removal 2476
requiring 2476
that@@ 2476
Na@@ 2475
dom 2475
37 2474
declare 2474
rever@@ 2474
lunch 2473
rou@@ 2473
welcom@@ 2473
deli@@ 2472
politici@@ 2472
surve@@ 2472
Church 2470
Regions 2470
corrup@@ 2470
entertain@@ 2470
equi@@ 2470
gest 2470
regard, 2470
argu@@ 2469
belief 2469
contrast 2469
persu@@ 2469
propo@@ 2469
redund@@ 2469
restrictive 2469
ets. 2468
reality. 2468
awa@@ 2467
pick 2467
suit 2467
module 2466
consum@@ 2465
seas@@ 2465
sity 2465
val. 2465
pris@@ 2464
evi@@ 2463
grade 2462
portfolio 2462
Plat@@ 2461
deadline 2461
imposing 2461
repair 2461
state, 2461
capital@@ 2460
mitting 2460
respected 2460
valley 2460
relax@@ 2459
team@@ 2458
as: 2457
exceed 2457
relaxation 2457
és 2457
com 2456
order, 2456
rais@@ 2456
rapporteur@@ 2456
building, 2455
ology, 2455
DA 2454
Scot@@ 2454
ax 2454
freedoms 2454
sensible 2454
today@@ 2454
ahe@@ 2453
encourages 2453
horizontal 2453
trend@@ 2453
1992 2451
Paul 2451
alize 2450
bun@@ 2450
da, 2450
mit. 2450
reductions 2450
ways. 2450
9-@@ 2449
dream 2449
reserved 2449
ur. 2449
Annual 2448
West@@ 2448
bility. 2448
comprises 2448
fundament@@ 2448
near@@ 2448
cock@@ 2447
desi@@ 2447
dry 2447
laun@@ 2447
68@@ 2446
own. 2446
struggle 2446
compact 2445
describe 2445
hypo@@ 2445
throw 2445
wooden 2445
squar@@ 2444
F) 2442
ally-@@ 2442
fear@@ 2442
DO@@ 2441
assembly 2441
city@@ 2440
list@@ 2440
Proc@@ 2439
enjoys 2439
ê@@ 2439
alle 2438
chapter 2438
destruc@@ 2438
gel@@ 2438
nights 2438
America, 2437
Station 2437
investment. 2437
revolu@@ 2437
valle@@ 2437
Ci@@ 2436
Golf 2436
Hotels 2436
circu@@ 2436
negotiate 2436
quota 2436
spectrum 2435
LIN@@ 2434
actions, 2433
black@@ 2433
geograph@@ 2433
onn@@ 2433
parameters 2433
65 2432
contextual 2432
repeatedly 2432
sym@@ 2432
're 2431
beach. 2431
heads 2431
sky 2431
ting@@ 2431
Ka@@ 2430
is: 2430
restaurant, 2430
believed 2429
ing? 2429
ta, 2428
transfers 2428
49 2427
All@@ 2427
NE@@ 2427
eat 2427
itz@@ 2427
narrow 2427
station, 2427
Barroso 2426
Maria 2426
tt 2426
mandatory 2425
visitor@@ 2425
fell 2424
Power@@ 2423
USB 2423
coll@@ 2423
wa 2423
FA@@ 2422
manufactured 2422
plate 2422
den. 2421
mes@@ 2421
native 2421
tra-@@ 2421
Tip: 2420
agriculture, 2420
improvem@@ 2420
mal 2420
ones. 2420
software. 2420
stro@@ 2420
Staff 2419
manif@@ 2419
profits 2419
(IT) 2418
700 2418
Bay 2418
Commissioners 2418
oppon@@ 2418
Under@@ 2417
accident 2417
artist 2417
seemed 2417
substitu@@ 2417
20, 2416
Hon@@ 2416
self. 2416
:00@@ 2415
kar@@ 2415
lounge 2415
ult@@ 2415
artic@@ 2414
enjoying 2414
ness@@ 2414
researchers 2414
text. 2414
users. 2414
39 2413
agrees 2413
contradic@@ 2413
ham 2413
good, 2412
inher@@ 2412
endorsed 2411
Objective 2410
pharmaceutical 2410
prices, 2410
ade@@ 2409
equipment. 2409
manipul@@ 2409
sees 2408
yer, 2408
edition 2407
38 2406
Agreement. 2406
anywhere 2406
theory 2406
integra@@ 2405
mati@@ 2405
recording 2405
1999. 2404
C) 2404
Sci@@ 2403
email@@ 2403
propri@@ 2403
repeated 2403
а 2403
a.m. 2402
encoura@@ 2402
organisations, 2402
dictator@@ 2401
dramatic 2401
should, 2401
Out@@ 2400
composition 2400
Madrid 2399
competitors 2399
Back@@ 2398
Internet. 2398
lie@@ 2398
sectors, 2398
transpor@@ 2398
Besides 2397
hidden 2397
classical 2396
far, 2396
virus 2396
windows 2396
cy. 2395
reputation 2395
simp@@ 2395
dly, 2394
done, 2394
ECB 2393
academic 2393
ator, 2393
incentive 2393
pursued 2393
4-star 2392
Design 2392
Lab@@ 2392
automotive 2392
ics. 2392
observe 2392
stuff@@ 2391
P) 2390
anz@@ 2390
errors 2389
violent 2389
abroad 2388
ambigu@@ 2388
go. 2388
Committee, 2387
inter 2387
occurred 2387
portra@@ 2387
b) 2386
feel@@ 2386
recipi@@ 2386
ão 2386
amazing 2385
director@@ 2385
lass@@ 2385
structured 2385
stunning 2385
terrorism, 2385
timetable 2385
cancer 2384
favo@@ 2384
festival 2384
optimal 2384
revealed 2384
ora 2383
warm@@ 2383
ж@@ 2383
Pacific 2382
a? 2382
constructed 2382
Process 2381
website, 2381
ately, 2380
medieval 2380
port, 2380
Cop@@ 2379
Lor@@ 2379
bought 2379
justify 2379
relation@@ 2379
respect. 2379
committe@@ 2378
ira@@ 2378
E. 2377
Jac@@ 2377
education. 2377
meaningfully 2377
prospect 2377
summar@@ 2377
Festival 2376
birth 2376
preven@@ 2376
pursuant 2376
Community, 2375
cket 2375
consultations 2374
residential 2374
superior 2374
ates, 2372
destroyed 2372
finances 2372
revis@@ 2372
King 2371
Saf@@ 2371
ank@@ 2371
oce@@ 2371
CP@@ 2370
L) 2370
MENT 2370
fligh@@ 2369
progressive 2369
studied 2369
ged. 2368
interim 2368
night. 2368
distinc@@ 2367
8% 2366
board@@ 2366
conciliation 2366
ethical 2366
la, 2366
broad@@ 2365
choic@@ 2365
remarkable 2365
ume 2365
Braz@@ 2364
framework. 2364
2015 2363
SA 2363
terms. 2363
conversion 2362
monum@@ 2362
vary 2362
societies 2360
affili@@ 2359
confident 2359
continent 2359
defe@@ 2358
indoor 2358
lowing 2358
settle@@ 2358
tournam@@ 2358
ст@@ 2358
ened 2357
iring 2357
town@@ 2357
suffici@@ 2356
Muslim 2355
inger 2355
integral 2355
ned, 2355
objectives, 2355
simil@@ 2355
sustained 2355
undertaking 2355
Prov@@ 2354
dies, 2354
fall@@ 2354
ratio 2354
agreements, 2353
associations 2353
exchanges 2353
· 2353
acquire 2352
ed-@@ 2352
preferred 2352
ri 2352
clicking 2351
20th 2350
NGOs 2350
Would 2350
commod@@ 2350
fishermen 2350
letters 2350
ceiling 2348
reasons. 2348
ski@@ 2348
sounds 2348
supervisory 2348
frequency 2347
gor@@ 2347
ishment 2347
jec@@ 2347
manag@@ 2347
refuse 2347
till@@ 2347
Annex 2346
airports 2346
civil@@ 2346
maintain@@ 2346
phon@@ 2346
55 2345
Colle@@ 2345
kilometres 2345
noti@@ 2345
town, 2345
underground 2345
clear. 2344
plain 2344
Ken@@ 2343
Ram@@ 2343
biological 2343
children@@ 2343
ot@@ 2343
classi@@ 2342
defic@@ 2342
ira 2342
mixed 2342
directory 2341
renov@@ 2341
viewed 2341
"Find 2340
Americans 2340
family. 2340
too@@ 2340
Denmark 2339
cky 2339
diff@@ 2339
penal@@ 2339
wall@@ 2339
France. 2338
tables 2338
assum@@ 2337
buying 2337
asks 2336
even@@ 2336
officially 2336
sely 2336
Ul@@ 2335
rak@@ 2335
refused 2335
remember@@ 2335
contributes 2334
demand@@ 2334
forests 2334
grammatically 2334
295 2333
Chr@@ 2333
suited 2333
tag@@ 2333
Geneva 2332
Med@@ 2332
Ty@@ 2331
access. 2331
accidents 2331
hope@@ 2331
tos 2331
values. 2331
Post@@ 2330
dual 2330
mul@@ 2330
zer@@ 2330
Page" 2329
philosophy 2329
Jewish 2328
dark 2328
teachers 2328
(a 2327
Bank@@ 2327
foundations 2327
manager 2327
reform. 2326
Tus@@ 2325
hill@@ 2325
judg@@ 2325
oppos@@ 2325
clubs 2324
{@@ 2324
briefly 2322
keyword/phrase 2322
mou@@ 2322
offer. 2322
oned 2322
restrict 2322
websit@@ 2322
contextually, 2321
healthcare 2321
religion@@ 2321
skiing 2321
Industrial 2320
concert 2320
indirect 2320
F, 2319
Slovak@@ 2319
figh@@ 2319
shortly 2319
ys@@ 2319
Resolution 2318
faith 2318
sphere 2318
tiz@@ 2318
40% 2317
Dor@@ 2317
assistance. 2317
benefici@@ 2317
credible 2317
Tour 2316
authorized 2316
Mobile 2315
treati@@ 2315
shops, 2314
abili@@ 2313
complement 2313
confirms 2313
cope 2313
server@@ 2313
2000@@ 2312
ET 2312
ka@@ 2312
kan@@ 2312
subs@@ 2312
ING@@ 2311
subsidi@@ 2311
attitu@@ 2310
bloo@@ 2310
translated 2310
song 2309
tives. 2309
kn@@ 2308
asts 2307
defen@@ 2307
explicitly 2307
suites 2307
Street 2306
burg, 2306
disk 2306
him, 2306
pper 2306
y-to-@@ 2306
chron@@ 2305
underlined 2305
afford 2304
kil@@ 2304
unnecessary 2304
ame@@ 2303
minorities 2303
Commissioner. 2302
certification 2302
product. 2302
Or 2301
performing 2301
proportion@@ 2301
stars 2301
industr@@ 2300
tiveness 2300
bel 2299
initiative, 2299
y). 2299
Systems 2298
assessed 2298
ember. 2298
pool@@ 2298
prospec@@ 2298
Spain. 2297
Stabilisation 2297
access, 2297
constitution 2297
descrip@@ 2297
dian 2297
fat@@ 2297
begins 2296
Declaration 2295
Turkey. 2295
Alger@@ 2294
Sha@@ 2294
block@@ 2293
Front 2292
Second 2292
ake 2292
scho@@ 2292
99 2291
jurisdiction 2291
Gam@@ 2290
alising 2290
everybody 2290
examining 2290
framework, 2290
titude 2290
Ku@@ 2289
surprised 2289
advent@@ 2288
certified 2288
emb@@ 2288
beef 2287
speaker 2287
tangible 2287
typically 2287
Description: 2286
bedrooms 2286
orient@@ 2286
premium 2286
restored 2286
Who 2285
artist@@ 2285
attended 2285
bers 2285
dn@@ 2285
aus 2284
bis@@ 2284
dal@@ 2284
edited 2284
language. 2283
dependence 2282
expressly 2282
pillar 2282
chap@@ 2281
movie 2281
problem@@ 2281
wherever 2281
Mexico 2280
compatibility 2280
expanded 2280
r. 2280
body. 2279
closing 2279
treas@@ 2279
individually 2278
intelligent 2278
tech 2278
weal@@ 2278
Wednes@@ 2277
propos@@ 2277
demonstrates 2276
ght 2276
liquid@@ 2276
sovereign 2276
(7@@ 2275
Express 2275
prize 2275
dish@@ 2274
indicates 2273
whenever 2273
Tit@@ 2272
alcohol 2272
beneficial 2272
by. 2272
rates. 2272
shot 2272
strug@@ 2272
Christmas 2271
no-@@ 2271
observed 2271
ower 2271
undermine 2271
ía 2271
rent@@ 2270
unfortunately, 2270
BSE 2269
ing) 2269
need. 2269
shore 2269
porting 2268
purchasing 2268
sex 2268
Bush 2267
Georgia 2267
villages 2267
lad@@ 2266
led@@ 2266
mentioned, 2266
newspap@@ 2266
remarks 2266
risk. 2266
Goo@@ 2265
laying 2265
list. 2264
relations. 2264
studio 2264
Using 2263
ves@@ 2263
mechanical 2262
technologies. 2262
can't 2261
pers 2261
concer@@ 2260
weekend 2260
Moroc@@ 2259
firstly 2259
Bat@@ 2258
province 2258
ser 2258
xed 2258
factory 2257
money, 2257
Quar@@ 2256
Angel@@ 2255
Moz@@ 2255
Presidency. 2255
advise 2255
languages. 2255
overwhel@@ 2255
peti@@ 2255
Histor@@ 2254
Shar@@ 2254
attract 2254
integrity 2254
seas 2254
get@@ 2253
heavily 2253
moment. 2253
EESC 2252
P-@@ 2252
decisions. 2252
discipl@@ 2252
ells 2252
ism@@ 2252
ood 2252
120 2251
PD@@ 2251
application. 2251
ity: 2251
references 2251
PHP 2250
Mari@@ 2249
illeg@@ 2249
infrastructure, 2249
labor 2249
modernisation 2249
riding 2249
And, 2248
about. 2248
mir@@ 2248
reliability 2248
soil 2247
subject. 2247
undertak@@ 2247
detri@@ 2246
ican 2246
tings 2246
ger. 2245
Terms 2243
fel@@ 2243
America. 2242
Note: 2242
Bank, 2241
charge. 2241
war, 2241
Janu@@ 2240
destroy 2240
stresses 2240
deemed 2239
esti@@ 2239
staying 2239
.) 2238
Fl@@ 2238
Hungary, 2238
consumers, 2238
drinks 2238
publications 2238
1990 2237
inven@@ 2237
tto 2237
capabilities 2236
id, 2236
bigger 2235
div@@ 2235
priority. 2235
boasts 2234
chair 2234
maybe 2234
tell@@ 2234
achieved. 2233
achievements 2233
assurance 2232
broadband 2232
lands 2232
facilitating 2231
records 2230
SK@@ 2229
certainty 2229
es/@@ 2229
present. 2229
wed@@ 2229
>@@ 2228
featuring 2227
Bes@@ 2226
Maj@@ 2226
Olympic 2226
medicin@@ 2226
PO@@ 2225
implic@@ 2225
know-how 2225
prioriti@@ 2225
training. 2225
modules 2224
Peace 2223
ante 2223
Econom@@ 2221
omm@@ 2221
sco@@ 2221
trips 2221
unanim@@ 2221
withdrawal 2221
alco@@ 2220
denti@@ 2220
ity; 2220
Tre@@ 2219
disputes 2219
only. 2219
policy@@ 2219
sovereignty 2219
Met@@ 2218
alb@@ 2218
electri@@ 2218
natur@@ 2218
pressu@@ 2218
simplification 2218
´@@ 2218
borne 2217
Mus@@ 2216
aly@@ 2216
members. 2216
reve@@ 2216
Commission' 2215
dad 2215
interest, 2215
io@@ 2215
traditions 2215
agents 2214
cells 2214
min 2214
ys, 2214
IMF 2213
ays 2213
begun 2213
inspi@@ 2213
insufficient 2213
promoted 2213
rub@@ 2212
Innovation 2211
ate-@@ 2211
conveni@@ 2211
massage 2211
GR@@ 2210
Martin 2210
Mich@@ 2210
lowest 2210
publishing 2209
Europol 2208
garden@@ 2208
Reg@@ 2207
akan 2207
counts 2207
this@@ 2207
ITEMS 2206
Leban@@ 2206
App@@ 2204
Britain@@ 2204
Environmental 2204
thumbnail 2204
women's 2204
(as 2203
goods, 2203
landscap@@ 2203
tragic 2203
Industry 2202
partnerships 2202
procedures, 2202
Italy. 2201
entary 2201
foreseen 2201
merger 2201
ols 2201
Belarus 2200
Conserv@@ 2200
opinion. 2200
activity. 2199
ard. 2199
importance. 2199
Apart 2198
10-@@ 2197
Brazil 2197
align@@ 2197
wind@@ 2197
1993 2196
highligh@@ 2196
Dublin 2195
condemn 2195
fan 2195
firstly, 2195
ild@@ 2195
ando 2194
stakehol@@ 2194
Malta 2193
explanation 2193
300@@ 2192
cha@@ 2192
characteristic 2192
clas@@ 2192
continuously 2192
jeop@@ 2191
medicines 2191
tennis 2191
witness@@ 2191
consistently 2190
manual 2190
content. 2189
emphasised 2189
80% 2188
files. 2188
haus@@ 2188
vel 2188
Nordic 2187
changes. 2187
compan@@ 2187
danger@@ 2187
forth 2187
spi@@ 2187
Amend@@ 2186
Euro-Mediterranean 2186
attention. 2186
appoint@@ 2185
Family 2184
Fur@@ 2184
fans 2184
Prague 2183
blan@@ 2183
smart 2183
amendments. 2182
bicy@@ 2182
sle@@ 2182
Mark@@ 2181
contact: 2181
decentr@@ 2181
demographic 2181
excell@@ 2181
musici@@ 2181
GU@@ 2180
Stre@@ 2180
develo@@ 2180
distinction 2180
expanding 2180
whole, 2180
Mit@@ 2179
dic 2179
ente@@ 2179
to: 2179
uniqu@@ 2179
commerci@@ 2178
exemption 2178
exposure 2178
grav@@ 2178
inter-@@ 2178
lug@@ 2178
design. 2176
envisaged 2176
uch@@ 2176
Play@@ 2175
pursuing 2175
space. 2175
zu@@ 2175
elections. 2174
enlargement, 2174
Ass@@ 2173
ats, 2173
exac@@ 2173
Bav@@ 2172
Ear@@ 2172
harmonised 2172
investment, 2172
Governments 2171
chemicals 2171
disasters 2171
marri@@ 2171
of. 2171
Award 2170
Balkans 2170
UNION 2170
deligh@@ 2170
derived 2170
ä@@ 2170
Norway 2169
document@@ 2169
eter 2169
homes 2169
opinion@@ 2169
political, 2169
wer 2169
Nep@@ 2168
encryp@@ 2168
Climate 2167
materials, 2167
the-@@ 2167
sample 2166
қ@@ 2166
Fa@@ 2165
However 2165
fts@@ 2165
pit@@ 2165
Section 2164
Thir@@ 2164
Sit@@ 2163
farmer@@ 2163
ko 2163
nes@@ 2163
restruc@@ 2163
High@@ 2162
euros 2162
blocks 2161
debating 2161
further. 2161
vision@@ 2161
Ö@@ 2161
splendid 2160
A3@@ 2159
duplic@@ 2159
expense 2159
music, 2159
privileged 2159
stain@@ 2159
и 2159
Rotary 2158
connection, 2158
delays 2158
mono@@ 2158
surplus 2158
frequent 2157
reser@@ 2157
Music 2156
arranged 2156
« 2156
Direct 2155
ception 2155
sible 2155
(1) 2153
affordable 2153
edi@@ 2153
wat@@ 2153
aiming 2152
boot 2152
eled 2152
fic 2152
functionality 2152
wil@@ 2152
Bir@@ 2151
jur@@ 2151
meet@@ 2151
port. 2151
reas@@ 2151
TS 2150
capital. 2150
adult 2149
bonus 2149
refuge@@ 2149
42 2148
NO@@ 2148
President. 2148
SP 2148
atively 2148
chairman 2148
erous 2148
evident 2148
questions, 2148
Mel@@ 2147
ced 2147
peop@@ 2147
cases. 2146
criteria. 2146
loading 2146
}}) 2146
Online 2145
PS 2145
dol@@ 2145
fascinating 2145
infl@@ 2145
particul@@ 2145
stric@@ 2145
tropical 2145
pow@@ 2144
tea 2144
VER@@ 2143
adjusted 2143
ats@@ 2143
notification 2143
Head 2142
usi@@ 2142
!! 2141
Nor 2141
formation 2141
ple 2141
sizes 2141
Card 2140
online. 2140
qualities 2140
OTHER 2138
geous 2138
ki@@ 2138
societ@@ 2138
suppli@@ 2138
(2) 2137
B-@@ 2137
auf 2137
detail@@ 2137
small, 2137
winter@@ 2137
announce 2136
audiovisual 2136
interactive 2135
receives 2135
before. 2134
moder@@ 2134
own, 2134
Av@@ 2133
aches 2133
ager 2133
candi@@ 2133
peripher@@ 2133
reform, 2133
role. 2133
Lau@@ 2132
frequ@@ 2132
America’s 2131
TA@@ 2131
Zur@@ 2131
es), 2131
hope, 2131
transposition 2131
Dom@@ 2130
Partner@@ 2130
assist@@ 2130
equity 2130
modify 2130
much, 2130
scene 2130
tree 2130
Until 2129
broken 2129
bar. 2128
drinking 2127
underp@@ 2127
archi@@ 2126
globalis@@ 2126
Associ@@ 2125
er’s 2125
hiking 2125
pled 2125
refugee 2125
afternoon 2123
alism, 2123
deserves 2123
eigh@@ 2123
promises 2123
ATIONS 2122
ENT 2122
d’@@ 2122
Dal@@ 2121
conditional 2121
convention 2121
family, 2121
songs 2121
England 2120
Friday 2120
purchased 2120
assessing 2119
gallery 2119
preced@@ 2119
z. 2119
Iraqi 2118
Slovak 2118
checked 2118
coherence 2118
metro 2118
ра@@ 2118
care, 2117
initiative. 2117
signature 2117
elabor@@ 2116
pel 2116
PH@@ 2115
daugh@@ 2115
istic@@ 2115
EADS 2114
balcony 2114
free. 2114
ourselv@@ 2114
Dep@@ 2113
Pakistan 2112
million, 2112
public, 2112
2013. 2111
coverage 2111
tens 2111
Slovenia 2110
ee 2110
skilled 2110
Fil@@ 2109
genetic 2109
gling 2109
population, 2109
specialised 2109
viney@@ 2109
Michel 2108
atis@@ 2108
codecision 2108
gres@@ 2108
ild 2108
specialists 2108
usage 2108
mar 2107
materi@@ 2107
occupied 2107
postpon@@ 2107
Open@@ 2106
alli@@ 2106
incorrec@@ 2106
technologies, 2106
claimed 2105
explain@@ 2105
investigations 2105
Micro@@ 2104
Clear@@ 2103
Cul@@ 2103
expen@@ 2103
gain@@ 2103
raises 2103
tives, 2103
vote, 2103
I'@@ 2102
bed. 2102
businesses. 2102
crew 2102
hosp@@ 2102
n’t 2102
ona 2102
sculp@@ 2102
drafting 2101
enh@@ 2101
tro 2101
committee, 2100
foreig@@ 2100
organisations. 2100
airline 2099
investing 2099
injec@@ 2098
quantity 2098
kon@@ 2097
lives. 2097
terrible 2097
Fon@@ 2096
Town 2096
.0@@ 2095
Together 2095
sense, 2095
space, 2095
threshold 2095
GE@@ 2093
designated 2093
ECH@@ 2092
I. 2092
crime. 2092
deba@@ 2092
harm 2092
25% 2091
Oper@@ 2091
ably, 2091
apparent 2091
dam 2091
ese, 2091
ted@@ 2091
tick@@ 2091
verage 2091
Berlin@@ 2090
visits 2090
Greec@@ 2089
User 2089
outlined 2089
pie@@ 2089
protocol@@ 2089
troops 2089
bed, 2088
43 2087
delivering 2087
ni 2087
processes. 2087
vable 2087
Charles 2086
Journal 2086
advanta@@ 2086
belongs 2086
deployment 2086
gradual 2086
liberalis@@ 2086
secondly, 2086
coal 2085
festiv@@ 2085
turns 2085
better. 2084
escape 2084
goods. 2084
lean 2084
teleph@@ 2084
V. 2083
arrangement 2083
equip@@ 2083
villa 2083
:0@@ 2082
capital, 2082
classes 2082
contro@@ 2082
ior 2082
organize 2082
pool. 2082
poverty, 2082
transatlantic 2082
ank 2081
concerns. 2081
convinc@@ 2081
efficiently 2081
filter 2081
hand. 2081
modernis@@ 2081
pm 2081
Notes: 2080
accura@@ 2080
ceil@@ 2080
orial 2080
sat@@ 2079
depar@@ 2078
precious 2078
qualifications 2078
tomorrow. 2078
At@@ 2077
Kor@@ 2077
Tar@@ 2077
cancellation 2077
characters 2077
ideally 2077
illa 2077
rupt 2077
umb@@ 2077
cohes@@ 2076
didn't 2076
domain@@ 2076
ify 2076
relationships 2076
upcoming 2076
Island 2075
cid@@ 2075
desig@@ 2075
roll 2075
ART@@ 2074
tiles 2074
Ath@@ 2073
phenomenon 2073
posted 2073
transform@@ 2073
visions 2073
95 2072
assump@@ 2072
performance. 2072
tz@@ 2072
ums, 2072
Instead, 2071
choices 2071
ed? 2071
fix 2071
itarian 2071
affair@@ 2070
poverty. 2070
recall 2070
magaz@@ 2069
SU@@ 2068
consisting 2068
http://@@ 2068
(199@@ 2067
Kir@@ 2067
Syri@@ 2067
Wi-Fi 2067
colours 2067
examin@@ 2067
national@@ 2067
preventive 2067
themselves, 2067
underline 2067
dignity 2066
lively 2066
tively, 2066
var@@ 2066
Parliament’s 2065
Political 2065
adverse 2065
backed 2065
continuation 2065
ed; 2065
translat@@ 2065
urges 2065
Sel@@ 2064
ato@@ 2064
threatened 2064
Goth@@ 2063
Japan, 2063
ative. 2063
bureaucra@@ 2063
dispar@@ 2063
ester@@ 2063
ing/@@ 2063
instantly 2063
ller 2063
1970@@ 2062
ald 2062
box@@ 2062
France@@ 2061
adaptation 2061
downlo@@ 2061
furnish@@ 2061
lion 2061
spare 2061
computers 2060
consistency 2060
environ@@ 2060
mitted 2060
stain 2060
body, 2059
ma, 2059
offici@@ 2059
ped, 2059
India, 2058
adjust 2058
combin@@ 2058
future@@ 2058
victory 2058
eded 2057
measuring 2057
Iranian 2056
basically 2056
eless 2056
ema 2056
radio@@ 2056
removing 2056
good@@ 2055
Islam@@ 2054
dollar 2054
package. 2054
°@@ 2054
44 2053
labour@@ 2053
ol 2053
strike 2053
tedly 2053
Fol@@ 2052
Have 2052
act, 2052
branch 2052
concludes 2052
export@@ 2052
Japan@@ 2050
Spring 2050
announc@@ 2050
bright 2050
proportionate 2050
rank@@ 2050
shuttle 2050
tle, 2050
Next 2049
Prize 2049
a" 2049
identifying 2049
measurement 2049
things. 2049
tles 2049
usted 2049
arrange 2048
cigar@@ 2048
gir@@ 2048
Pet@@ 2047
back. 2047
telephone, 2047
tioned 2047
requirements, 2046
Subject: 2045
adopted, 2045
ailing 2045
ratified 2045
tenden@@ 2045
Kr@@ 2044
journe@@ 2044
play. 2044
standardis@@ 2044
vision, 2044
Protocol@@ 2043
Relations 2043
appoin@@ 2043
businesses, 2043
envis@@ 2043
ided 2043
specify 2043
doll@@ 2042
ousness 2042
underlines 2042
array 2041
reciproc@@ 2041
Kre@@ 2040
earth 2040
implement@@ 2040
tier 2040
"the 2039
Mr@@ 2039
budgets 2039
guest@@ 2039
slaugh@@ 2039
replacement 2037
Product 2036
characterised 2036
chose 2036
enced 2036
ilt 2036
prote@@ 2036
recognises 2036
sectoral 2036
Belar@@ 2034
Bio@@ 2034
Naz@@ 2034
warn@@ 2034
broadcast@@ 2033
ements 2033
name. 2033
religion 2033
suspended 2033
war. 2033
would, 2033
cosme@@ 2032
satis@@ 2032
EV@@ 2031
lis@@ 2031
styl@@ 2031
wes@@ 2031
Sho@@ 2030
empha@@ 2030
file. 2030
iron 2030
revi@@ 2030
Plaza 2029
Similarly, 2029
asi 2029
crises 2029
managers 2029
cycl@@ 2028
openness 2028
reinforced 2028
t! 2028
volunte@@ 2028
gs@@ 2027
practi@@ 2027
Bern@@ 2026
fer 2026
prevented 2026
stability. 2026
coo@@ 2025
knew 2025
sites, 2025
Dow@@ 2024
EEA 2024
Project 2024
Site 2024
incorporate 2024
ones, 2024
superb 2024
architectural 2023
taken. 2023
н 2023
Water 2022
hole 2022
ner. 2022
nobody 2022
PER@@ 2021
biodiversity 2021
prestigious 2021
IP/0@@ 2020
depri@@ 2020
dish 2020
ket, 2020
on: 2020
responsibili@@ 2020
retail@@ 2020
traffick@@ 2019
videos 2019
Guidelines 2018
argue 2018
bathing 2018
reimbur@@ 2018
sig@@ 2018
Curr@@ 2017
concentrated 2017
inadequate 2017
ves. 2017
Sunday 2016
are. 2016
belonging 2016
pin@@ 2016
sunny 2016
aled 2015
hold, 2015
home@@ 2015
posts 2015
Balkan@@ 2014
designs 2014
Jean-@@ 2012
Neighbourhood 2012
Person@@ 2012
Slovakia 2012
challenges. 2012
cks, 2012
governments, 2012
investigate 2012
Cub@@ 2011
nur@@ 2011
regulate 2011
surroundings 2011
Natur@@ 2010
billion. 2010
conjunction 2010
ured 2010
breaking 2009
ear 2009
elimin@@ 2009
event. 2009
software, 2009
by, 2008
caught 2008
ever. 2008
mouse 2008
pour 2008
certain@@ 2007
large-scale 2007
67@@ 2006
config@@ 2006
surprise 2006
wir@@ 2006
1:@@ 2005
Capital 2005
IONS 2005
board. 2005
was, 2005
cum@@ 2004
listening 2004
moves 2004
Any@@ 2003
gaining 2003
news@@ 2003
pho@@ 2003
400@@ 2002
Armen@@ 2002
Millennium 2002
building. 2002
invent@@ 2002
networks. 2002
beds. 2001
describes 2001
tailored 2001
Han@@ 2000
abolition 2000
foun@@ 2000
governed 1999
lays 1998
ok@@ 1998
philosoph@@ 1998
í 1998
colleague, 1997
securities 1997
subsidiar@@ 1997
Program@@ 1996
emerged 1996
fication, 1996
moreover, 1996
publicly 1996
shower@@ 1996
discount 1995
graphy 1995
lands, 1995
media, 1995
Mur@@ 1994
establishes 1994
vis 1994
zens 1994
Ur@@ 1993
Working 1993
assi@@ 1993
catastro@@ 1993
tion; 1993
MEMO/@@ 1992
Vel@@ 1992
controlling 1992
adequately 1991
birth@@ 1991
dest@@ 1991
hill 1991
magazine 1991
reduces 1991
transparency, 1991
SME@@ 1990
USD 1990
implementation. 1990
jan@@ 1990
stories 1990
val, 1990
effective. 1989
rar@@ 1989
Sev@@ 1988
custom 1988
opping 1988
portal 1988
bann@@ 1987
delete 1987
like, 1987
oh@@ 1987
tile 1987
profes@@ 1986
sw@@ 1986
tioning 1986
ables, 1985
ests 1985
-to-@@ 1984
Government, 1984
Paris, 1984
Via 1984
auto@@ 1984
cular 1984
man. 1984
measure@@ 1984
mouth 1984
sand 1984
BS@@ 1983
Secretary, 1983
gains 1983
ith@@ 1983
keeps 1983
Poli@@ 1982
engines 1982
half-@@ 1982
stake 1982
univer@@ 1982
works. 1982
Eri@@ 1981
Luxem@@ 1981
community, 1981
kid@@ 1981
legitimacy 1981
seaf@@ 1981
ageing 1979
giv@@ 1979
peace. 1979
innovation. 1978
integration, 1978
plur@@ 1978
profit@@ 1978
safe, 1978
spr@@ 1978
IP/@@ 1977
ester 1977
fitted 1977
house, 1977
ignore 1977
populations 1977
snow 1977
tter@@ 1977
Cyprus, 1976
genetically 1976
indication 1976
pen 1976
word@@ 1976
am. 1975
dial 1975
relie@@ 1975
occasion@@ 1974
Hy@@ 1973
Republic@@ 1973
dens 1973
rolling 1973
Cri@@ 1972
Produc@@ 1972
abil@@ 1972
ault 1972
fallen 1972
meal 1972
sake 1972
Flash 1971
decade 1971
girls 1971
parliament 1971
stick 1971
S) 1970
busy 1970
enci@@ 1970
secur@@ 1970
trans-European 1970
Bar 1969
Jun@@ 1969
handl@@ 1969
isten@@ 1969
cere@@ 1968
reading. 1968
thanking 1968
tima@@ 1968
Secretary-@@ 1967
afraid 1967
autumn 1967
Hall 1966
Resort 1966
campaigns 1966
gardens 1966
obtaining 1966
pel@@ 1966
plan, 1966
ra, 1966
adopted. 1965
experiencing 1965
flying 1965
see: 1965
Development, 1964
Ol@@ 1964
attain@@ 1964
converted 1964
earthqu@@ 1964
hospitality 1964
kes@@ 1964
ECT@@ 1963
Maastricht 1963
stance 1963
warmly 1963
TV@@ 1962
abor@@ 1962
below@@ 1962
dialogue, 1962
regulations. 1962
think, 1962
Server 1960
cool 1960
het 1960
ket@@ 1960
Earth 1959
beings 1959
down, 1959
her. 1959
remark@@ 1959
sive. 1959
Equ@@ 1958
accommodate 1958
implemented. 1958
launching 1957
planet 1957
Ombuds@@ 1956
carri@@ 1956
ple, 1956
Monday 1955
Team 1955
alizing 1955
eine 1955
rescue 1955
s” 1955
views. 1955
clarity 1954
fi 1954
realize 1954
deaths 1953
integrating 1953
Again@@ 1952
levels, 1952
permission 1952
unanimously 1952
Video 1951
food. 1951
fore 1951
mitig@@ 1951
nex 1951
justice. 1950
sites. 1950
tribute 1950
60% 1949
Tom@@ 1949
Wat@@ 1949
atures 1949
dead 1949
linguistic 1949
lun@@ 1949
nov@@ 1949
react 1949
therap@@ 1949
Hostelsclub. 1948
Personal 1948
promotes 1948
ania 1947
estimate 1947
intense 1947
reflection 1947
uting 1947
Lis@@ 1946
R&@@ 1946
program. 1946
Academy 1945
com. 1945
pression 1945
recycling 1945
tracks 1945
1.5 1944
Sy@@ 1944
chief 1944
procedural 1944
season@@ 1944
assemb@@ 1943
ights 1943
residents 1943
2nd 1942
F. 1942
arious 1942
desk 1942
lem@@ 1942
seats 1942
configura@@ 1941
phones 1941
Cast@@ 1940
care. 1940
result. 1940
values, 1940
yle 1940
88@@ 1939
ardi@@ 1939
chocol@@ 1939
extrac@@ 1939
gram@@ 1939
ired 1939
licence 1939
push@@ 1939
style. 1939
twenty 1939
ored 1938
10/@@ 1937
66@@ 1937
consoli@@ 1937
ingredients 1937
necessity 1937
ront 1937
Feder@@ 1936
estimates 1936
monthly 1936
consulted 1935
hesitate 1935
occasions 1935
sandy 1935
up-to-date 1935
ator. 1934
choice. 1934
confidential 1934
41 1933
booked 1933
require@@ 1933
Initiative 1932
calm 1932
prisoners 1932
ved@@ 1932
acknowledged 1931
before, 1931
check-@@ 1931
marking 1931
mes 1931
65@@ 1930
Romania, 1930
adily 1930
diction 1930
Arch@@ 1929
Standard 1929
collapse 1929
dos 1929
employers 1929
excess 1929
itan 1929
reviewed 1929
transnational 1929
materials. 1928
stayed 1928
kernel 1927
Inst@@ 1925
deserve 1925
goo@@ 1925
izes 1925
refurb@@ 1925
atives. 1924
calculated 1924
spon@@ 1924
55@@ 1923
game. 1923
James 1922
alone. 1922
uncertainty 1922
Arc@@ 1921
duction 1921
missed 1921
ong@@ 1921
take@@ 1921
zero 1921
Casino 1920
account, 1920
ander 1920
ez 1920
feed@@ 1920
hair@@ 1920
hn@@ 1920
Square 1919
split 1919
aes@@ 1918
ates. 1918
ations: 1918
implies 1918
Articles 1917
lin 1917
lod@@ 1917
necess@@ 1917
omen 1917
YO@@ 1916
lifest@@ 1916
participated 1916
1998, 1915
commerce 1915
countryside 1915
loaded 1915
observation 1915
persecu@@ 1915
English, 1914
Note 1914
dings 1914
traff@@ 1914
complaint 1913
DN@@ 1912
Doha 1912
Thus 1912
avoiding 1912
depart@@ 1912
see, 1912
convince 1911
exploit 1911
Directives 1910
beer 1910
champ@@ 1910
installations 1910
stability, 1910
arrest 1909
bet 1909
combining 1909
ist. 1909
means, 1909
2014 1908
Fig@@ 1908
ent-@@ 1908
compare 1907
dischar@@ 1907
preparatory 1907
Macedonia 1906
meeting, 1906
(such 1905
Jan@@ 1905
Rec@@ 1905
tle@@ 1905
SC@@ 1904
coura@@ 1904
fec@@ 1904
medicinal 1904
satisfactor@@ 1904
adher@@ 1903
connecting 1903
determining 1903
ow 1903
unprecedented 1903
Be 1902
Beach 1902
Tourism 1902
concern. 1902
crime, 1902
gather@@ 1902
keen 1902
Three 1901
afterno@@ 1901
inhabit@@ 1901
Manager 1900
practically 1900
Convention. 1899
Today's 1899
debated 1899
iler 1899
passenger@@ 1899
releases 1899
treatment. 1899
camp 1898
ela 1898
favourite 1898
ij@@ 1898
round@@ 1898
turing 1898
etary 1897
m² 1897
negar@@ 1897
Centre, 1896
Lim@@ 1896
purpo@@ 1896
script 1896
Budgetary 1895
Competition 1895
José 1895
Rap@@ 1895
cloth@@ 1895
founding 1895
considerations 1894
displaced 1894
ford 1894
pregn@@ 1894
tely, 1894
Instead 1893
engagement 1893
enterprises. 1893
expressing 1893
handed 1893
os. 1893
quest 1893
å@@ 1893
ы 1893
Level 1892
defici@@ 1892
explains 1892
hectar@@ 1892
1991 1891
BC 1891
Hil@@ 1891
Sup@@ 1891
language, 1891
month@@ 1891
pro-@@ 1891
reality, 1891
robust 1891
struction 1891
unlikely 1891
ör@@ 1891
Customer 1890
Islands 1890
deficits 1890
this: 1890
volcan@@ 1890
Romanian 1889
incur@@ 1889
prop@@ 1889
(10@@ 1888
join@@ 1888
points, 1888
dialogue. 1887
reforms. 1887
stein 1887
subject, 1887
ku@@ 1886
sauna 1886
sta 1886
subscri@@ 1886
-European 1885
Denmark, 1885
Prodi 1885
dir@@ 1885
sporting 1885
d.@@ 1884
false 1884
interinstitutional 1884
refresh@@ 1884
scenari@@ 1884
transmitted 1884
siz@@ 1883
tened 1883
transformation 1883
utiliz@@ 1883
ari 1882
avoid@@ 1882
media. 1882
rand@@ 1882
East@@ 1881
I-@@ 1881
Rooms 1881
decrease 1881
lement 1881
generous 1880
priorities. 1880
responses 1880
Non-Smoking 1879
Vice 1879
cultures 1879
pensions 1879
simultaneously 1879
85 1878
petition 1878
solved 1878
ALL@@ 1877
Egypt 1877
artificial 1877
importantly, 1877
abul@@ 1876
or-@@ 1876
Pay@@ 1875
appar@@ 1875
elections, 1875
network, 1875
ен@@ 1875
langu@@ 1874
С@@ 1874
committee. 1873
mature 1873
proving 1873
Inv@@ 1872
decent 1872
effect, 1872
logic 1872
schol@@ 1872
setu@@ 1872
spic@@ 1872
ste 1872
breakfast, 1871
complementary 1871
hazardous 1871
index 1871
joy 1871
rat@@ 1871
returning 1871
Communist 1870
eting 1870
"). 1869
casino 1869
pione@@ 1869
toile@@ 1869
eff@@ 1868
extends 1868
home, 1868
navig@@ 1868
notify 1868
techniqu@@ 1868
needs, 1867
social, 1867
T. 1866
fication. 1866
paragraph@@ 1866
rev@@ 1866
bath@@ 1865
grand@@ 1865
land: 1864
Green@@ 1863
children's 1863
non-governmental 1863
plan. 1863
table. 1863
Bou@@ 1862
I'm 1862
convert 1862
Canc@@ 1861
Child@@ 1861
Sweden, 1861
act@@ 1861
actor 1861
apparently 1861
orientation 1861
dossi@@ 1860
eve 1860
istent 1860
Mach@@ 1859
beau@@ 1859
deca@@ 1859
energi@@ 1859
pending 1859
tural 1859
10, 1858
Dri@@ 1858
lobby 1858
opportunities. 1858
tast@@ 1858
unusual 1858
Intel@@ 1857
aire 1857
meeting. 1857
part. 1857
privatis@@ 1857
xide 1857
a), 1856
consist 1856
context. 1856
ty-@@ 1856
Budget 1855
Region 1855
guil@@ 1855
invested 1855
Natural 1854
PARTICIPANTS 1854
challenging 1854
gene@@ 1854
handled 1854
speech@@ 1854
unlike 1854
Administra@@ 1853
dominated 1853
ika 1853
objectiv@@ 1853
prob@@ 1853
tes, 1853
discriminatory 1852
interests, 1852
model. 1852
solv@@ 1852
tion) 1852
dies. 1851
inland 1851
Agriculture, 1850
anticip@@ 1850
progress, 1850
steam 1850
Recommend@@ 1849
height 1849
le: 1849
may@@ 1849
persons. 1849
pet 1849
returns 1849
roy@@ 1849
shortcomings 1849
unemployed 1849
unk@@ 1849
wom@@ 1849
Gulf 1848
Life 1848
att@@ 1848
winners 1848
ativ@@ 1847
constra@@ 1847
ENTS 1846
bert 1846
solving 1846
Pon@@ 1845
approxim@@ 1845
cancel 1845
ches, 1845
taxi 1845
untuk 1845
}@@ 1845
EFTA 1844
Mas@@ 1844
choosing 1844
ensured 1844
family-@@ 1844
socio-economic 1844
ssi@@ 1844
sus 1844
t" 1844
EW 1843
St 1843
admit 1843
arbitrary 1843
cruci@@ 1843
ille 1843
istri@@ 1843
operations. 1843
2007-@@ 1842
ating. 1842
eurozone 1842
heim@@ 1842
owing 1842
set, 1842
tici@@ 1842
Vene@@ 1841
help@@ 1841
helpful. 1841
ied 1841
ord 1841
stood 1841
tiqu@@ 1841
Cup 1840
fes@@ 1840
horse 1840
intervene 1840
Convention, 1839
Fund, 1839
ROM 1839
Super@@ 1839
enchan@@ 1839
household 1839
prominent 1839
state-of-the-art 1839
1997, 1838
Obama 1838
agen@@ 1838
enterprises, 1838
expan@@ 1838
op 1838
clou@@ 1837
par 1837
top-@@ 1837
twelve 1837
о 1837
Kingdom, 1836
L. 1836
bow@@ 1836
countr@@ 1836
mine 1836
miss@@ 1836
vess@@ 1836
Java 1835
competences 1835
impris@@ 1835
set. 1835
interaction 1834
journalists 1834
ome@@ 1834
99@@ 1833
Europ@@ 1833
budge@@ 1833
calendar 1833
empty 1833
penalties 1833
repor@@ 1833
roof 1833
Strasbourg 1832
USS@@ 1832
evolution 1832
needed, 1832
prosper@@ 1832
website: 1832
Tues@@ 1831
appreci@@ 1831
networks, 1831
civili@@ 1830
just@@ 1830
solutions, 1830
Fle@@ 1829
atives, 1829
inde@@ 1829
motorway 1829
powered 1829
(Christian 1828
Regarding 1828
ais 1828
boats 1828
cheap@@ 1828
corner@@ 1828
developers 1828
month. 1828
newsletter 1828
Pu@@ 1827
State@@ 1827
ani 1827
pot 1827
Finland, 1826
Maritime 1826
Pakist@@ 1826
campaign@@ 1826
concern@@ 1826
proximity 1826
settled 1826
controll@@ 1825
por 1825
Guine@@ 1824
chem@@ 1824
East, 1823
SD@@ 1823
roughly 1823
sor 1823
Committe@@ 1822
batter@@ 1822
measured 1822
mind. 1822
Follow 1821
accompanying 1821
emissions. 1821
gle@@ 1821
rate, 1821
ux 1821
ал@@ 1821
DV@@ 1820
collap@@ 1820
generations 1820
propag@@ 1820
safeguarding 1820
Lithuan@@ 1819
Nav@@ 1819
Stockholm 1819
depth 1819
solution, 1819
Bru@@ 1818
inno@@ 1818
interoper@@ 1818
occupation 1818
treatments 1818
addi@@ 1817
dramati@@ 1817
EUR@@ 1816
Stor@@ 1816
aries, 1816
conflict. 1816
e' 1816
entities 1816
ton, 1816
volum@@ 1816
3rd 1815
instruments. 1815
oll 1815
M, 1814
Presidenc@@ 1814
abund@@ 1814
airport. 1814
Obvi@@ 1813
Thomas 1813
consolidate 1813
invitation 1813
.: 1812
2011. 1812
acy. 1812
neutr@@ 1812
respects 1812
tempor@@ 1812
Gri@@ 1811
Rhin@@ 1811
analyses 1811
emphas@@ 1811
semi-@@ 1811
uncertain@@ 1811
dairy 1810
Check-@@ 1809
crossing 1809
heated 1809
offen@@ 1809
press@@ 1809
servers 1809
sk 1809
statis@@ 1809
Berlin, 1808
ats. 1808
convic@@ 1808
deriv@@ 1808
details. 1808
homo@@ 1808
ite. 1808
open-@@ 1808
quet 1808
signals 1808
Bulgarian 1807
abroad. 1807
an's 1807
circumstances. 1807
appropriate, 1806
defaul@@ 1806
ik 1806
ve-@@ 1806
G-@@ 1805
assessments 1805
one’s 1805
principle. 1805
tissu@@ 1805
violence. 1805
Pro 1804
Thursday 1804
cili@@ 1804
machinery 1804
reti@@ 1804
900@@ 1803
Well, 1803
autonomous 1803
effective, 1803
tough 1803
bathroom, 1802
commonly 1802
finally, 1802
pru@@ 1802
Az@@ 1801
accumul@@ 1801
cav@@ 1801
ener@@ 1801
quanti@@ 1801
URE 1800
[ 1800
analyse 1800
ange 1800
elle 1800
remedy 1800
ер@@ 1800
Men@@ 1799
iling 1799
leav@@ 1799
transl@@ 1799
aer@@ 1798
partially 1798
ya, 1798
Here, 1797
catalogue 1797
disman@@ 1797
transp@@ 1797
Ag@@ 1796
Agreement, 1796
apar@@ 1796
contamin@@ 1796
frame@@ 1796
kitchen, 1796
mining 1796
notion 1796
Country 1795
TEN@@ 1795
alism. 1795
c) 1795
enhanc@@ 1795
conve@@ 1794
imperi@@ 1794
technique 1794
tivi@@ 1794
Catal@@ 1793
East. 1793
Febru@@ 1793
Las 1793
abstain@@ 1793
aders 1793
competitiveness. 1793
decisions, 1793
keys 1793
oes 1793
Sudan@@ 1792
clothing 1792
differ 1792
icon@@ 1792
ield 1792
ison 1792
lah 1792
pling 1792
broch@@ 1791
cks. 1791
feels 1791
gel 1791
Assist@@ 1790
Universit@@ 1790
centuries 1790
ically, 1790
BER@@ 1789
Cra@@ 1789
arge 1789
capture 1789
oil@@ 1789
favor@@ 1788
patri@@ 1788
Mexi@@ 1787
Power 1787
ale, 1787
baby 1787
ceas@@ 1787
characterized 1787
checking 1787
introduces 1787
limiting 1787
tells 1787
College 1786
ck-@@ 1786
Find 1785
II, 1785
fashion@@ 1785
gift 1785
instruments, 1785
teenth 1785
therapy 1785
zes 1785
Champ@@ 1784
NI 1784
entity 1784
rational 1784
Cli@@ 1783
Employ@@ 1783
Secur@@ 1783
airport@@ 1783
prison 1783
quickly. 1783
encomp@@ 1782
inquiry 1782
Iraq, 1781
ac 1781
demo@@ 1781
neighbourhood 1781
terra@@ 1781
tics. 1781
ts? 1781
° 1781
Chief 1780
painting 1780
sharp 1779
}} 1779
Cho@@ 1778
News 1778
comfort@@ 1778
fax 1778
fts 1778
46 1777
mistake 1777
ope 1777
quantities 1777
sessions 1777
uro@@ 1777
Israel@@ 1776
degra@@ 1776
ан@@ 1776
Land@@ 1775
real-@@ 1775
results, 1775
reven@@ 1775
wishing 1775
works, 1775
Chem@@ 1774
Deposit 1774
Internet, 1774
accepting 1774
immediately. 1774
ins, 1774
reports, 1774
ô@@ 1774
Golden 1773
Presidents 1773
ative@@ 1773
exhau@@ 1773
ron 1773
face, 1772
wed. 1772
Cir@@ 1771
Set 1771
Str@@ 1771
chil@@ 1771
iers 1771
secut@@ 1771
tolerance 1771
variable 1770
ECO@@ 1769
efficiency, 1768
fs 1768
prosecu@@ 1768
quote 1768
server. 1768
talked 1768
dition 1767
succe@@ 1767
RELEASE 1766
dn't 1766
alone, 1765
recover 1765
Brussels. 1764
Castle 1764
anch@@ 1764
catering 1764
cil@@ 1764
Bulgaria, 1763
Caribbean 1763
adver@@ 1763
favorite 1763
files, 1763
ical, 1763
pays 1763
've 1762
18th 1762
Lithuania 1762
efforts. 1762
nois@@ 1762
pig@@ 1762
repl@@ 1762
33@@ 1761
Califor@@ 1761
Women@@ 1761
moments 1761
ter-@@ 1761
why, 1761
Frankfur@@ 1760
Saturday 1760
accepts 1760
assured 1760
borders, 1760
music. 1760
optical 1760
sq@@ 1760
Norway, 1759
Procedure 1759
Span@@ 1759
cancelled 1759
infrastructure. 1759
tent@@ 1759
MySQL 1758
Training 1758
dern 1758
profound 1758
research@@ 1758
trains 1758
ESS@@ 1757
Valley 1757
bug 1757
Blue 1756
arm 1756
ins. 1756
iry 1756
wide-@@ 1756
acces@@ 1755
ato 1755
imagin@@ 1755
logistics 1755
request, 1755
ety 1754
ih@@ 1754
irre@@ 1754
winner 1754
Los 1753
recommends 1753
scener@@ 1753
W. 1752
fortunately 1752
ish. 1752
office, 1752
sac@@ 1752
smoking 1752
tee 1752
tum@@ 1752
Asia, 1751
Hamburg 1751
Player 1751
approves 1751
athedral 1751
certificate 1751
impetus 1751
reading, 1751
restoration 1751
rough@@ 1751
й@@ 1751
applications, 1750
bad@@ 1750
fully, 1750
isolated 1750
istan 1750
suspici@@ 1750
her, 1749
pragmati@@ 1749
purpos@@ 1749
Basi@@ 1748
Games 1748
Ret@@ 1748
matters, 1748
racing 1748
Richard 1747
Road 1747
al: 1747
broadly 1747
if, 1747
ix@@ 1747
:30 1746
Asi@@ 1746
L, 1746
another, 1746
either. 1746
ers’ 1746
headquarters 1746
ruled 1746
territory. 1746
12/@@ 1745
affir@@ 1745
safeguards 1745
y), 1745
(2@@ 1744
Reform 1744
ished. 1744
zy@@ 1744
Total 1743
angle 1743
ars, 1743
mini-@@ 1743
simplified 1743
stopped 1743
supplier@@ 1743
trage@@ 1743
ée 1742
brand@@ 1741
gli@@ 1741
nia 1741
office. 1741
ple: 1741
referend@@ 1741
honest 1740
ings@@ 1740
later. 1740
preserved 1740
provinc@@ 1740
radic@@ 1740
Dialo@@ 1739
Gor@@ 1739
Theat@@ 1739
aries. 1739
communication, 1739
og@@ 1739
preme 1739
reflec@@ 1739
relations, 1739
securing 1739
suspension 1739
D-@@ 1738
Nap@@ 1738
Syria 1738
aming 1738
hus@@ 1738
Dou@@ 1737
ision 1737
kers 1737
stem 1737
Cau@@ 1736
demonstration 1736
ex 1736
stringent 1736
tis 1736
Auto@@ 1735
conv@@ 1735
jac@@ 1735
я@@ 1735
Make 1734
Storage, 1734
Third 1733
conferences 1733
expenses 1733
porte@@ 1733
subscribe 1733
Criminal 1732
Salz@@ 1732
T, 1732
Ukraine, 1732
alog 1732
downloaded 1732
ent: 1732
uli@@ 1732
violence, 1732
DS 1731
R. 1731
TAC@@ 1731
align 1731
rations 1731
shaped 1731
4,@@ 1730
Enterpris@@ 1730
Guaran@@ 1730
ce: 1730
dedic@@ 1730
male 1730
mirror@@ 1730
poker 1730
purpose. 1730
string 1730
theatre 1730
al) 1729
art, 1729
convers@@ 1729
exploring 1729
foodstuff@@ 1729
incompatible 1729
intelligence 1729
ock 1729
unanimous 1729
ys. 1729
effectively. 1728
four@@ 1728
grew 1728
reforms, 1728
Louis 1727
ology. 1727
unemployment, 1727
discover@@ 1726
rose 1726
you! 1725
Jord@@ 1724
Nonetheless, 1724
ambition 1724
approx. 1724
authors 1724
enterpris@@ 1724
euro. 1724
Liby@@ 1723
efficiency. 1723
layout 1723
ues 1723
explan@@ 1722
gin 1722
grand 1722
medicine 1722
refra@@ 1722
Singapor@@ 1721
Vic@@ 1721
X-@@ 1721
1). 1720
Studio 1720
citizens@@ 1720
no. 1720
ships. 1720
elsewhere 1719
glu@@ 1719
illu@@ 1719
lier 1719
UK, 1718
asion 1718
desper@@ 1718
of-@@ 1718
ž@@ 1718
Domin@@ 1717
east@@ 1717
generating 1717
interrup@@ 1717
pattern 1717
Australia 1716
contrast, 1716
enrich@@ 1716
obile 1716
changes, 1715
forming 1715
responsibility, 1715
strive 1715
EMS 1714
accelerate 1714
aller 1714
museums 1714
old, 1714
speed@@ 1714
zen@@ 1714
expresses 1713
ilding 1713
ite@@ 1713
linking 1713
potenti@@ 1713
sad@@ 1713
voices 1713
Agricultural 1712
announcement 1712
buses 1712
existen@@ 1712
ied@@ 1712
21st 1711
Pin@@ 1711
authentic 1711
ent's 1711
indigenous 1711
vertical 1711
Treat@@ 1710
cleared 1710
cm 1710
peri@@ 1710
rum@@ 1710
su 1710
amed 1709
drafted 1709
rates, 1709
sympa@@ 1709
24-@@ 1708
Addition@@ 1708
Represent@@ 1708
aircra@@ 1708
celebrate 1708
cla@@ 1708
forest@@ 1708
monitored 1708
Augu@@ 1707
Martin@@ 1707
She@@ 1707
vo 1707
involved, 1706
judici@@ 1706
9% 1705
ERD@@ 1705
Mul@@ 1705
feedback 1705
light@@ 1705
Jon@@ 1704
answered 1704
boards 1704
thr@@ 1704
campaig@@ 1703
changed. 1703
color@@ 1703
enforce 1703
exo@@ 1703
expe@@ 1703
paths 1703
regime. 1703
thoroughly 1703
GB 1702
SC 1702
diversit@@ 1702
validity 1702
Iran@@ 1701
Mac 1701
ars. 1701
bureaucratic 1701
exhibi@@ 1701
sur 1701
tank@@ 1701
Azer@@ 1700
Bar, 1700
Red_marquis 1700
aded 1700
conformity 1700
objective. 1700
t/@@ 1700
tension 1700
24-Hour 1699
Gaza 1699
Sustainable 1699
della 1699
dimensions 1699
fought 1699
relaxed 1699
socie@@ 1699
studi@@ 1699
verify 1699
user(s) 1698
1998. 1697
Found@@ 1697
eable 1697
resul@@ 1697
Restaurant, 1696
circulation 1696
essor 1696
furnit@@ 1696
third-country 1696
Cel@@ 1695
hik@@ 1695
Ly@@ 1694
company's 1694
dev@@ 1694
jour@@ 1694
package, 1694
sl@@ 1694
vely, 1694
continental 1693
develops 1693
drew 1693
fifteen 1693
floor. 1693
pla@@ 1693
shir@@ 1693
Budge@@ 1692
Commission: 1692
Gran 1692
confidentiality 1692
e), 1692
free-@@ 1692
lifelong 1692
pesti@@ 1692
product, 1692
rig@@ 1692
USS 1691
activity, 1691
deterior@@ 1691
innovations 1691
proliferation 1691
race, 1691
150@@ 1690
Room@@ 1690
Treati@@ 1690
hotels, 1690
interpret@@ 1690
restaurant. 1690
POLICY 1689
Window@@ 1689
feet 1689
house. 1689
need, 1689
ifying 1688
turn@@ 1688
correction 1687
lights 1687
wake 1687
alternatives 1686
burg. 1686
decision-@@ 1686
ta. 1686
condemned 1685
dimension@@ 1685
funding. 1685
intergovernmental 1685
staff@@ 1685
tary 1685
p.@@ 1684
que@@ 1684
sleep 1684
such, 1684
tragedy 1684
2013, 1683
advisory 1683
assumed 1683
compani@@ 1683
complexity 1683
help. 1683
hospital 1683
practices. 1683
precision 1683
reiterate 1683
Car 1682
displays 1682
far. 1682
reverse 1682
separation 1682
tier@@ 1682
banks, 1681
coinci@@ 1681
ment; 1681
odi@@ 1681
speeches 1681
telling 1681
Peti@@ 1680
Real 1680
Supervisory 1680
propor@@ 1680
rejection 1680
ash 1679
bone 1679
charac@@ 1679
four-@@ 1679
free, 1679
ily, 1679
morning, 1679
urged 1679
wheel 1679
ditions 1678
diving 1678
proof@@ 1678
transi@@ 1678
uti@@ 1678
arom@@ 1677
defending 1677
explicit 1677
pair 1677
plen@@ 1677
stops 1677
Poker 1676
dialog 1676
vicin@@ 1676
à@@ 1676
Berlin. 1675
F-@@ 1675
fare 1675
goti@@ 1675
ility 1675
migrants 1675
multimedia 1675
peak 1675
posing 1675
preser@@ 1675
Catho@@ 1674
Func@@ 1674
Techn@@ 1674
codes 1674
it? 1674
knowledge, 1674
magnetic 1674
margin 1674
rewar@@ 1674
exclude 1673
farms 1673
UT 1672
adul@@ 1672
entran@@ 1672
time-@@ 1672
you’@@ 1672
Humanitarian 1671
Muse@@ 1671
details, 1671
Č@@ 1671
Initi@@ 1670
tomorrow, 1670
vent 1670
zones 1670
O-@@ 1669
away, 1668
flag 1668
hoped 1668
70% 1667
cr@@ 1667
hes@@ 1667
Anti-@@ 1666
Beau@@ 1666
declarations 1666
electro@@ 1666
modes 1666
mol@@ 1666
optimum 1666
recor@@ 1666
card. 1665
colle@@ 1665
cost. 1665
filling 1665
goals. 1665
ishes 1665
licens@@ 1665
rapid@@ 1665
remuner@@ 1665
sia 1665
tack@@ 1665
turn, 1665
yr@@ 1665
Fund. 1664
Further@@ 1664
UB@@ 1664
escal@@ 1664
model, 1664
nec@@ 1664
reads 1664
clinical 1663
politic@@ 1663
vous 1663
Andre@@ 1662
Luggage 1662
allevi@@ 1662
authentic@@ 1661
influenced 1661
musi@@ 1661
pled@@ 1661
worrying 1661
No. 1660
cities. 1660
conditioning 1660
hospital@@ 1660
irrespective 1660
territories 1660
weeks. 1660
Tex@@ 1659
abilities. 1659
gall@@ 1659
zer 1659
US. 1658
crops 1658
ents@@ 1658
extent, 1658
stores 1658
taught 1658
47 1657
RES@@ 1657
Som@@ 1657
Switzerland. 1657
automated 1657
board, 1657
clearer 1657
worth@@ 1657
Customs 1656
O'@@ 1656
confin@@ 1656
denied 1656
five-@@ 1656
revenues 1656
EA 1655
ONT@@ 1655
ana, 1655
ello 1655
forgotten 1655
15% 1654
Consi@@ 1654
EM 1654
Inc. 1654
convenience 1654
copies 1654
olo 1654
rapporteur's 1654
refusal 1654
self@@ 1654
short-@@ 1654
solu@@ 1654
(Parliament 1653
Luxembourg, 1653
charm 1653
2012. 1652
X, 1652
compos@@ 1652
obvi@@ 1652
permits 1652
sure, 1652
translate 1652
Mau@@ 1651
PPE-DE 1651
affec@@ 1651
customers, 1651
high-level 1651
transformed 1651
Argent@@ 1650
albeit 1650
Palestinians 1649
Port 1649
analysis, 1649
descri@@ 1649
documents, 1649
summary 1649
tail 1649
A.@@ 1648
Tem@@ 1648
dinner@@ 1648
gathered 1648
ires 1648
offset 1648
Which 1647
a). 1647
firm@@ 1647
id. 1646
m) 1646
registra@@ 1646
tening 1646
Á@@ 1646
AR 1645
Os@@ 1645
ador@@ 1645
high-speed 1645
receipt 1645
Ireland. 1644
accused 1644
capacities 1644
fortun@@ 1644
recomm@@ 1644
susp@@ 1644
Auditor@@ 1643
Morocco 1643
SCH@@ 1643
meals 1643
plain@@ 1643
systematically 1643
trou@@ 1643
width 1643
5-0@@ 1642
Stra@@ 1642
patterns 1642
distortions 1641
hl@@ 1641
initiate 1641
promis@@ 1641
.org 1640
Committee. 1640
Mechan@@ 1640
bab@@ 1640
consultative 1640
adventure 1639
appreciation 1639
cogn@@ 1638
macro-@@ 1638
motions 1638
weekly 1638
Pho@@ 1637
Squar@@ 1637
computer. 1637
enter@@ 1637
profi@@ 1637
sorry 1637
Force 1636
cher@@ 1636
desc@@ 1636
emissi@@ 1636
eni@@ 1636
fully. 1636
hills 1636
matic 1636
ov 1636
se-@@ 1636
IES 1635
Itali@@ 1635
Mountain@@ 1635
VII@@ 1635
argued 1635
consolidated 1635
finest 1635
frustra@@ 1635
night, 1635
tin 1635
vacu@@ 1635
Champion@@ 1634
morning. 1634
protest 1634
AIDS 1633
ación 1633
aris@@ 1633
ely. 1633
lingu@@ 1633
oning 1633
(4@@ 1632
bs, 1632
island. 1632
novel 1632
thin 1632
Bay@@ 1631
Kore@@ 1631
assistance, 1631
barri@@ 1631
off. 1631
reaches 1631
Korean 1630
bonds 1630
completing 1630
essenti@@ 1630
Round 1629
bak@@ 1629
dents 1629
rigi@@ 1629
voters 1629
$ 1628
Interior 1628
MAN@@ 1628
bid 1628
requ@@ 1628
yiel@@ 1628
án@@ 1628
DER@@ 1627
designer 1627
recently, 1627
spiritual 1627
stabili@@ 1627
style, 1627
Alpine 1626
Mid@@ 1626
forward, 1626
oni 1626
play, 1626
quantitative 1626
render 1626
shr@@ 1625
wife 1625
Airbus 1624
K-@@ 1624
ister 1624
mill@@ 1624
reinforc@@ 1624
1960@@ 1623
Box, 1623
Hom@@ 1623
ause 1623
metro@@ 1623
soldiers 1623
tus 1623
Scho@@ 1622
cil 1622
date@@ 1622
urgency 1622
.000 1621
beneficiaries 1621
ell, 1621
employees. 1621
percus@@ 1621
preserving 1621
value, 1621
justice, 1620
moderate 1620
month, 1620
over. 1619
programme@@ 1619
regard. 1619
Dam@@ 1618
Palest@@ 1618
craft 1618
iter@@ 1618
perpetra@@ 1618
persons, 1618
anticipa@@ 1617
d! 1617
duly 1617
manufac@@ 1617
olu@@ 1617
particular. 1617
ships, 1617
sten@@ 1617
tries 1617
tw@@ 1617
Control@@ 1616
dimin@@ 1616
retirement 1616
(s) 1615
Lisbon, 1615
address, 1615
adjustments 1615
da. 1615
ke-@@ 1615
resol@@ 1615
terminal 1615
amenities 1614
golden 1614
usu@@ 1614
visit@@ 1614
12, 1613
Rio 1613
The@@ 1613
categori@@ 1613
damaging 1613
folder 1613
laser 1613
light, 1613
neighbours 1613
outh 1613
still@@ 1613
themes 1613
timet@@ 1613
tively. 1613
Switzerland, 1612
accuracy 1612
identical 1612
landsca@@ 1612
municipal@@ 1612
reconciliation 1612
rest@@ 1612
Rob@@ 1611
Second, 1611
blind 1611
deny 1611
esta@@ 1611
ida 1611
user-@@ 1611
Ke@@ 1610
alia, 1610
dal 1610
emerge 1610
f-@@ 1610
impor@@ 1610
ska 1610
twin 1610
victim 1610
BA@@ 1609
DC 1609
Puerto 1609
center. 1609
formats 1609
synchron@@ 1609
tels 1609
Elevator, 1608
agenda, 1608
atile 1608
coordinating 1608
eviden@@ 1608
interpreted 1608
watching 1608
APPROVED 1607
Zeal@@ 1607
art. 1607
breaks 1607
calculation 1607
devast@@ 1607
Danube 1606
ady 1606
have. 1606
kam@@ 1606
network@@ 1606
phen@@ 1606
Dem@@ 1605
clients. 1605
disadvantaged 1605
distribute 1605
donor 1605
mineral 1605
mini 1605
Democrats) 1604
Ky@@ 1604
Mis@@ 1604
delicate 1604
infringements 1604
link@@ 1604
(from 1603
MS@@ 1603
ORT 1603
Tun@@ 1603
Wol@@ 1603
bay 1603
continually 1603
maintains 1603
passion 1603
Dolom@@ 1602
Mak@@ 1602
ano, 1602
s... 1602
Treaties 1601
classified 1601
clin@@ 1601
dul@@ 1601
quis@@ 1601
structure, 1601
Christ@@ 1600
Thurs@@ 1600
admission 1600
dak 1600
ge-@@ 1600
schedule 1600
solidarity. 1600
189@@ 1599
ir, 1599
union@@ 1599
Ambass@@ 1598
Hit@@ 1598
Kong 1598
Lom@@ 1598
PRESS 1598
Protec@@ 1598
fears 1598
long, 1598
searching 1598
sight@@ 1598
vell@@ 1598
acion@@ 1597
defines 1597
itals 1597
5,@@ 1596
CAP@@ 1596
Communic@@ 1596
ern 1596
plates 1596
responding 1596
thank@@ 1596
ш@@ 1596
Dat@@ 1595
Rad@@ 1595
cheaper 1595
ens. 1595
erning 1595
liquid 1595
prohibited 1595
Patri@@ 1594
Visit 1594
door@@ 1594
forecast 1594
novel@@ 1594
thres@@ 1594
....@@ 1593
R-@@ 1593
automati@@ 1593
resident 1593
revolution 1593
vement 1593
aluminium 1592
ann 1592
AP 1591
ather 1591
pix@@ 1591
spend@@ 1591
Ant@@ 1590
celebrated 1590
incredible 1590
issuing 1590
li, 1590
right-@@ 1590
tible 1590
64@@ 1589
Between 1589
Mont@@ 1589
destinations 1589
stran@@ 1589
90% 1588
audience 1588
cal, 1588
istor@@ 1588
newspaper 1588
unlimited 1588
carries 1587
ia's 1587
resolved. 1587
separated 1587
vill@@ 1587
1996, 1586
ables. 1586
car. 1586
guests, 1586
maps 1586
papers 1586
sell@@ 1586
unacceptable. 1586
absur@@ 1585
listened 1585
sailing 1585
è 1585
Communities 1584
Lou@@ 1584
Venice 1584
ample 1584
married 1584
parall@@ 1584
rain@@ 1584
ros 1584
11, 1583
2.5 1583
counter-@@ 1583
effects. 1583
2011, 1582
Year@@ 1582
acro@@ 1582
backing 1582
competitiveness, 1582
euro, 1582
inning 1582
team. 1582
Ev@@ 1581
Marina 1581
aggreg@@ 1581
colors 1581
deeper 1581
resi@@ 1581
theor@@ 1581
IK@@ 1580
Rou@@ 1580
lighting 1580
net, 1580
pre-accession 1580
epage 1579
micro-@@ 1579
orches@@ 1579
shower, 1579
Chechn@@ 1578
Mess@@ 1578
brands 1578
ees 1578
that's 1578
1997. 1577
AFFAIRS 1577
Iraq. 1577
bodies. 1577
fat 1577
pictur@@ 1577
precis@@ 1577
regulations, 1577
stays 1577
aching 1576
discussion. 1576
acy, 1575
clock 1575
expects 1575
single-@@ 1575
user@@ 1575
aband@@ 1574
abri@@ 1574
bedrooms, 1574
colum@@ 1574
communication. 1574
distinguished 1574
guard 1574
kno@@ 1574
lou@@ 1574
patents 1574
possible@@ 1574
rol@@ 1574
%). 1573
aren@@ 1573
chat 1573
hotel's 1573
NI@@ 1572
coffe@@ 1572
er) 1572
About 1571
capacity. 1571
harm@@ 1571
legisl@@ 1571
nom@@ 1571
Docum@@ 1570
London, 1570
Sah@@ 1570
alter@@ 1570
ien@@ 1570
launder@@ 1570
oph@@ 1570
"S@@ 1569
Kaz@@ 1569
Sin@@ 1569
bathroom@@ 1569
xenopho@@ 1569
ø@@ 1569
centrally 1568
controversial 1568
enough, 1568
exist. 1568
nowad@@ 1568
kilome@@ 1567
logo 1567
reports. 1567
restriction 1567
Gaz@@ 1566
Heating, 1566
Meanwhile, 1566
aks 1566
capac@@ 1566
criteria, 1566
definitive 1566
ino, 1566
pressed 1566
resolving 1566
Bureau 1565
Ukrainian 1565
ST 1564
hour@@ 1564
modul@@ 1564
secured 1564
simultane@@ 1564
tes. 1564
you'@@ 1564
ч@@ 1564
Contin@@ 1563
MAR@@ 1563
promising 1563
terrace. 1563
(W@@ 1562
0,@@ 1562
Def@@ 1562
ami 1562
branches 1562
driver@@ 1562
observations 1562
perspective, 1562
ES) 1561
Franc@@ 1561
USA, 1561
ae@@ 1561
catalo@@ 1561
competing 1561
disciplinary 1561
hat 1561
EC, 1560
Electron@@ 1560
Saudi 1560
ader@@ 1560
blame 1560
breakfast. 1560
breathtaking 1560
ou, 1560
CAR@@ 1559
Cle@@ 1559
Satur@@ 1559
activate 1559
agra@@ 1559
live@@ 1559
man's 1559
traction 1559
Market. 1558
embedded 1558
great@@ 1558
hig@@ 1558
occurs 1558
struck 1558
wand@@ 1558
Doc@@ 1557
Lib@@ 1557
attach 1557
step. 1557
supplement 1557
unemployment. 1557
wholesale 1557
hang@@ 1556
uer@@ 1556
banned 1555
dest 1555
dog 1555
travell@@ 1555
won't 1555
(12@@ 1554
Asia. 1554
Blan@@ 1554
Compan@@ 1554
essive 1554
gio 1554
municipal 1554
slopes 1554
vem@@ 1554
discipline 1553
interventions 1553
invol@@ 1553
knowing 1553
satell@@ 1553
ush 1553
younger 1553
Competi@@ 1552
tiven@@ 1552
MB@@ 1551
Strasbour@@ 1551
akh@@ 1551
69@@ 1550
agenci@@ 1550
agriculture. 1550
countrysi@@ 1550
l-@@ 1550
loved 1550
problemati@@ 1550
tion-@@ 1550
Ther@@ 1549
dies@@ 1549
eter@@ 1549
everywhere 1549
industries. 1549
isp@@ 1549
kill@@ 1549
sharehol@@ 1549
Stand@@ 1548
thesis 1548
thirds 1548
aware, 1547
ede 1547
magic 1547
person. 1547
vision. 1547
wai@@ 1547
ceram@@ 1546
gather 1546
inval@@ 1546
itive 1546
aux 1545
delivers 1545
grave 1545
hosts 1545
minu@@ 1545
slowly 1545
zione 1545
11/@@ 1544
featured 1544
two@@ 1544
zone. 1544
cinem@@ 1543
gate 1543
holders 1543
mort@@ 1543
ours 1543
parts. 1543
suggestion 1543
Ce@@ 1542
EB@@ 1542
League 1542
Small 1542
U-@@ 1542
bec@@ 1542
organising 1542
ín 1542
helicop@@ 1541
Bau@@ 1540
modest 1540
prevents 1540
pricing 1540
twenty-@@ 1540
Applic@@ 1539
Skype 1539
View 1539
complied 1539
conventions 1539
culinary 1539
ligen@@ 1539
penet@@ 1539
ried 1539
sar@@ 1539
sse@@ 1539
Conver@@ 1538
earned 1538
gue, 1538
refined 1538
rot@@ 1538
ts' 1538
wages 1538
Austria. 1537
REL@@ 1537
Syn@@ 1537
ament 1537
graphical 1537
indispensable 1537
land's 1537
lation 1537
party, 1537
prosp@@ 1537
170@@ 1536
Exchange 1536
Guests 1536
Industry, 1536
Organ@@ 1536
argum@@ 1536
disappear@@ 1536
edit 1536
surpl@@ 1536
workshop 1536
Church@@ 1535
person' 1535
tron@@ 1535
Holiday 1534
President-in-Office, 1534
assisted 1534
games, 1534
geno@@ 1534
los@@ 1534
striking 1534
urely 1534
Stri@@ 1533
deciding 1533
ering, 1533
infrastructures 1533
opol@@ 1533
reless 1533
Spain@@ 1532
beauti@@ 1532
chen 1532
demand. 1532
distinct 1532
dle 1532
statutory 1532
wording 1532
Conditions 1531
Nature 1531
Statement 1531
preservation 1531
57@@ 1530
od 1530
han 1529
ito 1529
recip@@ 1529
robo@@ 1529
1995, 1528
2.0 1528
Ele@@ 1528
clean, 1528
mas 1528
seminar 1528
vals 1528
Ir@@ 1527
Solidarity 1527
car, 1527
disrup@@ 1527
emphasises 1527
enth@@ 1527
irregular@@ 1527
rain 1527
ryp@@ 1527
unknown 1527
Kat@@ 1526
Ou@@ 1526
passes 1526
phenomen@@ 1526
rol 1526
sources. 1526
000. 1525
Above 1525
Israel, 1525
People@@ 1525
counting 1525
gastronom@@ 1525
job. 1525
travellers 1525
Jean 1524
bodies, 1524
mission. 1524
mutually 1524
support@@ 1524
2020. 1523
Everyone 1523
Sierra 1523
ball@@ 1523
scep@@ 1523
senti@@ 1523
tion? 1523
(COM@@ 1522
JavaScript. 1522
Policy. 1522
admi@@ 1522
akes 1522
credi@@ 1522
endeavo@@ 1522
ing! 1522
lesson 1522
may, 1522
scand@@ 1522
urity 1522
DEBATED 1521
construction, 1521
treatment, 1521
agri@@ 1520
conveniently 1520
performance, 1520
predec@@ 1520
worry 1520
appreciated 1519
attach@@ 1519
ii) 1519
suddenly 1519
v. 1519
EW@@ 1518
acul@@ 1518
damaged 1518
medic@@ 1518
pup@@ 1518
recalled 1518
rubber 1518
simpli@@ 1518
vigor@@ 1518
June, 1517
symb@@ 1517
Justice, 1516
birds 1516
bund@@ 1516
hyper@@ 1516
languages, 1516
m2 1516
seem@@ 1516
deter@@ 1515
ents: 1515
jug@@ 1515
unter@@ 1515
broadcasting 1514
permanently 1514
rehabilitation 1514
Lithuania, 1513
colonial 1513
fing 1513
his@@ 1513
%), 1512
Budgets 1512
Experience 1512
constraints 1512
degre@@ 1512
esting 1512
graph 1512
reinforcing 1512
rigorous 1512
roles 1512
soon. 1512
tom 1512
aired 1511
deduc@@ 1511
detection 1511
ft-@@ 1511
inevitably 1511
protective 1511
(EC) 1510
IA@@ 1510
alia 1510
menu. 1510
role, 1510
rus 1510
over, 1509
telecoms 1509
colleagues, 1508
desktop 1508
nonetheless 1508
obligations. 1508
Anti@@ 1507
Ori@@ 1507
overn@@ 1507
participa@@ 1507
OECD 1506
observers 1506
solidarity, 1506
strange 1506
vehicles. 1506
Hal@@ 1505
U) 1505
a/@@ 1505
cel 1505
emergence 1505
pub@@ 1505
tless 1505
tone 1505
Cy@@ 1504
PA@@ 1504
Sie 1504
UR 1504
analys@@ 1504
elimination 1504
excluding 1504
e” 1504
side@@ 1504
va, 1504
zur 1504
Aqu@@ 1503
burden@@ 1503
consequently 1503
countries' 1503
Conc@@ 1502
headed 1502
reconc@@ 1502
tex 1502
)) 1501
September, 1501
Start 1501
edom 1501
placement 1501
privile@@ 1501
tips 1501
'per 1500
authoris@@ 1500
demanded 1500
season. 1500
Atlan@@ 1499
Bundes@@ 1499
Moldo@@ 1499
Octo@@ 1499
justification 1499
leather 1499
passwor@@ 1499
sends 1499
y' 1499
Valle@@ 1498
downloading 1498
draws 1498
ich, 1498
perceived 1498
socially 1498
Choose 1497
addition@@ 1497
badly 1497
cooperative 1497
fulfilling 1497
hosting 1497
num@@ 1497
rid 1497
bird 1496
d's 1496
fold 1496
patch 1496
whole@@ 1496
silver 1495
users, 1495
HER@@ 1494
Heritage 1494
_Toc@@ 1494
countless 1494
documents. 1494
general. 1494
indi@@ 1494
lifying 1494
precautionary 1494
ree 1494
English@@ 1493
Wall@@ 1493
back, 1493
indications 1493
oder 1493
thick@@ 1493
witness 1493
Fren@@ 1492
behavior 1492
earn@@ 1492
kov@@ 1492
pointing 1492
sand@@ 1492
set-@@ 1492
stating 1492
ès 1492
Bulgari@@ 1491
Vice-@@ 1491
dans 1491
ma. 1491
Ann@@ 1490
Linu@@ 1490
ane@@ 1490
drives 1490
poll@@ 1490
rhetor@@ 1490
smooth@@ 1490
uan@@ 1490
RAN@@ 1489
elderly 1489
excur@@ 1489
layers 1489
light. 1489
motivated 1489
sentence 1489
settle 1489
soon@@ 1489
specifications 1489
59@@ 1488
citizen@@ 1488
citizenship 1488
fate 1488
ups 1488
wards. 1488
you’ll 1488
188@@ 1487
applau@@ 1487
carriers 1487
shareholders 1487
Russia’s 1486
advances 1486
compl@@ 1486
executed 1486
13, 1485
4-0@@ 1485
ling@@ 1485
lus@@ 1485
tling 1485
Afri@@ 1484
Ari@@ 1484
Check 1484
eness 1484
icon 1484
realized 1484
tant 1484
buildings, 1483
intentions 1483
ligence 1483
premises 1483
Moldova 1482
Questions 1482
bears 1482
flower@@ 1482
surger@@ 1482
utter@@ 1482
Blo@@ 1481
Vietnam@@ 1481
computer@@ 1481
ministerial 1481
unilateral 1481
alleged 1480
cargo 1480
degrees 1480
erb@@ 1480
request@@ 1480
step, 1480
ó 1480
anno@@ 1479
arts 1479
asyl@@ 1479
energy-@@ 1479
faul@@ 1479
modern, 1479
refu@@ 1479
swift@@ 1479
tight 1479
Change 1478
Cypri@@ 1478
ICT 1478
Point 1478
ing" 1478
visu@@ 1478
alistic 1477
citiz@@ 1477
essed 1477
inquiries: 1477
Erasmus 1476
Estonia 1476
address. 1476
atri@@ 1476
attempted 1476
ded: 1476
embr@@ 1476
es.@@ 1476
foods 1476
ternal 1476
unfortunate 1476
EST@@ 1475
Jacques 1475
assign@@ 1475
sauna, 1475
(i.e. 1474
pages. 1474
1989 1473
SME 1473
Sony 1473
ave 1473
employee 1473
encounter 1473
meanti@@ 1473
ograph@@ 1473
tremendous 1473
Master 1472
urch@@ 1472
.de 1471
Ama@@ 1471
EE@@ 1471
SH@@ 1471
direction, 1471
jurisdic@@ 1471
multinational 1471
tration 1471
whatsoever 1471
Anonymous 1470
Aven@@ 1470
Bour@@ 1470
Tibet@@ 1470
Voy@@ 1470
ier, 1470
noticed 1470
renewal 1470
®@@ 1470
30, 1469
LAN@@ 1469
cious 1469
fields. 1469
included. 1469
ratify 1469
weaknesses 1469
will@@ 1469
Dru@@ 1468
Parliament@@ 1468
bub@@ 1468
soli@@ 1468
Clu@@ 1467
Energ@@ 1467
G. 1467
Mem@@ 1467
bases 1467
ject 1467
optional 1467
technically 1467
án 1467
Barro@@ 1466
disappointed 1466
economies. 1466
excursions 1466
Putin 1465
burg@@ 1465
conducting 1465
does@@ 1465
foremost 1465
fruit@@ 1465
high. 1465
more... 1465
GMOs 1464
Manuel 1464
halt 1464
multiannual 1464
comfort. 1463
creature 1463
departments 1463
fty 1463
ingen 1463
origin. 1463
subjected 1463
unification 1463
version. 1463
yet, 1463
1.0@@ 1462
Work@@ 1462
alliance 1462
auster@@ 1462
big@@ 1462
kind. 1462
met. 1462
reasonably 1462
refriger@@ 1462
speaks 1462
Bank. 1461
Opinion 1461
abled 1461
ala 1461
capability 1461
chances 1461
currency. 1461
outermost 1461
prison@@ 1461
selecting 1461
station@@ 1461
но@@ 1461
Latvia 1460
Tai@@ 1460
compensate 1460
flam@@ 1460
ji 1460
killing 1460
sacrific@@ 1460
stones 1460
arriving 1459
manage@@ 1459
platforms 1459
transparency. 1459
GM 1458
champion@@ 1458
parent 1458
wra@@ 1458
J. 1457
Professor 1457
dangers 1457
premi@@ 1457
principles. 1457
sions: 1457
Herzegovin@@ 1456
ali 1456
anci@@ 1456
assur@@ 1456
material. 1456
objective, 1456
recru@@ 1456
ugh@@ 1456
(at 1455
atom@@ 1455
conscious 1455
encing 1455
mistakes 1455
session. 1455
trouble 1455
ар@@ 1455
Priority 1454
obstacle 1454
.The 1453
Black@@ 1453
Strategi@@ 1453
ca. 1453
eliminating 1453
hours, 1453
po 1453
seekers 1453
territori@@ 1453
workshops 1453
(PT) 1452
Cultural 1452
N-@@ 1452
Tal@@ 1452
bru@@ 1452
efforts, 1452
thly, 1452
Moscow 1451
hire 1451
pursuit 1451
requesting 1451
Gentoo 1450
billion, 1450
cide 1450
dn’t 1450
far-reaching 1450
reveal 1450
segment 1450
worker 1450
Main 1449
azz 1449
cit@@ 1449
photographs 1449
refin@@ 1449
resist@@ 1449
kel@@ 1448
contracting 1447
donors 1447
entries 1447
turnover 1447
Communications 1446
Holy 1446
agent 1446
enshrined 1446
inspections 1446
mathemati@@ 1446
ooking 1446
UD@@ 1445
autonomy 1445
creativity 1445
i) 1445
lla 1445
venue 1445
ère 1445
Son@@ 1444
Washington 1444
alread@@ 1444
berg, 1444
bill 1444
el-@@ 1444
S&@@ 1443
Sudan 1443
Ze@@ 1443
eco-@@ 1443
estone 1443
fulfilled 1443
sted 1443
Sky@@ 1442
Tru@@ 1442
friends. 1442
fundamentally 1442
institution@@ 1442
symbolic 1442
Bul@@ 1441
Regis@@ 1441
account@@ 1440
desirable 1440
flash 1440
wash@@ 1440
Bol@@ 1439
floors 1439
impacts 1439
restor@@ 1439
Resour@@ 1438
fici@@ 1438
pursu@@ 1438
uz@@ 1438
German, 1437
cellent 1437
livesto@@ 1437
respected. 1437
traditionally 1437
(“@@ 1436
Lag@@ 1436
Nat@@ 1436
Parties 1436
agencies, 1436
ero 1436
ina, 1436
laborator@@ 1436
large, 1436
legitim@@ 1436
less. 1436
ti, 1436
Incre@@ 1435
Jack@@ 1435
Resear@@ 1435
SW@@ 1435
Slov@@ 1435
Whilst 1435
answer. 1435
cally, 1435
kir@@ 1435
national, 1435
officers 1435
teach 1435
ASS@@ 1434
FF@@ 1434
Plus 1434
battery 1434
dent 1434
forestry 1434
rat 1434
Jan 1433
Trek: 1433
await 1433
ented. 1433
hall@@ 1433
hour. 1433
ne. 1433
plants, 1433
Estonia, 1432
Work 1432
enza 1432
ji@@ 1432
timate 1432
(A5-0@@ 1431
180@@ 1431
Organis@@ 1431
employees, 1431
entrepreneurs 1431
pack 1431
principles, 1431
welcome. 1431
4th 1430
Arti@@ 1430
Court. 1430
regimes 1430
scann@@ 1430
Afghan 1429
Py@@ 1429
alarm@@ 1429
brain 1429
carrier 1429
code. 1429
lifting 1429
Blu@@ 1428
Helsinki 1428
NGO@@ 1428
Pass@@ 1428
Val 1428
founder 1428
making. 1428
options. 1428
plants. 1428
towel@@ 1428
clos@@ 1427
prescri@@ 1427
ser. 1427
temperatures 1427
alists, 1426
ged, 1426
5th 1425
Adobe 1425
Afric@@ 1425
Latvi@@ 1425
TERNAL 1425
center, 1425
lica 1425
pain 1425
£@@ 1425
13/@@ 1424
Ak@@ 1424
Citizens' 1424
Organization 1424
Ric@@ 1424
SL@@ 1424
onymous 1424
ange@@ 1423
athedr@@ 1423
choo@@ 1423
gaps 1423
16th 1422
Albania 1422
EMU 1422
May, 1422
Sem@@ 1422
disastro@@ 1422
formerly 1422
resistant 1422
tted 1422
Rome. 1421
Syrian 1421
advocate 1421
consumption. 1421
hop 1421
perspectives 1421
productiv@@ 1421
й 1421
(not 1420
.com/@@ 1420
Affairs. 1420
NOT 1420
Secret@@ 1420
bars, 1420
ca, 1420
clon@@ 1420
company’s 1420
diversity. 1420
ever-@@ 1420
sums 1420
900 1419
G, 1419
kitchen@@ 1419
laboratory 1419
nest@@ 1419
bian 1418
detain@@ 1418
improves 1418
(V@@ 1417
accountability 1417
day's 1417
edit@@ 1417
independently 1417
kel 1417
seek@@ 1417
steri@@ 1417
varie@@ 1417
vessel 1417
66 1416
atmosphere, 1416
cem@@ 1416
kill 1416
mile 1416
structure. 1416
Ethiop@@ 1415
PA 1415
Rights. 1415
Series 1415
cooking 1415
largement 1415
vention 1415
abandoned 1414
chemic@@ 1414
discovery 1414
intensity 1414
provided. 1414
surprising 1414
thoughts 1414
1: 1413
Gir@@ 1413
attempting 1413
cohesion. 1413
ques 1413
st-@@ 1413
Joseph 1412
Opera 1412
Parliament' 1412
alpine 1412
borro@@ 1412
holiday. 1412
ingly. 1412
quot@@ 1412
success, 1412
taken, 1412
viewing 1412
ME 1411
Wa@@ 1411
consequences. 1411
inviting 1411
logi@@ 1411
nicht 1411
ten. 1411
1996. 1410
51 1410
annul@@ 1410
ice, 1410
qualific@@ 1410
realised 1410
smug@@ 1410
ts) 1410
Accord@@ 1409
December, 1409
Gold 1409
Unlike 1409
asis 1409
brilli@@ 1409
coul@@ 1409
deterioration 1409
dium 1409
momentum 1409
monopoly 1409
prerequisite 1409
retro@@ 1409
ric@@ 1409
Scientific 1408
immer@@ 1408
installing 1408
price, 1408
threatening 1408
tourism, 1408
Shi@@ 1407
administration. 1407
immigran@@ 1407
olf 1407
reflecting 1407
yard 1407
Lad@@ 1406
Meet@@ 1406
NG@@ 1406
capita 1406
conditioning, 1406
incoming 1406
SMEs, 1405
aler 1405
civiliz@@ 1405
fostering 1405
mailing 1405
material, 1405
smar@@ 1405
theast 1405
(13@@ 1404
ARE 1404
Part@@ 1404
Rem@@ 1404
accessibility 1404
avail@@ 1404
conce@@ 1404
connection. 1404
hotel’s 1404
interview 1404
52 1403
CHF 1403
It’s 1403
Peop@@ 1403
Rac@@ 1403
bon 1403
honest@@ 1403
sincerely 1403
tower 1403
unions 1403
waste. 1403
-, 1402
Corporate 1402
Eco@@ 1402
hairdr@@ 1402
visitor 1402
CIAL 1401
Sor@@ 1401
ations; 1401
commission 1401
essential. 1401
infrastruc@@ 1401
laim@@ 1401
originating 1401
public-@@ 1401
1] 1400
Chancellor 1400
Kra@@ 1400
collecting 1400
dign@@ 1400
lows 1400
oil, 1400
where@@ 1400
administration, 1399
exceptionally 1399
shopp@@ 1399
vigil@@ 1399
3-star 1398
CT@@ 1398
culture@@ 1398
ler, 1398
noon. 1398
yes, 1398
(6@@ 1397
Newspap@@ 1397
ager@@ 1397
chie@@ 1397
fin 1397
floor, 1397
mission, 1397
oeu@@ 1397
prejudice 1397
Chan@@ 1396
Hau@@ 1396
asting 1396
detail. 1396
found. 1396
lovers 1396
olle@@ 1396
party. 1396
required, 1396
yield 1396
10. 1395
Sri 1395
comfortable, 1395
disp@@ 1395
function. 1395
lying 1395
mentioned. 1395
try, 1395
BM@@ 1394
If, 1394
Meeting 1394
Spir@@ 1394
different. 1394
norm@@ 1394
proves 1394
summer, 1394
tariffs 1394
ab 1393
confirm@@ 1393
implemen@@ 1393
lical 1393
speaking, 1393
Commer@@ 1392
Yugoslavia 1392
auses 1392
film@@ 1392
mon 1392
strengthen@@ 1392
tender 1392
ther. 1392
tisation 1392
tle. 1392
tox@@ 1392
er: 1391
extrem@@ 1391
harmony 1391
include: 1391
lacking 1391
oom 1391
SAP 1390
accessories 1390
cle. 1390
cookies 1390
initiatives. 1390
rank 1390
72 1389
BMW 1389
Key@@ 1389
Register 1389
Tyro@@ 1389
blin@@ 1389
harv@@ 1389
hosted 1389
temperat@@ 1389
true, 1389
Apartments 1388
Could 1388
Mand@@ 1388
alter 1388
families. 1388
mobili@@ 1388
78@@ 1387
adapting 1387
alarm 1387
criterion 1387
excise 1387
info 1387
maj@@ 1387
pa 1387
size, 1387
volu@@ 1387
Jes@@ 1386
Neu@@ 1386
**@@ 1385
Cru@@ 1385
EP 1385
Put@@ 1385
advised 1385
balanc@@ 1385
friendly, 1385
p.m@@ 1385
radiation 1385
regrettable 1385
trade@@ 1385
utility 1385
Agreements 1384
esta 1384
intu@@ 1384
French, 1383
cataly@@ 1383
defense 1383
harbour 1383
mi 1383
objections 1383
parameter 1383
replac@@ 1383
universi@@ 1383
Merger 1382
Park, 1382
TU@@ 1382
animals. 1382
coins 1382
i.@@ 1382
preferences 1382
replacing 1382
wed, 1382
affairs. 1381
clarification 1381
ender 1381
faith@@ 1381
jack@@ 1381
lingual 1381
temporarily 1381
© 1381
archive 1380
automation 1380
bankrup@@ 1380
fill@@ 1380
investor 1380
state-@@ 1380
March, 1379
Much 1379
Vie@@ 1379
dereg@@ 1379
entation 1379
fantas@@ 1379
mits 1379
ко@@ 1379
Cold 1378
activated 1378
else. 1378
imbalances 1378
plant@@ 1378
speech, 1378
tam@@ 1378
tribu@@ 1378
-wide 1377
Holl@@ 1377
Iran, 1377
Mass@@ 1377
Ministerial 1377
Privacy 1377
configure 1377
dei 1377
explanations 1377
provo@@ 1377
watch@@ 1377
DVD@@ 1376
bag 1376
document, 1376
leges 1376
opp@@ 1376
origin, 1376
advanc@@ 1375
mortal@@ 1375
program, 1375
tan 1375
350 1374
68 1374
Bla@@ 1374
Greece. 1374
Herzegovina 1374
Kling@@ 1374
Secon@@ 1374
minimal 1374
roof@@ 1374
thi@@ 1374
third-@@ 1374
Poland. 1373
Union' 1373
above. 1373
cry@@ 1373
dari 1373
document. 1373
ight, 1373
methods. 1373
pilo@@ 1373
portion 1373
second-@@ 1373
views, 1373
colon@@ 1372
detect 1372
farmers, 1372
following: 1372
note@@ 1372
Region@@ 1371
anks 1371
distinguish 1371
ents' 1371
rarely 1371
wo 1371
Conclu@@ 1370
Luxembour@@ 1370
PSE 1370
Playa 1370
Wo@@ 1370
cities, 1370
experti@@ 1370
fossil 1370
ideological 1370
perspective. 1370
resourc@@ 1370
Barroso, 1369
Croatia, 1369
Live 1369
RI@@ 1369
baij@@ 1369
being. 1369
column 1369
compe@@ 1369
ever@@ 1369
56 1368
Ltd. 1368
ailed 1368
centers 1368
garden, 1368
garden. 1368
nav@@ 1368
neutral 1368
Piazza 1367
accompany 1367
arres@@ 1367
laimed 1367
possibili@@ 1367
reluc@@ 1367
Cambo@@ 1366
Sea. 1366
air, 1366
soft@@ 1366
spra@@ 1366
tiny 1366
women@@ 1366
Analy@@ 1365
Canadian 1365
din 1365
ers@@ 1365
mounted 1365
transform 1365
ung, 1365
unified 1365
washing 1365
(I@@ 1364
Medic@@ 1364
VIC@@ 1364
aggres@@ 1364
deployed 1364
double-@@ 1364
friends, 1364
gan 1364
AID@@ 1363
Nobel 1363
WITH 1363
above, 1363
aspira@@ 1363
edom@@ 1363
login 1363
Case 1362
SER@@ 1362
That@@ 1362
accu@@ 1362
icial 1362
seconds 1362
status, 1362
studying 1362
zech 1362
'', 1361
body@@ 1361
continuity 1361
debat@@ 1361
exceptions 1361
exploit@@ 1361
fits 1361
gentle@@ 1361
inary 1361
manner, 1361
quarters 1361
scenario 1361
God, 1360
agon@@ 1360
congratulations 1360
conviction 1360
fines 1360
ingu@@ 1360
Alexander 1359
Liberal 1359
Nam@@ 1359
Room, 1359
ceremony 1359
complimentary 1359
divide 1359
entit@@ 1359
veterinary 1359
who@@ 1359
zia 1359
.com@@ 1358
GDP. 1358
HTML 1358
Ober@@ 1358
cach@@ 1358
depic@@ 1358
ritten 1358
take. 1358
tar 1358
toxic 1358
ü@@ 1358
-of-@@ 1357
Adri@@ 1357
Otherwise, 1357
STAT@@ 1357
achievem@@ 1357
attaches 1357
cript 1357
eo@@ 1357
jo 1357
laws. 1357
medium-term 1357
restoring 1357
sail@@ 1357
stand, 1357
tter 1357
want. 1357
Guide 1356
Pub@@ 1356
abandon 1356
classification 1356
means. 1356
much. 1356
projected 1356
transport@@ 1356
urgen@@ 1356
ř@@ 1356
Cher@@ 1355
Phil@@ 1355
aggressive 1355
gaming 1355
lit 1355
touched 1355
weeks, 1355
ь@@ 1355
Representatives 1354
legendary 1354
minib@@ 1354
parks 1354
Cab@@ 1353
SQL 1353
charter 1353
concili@@ 1353
essence 1353
occupational 1353
recruitment 1353
salt 1353
south-@@ 1353
tures, 1353
Bulg@@ 1352
Es 1352
Var@@ 1352
Yugoslavi@@ 1352
gue. 1352
ing-up 1352
aga 1351
crystal 1351
enburg 1351
performances 1351
ray 1351
same. 1351
MI@@ 1350
Website 1350
characteristic@@ 1350
cies. 1350
imple@@ 1350
utilis@@ 1350
vegetable 1350
EU-wide 1349
capacity, 1349
coalition 1349
provisional 1349
site: 1349
CEO 1348
abro@@ 1348
awards 1348
downtown 1348
meaningful 1348
recur@@ 1348
resumed 1348
uns 1348
ғ@@ 1348
accom@@ 1347
alumin@@ 1347
amon@@ 1347
developments. 1347
engineers 1347
tensions 1347
# 1346
15th 1346
Court, 1346
Operational 1346
Rest@@ 1346
breeding 1346
formula 1346
hide 1346
however. 1346
vou@@ 1346
Canary 1345
VO@@ 1345
deplo@@ 1345
ence@@ 1345
game, 1345
imperative 1345
32@@ 1344
Education, 1344
cycling 1344
enters 1344
guiding 1344
plane 1344
press, 1344
Bad 1343
administrations 1343
existed 1343
gle 1343
racism 1343
‑@@ 1343
Government. 1342
Merc@@ 1342
hi 1342
nearest 1342
outline 1342
trail@@ 1342
71 1341
June. 1341
Republic. 1341
au, 1341
created. 1341
iqu@@ 1341
ister@@ 1341
limitation 1341
movi@@ 1341
omer@@ 1341
transported 1341
tude 1341
vibran@@ 1341
CC 1340
Geor@@ 1340
Hostel 1340
hierarch@@ 1340
Lisb@@ 1339
RT@@ 1339
hil@@ 1339
knowledge-based 1339
networking 1339
pushed 1339
score 1339
survival 1339
thematic 1339
я 1339
13.@@ 1338
2006@@ 1338
AD 1338
Facilities, 1338
affected. 1338
delayed 1338
ele@@ 1338
geared 1338
governance, 1338
packed 1338
pronoun@@ 1338
unstable 1338
chairs 1337
on-line 1337
y/@@ 1337
30. 1336
K. 1336
concerts 1336
contacts: 1336
lov@@ 1336
meetings, 1336
phil@@ 1336
rhyth@@ 1336
teacher 1336
House@@ 1335
Partner 1335
akfast 1335
neglec@@ 1335
off-@@ 1335
vend@@ 1335
Administration 1334
Globalisation 1334
Programm@@ 1334
assem@@ 1334
better, 1334
ckets 1334
cooling 1334
excessi@@ 1334
exhibitions 1334
here: 1334
ob 1334
sheets 1334
standard. 1334
varying 1334
wards, 1334
17th 1333
Canada, 1333
Her 1333
accession. 1333
concerns, 1333
princip@@ 1333
î@@ 1333
Latvia, 1332
Lebanon 1332
bia, 1332
circle 1332
excellence 1332
pressures 1332
responded 1332
Uni@@ 1331
dollars 1331
eating 1331
eo 1331
holes 1331
knowledge. 1331
rue 1331
ss-@@ 1331
Karel 1330
abstra@@ 1330
fiable 1330
politics, 1330
protects 1330
rule, 1330
sincere 1330
symptom@@ 1330
ute, 1330
aspects. 1329
credit@@ 1329
devi@@ 1329
rolled 1329
theoretical 1329
whol@@ 1329
-related 1328
Bag@@ 1328
Canon 1328
Edition 1328
archae@@ 1328
decides 1328
fash@@ 1328
licensing 1328
tape 1328
Adriatic 1327
Let@@ 1327
Log@@ 1327
MA 1327
distant 1327
editing 1327
finishing 1327
hib@@ 1327
lo, 1327
15, 1326
Bah@@ 1326
General@@ 1326
itar 1326
pira@@ 1326
supply. 1326
termination 1326
under-@@ 1326
54 1325
Antonio 1325
Brand@@ 1325
city's 1325
continent. 1325
ie, 1325
initiatives, 1325
ords 1325
painted 1325
park. 1325
processes, 1325
proto@@ 1325
ro, 1325
updating 1325
year-old 1325
Full 1324
alp@@ 1324
broadcast 1324
holder 1324
mixture 1324
they@@ 1324
well-being 1324
Dre@@ 1323
abe@@ 1323
ach, 1323
adm@@ 1323
politics. 1323
trace@@ 1323
workers' 1323
worldwi@@ 1323
GE 1322
accessi@@ 1322
bah@@ 1322
communist 1322
congratulating 1322
counterfeit@@ 1322
only, 1322
Certi@@ 1321
Montenegro@@ 1321
concessions 1321
soul 1321
sweet 1321
Balkan 1320
Discover 1320
advertis@@ 1320
auc@@ 1320
audit@@ 1320
blocking 1320
correspond 1320
diesel 1320
encountered 1320
evening, 1320
ini, 1320
licensed 1320
ram@@ 1320
tons 1320
tools, 1320
unic@@ 1320
Cologne 1319
October, 1319
box. 1319
dict 1319
epidem@@ 1319
long. 1319
pact 1319
(EC@@ 1318
Exhib@@ 1318
PAR@@ 1318
deadlines 1318
generic 1318
monuments 1318
newest 1318
venti@@ 1318
wea@@ 1318
Arab@@ 1317
HD@@ 1317
Hen@@ 1317
colo@@ 1317
discrimination. 1317
emergen@@ 1317
emor@@ 1317
endeavour 1317
É@@ 1317
(H-0@@ 1316
Economy 1316
academ@@ 1316
episode 1316
evening. 1316
ico 1316
ique 1316
seed 1316
standard@@ 1316
torture 1316
Accession 1315
Brun@@ 1315
arrested 1315
start-@@ 1315
2012, 1314
follo@@ 1314
potential. 1314
Mah@@ 1313
OLAF 1313
ken@@ 1313
mother@@ 1313
Fal@@ 1312
Ry@@ 1312
TA 1312
contract. 1312
igh 1312
laration 1312
lear@@ 1312
portfoli@@ 1312
um-@@ 1312
Cris@@ 1311
E: 1311
Inclu@@ 1311
berg@@ 1311
doctors 1311
emphasize 1311
ops 1311
while, 1311
WOR@@ 1310
alleg@@ 1310
antibio@@ 1310
open, 1310
words. 1310
azz@@ 1309
improved. 1309
retri@@ 1309
CN@@ 1308
ed) 1308
hen@@ 1308
pools 1308
trademark 1308
Amsterdam@@ 1307
IB 1307
besides 1307
ctu@@ 1307
definitions 1307
delivery. 1307
estic 1307
first. 1307
insight 1307
park, 1307
tice 1307
trol 1307
walks 1307
Assess@@ 1306
ICE 1306
partment 1306
plo@@ 1306
summer. 1306
MUN@@ 1305
es” 1305
sensor 1305
07@@ 1304
Ale@@ 1304
O) 1304
difficult. 1304
gins 1304
sense. 1304
analo@@ 1303
ation's 1303
available@@ 1303
defini@@ 1303
has@@ 1303
ould 1303
wars 1303
zone, 1303
Chic@@ 1302
Wik@@ 1302
aste 1302
bo 1302
fires 1302
person, 1302
restaurants. 1302
verb@@ 1302
English. 1301
SOL@@ 1301
Service. 1301
cuis@@ 1301
publ@@ 1301
AC 1300
Nigeri@@ 1300
Ukraine. 1300
villag@@ 1300
2: 1299
Gas@@ 1299
ace, 1299
bever@@ 1299
eta 1299
recti@@ 1299
spati@@ 1299
Monitoring 1298
Zim@@ 1298
basi@@ 1298
cuisine. 1298
inaugu@@ 1298
itu@@ 1298
rem@@ 1298
ry. 1298
wareh@@ 1298
EC) 1297
Integra@@ 1297
boxes 1297
lav@@ 1297
translations 1297
2). 1296
backs 1296
banan@@ 1296
chn@@ 1296
umps 1296
Montenegro 1295
Oli@@ 1295
boarding 1295
caus@@ 1295
orig@@ 1295
property. 1295
Norwe@@ 1294
fault 1294
confir@@ 1293
parame@@ 1293
trau@@ 1293
Co-@@ 1292
Iraq@@ 1292
bathrooms 1292
prompt 1292
Cuba 1291
Hans 1291
befor@@ 1291
ement. 1291
gian 1291
road. 1291
2.0@@ 1290
Captain 1290
Land 1290
Real@@ 1290
V) 1290
adapt@@ 1290
immedi@@ 1290
sad 1290
stead, 1290
Kosovo. 1289
Programme. 1289
Universal 1289
axis 1289
courty@@ 1289
hate@@ 1289
life-@@ 1289
alty 1288
gap@@ 1288
possi@@ 1288
pull 1288
Assemb@@ 1287
CM@@ 1287
Radio 1287
literature 1287
pension@@ 1287
stroll 1287
arium 1286
atmosp@@ 1286
comfortable. 1286
ferti@@ 1286
sem@@ 1286
ро@@ 1286
Beijing 1285
Party, 1285
Worl@@ 1285
adjacent 1285
aran 1285
writer 1285
Apri@@ 1284
Franz 1284
UP@@ 1284
Word@@ 1284
dive 1284
enco@@ 1284
gence 1284
ily. 1284
’s, 1284
Lux@@ 1283
acquis@@ 1283
sz@@ 1283
Programme, 1282
athle@@ 1282
races 1282
tracking 1282
Galileo 1281
ast. 1281
immense 1281
é, 1281
Zimbab@@ 1280
denomin@@ 1280
host@@ 1280
lash@@ 1280
list, 1280
tomorro@@ 1280
Al 1279
Rent@@ 1279
beds, 1279
eived 1279
nlo@@ 1279
yellow 1279
advant@@ 1278
pedestrian 1278
@@ 1278
dengan 1277
later@@ 1276
tia 1276
uman 1276
consump@@ 1275
Florence 1274
lack@@ 1274
/index_en.htm 1273
44@@ 1273
CO 1273
Musi@@ 1273
OME 1273
erial 1273
fort 1273
ms@@ 1273
profitable 1273
sich 1273
E.@@ 1272
Ec@@ 1272
Red@@ 1272
's, 1271
2005@@ 1271
amm@@ 1271
card, 1271
gos 1271
status. 1271
emon@@ 1270
DER 1269
l’@@ 1269
Police 1268
ache 1268
format. 1268
gic 1268
piano 1268
privati@@ 1268
territor@@ 1268
ě@@ 1268
mainten@@ 1267
nesses 1267
routine 1267
stru@@ 1267
atil@@ 1266
3: 1265
Centr@@ 1265
enger 1265
Budapest 1264
rist@@ 1264
vre 1264
20-@@ 1263
Chap@@ 1263
legi@@ 1263
14.@@ 1262
Ox@@ 1262
airport, 1262
em, 1262
int@@ 1262
permit@@ 1262
beside 1261
erec@@ 1261
spots 1261
Bad@@ 1260
Fern@@ 1260
September. 1260
fas@@ 1260
én@@ 1260
Europa 1259
Facilities 1259
bal 1259
00:@@ 1258
1995. 1258
Das 1258
Mob@@ 1258
bear@@ 1258
finger@@ 1258
lis 1258
prehen@@ 1258
Apple 1257
cos 1257
editor 1257
facil@@ 1257
guides 1257
3). 1256
Fisch@@ 1256
ards, 1256
lick@@ 1256
SY@@ 1255
extremis@@ 1255
inci@@ 1255
tet 1255
130 1254
Ay@@ 1254
Ros@@ 1254
gour@@ 1254
ï@@ 1254
75% 1253
]. 1253
delay@@ 1253
movies 1253
pose@@ 1253
(O@@ 1252
67 1252
emen@@ 1252
ruption 1252
sud@@ 1252
tonn@@ 1252
unger 1252
Kosovo, 1251
Program 1251
William 1251
G) 1250
\h 1250
izon 1250
trademarks 1250
wood@@ 1250
Bil@@ 1249
Eura@@ 1249
Japan. 1249
Line 1249
Place 1249
dispu@@ 1249
floor@@ 1249
interi@@ 1249
won@@ 1249
PAGEREF 1248
amaz@@ 1248
at-@@ 1248
hybri@@ 1248
isa 1248
Bud@@ 1247
auch 1247
fast, 1247
gues 1247
screen@@ 1247
Bosni@@ 1246
LIF@@ 1246
Stein@@ 1246
aven@@ 1246
(ES@@ 1245
DP 1245
Fisher@@ 1245
sch 1245
download@@ 1244
neo-@@ 1244
outer 1244
Sav@@ 1243
z-@@ 1243
Cann@@ 1242
Garden 1242
ask@@ 1242
congratul@@ 1242
mann, 1242
Que@@ 1241
aan 1241
avec 1241
numer@@ 1241
vern 1241
62 1240
Citi@@ 1240
Um@@ 1240
barrier@@ 1240
emotional 1240
mention@@ 1240
Gol@@ 1239
TS@@ 1239
gla@@ 1239
procure@@ 1239
ý 1239
Differ@@ 1238
Film 1238
Palestin@@ 1238
estim@@ 1238
loop@@ 1238
5-00@@ 1237
Sax@@ 1237
titu@@ 1237
Andalusi@@ 1236
Nik@@ 1236
beautifully 1236
BUS@@ 1235
HT@@ 1235
Philipp@@ 1235
dorf 1235
ember@@ 1235
perc@@ 1235
kg 1234
Argentin@@ 1233
B) 1233
GO@@ 1233
Kam@@ 1233
mark. 1233
py@@ 1233
urg@@ 1233
87@@ 1232
Awar@@ 1232
Railway 1232
agreem@@ 1232
FRE@@ 1231
Hotel. 1231
ington 1231
internet. 1231
s". 1231
tionally 1231
15-@@ 1230
intoler@@ 1230
u. 1230
,00 1229
AG, 1229
Mission 1229
Ris@@ 1229
arily 1229
sovereign@@ 1229
AM 1227
Hand@@ 1227
Tele@@ 1227
Vit@@ 1227
hit@@ 1227
rein@@ 1227
tune 1227
ja@@ 1226
revol@@ 1226
wid@@ 1226
Mes@@ 1225
World@@ 1225
beat 1225
Pil@@ 1224
andum 1224
energ@@ 1224
g: 1224
Pun@@ 1223
ately. 1223
cs, 1223
var 1223
Lit@@ 1222
kit 1222
pump@@ 1222
-in 1221
Amsterdam, 1221
Dol@@ 1221
ext 1221
quer@@ 1221
ser, 1220
}}@@ 1220
Invest@@ 1219
U. 1219
cool@@ 1219
m-@@ 1219
ouses 1219
t.@@ 1219
truc@@ 1219
Clar@@ 1218
complex@@ 1218
rough 1218
0.0@@ 1217
System@@ 1217
sson 1217
4303 1216
RON@@ 1216
Vietnam 1216
put@@ 1216
ür@@ 1216
apping 1215
ld 1215
Afghanistan, 1214
Coll@@ 1214
Pr@@ 1214
isti@@ 1214
izz@@ 1214
onic 1214
November, 1213
Treas@@ 1213
tube 1213
ura 1213
versi@@ 1213
yes 1213
1950@@ 1212
Kin@@ 1212
UNESCO 1212
abling 1212
ife 1212
1994, 1211
.com. 1210
acks 1210
icro@@ 1210
Turk@@ 1209
incredi@@ 1209
pas 1209
à-@@ 1209
96 1208
Alli@@ 1208
ide, 1208
Suite 1207
Bug@@ 1206
Foot@@ 1206
Transpor@@ 1206
hygiene 1206
secu@@ 1206
Musli@@ 1205
Saint-@@ 1205
gment 1205
lick 1205
COM 1204
D) 1204
Paris@@ 1204
Scottish 1204
sole@@ 1204
tract 1204
Aviation 1203
DC@@ 1203
hung@@ 1203
t). 1203
union. 1203
2015. 1202
Euro-@@ 1202
VIT@@ 1202
commer@@ 1202
ka, 1202
ules 1202
Ah@@ 1201
clau@@ 1201
eva 1201
ime 1200
.org/@@ 1199
Consult@@ 1198
Paris. 1198
Polic@@ 1198
Wall 1198
dun@@ 1198
tec@@ 1198
uten@@ 1198
Gay 1197
municip@@ 1197
ras 1197
tice. 1197
15.@@ 1196
2007-2013 1196
Ess@@ 1196
pd@@ 1196
Ü@@ 1196
EIB@@ 1195
Servic@@ 1195
VAT@@ 1195
ment-@@ 1195
98@@ 1194
Image@@ 1194
circum@@ 1194
en: 1194
leas@@ 1194
Fair 1193
VI 1193
aving 1193
enk@@ 1193
ire@@ 1193
(K@@ 1192
Hin@@ 1192
Respon@@ 1192
Sab@@ 1192
Salzburg 1192
haz@@ 1192
rup@@ 1192
team, 1192
usin@@ 1192
Cin@@ 1191
nik 1191
oli@@ 1191
ris 1191
Access 1190
Big 1190
Sport 1190
Taiwan 1190
Woo@@ 1190
fascin@@ 1190
gau@@ 1190
perf@@ 1190
Buddh@@ 1189
Garden@@ 1189
SS 1189
Tob@@ 1189
ova 1189
solo 1189
sper@@ 1189
Portugal. 1188
behin@@ 1188
gas, 1188
que, 1188
tige 1188
6,@@ 1187
Arts 1187
camping 1187
se: 1187
ussi@@ 1187
operative 1186
contex@@ 1185
girl 1185
it! 1185
vet@@ 1185
(14@@ 1184
600@@ 1184
Joh@@ 1184
Proper@@ 1184
77@@ 1183
Custom@@ 1183
activi@@ 1183
ex-@@ 1183
qualitative 1183
therapeu@@ 1183
GI@@ 1182
babwe 1182
entari@@ 1182
nat@@ 1182
ple. 1182
pover@@ 1182
streaming 1182
53 1181
63 1181
MD@@ 1181
rom@@ 1181
bis 1180
enthusi@@ 1180
exquisite 1180
intim@@ 1180
Fax@@ 1179
heim 1179
arro@@ 1178
bathroom. 1178
distingu@@ 1178
ped@@ 1178
volun@@ 1178
74 1177
== 1177
budget@@ 1177
ding@@ 1177
om, 1177
sexu@@ 1177
Inform@@ 1176
blam@@ 1176
ence-@@ 1176
see. 1176
shop. 1176
"), 1174
''[[@@ 1174
Temp@@ 1174
acht 1174
chro@@ 1174
cle, 1174
LL@@ 1173
Mobil@@ 1173
TE 1173
hydrau@@ 1173
Environ@@ 1172
bour 1172
fa 1172
Corporation 1171
Hi@@ 1171
ada. 1171
ners, 1171
Sym@@ 1170
30-@@ 1169
B.@@ 1169
L-@@ 1169
stell@@ 1169
trav@@ 1169
Electri@@ 1168
Princ@@ 1168
age-@@ 1168
brutal 1168
sel 1168
covery 1167
Angol@@ 1166
Byr@@ 1166
lage, 1166
Colum@@ 1165
algorith@@ 1165
normal@@ 1165
vas@@ 1165
Empire 1164
Les 1164
nergi@@ 1164
no, 1164
pot@@ 1164
IVE 1163
Mex@@ 1162
Urban 1162
V, 1162
percent@@ 1162
scop@@ 1162
ат@@ 1162
TV. 1161
diox@@ 1161
velop@@ 1161
Lar@@ 1160
ement, 1160
KO@@ 1159
LCD 1158
Num@@ 1158
autum@@ 1158
tori@@ 1158
um: 1158
ел@@ 1158
Connec@@ 1157
Korea, 1157
Vor@@ 1157
esth@@ 1157
Chair@@ 1156
alon@@ 1156
jor@@ 1156
Sant@@ 1155
Spo@@ 1155
enz 1155
k: 1155
mid 1155
”) 1155
180 1154
g/@@ 1154
Spa@@ 1153
TRA@@ 1153
cker@@ 1153
enhag@@ 1153
rad 1153
Iron@@ 1152
Language 1152
Order 1152
PM 1152
Pad@@ 1152
decis@@ 1152
ya. 1152
Clean@@ 1151
al/@@ 1151
hid@@ 1151
mole@@ 1151
58 1150
Post 1150
RO) 1150
bass@@ 1150
GM@@ 1149
Sac@@ 1149
ere@@ 1149
ium, 1149
keep@@ 1149
vig@@ 1149
Brazi@@ 1148
Sett@@ 1148
VIP 1148
Apart@@ 1147
asp@@ 1147
consul@@ 1147
juni@@ 1147
UST@@ 1146
anne@@ 1146
what@@ 1146
296 1145
ge: 1145
uxe 1145
16.@@ 1144
CD-@@ 1144
anger 1144
dar 1144
liqu@@ 1144
Ein@@ 1143
INT@@ 1143
ember 1143
endo 1143
(3) 1142
CA 1142
Fr@@ 1142
Rein@@ 1142
U.@@ 1142
rug@@ 1142
ı@@ 1142
Motor@@ 1141
friendly. 1141
mad 1141
sport, 1141
spokes@@ 1140
00. 1139
Cav@@ 1139
Heal@@ 1139
ULT@@ 1139
iPhone 1139
onia 1139
ön@@ 1139
+352 1138
FL@@ 1138
NT@@ 1138
Y, 1138
lash 1138
lock@@ 1138
08@@ 1137
Anna 1137
Content 1137
North@@ 1137
renew@@ 1137
Israel. 1136
Jose@@ 1136
Water@@ 1136
la. 1136
organ 1136
HD 1135
Provi@@ 1135
cz@@ 1135
enorm@@ 1135
ht@@ 1135
iro 1135
pt 1135
yl 1135
Ukraine@@ 1134
bla@@ 1134
chal@@ 1134
193@@ 1133
Gonz@@ 1133
MES 1133
cken 1133
dap@@ 1133
BI@@ 1132
Mark 1132
lip 1132
61 1131
Supp@@ 1131
ci 1131
d" 1131
decision@@ 1131
tu 1131
Local 1129
index@@ 1129
pipeline 1129
Twitter 1128
adem@@ 1128
assu@@ 1128
ias 1128
personn@@ 1128
swimm@@ 1128
Brit@@ 1127
Leh@@ 1127
Lic@@ 1126
Natura 1126
Orches@@ 1126
Sco@@ 1126
Sig@@ 1126
immun@@ 1126
ool 1126
unemploy@@ 1126
Infra@@ 1125
Residence 1125
in: 1125
isher@@ 1125
jet 1125
April, 1124
Co. 1124
GH@@ 1124
d). 1124
ds@@ 1124
ible 1124
Design@@ 1123
MB 1123
en.htm 1123
-F@@ 1122
800@@ 1122
District 1122
Mosco@@ 1122
Projec@@ 1122
Tribun@@ 1122
deck@@ 1122
GPS 1121
ature 1121
breath@@ 1121
jus@@ 1120
provis@@ 1120
ums. 1120
bourg 1119
bs@@ 1119
nau@@ 1119
uzz@@ 1119
Beach@@ 1118
Professional 1118
angel@@ 1118
plor@@ 1118
preci@@ 1118
98 1117
ele 1117
emin@@ 1117
onlin@@ 1117
Six@@ 1116
WIT@@ 1116
omin@@ 1116
wild@@ 1116
Flo@@ 1115
aster@@ 1115
Congres@@ 1114
HIV/@@ 1114
IND@@ 1114
299 1113
Milan 1113
Part 1113
Philippe 1113
(0@@ 1112
FIN 1112
mini@@ 1112
'''@@ 1111
Deep 1111
Gender 1111
Liechtenstein 1111
Refu@@ 1111
USA. 1111
ging, 1111
tot@@ 1111
v, 1111
54@@ 1110
ES, 1110
helpful@@ 1110
onder@@ 1110
ware, 1110
160@@ 1109
Saddam 1109
Technologi@@ 1109
engl@@ 1109
EL) 1108
Sak@@ 1107
Sand@@ 1107
ast, 1107
diffic@@ 1107
tag 1107
Der 1106
ation-@@ 1106
57 1105
GmbH, 1105
Technologies 1105
arbit@@ 1105
country@@ 1105
edoni@@ 1105
eil 1104
ows 1104
(A4-0@@ 1103
MEP@@ 1103
e... 1103
86 1102
Client 1102
Niel@@ 1102
Barcelona, 1101
Basel 1101
Mill@@ 1101
eeded 1101
harmonis@@ 1101
mechan@@ 1101
perspec@@ 1101
Montre@@ 1100
eld 1100
nowled@@ 1100
ski, 1100
Guid@@ 1099
Mario 1099
Master@@ 1099
ide. 1099
nd 1099
té@@ 1099
Reserve 1098
iff@@ 1098
18, 1097
Individu@@ 1097
Lud@@ 1097
ides 1097
iger 1097
strateg@@ 1097
Cres@@ 1096
GP@@ 1096
Market@@ 1096
Well@@ 1096
XX@@ 1096
bs. 1096
delic@@ 1096
incen@@ 1096
oo 1096
partner. 1096
sport. 1096
tem 1096
util@@ 1096
di, 1095
more@@ 1095
ë@@ 1095
Medical 1094
plore 1094
positor@@ 1094
racle 1094
ér@@ 1094
17.@@ 1093
BIL@@ 1093
IX 1093
loyment 1093
substanti@@ 1093
tat@@ 1093
Iran. 1092
Islam 1092
Phili@@ 1092
Vinc@@ 1092
card@@ 1092
fet@@ 1092
Jam@@ 1091
bureau@@ 1091
coher@@ 1091
92 1090
Olymp@@ 1090
SIS 1090
Tam@@ 1090
cus@@ 1090
dialogu@@ 1090
roman@@ 1090
technologi@@ 1090
Peters@@ 1089
thor@@ 1089
Casa 1088
Pop@@ 1088
[16@@ 1088
carte 1088
inev@@ 1088
Kroes 1087
Neelie 1087
SE 1087
ariat 1086
moment@@ 1086
mut@@ 1086
nis@@ 1086
EURO@@ 1085
Festiv@@ 1085
PV@@ 1085
Thy@@ 1085
obo@@ 1085
1/0@@ 1084
DI 1084
INTER@@ 1084
IST@@ 1084
Task 1084
Tel. 1084
WAR@@ 1084
ao 1084
aya 1084
elector@@ 1084
isher 1084
25, 1083
Hosp@@ 1083
PE@@ 1083
union, 1083
ENCE 1082
Sul@@ 1082
dur@@ 1082
lip@@ 1082
ught 1082
II. 1081
Malta, 1081
Mol@@ 1081
Reser@@ 1081
Travel 1081
WH@@ 1081
iti 1081
6-0@@ 1080
C5-0@@ 1080
John@@ 1080
OV@@ 1080
anced 1080
Agreem@@ 1079
ah, 1079
egal 1079
governmental 1079
Wellness 1078
Works 1078
pipel@@ 1078
Democ@@ 1077
Quark@@ 1077
loud 1077
59 1076
Vassili@@ 1076
sau@@ 1076
Show 1075
Toky@@ 1075
tral 1075
Deb@@ 1074
Gold@@ 1074
Mount 1074
[[23@@ 1074
anti 1074
fair, 1074
ging. 1074
ire, 1074
20.@@ 1073
ony@@ 1073
year-@@ 1073
ны@@ 1073
-ho@@ 1072
By@@ 1072
gon 1072
Hein@@ 1071
inos 1071
ole@@ 1071
ort@@ 1071
exempl@@ 1070
ose 1070
porno@@ 1070
super 1070
/98 1069
Army 1069
Shop@@ 1069
europe@@ 1069
Commerce 1068
Sis@@ 1068
bot 1068
crac@@ 1068
es... 1068
ire. 1068
itor 1068
="@@ 1067
Hum@@ 1067
Max 1067
OM 1067
bau@@ 1067
nee@@ 1067
polis 1067
4). 1066
Objec@@ 1066
Park@@ 1066
Top 1066
deta@@ 1066
load@@ 1066
Afghanistan. 1065
asses 1065
14, 1064
Integration 1064
U, 1064
anger@@ 1064
arch 1064
tial 1064
Diam@@ 1063
Foo@@ 1063
OK@@ 1063
Siemens 1063
deri@@ 1063
itar@@ 1063
Ocean 1062
bei 1062
guid@@ 1062
ped 1062
Eu@@ 1061
Reform@@ 1061
cio 1061
desk@@ 1061
devel@@ 1061
episo@@ 1061
imal 1061
140 1060
93 1060
al" 1060
dient 1060
fers 1060
jar@@ 1060
160 1059
Cotonou 1059
Pierre 1059
Products 1059
iki 1059
kal@@ 1059
streng@@ 1059
Opport@@ 1058
Shin@@ 1058
equival@@ 1058
obtain@@ 1058
Andor@@ 1057
MP3 1057
Macedon@@ 1057
Stal@@ 1057
7,@@ 1056
BE 1056
Services, 1056
Univer@@ 1056
NET 1055
adi 1055
imit@@ 1055
oli 1055
orama 1055
ation" 1054
rier@@ 1054
Kirk 1053
Marco 1053
2000-@@ 1052
Bed 1052
US-@@ 1052
tein 1052
tti 1052
69 1051
ре@@ 1051
Eurobarometer 1050
III@@ 1050
edu@@ 1050
mac@@ 1050
xy 1050
Architec@@ 1049
GAT@@ 1049
Patten 1049
colleagu@@ 1049
en/@@ 1049
inqu@@ 1049
по@@ 1049
56@@ 1048
Dun@@ 1048
Obam@@ 1048
WORD 1048
atorium 1048
mom@@ 1048
2000) 1047
97@@ 1047
GT@@ 1047
cus 1047
fore, 1047
garage 1047
ilit@@ 1047
ording 1047
(IC@@ 1046
==@@ 1046
Boh@@ 1046
Fratt@@ 1046
Pack 1046
aker 1046
foremo@@ 1046
technolog@@ 1046
α@@ 1046
110 1045
ati 1045
hec@@ 1045
yond 1045
1992, 1044
Engineering 1044
Metro@@ 1044
Valenci@@ 1044
gering 1044
ints 1044
02 1043
Dut@@ 1043
Free@@ 1043
Cross 1042
Sti@@ 1042
Trek 1042
info@@ 1042
shut@@ 1042
veri@@ 1042
Barn@@ 1041
PN@@ 1041
et-@@ 1041
Bab@@ 1040
atel@@ 1040
is-@@ 1040
Ash@@ 1039
Card@@ 1039
Non-@@ 1039
Allah 1038
Learning 1038
Nero 1038
Scor@@ 1038
Sky 1038
aden 1038
en? 1038
excellent. 1038
hr 1038
terri@@ 1038
12. 1037
Bis@@ 1037
Christopher 1037
hem@@ 1037
DIS@@ 1036
Lei@@ 1036
satisfac@@ 1035
STR@@ 1034
Typ@@ 1034
anni 1034
en.@@ 1034
etz@@ 1034
inso@@ 1034
km. 1033
modu@@ 1033
sky@@ 1033
per, 1032
unilater@@ 1032
Future 1031
Lon@@ 1031
belt 1031
ek, 1031
reques@@ 1031
rises 1031
rob@@ 1031
ue, 1031
Hamas 1030
Internation@@ 1030
LA 1030
Parti@@ 1030
forums 1030
glas@@ 1030
ze, 1030
facto 1029
FP@@ 1028
M-@@ 1028
resear@@ 1028
Clin@@ 1027
este 1027
este@@ 1027
§ 1027
G20 1026
Hill@@ 1026
Suites 1026
andal@@ 1026
ul 1026
(18@@ 1025
Alber@@ 1025
Jesus 1025
Sun 1025
Thai 1025
fe 1025
pher@@ 1025
ESC 1024
å 1024
H. 1023
iri@@ 1023
Arm@@ 1022
Jer@@ 1022
Monte@@ 1022
multip@@ 1022
eman@@ 1021
geomet@@ 1021
dump@@ 1020
plate@@ 1020
Eas@@ 1019
FC 1018
250@@ 1017
CP 1017
Gil@@ 1017
MARK@@ 1017
fr@@ 1017
vation 1016
will. 1016
CH 1015
E) 1015
GMO@@ 1015
Patent 1015
ne-@@ 1015
17, 1014
OLAF@@ 1014
passive 1014
thodo@@ 1014
:5@@ 1013
Kinno@@ 1013
cad@@ 1013
spectac@@ 1013
stam@@ 1013
visory 1013
ASEAN 1012
Hei@@ 1012
Paul@@ 1012
employe@@ 1012
kern@@ 1012
Airlines 1011
Galici@@ 1011
tise 1011
ario 1010
astro@@ 1010
GP 1009
Leon@@ 1009
ité 1009
DH@@ 1008
Vill@@ 1008
ming@@ 1008
zi, 1008
..@@ 1007
Bill 1007
IM 1007
Marine 1007
Sir 1007
Warcraft 1007
ance@@ 1007
kat@@ 1007
ster, 1007
ulti@@ 1007
ń@@ 1007
Madri@@ 1006
consist@@ 1006
Dim@@ 1005
Twitter: 1005
Version 1005
York, 1004
r.@@ 1004
Malm@@ 1003
RA 1003
(EU@@ 1002
16, 1002
Game 1002
Wikic@@ 1002
[12@@ 1002
sis@@ 1002
2] 1001
Search 1001
multination@@ 1001
sche 1001
sili@@ 1001
wag@@ 1001
Monte 1000
Yor@@ 1000
agn@@ 1000
institute 1000
sofa 1000
Broad@@ 999
EGF 999
clean. 999
inner@@ 999
50, 998
toine 998
unge@@ 998
Fischler 997
M) 997
Test 997
altar 997
dial@@ 997
esh@@ 997
Library 996
greg@@ 996
-in-@@ 995
Bö@@ 995
EK@@ 995
vil 995
BB@@ 994
Unit 994
miner@@ 994
pis@@ 994
se) 994
)). 993
Ali@@ 993
Map@@ 993
Urugu@@ 993
andinavi@@ 993
450 992
Termin@@ 992
leis@@ 992
tually 992
Daniel 991
Terra@@ 991
requi@@ 991
ror@@ 991
twen@@ 991
Nicol@@ 990
anders 990
ardis@@ 990
cen@@ 990
kilomet@@ 990
shal@@ 990
uta 990
ACK@@ 989
meter 989
sehr 989
Fly@@ 988
famil@@ 988
intellec@@ 988
phrase 988
Budap@@ 987
Eurostat 987
infringe@@ 987
operation@@ 987
zin@@ 987
°C 987
Ferrero-Wald@@ 986
Liikan@@ 986
Thail@@ 986
eda 986
enlarge@@ 986
isch@@ 986
wick@@ 986
FO@@ 985
sten 985
Len@@ 984
POS@@ 984
ategor@@ 984
bek@@ 984
Bolkes@@ 983
G8 983
Ker@@ 983
orro@@ 983
recy@@ 983
sof@@ 983
tie 983
æ@@ 983
1.1 982
2001) 982
Rig@@ 982
abu@@ 982
astronom@@ 982
embers 982
lating 982
м 982
Ug@@ 981
ACE 980
And@@ 980
Imperi@@ 980
Fair@@ 979
120@@ 978
ir. 978
CB@@ 977
reck@@ 977
1.2 976
Prof. 976
gh 976
symbol@@ 976
Oce@@ 975
inhab@@ 975
ny@@ 975
premier@@ 975
Hab@@ 974
ag 974
consisten@@ 974
ich. 974
FIN@@ 973
boy@@ 973
clar@@ 973
gun@@ 973
isl@@ 973
migran@@ 973
utter 973
і 973
Tampere 972
ak, 972
femin@@ 972
té 972
ATE 971
EAS@@ 971
MIN@@ 971
Tech 971
(also 970
Review 970
Street, 970
Tat@@ 970
phra@@ 970
reput@@ 970
teg@@ 970
Credit 969
Instruments 969
Juli@@ 969
Lun@@ 969
ach. 969
autonom@@ 969
bach@@ 969
iver@@ 969
nas@@ 969
11. 968
Division 968
Haiti@@ 968
Ibiz@@ 968
Nikon 968
breakfast@@ 968
polici@@ 968
shots 968
ua 968
vier 968
Mir@@ 967
Porto 967
Tax@@ 967
haus 967
schedu@@ 967
Ga@@ 966
dus 966
rech@@ 966
19, 965
inn 965
intel@@ 965
ra. 965
univers@@ 965
EUROP@@ 964
earth@@ 964
iet 964
tica 964
HP 963
Times 963
ince 963
privi@@ 963
Cardassi@@ 962
Vul@@ 962
XP 962
lage. 962
stitu@@ 962
GmbH. 961
RSS 961
anna 961
ense 961
18.@@ 960
95@@ 960
ECHO 960
Qual@@ 960
Samsung 960
Sarko@@ 960
anne 960
20. 959
Park. 959
ape@@ 959
einer 959
Law@@ 958
London@@ 958
spring@@ 958
Industri@@ 957
Road@@ 957
S.A. 957
ea 957
li 957
** 956
ambo@@ 956
ar-@@ 956
from@@ 956
gency 956
rov@@ 956
Gall@@ 955
JP@@ 955
Metro 955
ahn 955
deck 955
soldi@@ 955
OK 954
PPE 954
Pul@@ 953
ene@@ 953
verse 953
Mail@@ 952
a! 951
ger-@@ 951
urban@@ 951
EU/@@ 950
Ron@@ 950
hof 950
partner, 950
AST@@ 949
Classi@@ 949
River@@ 949
TI@@ 949
compati@@ 949
proxim@@ 949
(17@@ 948
Friendly, 948
OL 948
m²@@ 948
obstac@@ 948
&nbsp@@ 947
14/@@ 947
Ever@@ 947
Lie@@ 947
09@@ 946
Engine@@ 946
GNU 946
Nokia 946
Switzer@@ 946
UM 946
Village 946
allery 946
s.com 946
vern@@ 946
19.@@ 945
81 945
Tool@@ 945
XML 945
jan 945
links. 945
Lif@@ 944
Up 944
min. 944
(15@@ 943
Tab@@ 943
lands@@ 943
qui 943
vice, 943
vor 943
!!! 942
Gent@@ 942
age: 942
6/9@@ 941
Sound@@ 941
iel 941
(NL) 940
Exper@@ 940
Thailand 940
information@@ 940
lier@@ 940
vi 940
Banglades@@ 939
Fun@@ 939
kin 939
är@@ 939
.or@@ 938
Ster@@ 938
jam@@ 938
tern 938
Kel@@ 937
Veg@@ 937
ston 937
supran@@ 937
London. 936
ista 936
85@@ 935
Explorer 935
Internet@@ 935
ho 935
semi@@ 935
τ@@ 935
Job@@ 934
226 933
ise@@ 933
21, 932
Marketing 932
Young 932
iPod 932
como 931
pag@@ 931
KDE 930
dation 930
pattern@@ 930
ś@@ 930
Tari@@ 929
alth 929
Guatemal@@ 928
Net 928
bin 928
jk 928
lio 928
sind 928
vertheless, 928
.europa.eu 927
BA 927
Man 927
anner 927
cos@@ 927
BL@@ 926
bach 926
lé@@ 926
para@@ 926
proce@@ 926
vention@@ 925
®, 925
™@@ 925
Fam@@ 924
HR@@ 924
Joe 924
PROCESSED 924
cion@@ 924
trin@@ 924
bat 923
onym@@ 923
City@@ 922
Schul@@ 922
Venezuel@@ 922
undes@@ 922
Claude 921
Day@@ 921
Viviane 921
neuro@@ 921
tum 921
ң 921
352) 920
43@@ 920
Awards 920
License 920
dt 920
glan@@ 920
imper@@ 920
tive@@ 920
ş@@ 920
140@@ 919
6). 919
Francisco 919
Gibr@@ 919
Nev@@ 919
af 919
exter@@ 919
89 918
eu 918
nick@@ 918
Elec@@ 917
anding 917
éri@@ 917
2), 916
V-@@ 916
accept@@ 916
bank, 915
erse@@ 915
un, 915
zo 915
000-@@ 914
Ticket 914
dio 914
Prodi, 913
RI 913
cape 913
demon@@ 913
gig@@ 913
Brid@@ 912
afford@@ 912
hinder@@ 912
listen@@ 912
2001/@@ 911
Edinburgh 911
Head@@ 911
Karl 911
Republi@@ 911
Stan@@ 911
bene@@ 911
html 911
lag 911
ould, 911
88 910
IX@@ 910
Memor@@ 910
Mountain 910
Nord@@ 910
REACH 910
ommer@@ 910
stur@@ 910
suspen@@ 910
AG. 909
Giov@@ 909
Pf@@ 909
Washing@@ 909
den: 909
jun@@ 909
ticles 909
73 908
Anton@@ 908
Bridge 908
Tou@@ 908
ori 908
000, 907
Avi@@ 907
Emer@@ 907
Pur@@ 907
(+@@ 906
30) 906
Juan 906
Rav@@ 906
Tan@@ 906
rd 906
(0)@@ 905
*, 905
Salv@@ 905
gia 905
Visa 904
neo@@ 904
ual@@ 904
1930@@ 903
Burma 903
ELL@@ 903
ENER@@ 903
esa 903
hof@@ 903
sus@@ 903
Guant@@ 902
Gün@@ 902
WE@@ 902
ien 902
nal 902
uk 902
Rim@@ 901
Schem@@ 901
confidenti@@ 901
oul 901
premis@@ 901
Chile 900
Mik@@ 900
isen 900
zum 900
Les@@ 899
Mug@@ 899
Thessalon@@ 899
ción 899
TT@@ 898
belon@@ 898
nach 898
06@@ 897
Advanced 897
Buenos 897
Shop 897
Tom 897
Weekly 897
dop@@ 897
imbal@@ 897
Instrument 896
Position 896
elt 896
Bed@@ 895
Kie@@ 895
natu@@ 895
nos 895
ville 895
EG 894
IBM 894
aka 894
в 894
(J@@ 893
ance-@@ 893
rants 893
Belarus, 892
Côte 892
Directors 892
Kas@@ 892
Mann@@ 892
commend@@ 892
ell. 891
ifi@@ 891
prac@@ 891
tec 891
tech@@ 891
transla@@ 891
August@@ 890
Imple@@ 890
elli 890
ml@@ 890
tte 890
Kall@@ 889
lex@@ 889
uma 889
Prix 888
Renaissance 888
berg. 888
ladimir 888
(COD@@ 887
Wolfgang 887
mer, 887
Die@@ 886
Il@@ 886
Revolu@@ 886
Roo@@ 886
Sardin@@ 886
Silver@@ 886
ue@@ 886
ол@@ 886
Sol 885
stan 885
Börse 884
Past@@ 884
Ve@@ 884
acceptable. 884
alla 884
ет@@ 884
CAN@@ 883
Malaysi@@ 883
Radi@@ 883
sé@@ 883
Andreas 882
Leonardo 882
tish 882
('@@ 881
Brussel@@ 881
Imp@@ 881
ik, 881
le's 881
ommission@@ 881
stadt 881
(CO@@ 880
1), 880
CV@@ 880
Der@@ 880
Dublin@@ 880
Eur@@ 880
Faceb@@ 880
Sign@@ 880
Vista 880
wiss@@ 880
ę@@ 880
18-@@ 879
Barcelon@@ 879
Opin@@ 879
Prac@@ 879
biz@@ 879
ok 879
quip@@ 879
(00@@ 878
2000/@@ 878
Rober@@ 878
elles 878
ken, 878
sacri@@ 878
safeguar@@ 878
Sat@@ 877
12-@@ 876
Jud@@ 876
ell'@@ 876
ky@@ 876
Call 875
Gh@@ 875
MOR@@ 875
Moh@@ 875
Quad@@ 875
Borg 874
FIF@@ 874
HOT@@ 874
aster 874
Mauri@@ 873
WA@@ 873
ambiti@@ 873
sin 873
Barack 872
Madrid, 872
Partners 872
Seri@@ 872
ball, 872
mark, 872
softwar@@ 872
spa@@ 872
surro@@ 872
Hear@@ 871
URL 871
content@@ 871
на@@ 871
15. 870
97 870
ament@@ 870
don 870
ores 870
trol@@ 870
usses 870
78 869
abeth 869
arly, 869
inqui@@ 869
stal 869
Fire@@ 868
Stock 868
THER 868
ada, 868
bles 868
GA@@ 867
Roy@@ 867
jung@@ 867
2014-@@ 866
Class 866
LAN 866
LEG@@ 866
Viol@@ 866
York@@ 866
km) 866
Conven@@ 865
Entertain@@ 865
Mail 865
Manag@@ 865
dis 865
orn 865
82 864
CC-@@ 864
SR@@ 864
Sher@@ 864
de: 864
ento 864
ο@@ 864
000.@@ 863
GUE/NG@@ 863
PHARE 863
R, 863
bes, 863
eler@@ 863
Franç@@ 862
Hans@@ 862
Yu@@ 862
kling 862
DEN@@ 861
mun@@ 861
sligh@@ 861
(16@@ 860
Boli@@ 860
____@@ 860
az 860
einen 860
perman@@ 860
т 860
ael 859
ino. 859
Magaz@@ 858
Museum, 858
aton 858
gend 858
ingredi@@ 858
pf@@ 858
ria 858
21.@@ 857
50. 857
Langu@@ 857
mark: 857
uty 857
76 856
:4@@ 856
Fit@@ 856
Solutions 856
({{@@ 855
But@@ 855
Sien@@ 855
aison 855
ini@@ 855
perpe@@ 855
precau@@ 855
3] 854
Geno@@ 854
MH@@ 854
Mart@@ 854
asse 854
especi@@ 854
ull@@ 854
.com, 853
Foc@@ 853
emit@@ 853
furn@@ 853
hang 853
5). 852
Sports 852
peac@@ 852
sortium 852
vos 852
ć@@ 852
76@@ 851
GRO@@ 851
Zi@@ 851
dez 851
tel. 851
Ski 850
ameter 850
ja, 850
sons 850
то@@ 850
Premier 849
Account 848
Pakistan, 848
Source 848
chen. 848
sen, 848
News@@ 847
tta@@ 847
ultra@@ 847
1988 846
Algar@@ 846
Alpha 846
DM@@ 846
Fel@@ 846
Other@@ 846
Publ@@ 846
Verts/AL@@ 846
lli@@ 846
pro 846
thous@@ 846
Cypr@@ 845
Days 845
MT@@ 845
eig@@ 845
enever 845
": 844
3000 844
Chall@@ 844
Computer 844
FER@@ 844
Mou@@ 844
Tibet 844
g) 844
infringement@@ 844
raph 844
Berluscon@@ 843
Frank 843
Manhat@@ 843
Release 843
acqui@@ 843
Barcelona. 842
iso@@ 842
such@@ 842
tagon@@ 842
ype 842
Ner@@ 841
estin@@ 841
pharmaceu@@ 841
7). 840
I/@@ 840
N. 840
Sofi@@ 840
Taliban 840
arran@@ 840
BAS@@ 839
Kan@@ 839
rix 839
servi@@ 839
1957 838
Fast 838
HR 838
RS@@ 838
Roc@@ 838
erie 838
ink@@ 838
Acro@@ 837
Kle@@ 837
Ref. 837
VE 837
eib@@ 837
pend@@ 837
wel 837
End 836
GA 836
Standards 836
Van@@ 836
ffs 836
DO 835
Vall@@ 835
Verheugen 835
fo 835
tane@@ 835
(19@@ 834
Ford 834
jer@@ 834
ority 834
osop@@ 834
universit@@ 834
77 833
Det@@ 833
FS@@ 833
Stuttgart 833
''Enterprise@@ 832
Firefox 832
Colog@@ 831
DR 831
mysq@@ 831
Il 830
eria 830
Fuer@@ 829
desira@@ 829
ethn@@ 829
gar 829
toge@@ 829
tow@@ 829
wen@@ 829
23.@@ 828
Cala 828
Carlos 828
Sz@@ 828
creativ@@ 828
muy 828
xim@@ 828
Manage@@ 827
Mary 827
consu@@ 827
Kol@@ 826
Manu@@ 826
W, 826
energe@@ 826
ungal@@ 826
CDs 825
Monti 825
km, 825
sag@@ 825
ц@@ 825
AI@@ 824
King@@ 824
Plan, 824
ben 824
enda 824
otherap@@ 824
Ki@@ 823
Michel@@ 823
Oc@@ 823
fif@@ 823
ge) 823
ior@@ 823
AND@@ 822
Guar@@ 822
Journ@@ 822
Posi@@ 822
ison@@ 822
A/@@ 821
Minut@@ 821
Sty@@ 821
met, 821
ost@@ 821
stol@@ 821
FI@@ 820
JavaScript 820
Kit@@ 820
L'@@ 820
Marie 820
P/@@ 820
Super 820
roati@@ 820
.jp@@ 819
Aus@@ 819
Pel@@ 819
aph@@ 819
vez 819
Fat@@ 818
Zu@@ 818
unter 818
1/9@@ 817
Formul@@ 817
GEN@@ 817
Jerusalem 817
announ@@ 817
ften 817
itz 817
BOR@@ 816
Jav@@ 816
Mig@@ 816
surveillan@@ 816
Leg@@ 815
elo@@ 815
lan 815
D.@@ 814
Lanzaro@@ 814
Panel 814
Ré@@ 814
Zer@@ 814
morn@@ 814
pharmac@@ 814
psycho@@ 814
Dres@@ 813
Victor@@ 813
lage 813
rad@@ 813
tero@@ 813
ICA 812
Limited 812
Ltd 812
Pit@@ 812
Rich@@ 812
Barnier 811
Chris 811
Div@@ 811
kep@@ 811
revolution@@ 811
22.@@ 810
Lev@@ 810
SN@@ 810
SQ@@ 810
VII 810
concre@@ 810
tz 810
worl@@ 810
@eib.org 809
LateRooms.com 809
Run@@ 809
it-@@ 809
Bologn@@ 808
Dresden 808
Ecu@@ 808
Andro@@ 807
Iber@@ 807
Mandel@@ 807
aco 807
flex@@ 807
lassi@@ 807
IZ@@ 806
enko 806
opou@@ 806
wholes@@ 806
4: 805
Ep@@ 805
thotel 805
tsch@@ 805
(CNS@@ 804
GBP 804
PM@@ 804
Update 804
certi@@ 804
ku 804
Download 803
IO@@ 803
eval 803
gene 803
hesit@@ 803
pole@@ 803
Ä@@ 803
Schl@@ 802
contr@@ 802
tta 802
DIN 801
Image 801
Kun@@ 801
Quark 801
Simp@@ 801
Vig@@ 801
lang@@ 801
za@@ 801
79 800
AH@@ 800
Bus 800
Pis@@ 800
ć 800
Arena 799
Reding, 799
chi 799
Clau@@ 798
Hüb@@ 798
Mercosur 798
NE 798
Thom@@ 798
ido 798
vic 798
ò@@ 798
Haiti 797
Rotter@@ 797
amin 797
rian 797
EC-@@ 796
High-@@ 796
Ja@@ 796
Riviera 796
coff@@ 796
restauran@@ 796
Ashton 795
SV@@ 795
audio@@ 795
Cit@@ 794
EX 794
MON@@ 794
accommo@@ 794
ener 794
Davi@@ 793
Rock 793
Sus@@ 793
TRAN@@ 793
cancell@@ 793
Holly@@ 792
cas 792
baro@@ 791
ef 791
Rab@@ 790
Schmid@@ 790
ade, 790
ein, 790
ns, 790
oth@@ 790
ña 790
Nar@@ 789
digit@@ 789
0000@@ 788
ARD 788
Poker@@ 788
info@@@ 788
mann@@ 788
Delegation 787
Palacio 787
Pau@@ 787
Portug@@ 787
TNG@@ 787
d'A@@ 787
Ž@@ 787
Catherine 786
Governance 786
Stuttgar@@ 786
liam@@ 786
ton. 786
AF 785
Ether@@ 785
POR@@ 785
bra 785
gem@@ 785
ι@@ 785
Om@@ 784
der-@@ 784
enses 784
icy@@ 784
safet@@ 784
3), 783
91 783
Frau@@ 783
Lul@@ 783
Minis@@ 783
WW@@ 783
esp@@ 783
heres 783
-> 782
Tube 782
} 782
ь 782
Corpor@@ 781
ende@@ 781
forge@@ 781
ley, 781
siv@@ 781
[...]
