the 285470
, 157130
of 149457
. 140533
and 116986
to 113102
in 79640
a 58516
for 46184
that 42457
is 41917
on 38873
The 35900
be 28306
European 26131
with 26049
by 23274
as 22085
this 21276
are 19237
I 18923
will 18277
we 16869
have 16735
it 16695
which 16281
not 15630
Council 14329
Union 13674
Commission 13639
: 13448
an 12872
at 12678
) 12465
( 12169
its 11704
has 11685
- 11575
EU 10857
from 10783
all 10551
Mr 10158
's 9877
or 9717
also 9381
our 9349
Member 9347
States 8684
their 8055
" 8031
It 7854
countries 7776
; 7728
should 7666
can 7376
would 7329
In 7249
you 7161
was 7155
/ 7139
We 7034
must 7012
more 6456
been 6439
Europe 6104
new 6049
This 5839
but 5471
other 5313
between 5200
' 5125
these 5100
Community 5079
President 4862
policy 4748
one 4679
Parliament 4641
they 4586
need 4454
Minister 4438
do 4331
support 4321
up 4256
there 4221
into 4217
political 4096
work 4061
development 4057
only 3990
% 3921
such 3902
so 3901
about 3890
time 3856
report 3811
out 3770
economic 3769
very 3674
us 3634
people 3560
take 3544
national 3523
those 3503
rights 3502
measures 3466
market 3450
if 3440
no 3435
s 3429
well 3392
made 3348
like 3338
make 3325
were 3306
who 3294
important 3274
any 3239
State 3235
Republic 3220
– 3219
process 3200
cooperation 3191
first 3166
re@@ 3151
A 3139
what 3119
particular 3114
international 3098
Committee 3091
order 3081
now 3076
? 3068
part 3064
future 3048
information 3016
under 2964
Presidency 2914
than 2907
use 2896
your 2889
against 2883
way 2847
them 2835
Court 2817
public 2783
human 2765
adopted 2759
years 2753
THE 2751
common 2745
within 2734
year 2728
proposal 2725
agreement 2703
continue 2699
my 2697
social 2690
possible 2656
-@@ 2631
able 2616
action 2616
two 2611
some 2600
area 2599
level 2580
ensure 2572
further 2563
when 2561
financial 2546
’ 2535
had 2532
C@@ 2526
ing 2520
where 2506
situation 2484
am 2472
because 2471
law 2470
therefore 2451
both 2430
view 2414
being 2397
Affairs 2380
1 2335
un@@ 2321
members 2314
authorities 2310
may 2307
could 2295
through 2248
S@@ 2238
areas 2219
over 2206
* 2205
security 2158
regional 2154
world 2145
basis 2139
system 2137
taken 2135
programme 2124
2 2120
Economic 2120
right 2114
As 2110
already 2108
most 2099
many 2086
respect 2079
Directive 2078
progress 2077
country 2072
end 2070
OF 2057
same 2033
framework 2027
without 2023
set 2021
including 2020
P@@ 2015
debate 2010
necessary 2006
implementation 1997
does 1992
place 1976
his 1972
B@@ 1970
ed 1966
behalf 1962
before 1960
protection 1955
just 1953
role 1953
in@@ 1952
efforts 1946
following 1946
D@@ 1938
T@@ 1932
number 1909
still 1906
decision 1905
today 1887
United 1881
But 1877
services 1870
Association 1869
products 1857
even 1847
importance 1844
position 1836
question 1832
trade 1829
certain 1825
L@@ 1805
ation 1798
Treaty 1795
means 1792
issues 1791
rules 1791
full 1786
ES 1785
proposals 1780
K@@ 1779
case 1779
G@@ 1778
fact 1776
peace 1775
here 1774
Commissioner 1772
citizens 1769
themselves 1761
parties 1760
good 1752
cannot 1745
how 1720
me 1717
want 1714
O@@ 1707
clear 1700
aid 1696
negotiations 1695
dialogue 1692
That 1689
issue 1686
H@@ 1675
point 1674
towards 1672
local 1669
meeting 1662
concerned 1657
energy 1650
Declaration 1645
own 1637
sector 1633
Turkey 1632
conditions 1628
reform 1624
de 1623
For 1621
account 1619
believe 1615
say 1612
policies 1608
after 1603
There 1598
see 1585
last 1570
provide 1562
E@@ 1561
concerning 1561
And 1543
present 1538
legislation 1537
institutions 1535
give 1532
ate 1516
If 1515
access 1515
regard 1515
legal 1512
given 1511
M@@ 1510
Foreign 1509
available 1509
Agreement 1503
agricultural 1499
euro 1497
much 1496
R@@ 1494
3 1491
Croatia 1491
employment 1487
Government 1486
course 1482
N@@ 1481
down 1471
Process 1450
particularly 1450
However 1441
help 1439
F@@ 1432
EFTA 1428
next 1423
put 1423
then 1418
based 1417
different 1413
context 1412
former 1410
regions 1408
declaration 1403
I@@ 1402
together 1390
! 1384
IN@@ 1383
Y 1383
think 1381
since 1379
V@@ 1376
Justice 1375
Area 1367
problems 1367
needs 1363
A@@ 1362
know 1362
associated 1359
each 1357
Countries 1356
general 1356
said 1355
Convention 1353
dis@@ 1345
specific 1343
EUROPEAN 1340
crisis 1338
current 1336
Stabilisation 1335
forward 1332
approach 1330
too 1330
calls 1326
he 1324
c@@ 1323
second 1323
enlargement 1322
o 1321
health 1318
budget 1314
society 1314
EN 1312
They 1307
resources 1306
note 1304
third 1304
commitment 1302
three 1301
whether 1300
democratic 1297
principle 1295
great 1287
appropriate 1286
activities 1284
production 1284
better 1281
used 1281
General 1273
during 1271
relations 1270
ated 1269
management 1267
region 1264
working 1256
government 1253
es 1250
quality 1244
agreed 1243
field 1241
period 1241
proposed 1241
Article 1238
internal 1236
objectives 1236
fully 1233
growth 1233
y 1231
subject 1224
E 1221
These 1220
conclusions 1217
why 1213
i 1206
programmes 1204
On 1200
main 1197
free 1189
strategy 1189
interest 1184
research 1182
major 1178
taking 1176
Yugoslav 1175
ting 1174
again 1172
Macedonia 1171
elections 1165
effective 1164
hope 1162
example 1161
vote 1161
W@@ 1160
change 1158
terms 1155
COUNCIL 1152
environment 1151
date 1150
far 1143
Secretary 1141
shall 1140
however 1139
AND 1136
align 1134
EN@@ 1128
recent 1121
S 1119
UNION 1117
ted 1116
come 1114
Central 1113
Regulation 1111
J@@ 1108
potential 1105
state 1105
principles 1102
draft 1099
provisions 1099
To 1096
problem 1093
responsibility 1093
provided 1091
4 1090
whole 1090
AR@@ 1081
go 1081
matter 1081
data 1079
welcomes 1077
U@@ 1071
while 1069
high 1068
find 1065
procedure 1064
Cyprus 1060
+ 1055
fundamental 1055
Agriculture 1046
Ms 1046
economy 1043
industry 1042
al 1039
food 1039
At 1035
integration 1030
e@@ 1027
2000 1023
Decision 1023
ts 1021
best 1020
few 1019
solution 1019
increase 1018
o@@ 1017
3@@ 1015
rural 1012
sustainable 1012
every 1011
t 1010
freedom 1008
special 1005
group 1004
key 1004
ers 1002
long 1000
day 998
promote 998
achieve 996
concern 996
Y@@ 993
de@@ 993
v 993
application 990
ations 990
single 987
essential 986
objective 983
democracy 982
ating 981
5 979
opinion 979
various 979
developing 978
questions 975
took 975
improve 972
itself 972
projects 971
bring 968
safety 968
done 967
open 965
directive 964
CoR 962
step 962
force 961
t@@ 961
media 960
Germany 956
result 956
existing 955
C 954
held 950
Our 949
making 949
stability 949
text 949
assistance 948
life 948
transport 944
aim 943
en@@ 942
decisions 941
greater 941
Eastern 938
agreements 931
systems 931
back 930
What 929
b@@ 928
ates 926
training 926
regulation 923
er 922
opportunity 918
You 916
women 913
di@@ 912
results 912
7 911
UN@@ 911
actions 911
become 909
d@@ 909
play 909
months 908
responsible 908
tions 907
p@@ 905
relevant 905
attention 904
Mrs 902
less 902
standards 900
states 900
form 899
“ 899
T 897
soon 894
allow 892
impact 892
CO@@ 891
small 891
e 888
technical 886
control 883
points 882
real 880
s@@ 880
Czech 879
non-@@ 879
upon 875
communication 874
environmental 874
line 874
d 870
noted 869
Brussels 868
business 867
contribution 865
discussion 865
member 865
million 864
markets 863
another 860
With 857
education 851
regards 850
interests 849
companies 848
joint 848
resolution 848
always 847
positive 845
EL@@ 844
least 840
6 839
ER@@ 838
investment 838
conflict 837
ment 837
accordance 833
con@@ 832
global 832
IT@@ 829
humanitarian 828
Iceland 825
UN 825
Group 821
accession 821
once 821
AN@@ 820
established 820
involved 819
a@@ 815
light 815
10 814
cultural 814
8 813
agriculture 813
act 809
service 807
IS@@ 806
Russia 806
plan 803
consider 802
final 802
aspects 801
procedures 801
gentlemen 800
clearly 799
close 798
hand 798
call 797
going 797
Kingdom 796
” 795
civil 793
wish 793
strong 792
Ministers 788
experience 788
i@@ 787
agree 785
large 785
priority 785
Members 784
contribute 784
especially 784
groups 784
No 782
amendments 781
serious 781
y@@ 781
needed 780
Norway 779
partners 778
takes 775
did 774
concerns 770
farmers 768
competition 766
individual 766
rate 762
International 761
reforms 761
ATION 760
exchange 760
D 757
challenges 756
m 756
Ukraine 752
ING 749
Development 748
im@@ 748
inter@@ 748
regarding 748
decided 746
prices 745
k 744
0.@@ 742
Rights 742
So 742
look 741
apply 740
EUROSTAT 739
develop 739
... 738
IC@@ 735
due 735
u@@ 735
2015 734
price 734
required 734
welcome 733
L 730
rule 729
Social 728
create 727
achieved 726
children 726
developments 726
difficult 725
initiative 725
per 725
project 725
start 723
ally 722
majority 721
reached 721
addition 720
include 720
fight 717
instruments 717
ly 717
persons 717
cases 714
rapporteur 714
costs 711
EC 710
population 710
AL@@ 709
external 709
significant 709
offer 707
having 705
community 704
initiatives 704
values 704
Regions 703
legislative 702
Representative 701
EU@@ 700
above 700
several 699
Malta 698
participation 698
get 697
yet 697
Montenegro 696
provides 696
requirements 696
ER 692
al@@ 692
b 692
All 691
P 691
co@@ 691
expressed 691
currently 689
discussions 689
9 688
Conference 687
matters 687
Lisbon 685
Policy 683
brought 682
practice 682
28 681
ch@@ 681
power 681
coordination 679
might 679
v@@ 679
website 679
House 678
relating 678
review 678
Con@@ 677
funds 675
priorities 674
December 673
German 673
levels 673
Bulgaria 671
als 671
follows 671
ON 670
representatives 670
AT@@ 669
IN 669
success 668
opportunities 667
meet 664
CON@@ 662
establish 662
often 661
cohesion 660
EA@@ 658
considers 658
effect 657
favour 657
ask 655
competitiveness 655
O 654
criteria 652
views 652
workers 652
adoption 651
g@@ 650
Romania 649
m@@ 649
past 647
called 646
rather 646
stage 646
structural 645
list 644
term 644
direct 643
establishment 643
really 643
000 642
delegation 642
presented 642
private 642
violence 642
death 641
organisations 641
early 640
deal 639
ro@@ 639
12 638
something 638
risk 637
strengthen 635
Nations 634
carried 634
EC@@ 633
ant 633
continues 633
conclusion 632
overall 632
Albania 631
ST@@ 630
thus 630
address 629
remain 629
terrorism 629
UR@@ 627
15 626
Liechtenstein 626
among 626
mentioned 626
Z@@ 625
n@@ 625
on@@ 625
is@@ 623
p 623
4@@ 622
Serbia 622
c 622
contact 622
or@@ 621
ti@@ 621
20 620
building 620
ding 620
ED 618
f@@ 618
delegations 617
money 617
si@@ 617
related 616
consumer 615
goods 614
monitoring 614
others 614
reports 614
encourage 613
'@@ 612
candidate 611
guarantee 611
0 610
Let 609
led 609
candidates 608
her 608
2006 607
longer 606
share 606
Herzegovina 605
le@@ 605
purpose 605
gas 604
things 604
1999 603
remains 603
France 602
active 601
ri@@ 601
value 601
East 600
over@@ 600
around 599
basic 599
arrangements 598
return 598
Permanent 597
e-@@ 597
fishing 596
increased 596
l 596
th 596
until 596
June 595
compared 595
ago 594
lead 594
words 593
additional 592
changes 592
reasons 592
ab@@ 591
ar@@ 591
benefit 591
documents 591
EP@@ 588
Case 587
implement 586
show 586
implementing 585
prevent 585
response 584
Action 583
Bosnia 583
reason 583
urges 583
considered 582
jobs 582
quite 582
Ireland 580
at@@ 580
enable 580
M 578
assessment 578
ds 578
em@@ 578
obligations 577
represented 577
side 577
comprehensive 576
justice 576
solidarity 574
using 574
industrial 573
strengthening 573
tax 573
N 572
closely 572
partnership 572
pay 572
product 572
according 571
ve 569
Press 568
am@@ 568
ad@@ 567
asked 567
ent 567
coming 566
Finance 565
nature 565
company 563
creation 562
effort 562
pre@@ 561
sectors 561
steps 561
throughout 561
improving 560
notes 560
Security 559
keep 559
content 558
equal 558
guidelines 558
labour 558
request 558
Co@@ 557
consumers 557
funding 557
days 556
welcomed 556
11 555
ability 555
agenda 555
k@@ 555
simply 555
6@@ 554
OR@@ 554
fair 554
supply 554
treatment 554
package 553
transparency 553
military 552
thank 552
res 550
Cooperation 549
Deputy 548
er@@ 547
Common 546
Poland 546
amount 546
document 546
five 546
bodies 545
financing 545
30 544
ET@@ 544
family 544
1997 543
connection 543
let 542
promoting 542
amendment 541
reduction 539
age 538
1996 537
2007 537
ings 537
ladies 537
ous 537
committee 536
AG@@ 535
2010 533
28@@ 533
approved 532
office 532
Finally 531
four 531
US 530
Federal 529
ensuring 529
WTO 528
Spain 527
annual 527
administrative 526
establishing 525
increasing 525
young 525
RE@@ 524
event 524
foreign 524
provision 524
COMM@@ 523
off 523
possibility 523
ary 522
makes 522
r@@ 522
ready 522
successful 522
32 521
balance 521
reach 521
climate 520
AL 519
solutions 519
an@@ 517
compromise 517
Candi@@ 516
TS 516
circumstances 516
relation 516
China 514
IL@@ 514
intended 514
2002 513
adopt 513
implemented 513
lo@@ 513
He 512
Madam 511
networks 511
events 510
Italy 509
aimed 509
judgment 509
natural 509
personal 509
Hungary 508
pro@@ 508
Fund 507
aware 507
capacity 506
enough 506
effects 505
el@@ 505
range 505
sure 505
found 504
true 504
TO 503
le 503
ise 502
Prime 501
operation 501
tion 501
actually 500
h@@ 500
conference 499
19 497
Greece 497
mutual 497
red 497
discussed 495
2001 494
across 494
air 494
crucial 494
li@@ 494
25 493
budgetary 493
complete 493
fisheries 493
Human 492
certainly 492
CAP 491
ors 491
technology 491
z@@ 491
EUR 490
capital 490
Luxembourg 489
developed 489
PR@@ 488
Joint 487
independent 487
acts 486
published 486
Netherlands 485
commitments 485
ES@@ 484
scope 484
PRO@@ 482
seen 482
Russian 481
expenditure 481
it@@ 481
prepared 481
setting 481
2005 480
AC@@ 480
Fisheries 480
French 480
penalty 480
ways 480
der 479
movement 479
providing 479
October 478
l@@ 478
EM@@ 477
OP@@ 477
R 477
First 476
September 476
ded 476
institutional 476
K 475
peaceful 475
ur@@ 475
Re@@ 474
practical 474
committed 473
doing 473
either 473
kind 473
mind 473
reference 473
continued 472
Africa 471
EEC 471
Latvia 471
duty 471
focus 470
accept 469
idea 469
little 469
status 469
thing 469
5@@ 468
facilitate 468
previous 468
confidence 467
h 467
move 467
task 467
C-@@ 466
statement 466
times 466
Ladies 465
US@@ 463
meetings 463
reduce 463
road 463
ten 463
applied 462
beginning 462
knowledge 461
supported 461
50 460
EU-@@ 460
forces 460
never 460
press 460
forms 458
2004 457
Trade 457
history 457
presidency 457
II 456
Israel 456
ans 456
nuclear 456
ITEMS 455
March 454
TH@@ 454
later 454
mission 454
promotion 453
total 453
8@@ 452
RO@@ 452
reading 452
January 451
When 451
mean 451
Agenda 450
IONS 450
decide 450
draw 450
him 450
old 450
Mediterranean 449
network 449
Information 448
diversity 448
feel 448
live 448
offers 448
aims 447
elements 447
98 446
Ministry 446
directly 446
instrument 446
.@@ 444
After 444
November 444
beyond 444
‘ 444
9@@ 443
consultation 443
culture 442
governments 442
half 442
long-term 442
Austria 441
j@@ 441
men 441
moment 441
ra@@ 441
six 441
understand 441
submitted 440
u 440
Lithuania 439
Moldova 439
model 439
crime 438
face 437
sides 437
One 436
benefits 436
central 436
proceedings 436
wide 436
appeal 435
comes 435
se 435
borders 434
ever 434
examine 434
Governments 433
G 432
quarter 432
voted 432
13 431
By 431
supports 431
FOR 430
Programme 430
commercial 430
created 430
efficient 430
powers 430
High 429
2014 428
ce 428
paid 428
1998 427
May 427
lack 427
person 427
re-@@ 427
continuing 426
st@@ 426
tri@@ 426
land 424
7@@ 423
competitive 423
maintain 423
th@@ 423
home 422
mis@@ 422
war 422
outside 421
recommendations 421
Furthermore 420
es@@ 420
integrated 420
laid 420
designed 419
les 419
An@@ 418
ED@@ 418
Slovenia 418
although 418
as@@ 418
Charter 417
limited 417
extremely 416
Bank 415
Environment 415
Iran 415
activity 415
avoid 415
Acc@@ 414
IS 414
Sweden 414
minimum 414
protect 414
reiterates 414
Italian 413
2003 412
challenge 412
ac@@ 411
des 411
short 411
recently 410
sense 410
intention 409
payment 409
strongly 409
ist 408
ments 408
hotel 407
se@@ 407
ION 406
Since 406
binding 406
table 406
analysis 405
po@@ 404
tra@@ 404
vi@@ 404
w@@ 404
July 403
party 403
18 402
Protocol 402
la@@ 402
leave 402
opening 402
payments 402
consequences 401
ver@@ 401
co-@@ 400
room 400
fin@@ 399
immediate 399
ism 399
living 399
ON@@ 398
ap@@ 398
included 398
learning 398
almost 396
discuss 396
extent 396
introduction 396
ity 396
requires 396
How 395
ITY 395
ground 395
voting 395
covered 394
innovation 394
Pro@@ 393
RA@@ 393
election 393
bilateral 392
organisation 392
ourselves 392
regulatory 392
to@@ 392
An 391
In@@ 391
combat 391
cost 391
creating 391
higher 391
ter 391
water 391
everyone 390
job 390
receive 390
Georgia 389
follow 389
detailed 388
whose 388
delivery 387
la 387
laws 387
regulations 387
Today 386
build 386
X@@ 385
improved 385
shown 385
though 385
CFSP 384
IM@@ 384
efficiency 384
everything 384
spirit 384
demand 383
ex@@ 383
namely 383
1995 382
Al@@ 382
GDP 382
My 382
Therefore 382
billion 382
ic 382
indeed 382
unemployment 382
effectively 381
substantial 381
B 380
cal 380
defence 380
el 380
equipment 380
release 380
sp@@ 380
strategic 380
sufficient 380
along 379
court 379
eding 379
os 379
ou@@ 379
outcome 379
x 379
practices 378
turn 378
0@@ 377
New 377
concluded 377
leading 377
pleased 377
relationship 377
statements 377
tive 377
currency 376
entry 376
est 376
received 376
under@@ 376
CH@@ 375
Communities 375
measure 375
plans 375
Market 374
carry 374
forthcoming 374
infrastructure 374
operations 374
structures 374
vital 374
Transport 373
ality 373
scientific 373
Energy 372
broad 372
concrete 372
immediately 372
regime 372
territory 372
mo@@ 371
giving 370
ine 370
informed 370
stable 370
South 369
Summit 369
granted 369
nothing 369
2@@ 368
World 368
ence 368
parts 368
quickly 368
ators 367
ideas 367
judicial 367
dimension 366
try 366
Mar@@ 365
cities 365
for@@ 365
raised 365
Employment 364
Estonia 364
discrimination 364
op@@ 364
Of 363
& 362
14 362
Strategy 362
V 362
name 362
OM@@ 361
expresses 361
stressed 361
te@@ 361
refugees 360
session 360
Finland 359
answer 359
en 359
poverty 359
ST 358
compliance 358
hold 358
language 358
closer 357
fields 357
join 357
referred 357
staff 357
Denmark 356
co-operation 356
design 356
improvement 356
g 355
National 354
ass@@ 354
bo@@ 354
reconciliation 354
require 354
shared 354
victims 354
AS 353
exercise 353
F 352
FR@@ 352
added 352
et 352
export 352
similar 352
sound 352
ze 352
EEA 351
Paper 351
Thank 351
ance 351
applicable 351
away 351
city 351
hopes 351
includes 351
Annex 350
conduct 350
union 350
Belarus 349
Plan 349
President-in-Office 349
UK 349
allows 349
be@@ 349
imports 349
study 349
IG@@ 348
Parties 348
limit 348
manner 348
produce 348
wishes 348
body 347
ders 347
par@@ 347
Special 346
express 346
heard 346
looking 346
stated 346
subsidiarity 346
supporting 346
SMEs 345
ative 345
ch 345
latest 345
stand 345
Belgium 344
defined 344
difficulties 344
growing 344
UC@@ 343
ni@@ 343
producers 343
submit 343
2008 342
advertising 342
concept 342
ese 342
linked 341
IA 340
ahead 340
illegal 340
propose 340
recognition 340
te 340
AD@@ 339
Kosovo 339
direction 339
speak 339
ure 339
Palestinian 338
affected 338
anti-@@ 338
drawn 338
please 338
Structural 337
amending 337
authority 337
constructive 337
functioning 337
goal 337
participate 337
Ar@@ 336
businesses 336
governance 336
week 336
06 335
ID@@ 335
gives 335
undertaken 335
languages 334
n 334
ves 334
Education 333
Portugal 333
TA@@ 333
border 333
determination 333
il@@ 333
us@@ 333
waste 333
Ad@@ 332
African 332
Secondly 332
Some 332
consideration 332
convinced 332
cover 332
ties 332
Communication 331
TR@@ 331
lasting 331
left 331
understanding 331
ven@@ 331
mechanisms 330
structure 330
material 329
pressure 329
alised 328
considerable 328
fire 328
invited 328
mandate 328
organised 328
preparation 328
technologies 328
transparent 328
weeks 328
16 327
applicant 327
bringing 327
urgent 327
believes 326
effectiveness 326
talks 326
10@@ 325
Representatives 325
begin 325
initial 325
AM@@ 324
IES 324
electoral 324
phase 324
2009 323
= 323
April 323
LA@@ 323
choice 323
maximum 323
summit 323
Now 322
expected 322
ongoing 322
she 322
Copenhagen 321
Irish 321
reducing 321
type 321
1994 320
achieving 320
den@@ 320
f 320
followed 320
opposition 320
parliamentary 320
produced 320
rates 320
responsibilities 320
care 319
ces 319
nor 319
shows 319
um 319
undertakings 319
DE 318
alone 318
assist 318
behind 318
indicated 318
membership 318
AS@@ 317
ag@@ 317
alisation 317
delay 317
ising 317
perspective 317
prepare 317
sub@@ 317
works 317
Bo@@ 316
Office 316
marketing 316
substances 316
27 315
allowed 315
discharge 315
met 315
Middle 314
facing 314
flexibility 314
introduced 314
involving 314
signed 314
13@@ 313
Europeans 313
Food 313
Framework 313
ar 313
balanced 313
enterprises 313
evaluation 313
excellent 313
lot 312
monetary 312
om@@ 312
positions 312
proper 312
transition 312
IT 311
Vienna 311
criminal 311
leaders 311
z 311
Austrian 310
chance 310
methods 310
H 309
Vice-President 309
average 309
goals 309
stop 309
thanks 309
IC 308
hard 308
vision 308
€ 308
demands 307
fulfil 307
known 307
reality 307
reduced 307
26 306
perhaps 306
pursue 306
tomorrow 306
dumping 305
elected 305
man 305
no@@ 305
ons 305
rise 305
stress 305
40 304
AN 304
Funds 304
VI@@ 304
bi@@ 304
colleagues 304
expect 304
ul@@ 304
increasingly 303
purposes 303
1@@ 302
Regional 302
negotiating 302
permanent 302
secure 302
á@@ 302
America 301
Sudan 301
competent 301
highly 301
February 300
Rural 300
USS@@ 300
] 300
ci@@ 300
fall 300
heart 300
Amendment 299
Financial 299
OSCE 299
easy 299
figures 299
intervention 299
performance 299
prevention 299
LI@@ 298
MENT 298
alism 298
presentation 298
contributions 297
entire 297
expression 297
ge 297
round 297
statistical 297
2011 296
Slovak 296
modern 296
ob@@ 296
resolve 296
[ 295
continent 295
enter 295
grant 295
ha@@ 295
seems 295
sh@@ 295
specifically 295
Research 294
UT@@ 294
add 294
conclude 294
doubt 294
finally 294
represent 294
ENT@@ 293
OL@@ 293
ator 293
emissions 293
extend 293
farming 293
paper 293
professional 293
En@@ 292
Peace 292
accepted 292
combating 292
har@@ 292
low 292
property 292
read 292
safe 292
talk 292
2016 291
Amsterdam 291
Labour 291
OTHER 291
applies 291
car@@ 291
cross-border 291
transitional 291
Industry 290
Resolution 290
alia 290
compensation 290
constitutional 290
ma@@ 290
planning 290
qualified 290
self-@@ 290
su@@ 290
willingness 290
Internal 289
Such 289
ably 289
administration 289
individuals 289
rec@@ 289
risks 289
technological 289
Moreover 288
determined 288
examination 288
income 288
option 288
rest 288
stands 288
Green 287
Slovakia 287
centre 287
goes 287
min@@ 287
ving 287
12@@ 286
completely 286
ol@@ 286
police 286
unique 286
-- 285
Party 285
comply 285
element 285
genuine 285
identified 285
partner 285
100 284
ECU 284
Internet 284
confirmed 284
inter 284
scale 284
travel 284
fish 283
settlement 283
simple 283
started 283
tell 283
15@@ 282
Armenia 282
Inter@@ 282
Spanish 282
below 282
contract 282
mechanism 282
refer 282
series 282
21 281
advantage 281
civilian 281
likely 281
1.@@ 280
UL@@ 280
caused 280
communities 280
obligation 280
sent 280
CL@@ 279
actively 279
cooperate 279
encourages 279
site 279
AB@@ 278
Iraq 278
asylum 278
interpretation 278
lies 278
paragraph 278
respond 278
y-@@ 278
Public 277
SO@@ 277
ban 277
century 277
experts 277
item 277
EV@@ 276
consistent 276
independence 276
ters 276
Berlin 275
PARTICIPANTS 275
involvement 275
ns 275
tourism 275
Mo@@ 274
burden 274
despite 274
gu@@ 274
introduce 274
origin 274
played 274
recognised 274
seek 274
97 273
alternative 273
issued 273
lower 273
ne@@ 273
17 272
ambitious 272
ants 272
communications 272
economies 272
exist 272
ic@@ 272
influence 272
regular 272
seriously 272
via 272
Com@@ 271
ENT 271
decision-making 271
distribution 271
do@@ 271
gi@@ 271
ten@@ 271
traditional 271
visit 271
adequate 270
contrary 270
ke 270
operators 270
re 270
Opinion 269
People 269
animal 269
arms 269
contains 269
earlier 269
ging 269
lives 269
é@@ 269
definition 268
degree 268
multi@@ 268
per@@ 268
school 268
vehicles 268
ATIONS 267
closed 267
differences 267
encouraging 267
grounds 267
holding 267
imposed 267
preliminary 267
tasks 267
From 266
ages 266
built 266
lines 266
ship 266
sources 266
· 266
While 265
skills 265
starting 265
territorial 265
Partnership 264
a-@@ 264
consensus 264
contracts 264
customs 264
quotas 264
top 264
wanted 264
Western 263
courts 263
operational 263
rapid 263
sets 263
DEC@@ 262
big 262
detail 262
dispute 262
ling 262
qu@@ 262
threat 262
useful 262
complex 261
construction 261
immigration 261
recovery 261
Objective 260
comments 260
cut 260
d-@@ 260
freedoms 260
guarantees 260
mon@@ 260
transfer 260
waters 260
out@@ 259
processing 259
representative 259
represents 259
restrictions 259
serve 259
trust 259
't 258
Constitution 258
Ex@@ 258
Here 258
existence 258
links 258
rooms 258
saying 258
so@@ 258
STR@@ 257
enhance 257
mention 257
possibilities 257
EG@@ 256
cause 256
dy 256
globalisation 256
reaffirms 256
Fre@@ 255
Greek 255
IR@@ 255
addressed 255
comp@@ 255
me@@ 255
month 255
original 255
sea 255
sion 255
target 255
LE 254
T-@@ 254
abolition 254
families 254
fying 254
instruc@@ 254
negative 254
plenary 254
recalls 254
standard 254
factors 253
ir@@ 253
located 253
net 253
sign 253
Report 252
To@@ 252
atory 252
condem@@ 252
consumption 252
link 252
ones 252
unity 252
vessels 252
DR@@ 251
TER@@ 251
association 251
milk 251
prosperity 251
ty 251
x@@ 251
‑ 251
armed 250
failure 250
monitor 250
requested 250
satisfaction 250
stay 250
t-@@ 250
telecommunications 250
24 249
du@@ 249
processes 249
tic 249
annul@@ 248
gave 248
URE 247
attacks 247
came 247
congratulate 247
drugs 247
electricity 247
gen@@ 247
stronger 247
types 247
1992 246
SA@@ 246
etc 246
notably 246
opinions 246
tabled 246
users 246
ying 246
Lo@@ 245
pa@@ 245
sc@@ 245
scheme 245
18@@ 244
Ac@@ 244
Eurostat 244
Following 244
LO@@ 244
changing 244
exports 244
mainly 244
official 244
preparations 244
speech 244
tools 244
22 243
EI@@ 243
Firstly 243
ad 243
board 243
ep@@ 243
extended 243
extension 243
huge 243
lu@@ 243
placed 243
writing 243
affairs 242
details 242
directives 242
farm 242
loss 241
nationals 241
near 241
pe@@ 241
restrictive 241
targets 241
BO@@ 240
Balkans 240
Pre@@ 240
fi@@ 240
fication 240
message 240
multilateral 240
presence 240
stocks 240
thinking 240
DI@@ 239
EL 239
ET 239
Hotel 239
RES@@ 239
TION 239
cies 239
generally 239
peoples 239
deliver 238
evidence 238
identify 238
involve 238
mat@@ 238
obtained 238
respective 238
strategies 238
terrorist 238
universal 238
van 238
vo@@ 238
actual 237
dec@@ 237
offered 237
television 237
tor 236
yesterday 236
U 235
commen@@ 235
et@@ 235
fine 235
interested 235
ren@@ 235
situations 235
votes 235
EF@@ 234
Is 234
North 234
approval 234
deficit 234
duties 234
examined 234
firm 234
fund 234
improvements 234
zation 234
23 233
St@@ 233
book 233
enjoy 233
innovative 233
oil 233
weapons 233
wi@@ 233
48 232
American 232
Tel 232
WITH 232
ceas@@ 232
finance 232
instead 232
legitimate 232
occasion 232
thought 232
neighbours 231
unacceptable 231
w 231
Assembly 230
Li@@ 230
equality 230
expectations 230
gh@@ 230
preparing 230
texts 230
Ma@@ 229
damage 229
highest 229
mobility 229
putting 229
stresses 229
studies 229
version 229
app@@ 228
condition 228
fiscal 228
instance 228
mark 228
outstanding 228
reflect 228
source 228
trafficking 228
underlines 228
14@@ 227
Secretary-General 227
institution 227
launched 227
prospects 227
que 227
send 227
wants 227
60 226
campaign 226
coherent 226
completed 226
controls 226
dealing 226
engage 226
ously 226
places 226
tation 226
Danish 225
HO@@ 225
Monetary 225
Statement 225
actors 225
affect 225
bear 225
formal 225
ho@@ 225
ins 225
safeguard 225
sometimes 225
test 225
word 225
Health 224
Jo@@ 224
ck 224
inform 224
online 224
pi@@ 224
trading 224
1993 223
Sea 223
critical 223
features 223
historic 223
ing@@ 223
ised 223
looks 223
planned 223
protected 223
resolved 223
tonnes 223
é 223
Because 222
Ro@@ 222
allowing 222
barriers 222
contained 222
enforcement 222
minutes 222
separate 222
software 222
taxation 222
traffic 222
Only 221
acc@@ 221
underlined 221
voice 221
Su@@ 220
ast@@ 220
competence 220
define 220
fraud 220
maritime 220
properly 220
BR@@ 219
Culture 219
Israeli 219
constitutes 219
maintained 219
quota 219
recognise 219
requests 219
ESS 218
Federation 218
aspect 218
correct 218
dignity 218
emphasis 218
entitled 218
justified 218
Second 217
achievement 217
ak@@ 217
constitute 217
contacts 217
cor@@ 217
ines 217
stakeholders 217
whom 217
96 216
NO@@ 216
TEN@@ 216
applications 216
deeply 216
digital 216
ess 216
floor 216
inflation 216
method 216
seeking 216
wider 216
CA@@ 215
Commissioners 215
Fore@@ 215
electronic 215
ge@@ 215
house 215
limits 215
negotiation 215
operating 215
ratification 215
sensitive 215
team 215
According 214
EE 214
Lastly 214
Relations 214
Rules 214
adapt 214
cally 214
failed 214
gender 214
ill@@ 214
poor 214
ALL@@ 213
Burundi 213
OS@@ 213
acceptable 213
bed 213
credit 213
determine 213
options 213
path 213
speaking 213
ta@@ 213
um@@ 213
worked 213
wrong 213
Although 212
Protection 212
forget 212
happy 212
maintaining 212
pointed 212
precisely 212
run 212
talking 212
Both 211
CR@@ 211
Under 211
alities 211
bar@@ 211
delivered 211
desire 211
negotiated 211
originating 211
probably 211
sive 211
Chamber 210
EX@@ 210
Swedish 210
Where 210
Yugoslavia 210
assess 210
den 210
enlarged 210
facilities 210
flexible 210
founded 210
motion 210
remember 210
search 210
standing 210
urge 210
QU@@ 209
absolutely 209
announced 209
conducted 209
exp@@ 209
ple@@ 209
subsidies 209
acquis 208
ber@@ 208
charge 208
clause 208
coordinated 208
greatest 208
ists 208
managed 208
sk@@ 208
August 207
code 207
disputes 207
domestic 207
ph@@ 207
protecting 207
ru@@ 207
written 207
Dis@@ 206
Gaza 206
animals 206
com@@ 206
fixed 206
liberalisation 206
otherwise 206
overcome 206
reconstruction 206
remind 206
Investment 205
Rap@@ 205
fellow 205
fighting 205
ful 205
isation 205
migration 205
sitting 205
substance 205
timetable 205
19@@ 204
acting 204
drawing 204
factor 204
intends 204
invites 204
keeping 204
urs 204
More 203
Those 203
capable 203
card 203
customers 203
di 203
difference 203
obtain 203
remaining 203
70 202
India 202
MO@@ 202
Position 202
adopting 202
advance 202
customer 202
materials 202
ministers 202
reasonable 202
ses 202
simplification 202
Its 201
X 201
child 201
normal 201
opened 201
organizations 201
recommendation 201
ruling 201
says 201
ve@@ 201
2013 200
Service 200
USA 200
White 200
Why 200
av@@ 200
decisive 200
encouraged 200
ethnic 200
guaranteed 200
hours 200
plant 200
r 200
requirement 200
respected 200
tr@@ 200
35 199
launch 199
manage 199
undertaking 199
Democratic 198
Le@@ 198
Many 198
VAT 198
ats 198
conflicts 198
ks 198
resulting 198
spending 198
CC@@ 197
Gu@@ 197
Other 197
Po@@ 197
UM@@ 197
applying 197
connected 197
cu@@ 197
da 197
dangerous 197
debt 197
ec@@ 197
fied 197
proposes 197
rapidly 197
referendum 197
OS 196
Statute 196
au@@ 196
base 196
bro@@ 196
favourable 196
imp@@ 196
man@@ 196
raise 196
80 195
95 195
Afghanistan 195
British 195
Euro 195
Turkish 195
advantages 195
amended 195
awareness 195
conc@@ 195
daily 195
debates 195
dly 195
dynamic 195
easier 195
happen 195
speed 195
sugar 195
up@@ 195
urgently 195
becoming 194
calling 194
demonstrate 194
go@@ 194
officials 194
transit 194
During 193
Europol 193
Gent@@ 193
ati@@ 193
br@@ 193
click 193
friends 193
statistics 193
supplies 193
anything 192
conform 192
corruption 192
impossible 192
integrity 192
largest 192
leadership 192
lemen 192
prec@@ 192
tackle 192
violations 192
17@@ 191
Ch@@ 191
Even 191
Pact 191
bar 191
consolidation 191
convergence 191
helping 191
her@@ 191
hi@@ 191
moving 191
sustainability 191
tors 191
urban 191
consultations 190
declared 190
firmly 190
obstacles 190
renewable 190
residence 190
rich 190
tobacco 190
tool 190
war@@ 190
Agency 189
Having 189
Heads 189
Portuguese 189
UT 189
crimes 189
temporary 189
thereby 189
ture 189
31 188
Ab@@ 188
Car@@ 188
Former 188
MEN@@ 188
beef 188
cks 188
equally 188
recalled 188
so-called 188
societies 188
Be@@ 187
TV 187
meat 187
sale 187
tradition 187
utmost 187
welfare 187
-S@@ 186
Chairman 186
III 186
IV@@ 186
Mon@@ 186
brings 186
carefully 186
deep 186
enormous 186
politicians 186
sports 186
Christopher 185
governing 185
green 185
head 185
mi@@ 185
restore 185
schemes 185
sharing 185
space 185
75 184
Congo 184
NOTE 184
amounts 184
attempt 184
finding 184
interesting 184
ish 184
meaning 184
medical 184
prior 184
proposing 184
sho@@ 184
trying 184
wing 184
West 183
ari@@ 183
collective 183
employees 183
ent@@ 183
formally 183
fresh 183
minorities 183
operate 183
wine 183
90 182
AP@@ 182
DIS@@ 182
VIT@@ 182
covers 182
emergency 182
emphasise 182
follow-up 182
getting 182
historical 182
strengthened 182
Agreements 181
Fax 181
STAT@@ 181
ck@@ 181
fifth 181
hear 181
ne 181
news 181
ning 181
participants 181
regarded 181
stry 181
suffering 181
unfortunately 181
user 181
355 180
De@@ 180
Di@@ 180
Lu@@ 180
adjustment 180
identity 180
ies 180
morning 180
town 180
unable 180
willing 180
inclusion 179
numbers 179
renewed 179
satisfactory 179
successfully 179
targeted 179
ESS@@ 178
entirely 178
got 178
intend 178
myself 178
pillar 178
ps 178
regre@@ 178
stock 178
ut@@ 178
Procedure 177
Rome 177
Sch@@ 177
ard 177
claims 177
completion 177
enhanced 177
i.e. 177
ining 177
ler 177
sovereignty 177
suitable 177
tariff 177
worldwide 177
16@@ 176
Advocate 176
Associ@@ 176
CIAL 176
Euro-Mediterranean 176
Not 176
Over 176
Stability 176
coherence 176
der@@ 176
fac@@ 176
fishermen 176
function 176
implications 176
lin@@ 176
prisoners 176
producer 176
restructuring 176
2.@@ 175
2012 175
93 175
La@@ 175
changed 175
conservation 175
explain 175
fer@@ 175
ms 175
obliged 175
resolutions 175
size 175
spent 175
sts 175
Asia 174
Criminal 174
Euro@@ 174
accompanied 174
background 174
double 174
ka 174
reiterated 174
schools 174
summer 174
truly 174
352 173
COM@@ 173
SU@@ 173
collection 173
da@@ 173
enabling 173
ently 173
fear 173
form@@ 173
involves 173
nations 173
obviously 173
prove 173
tively 173
track 173
two-@@ 173
zed 173
Bar@@ 172
Once 172
Or@@ 172
Parliamentary 172
Rue 172
Working 172
choose 172
core 172
cs 172
fo@@ 172
inc@@ 172
lic@@ 172
players 172
racism 172
reaching 172
sta@@ 172
4303 171
Defence 171
Unofficial 171
appropriations 171
arising 171
car 171
discussing 171
ents 171
internet 171
rightly 171
85 170
HER@@ 170
abo@@ 170
ale 170
citizen 170
comm@@ 170
dependent 170
deplo@@ 170
experiences 170
gre@@ 170
neither 170
reply 170
und 170
unification 170
united 170
wards 170
DS 169
GN@@ 169
Mission 169
Nevertheless 169
Single 169
attack 169
bank 169
causes 169
compatible 169
depend 169
easily 169
ess@@ 169
im 169
ina 169
investments 169
jurisdiction 169
pre-@@ 169
ste@@ 169
visa 169
well-@@ 169
AT 168
Do 168
IV 168
MON@@ 168
Management 168
NGOs 168
Political 168
adjusted 168
covering 168
generation 168
learn 168
mar@@ 168
med 168
signing 168
ter@@ 168
ORT 167
Un@@ 167
and@@ 167
author@@ 167
ce@@ 167
crises 167
ction 167
ences 167
excessive 167
exclusion 167
faced 167
liber@@ 167
numerous 167
playing 167
strict 167
told 167
ulation 167
Rec@@ 166
SP@@ 166
Whereas 166
banks 166
bur@@ 166
charges 166
dealt 166
defend 166
demonstrated 166
fourth 166
replace 166
Please 165
REL@@ 165
anyone 165
dri@@ 165
expertise 165
friendly 165
granting 165
il 165
int 165
journalists 165
latter 165
letter 165
progressive 165
regret 165
sur@@ 165
torture 165
uses 165
ver 165
20@@ 164
Mi@@ 164
Th@@ 164
aside 164
disposal 164
ie 164
mental 164
mobile 164
reinforce 164
repeat 164
ster 164
500 163
Conclusions 163
Darfur 163
Fundamental 163
OT@@ 163
art 163
chemical 163
considering 163
drug 163
fruit 163
lost 163
mass 163
realistic 163
running 163
super@@ 163
tested 163
00 162
ANT@@ 162
EA 162
Home 162
Mr. 162
attached 162
constitution 162
lay 162
pen@@ 162
unless 162
Decisions 161
Jud@@ 161
agencies 161
claim 161
hands 161
mountain 161
pursued 161
regularly 161
Another 160
Switzerland 160
accounts 160
advice 160
emphasised 160
estimates 160
evening 160
exchanges 160
he@@ 160
ideal 160
registration 160
shape 160
solve 160
tional 160
trans@@ 160
trial 160
water@@ 160
zone 160
5.@@ 159
CI@@ 159
Round 159
Under@@ 159
allocated 159
cal@@ 159
danger 159
exists 159
felt 159
gment 159
indicators 159
organise 159
parliaments 159
sanctions 159
ships 159
CE 158
El@@ 158
Forum 158
IF@@ 158
collaboration 158
credibility 158
else 158
focused 158
highlight 158
investigation 158
jointly 158
lose 158
minority 158
mod@@ 158
ness 158
porteur 158
proud 158
registered 158
sales 158
sen@@ 158
structured 158
attaches 157
beautiful 157
bre@@ 157
ches 157
etric 157
exactly 157
happened 157
ming 157
nation 157
pension 157
refrain 157
APPROVED 156
Barcelona 156
DEBATED 156
Dutch 156
PH@@ 156
Pakistan 156
anti@@ 156
appear 156
ble 156
cent 156
des@@ 156
gol@@ 156
items 156
president 156
primarily 156
significantly 156
voluntary 156
we@@ 156
wealth 156
weight 156
zing 156
4.@@ 155
Auditors 155
Centre 155
Civil 155
GU@@ 155
SCH@@ 155
comment 155
cur@@ 155
edi@@ 155
examples 155
exclusive 155
impose 155
ined 155
mption 155
music 155
suggested 155
ther@@ 155
unanimously 155
wor@@ 155
Authority 154
Science 154
VER@@ 154
alization 154
asking 154
chosen 154
civilians 154
contributing 154
courage 154
gs 154
industries 154
merely 154
pollution 154
seem 154
selection 154
sin@@ 154
st 154
variety 154
wa@@ 154
-up 153
AFFAIRS 153
EMU 153
Law 153
MAR@@ 153
Per@@ 153
TO@@ 153
TRANSP@@ 153
Tran@@ 153
Treaties 153
assure 153
continuation 153
definitive 153
ed@@ 153
ft 153
functions 153
guests 153
id@@ 153
kept 153
totally 153
absence 152
affecting 152
attitude 152
bun@@ 152
colleague 152
confirm 152
harmonisation 152
ishing 152
participating 152
programming 152
proved 152
seven 152
sort 152
Consequently 151
Department 151
External 151
Third 151
comple@@ 151
examining 151
maintenance 151
ore 151
organization 151
passengers 151
producing 151
representation 151
treated 151
tu@@ 151
Comp@@ 150
Cor@@ 150
Gra@@ 150
Ministerial 150
Yet 150
absolute 150
ano 150
depends 150
eastern 150
entered 150
section 150
strength 150
students 150
undertake 150
viol@@ 150
worth 150
ACP 149
ASS@@ 149
Doha 149
Korea 149
NATO 149
POLICY 149
Year 149
execution 149
hor@@ 149
host 149
image 149
ite 149
medi@@ 149
men@@ 149
multi-@@ 149
night 149
pl@@ 149
repe@@ 149
seeks 149
sian 149
tur@@ 149
urged 149
volume 149
ys 149
200 148
29 148
Cohesion 148
EIB 148
Maastricht 148
WIT@@ 148
accordingly 148
ach 148
alized 148
assembly 148
ching 148
confirms 148
don 148
elled 148
gain 148
harmon@@ 148
ica 148
king 148
laying 148
presenting 148
valuable 148
Azerbaijan 147
BER@@ 147
Directives 147
Syria 147
article 147
bound 147
carrying 147
conf@@ 147
deep@@ 147
ement 147
facts 147
gra@@ 147
identification 147
opposed 147
protocol 147
saw 147
whatever 147
94 146
GR@@ 146
Given 146
Initiative 146
ME 146
Presiden@@ 146
_ 146
bu@@ 146
endorsed 146
equivalent 146
facilit@@ 146
front 146
gap 146
ia 146
km 146
oc@@ 146
politically 146
preventing 146
recognises 146
religious 146
resume 146
validity 146
vely 146
worker 146
92 145
COM 145
Par@@ 145
Presse 145
atmosphere 145
brief 145
checks 145
est@@ 145
extensive 145
financed 145
hon@@ 145
introducing 145
readiness 145
s-@@ 145
speakers 145
storage 145
youth 145
� 145
Interior 144
Iranian 144
Official 144
Schengen 144
appears 144
biggest 144
destruction 144
drive 144
linguistic 144
marked 144
prison 144
publication 144
EM 143
Latin 143
abuse 143
contain 143
containing 143
ell@@ 143
engagement 143
medium-sized 143
observers 143
offering 143
permit 143
politics 143
reliable 143
shortly 143
signal 143
succeed 143
Agricultural 142
Consumer 142
ERS 142
No@@ 142
anniversary 142
check 142
components 142
consult 142
decentr@@ 142
extending 142
ig@@ 142
internationally 142
legally 142
organized 142
pre-accession 142
record 142
revision 142
rit@@ 142
species 142
telephone 142
topic 142
treaty 142
01 141
AV@@ 141
Ap@@ 141
Baltic 141
Gi@@ 141
II@@ 141
Paris 141
Se@@ 141
Technology 141
Then 141
addressing 141
consolidate 141
cotton 141
dra@@ 141
equipped 141
figure 141
powerful 141
ratified 141
rely 141
wh@@ 141
30@@ 140
Ambassador 140
PO@@ 140
approaches 140
centres 140
enhancing 140
ev@@ 140
facilitating 140
forwarded 140
negotiate 140
personnel 140
realise 140
rejected 140
sti@@ 140
sufficiently 140
supplementary 140
AK@@ 139
CH 139
PL@@ 139
Rule 139
Your 139
achievements 139
ania 139
becomes 139
coordinate 139
cru@@ 139
described 139
displaced 139
distance 139
envisaged 139
excluded 139
ing-@@ 139
ino 139
intensive 139
interim 139
opted 139
page 139
passenger 139
respecting 139
savings 139
tar@@ 139
tru@@ 139
www.@@ 139
Communications 138
ECON@@ 138
Local 138
Somalia 138
Van 138
amongst 138
appeals 138
asks 138
co 138
committees 138
concentrate 138
countryside 138
ency 138
exception 138
fell 138
file 138
finds 138
flow 138
freely 138
fuel 138
hin@@ 138
inclusive 138
inter-@@ 138
picture 138
proof 138
reaffirmed 138
supervision 138
tried 138
Country 137
Presidents 137
Sh@@ 137
acy 137
appointment 137
authorisation 137
coins 137
concentration 137
criticism 137
dence 137
detention 137
forced 137
port 137
pping 137
sa@@ 137
situated 137
spread 137
tics 137
45 136
Go@@ 136
Great 136
ISSION 136
ULT@@ 136
associations 136
informal 136
ises 136
ought 136
pas@@ 136
precise 136
presidential 136
proportion 136
serves 136
specified 136
ta 136
und@@ 136
ved 136
Burma 135
Canada 135
IVE 135
MEPs 135
Palestinians 135
ending 135
fast 135
ical 135
import 135
intensi@@ 135
ire 135
ished 135
ited 135
ma 135
neighbouring 135
pool 135
radio 135
revised 135
sting 135
0.1 134
1991 134
AU@@ 134
Bur@@ 134
Control 134
Indeed 134
Ju@@ 134
Kar@@ 134
acceptance 134
assets 134
assume 134
clarify 134
diplomatic 134
educational 134
ei@@ 134
expects 134
finances 134
lays 134
listed 134
location 134
openness 134
ssing 134
trend 134
FISCH@@ 133
Just 133
Others 133
San 133
answers 133
constant 133
credible 133
fa@@ 133
heavy 133
integrate 133
largely 133
medium 133
older 133
previously 133
rel@@ 133
sei@@ 133
sions 133
speci@@ 133
subsequent 133
199@@ 132
Indonesia 132
Lebanon 132
SC 132
Tor@@ 132
accidents 132
al-@@ 132
audiovisual 132
became 132
boost 132
gone 132
infringement 132
looked 132
necessarily 132
perfect 132
ry 132
summ@@ 132
02 131
Belar@@ 131
Each 131
FIS@@ 131
IP 131
Japan 131
Organisation 131
Si@@ 131
aff@@ 131
dering 131
extra 131
fla@@ 131
one-@@ 131
periods 131
physical 131
sal@@ 131
southern 131
ual 131
usually 131
AG 130
AU 130
Anti-@@ 130
BSE 130
Mc@@ 130
Polish 130
Unfortunately 130
alarm 130
atic 130
back@@ 130
began 130
essentially 130
increases 130
intellectual 130
labelling 130
on-@@ 130
partnerships 130
web 130
33 129
Mal@@ 129
Sierra 129
biom@@ 129
considerations 129
constantly 129
de-@@ 129
directed 129
firstly 129
ja 129
ord 129
oriented 129
poses 129
reviewed 129
simplify 129
taxes 129
trends 129
ur 129
whilst 129
… 129
Enlargement 128
Morocco 128
RON@@ 128
W 128
Without 128
adjustments 128
cial 128
congratul@@ 128
conven@@ 128
experienced 128
insurance 128
phone 128
primary 128
respects 128
ring 128
ton 128
va 128
with@@ 128
,@@ 127
300 127
Chinese 127
Growth 127
IP@@ 127
MA@@ 127
Min@@ 127
PROC@@ 127
WOR@@ 127
chairman 127
characteristics 127
cing 127
combined 127
defining 127
driving 127
except 127
heritage 127
ked 127
legislat@@ 127
marine 127
mem@@ 127
movements 127
post-@@ 127
retail 127
science 127
understood 127
Á@@ 127
05 126
175 126
91 126
Journal 126
Legal 126
Nepal 126
Northern 126
attractive 126
character 126
class 126
email 126
foundations 126
fy 126
game 126
highlighted 126
occasions 126
pr@@ 126
selected 126
sent@@ 126
sing 126
stages 126
stri@@ 126
went 126
Helsinki 125
NI@@ 125
Together 125
contractual 125
diseases 125
ends 125
exceptional 125
fill 125
ics 125
id 125
orders 125
proceed 125
quantities 125
reflected 125
reservation 125
resu@@ 125
thousands 125
urgency 125
uring 125
violation 125
8.@@ 124
DA 124
Hamas 124
J 124
José 124
ROM 124
Thus 124
accounting 124
behaviour 124
cars 124
consulted 124
defen@@ 124
eb@@ 124
island 124
outlined 124
pilot 124
player 124
recorded 124
referring 124
released 124
reported 124
smaller 124
uniform 124
unit 124
ws 124
Christian 123
Despite 123
Hans 123
INTER@@ 123
Ser@@ 123
Society 123
ases 123
ca 123
cuts 123
del@@ 123
division 123
elabor@@ 123
eri@@ 123
film 123
immigrants 123
leader 123
penalties 123
preserve 123
restra@@ 123
satellite 123
sectoral 123
suggest 123
valid 123
2-@@ 122
AD 122
Before 122
Bi@@ 122
Chechnya 122
Constitutional 122
Last 122
MI@@ 122
Myanmar 122
Services 122
TU@@ 122
Thirdly 122
Zimbabwe 122
airport 122
ali 122
ash@@ 122
authorised 122
books 122
citizenship 122
hearing 122
holiday 122
late 122
ministerial 122
nu@@ 122
peac@@ 122
remove 122
spe@@ 122
thorough 122
80@@ 121
Are 121
Articles 121
BER 121
DER@@ 121
English 121
Their 121
agrees 121
atives 121
box 121
bs 121
col@@ 121
considerably 121
count 121
decline 121
disease 121
guide 121
inquiries 121
ist@@ 121
knows 121
models 121
perfectly 121
plants 121
preparatory 121
provisional 121
seas@@ 121
sen 121
star 121
steel 121
stra@@ 121
00@@ 120
BE 120
Du@@ 120
Ethiopia 120
Four@@ 120
Jacques 120
LIN@@ 120
ables 120
advanced 120
are@@ 120
ars 120
capabilities 120
ce-@@ 120
ceiling 120
delighted 120
ero@@ 120
forum 120
geographical 120
glad 120
honour 120
ological 120
pending 120
pleasure 120
rail 120
restricted 120
shares 120
str@@ 120
tered 120
tor@@ 120
vulnerable 120
waiting 120
withdrawal 120
Belgian 119
Further 119
GmbH 119
MEM@@ 119
Mayor 119
an-@@ 119
compulsory 119
engaged 119
fe@@ 119
firms 119
healthy 119
ically 119
initiated 119
invest 119
pe 119
punishment 119
sexual 119
sites 119
spring 119
suggestions 119
tan@@ 119
tial 119
tolerance 119
trans-European 119
undermine 119
yourself 119
ENCE 118
Elec@@ 118
Fran@@ 118
Her@@ 118
Im@@ 118
La 118
Mexico 118
SE 118
System 118
articles 118
bit 118
bri@@ 118
decades 118
emerging 118
emphasises 118
entities 118
feeling 118
files 118
helped 118
holds 118
inside 118
millions 118
naturally 118
nearly 118
orientation 118
parallel 118
ping 118
remin@@ 118
sol@@ 118
threats 118
ures 118
vocational 118
xes 118
yes 118
í@@ 118
9.@@ 117
ELL@@ 117
Kal@@ 117
Leone 117
Nice 117
Res@@ 117
SA 117
Sp@@ 117
Within 117
allocation 117
ann@@ 117
approve 117
bing 117
category 117
fail 117
fl@@ 117
foster 117
handling 117
head@@ 117
jeop@@ 117
nevertheless 117
reflects 117
rein@@ 117
reject 117
relatively 117
reserve 117
solely 117
ton@@ 117
vehicle 117
wers 117
2020 116
ANG@@ 116
BY 116
FINAN@@ 116
ak 116
contributed 116
dan@@ 116
disaster 116
economically 116
elling 116
endorse 116
fails 116
fies 116
ged 116
ha 116
hosti@@ 116
minister 116
pol@@ 116
privacy 116
ran@@ 116
scheduled 116
ultimately 116
violent 116
Intergovernmental 115
PA 115
Question 115
Ri@@ 115
University 115
Youth 115
accessible 115
argument 115
ational 115
availability 115
cking 115
famous 115
hal@@ 115
hand@@ 115
harmful 115
incentives 115
oral 115
platform 115
refugee 115
res@@ 115
stone 115
surveillance 115
timely 115
underlying 115
update 115
viable 115
xenophobia 115
99 114
Day 114
EB@@ 114
Free 114
INT@@ 114
Industrial 114
Islamic 114
Kyoto 114
Ste@@ 114
arguments 114
broadcasting 114
competences 114
def@@ 114
grow 114
himself 114
infring@@ 114
marks 114
names 114
pass 114
populations 114
procurement 114
puts 114
satisfied 114
significance 114
socio-economic 114
solid 114
subjects 114
sum 114
3.@@ 113
CO2 113
Every 113
Hu@@ 113
ITS 113
RT@@ 113
So@@ 113
TE 113
ass 113
door 113
ella 113
fixing 113
liability 113
ory 113
parti@@ 113
possibly 113
remarks 113
topics 113
voy 113
work@@ 113
yer 113
ó@@ 113
Any 112
Code 112
OR 112
RO 112
Rwand@@ 112
alise 112
ant@@ 112
bearing 112
catch 112
e.g. 112
ker 112
licit 112
map 112
missible 112
optim@@ 112
ownership 112
paying 112
personally 112
ratio 112
sec@@ 112
shop 112
threshold 112
25@@ 111
COUN@@ 111
Fif@@ 111
GRAM@@ 111
PP@@ 111
SEN 111
TRA@@ 111
authorized 111
aviation 111
dered 111
duration 111
ens@@ 111
flows 111
heading 111
impression 111
irre@@ 111
ity-@@ 111
lities 111
partial 111
program 111
promoted 111
rapporteurs 111
refers 111
representing 111
rose 111
sought 111
spend 111
stimulate 111
suffered 111
wait 111
widely 111
zi@@ 111
200@@ 110
Atlantic 110
Hungarian 110
Most 110
Nigeria 110
REC@@ 110
appointed 110
consent 110
crops 110
cul@@ 110
free@@ 110
ges 110
gro@@ 110
ice 110
ingly 110
legitimacy 110
lifelong 110
mented 110
necessity 110
passed 110
prejudice 110
raising 110
seeing 110
sla@@ 110
statute 110
strictly 110
testing 110
tribute 110
underp@@ 110
white 110
® 110
City 109
DR 109
For@@ 109
MIN@@ 109
alising 109
ana 109
architecture 109
arrest 109
automatically 109
biodiversity 109
break 109
categories 109
combination 109
comparable 109
conformity 109
dairy 109
dissemination 109
eligible 109
impetus 109
inn@@ 109
j 109
land@@ 109
leaving 109
less@@ 109
meant 109
mer@@ 109
post 109
rep@@ 109
shipping 109
spoke 109
sub-@@ 109
tests 109
unfair 109
uni@@ 109
55 108
E-@@ 108
EUROP@@ 108
Guidelines 108
Region 108
acknowledged 108
alist 108
amp@@ 108
ato 108
autumn 108
beings 108
confident 108
diverse 108
eg@@ 108
employers 108
falls 108
farms 108
happening 108
managing 108
medicinal 108
na@@ 108
ou 108
parliament 108
popular 108
proliferation 108
providers 108
respectively 108
ster@@ 108
tackling 108
underline 108
AND@@ 107
Ber@@ 107
FER@@ 107
Franz 107
ME@@ 107
REG@@ 107
RIS@@ 107
Sri 107
accountability 107
ane 107
aries 107
autonomous 107
bit@@ 107
comfortable 107
cultures 107
end@@ 107
favoured 107
foreseen 107
greatly 107
horizontal 107
illustr@@ 107
repeated 107
reporting 107
step@@ 107
won 107
ANNEX 106
CC 106
GEN@@ 106
Michael 106
Monitoring 106
Regulations 106
abroad 106
ased 106
bom@@ 106
component 106
cra@@ 106
dates 106
dependence 106
deployment 106
execu@@ 106
fore@@ 106
highlights 106
incomes 106
ment@@ 106
mid-term 106
productivity 106
sha@@ 106
style 106
updated 106
wo@@ 106
Ö@@ 106
10.@@ 105
11.@@ 105
Against 105
Customs 105
Fac@@ 105
LER 105
PAR@@ 105
Universal 105
ach@@ 105
ail@@ 105
ances 105
ber 105
cease 105
coin 105
concessions 105
consistency 105
eds 105
enables 105
ens 105
exc@@ 105
exploitation 105
ff 105
happens 105
ites 105
partly 105
prospect 105
ratify 105
sible 105
someone 105
sustained 105
tained 105
tangible 105
territories 105
turning 105
0-@@ 104
APP@@ 104
Dialogue 104
Eritrea 104
Prodi 104
Reform 104
Som@@ 104
TIC@@ 104
Val@@ 104
begun 104
briefly 104
chen 104
conviction 104
generate 104
incidents 104
invitation 104
iting 104
modified 104
o-@@ 104
placing 104
promised 104
pul@@ 104
resi@@ 104
ro 104
sentence 104
substantially 104
title 104
towns 104
tro@@ 104
urity 104
zes 104
09 103
1990 103
4-@@ 103
Ko@@ 103
She 103
Te@@ 103
aci@@ 103
appreciation 103
broader 103
counter@@ 103
guaranteeing 103
harmonised 103
istic 103
lar 103
manufacturers 103
pursuing 103
sed 103
syn@@ 103
tt@@ 103
vast 103
.. 102
7.@@ 102
Also 102
His 102
Ne@@ 102
Ob@@ 102
Uni@@ 102
VIC@@ 102
akes 102
ali@@ 102
ambi@@ 102
arrangement 102
chain 102
commit 102
complicated 102
continuous 102
contributes 102
coun@@ 102
cre@@ 102
demographic 102
ear@@ 102
evident 102
expansion 102
fle@@ 102
foodstuffs 102
ie@@ 102
integral 102
intensify 102
investigations 102
ko@@ 102
launching 102
ligh@@ 102
observed 102
pace 102
parents 102
percentage 102
ports 102
productive 102
purely 102
rent 102
sight 102
ski 102
sto@@ 102
tragic 102
89 101
Dr. 101
Man@@ 101
OC@@ 101
Perhaps 101
Syrian 101
Timor 101
Tra@@ 101
Tribunal 101
Yes 101
aged 101
alling 101
alongside 101
bad 101
banking 101
computer 101
coordinating 101
doubts 101
dre@@ 101
equi@@ 101
explained 101
explo@@ 101
extraordinary 101
fairly 101
focusing 101
fostering 101
gr@@ 101
gradually 101
imposing 101
lessons 101
mann 101
medicines 101
newly 101
p.m. 101
processed 101
purchase 101
receiving 101
respon@@ 101
tain 101
tical 101
tious 101
tory 101
tures 101
uting 101
zones 101
150 100
Budget 100
Cat@@ 100
Democrats 100
FORM@@ 100
Lat@@ 100
Secretariat 100
adaptation 100
administrations 100
arise 100
belief 100
che 100
cl@@ 100
compens@@ 100
conditional 100
criterion 100
cross 100
devices 100
dol@@ 100
down@@ 100
duc@@ 100
enterprise 100
expert 100
eyes 100
gen 100
houses 100
indicate 100
moratorium 100
outset 100
pri@@ 100
pursuant 100
read@@ 100
reductions 100
reinforced 100
relates 100
resource 100
swiftly 100
teen 100
thirds 100
transactions 100
truth 100
unanimity 100
1989 99
Buddh@@ 99
Force 99
Level 99
SEC@@ 99
Spe@@ 99
VI 99
WEL@@ 99
War 99
Women 99
Work 99
align@@ 99
announcement 99
assessments 99
attempts 99
berg 99
born 99
bour@@ 99
bra@@ 99
certainty 99
cross-@@ 99
design@@ 99
dian 99
ek 99
encies 99
falling 99
findings 99
incorporated 99
inspection 99
ison 99
lev@@ 99
mu@@ 99
notice 99
obvious 99
orial 99
passport 99
pesticides 99
principal 99
reflection 99
reinforcing 99
save 99
sis 99
sor@@ 99
stake 99
val@@ 99
village 99
vis@@ 99
xed 99
8-@@ 98
Annual 98
Board 98
Madrid 98
Michel 98
Nor 98
Sustainable 98
Telec@@ 98
Thanks 98
af@@ 98
assessed 98
broadcast@@ 98
celeb@@ 98
circulation 98
controlled 98
corresponding 98
eight 98
elsewhere 98
enabled 98
estimate 98
forests 98
frontiers 98
integrating 98
ir 98
lists 98
mand@@ 98
pact 98
print 98
rehabilitation 98
temp@@ 98
whereas 98
34 97
Accession 97
Bis@@ 97
CONT@@ 97
DA@@ 97
ICT 97
Institute 97
Lam@@ 97
UB@@ 97
Uz@@ 97
ani@@ 97
anne@@ 97
apart 97
bly 97
consu@@ 97
declarations 97
dedicated 97
die 97
enh@@ 97
era 97
estate 97
identifying 97
larger 97
loans 97
mer 97
motor 97
ories 97
pensions 97
pun@@ 97
remained 97
stabil@@ 97
substantive 97
tives 97
translation 97
widespread 97
win 97
Angola 96
Colombia 96
Conciliation 96
Egypt 96
London 96
MAN@@ 96
Nos 96
Tur@@ 96
Two 96
UNIC@@ 96
abi@@ 96
asymm@@ 96
buildings 96
conciliation 96
deals 96
ed-@@ 96
ely 96
establishes 96
eye 96
fran@@ 96
hom@@ 96
inland 96
invite 96
justify 96
missions 96
mp@@ 96
nation@@ 96
poorest 96
repeatedly 96
station 96
taxpayers 96
tension 96
vit@@ 96
ón 96
0.5 95
2007-2013 95
29@@ 95
Bran@@ 95
CAR@@ 95
Guinea 95
Jan 95
NL 95
Ru@@ 95
aire 95
aling 95
brie@@ 95
capita 95
consists 95
creates 95
del 95
devoted 95
divided 95
endeavour 95
eption 95
grave 95
indispensable 95
initi@@ 95
ize 95
ized 95
ke@@ 95
landscape 95
leads 95
pressing 95
recognized 95
reservations 95
sentences 95
served 95
serving 95
sessions 95
sex 95
speaker 95
sup@@ 95
traditions 95
turned 95
uted 95
whereby 95
» 95
Consi@@ 94
Dru@@ 94
Ger@@ 94
Ha@@ 94
Manuel 94
Network 94
Tourism 94
Ver@@ 94
adapted 94
analy@@ 94
ation@@ 94
audi@@ 94
breach 94
buy 94
distur@@ 94
e-mail 94
employed 94
endor@@ 94
generations 94
gradual 94
grateful 94
guidance 94
heads 94
minor 94
neigh@@ 94
pages 94
pu@@ 94
recommended 94
regardless 94
regulate 94
restaurant 94
roots 94
safeguarding 94
stipul@@ 94
unanimous 94
vable 94
Act 93
DO@@ 93
Design 93
Dublin 93
IZ@@ 93
JUS@@ 93
Nor@@ 93
Peter 93
Vi@@ 93
acted 93
advis@@ 93
all@@ 93
ancement 93
announce 93
ard@@ 93
ced 93
codecision 93
correc@@ 93
ensured 93
erospace 93
estimated 93
expec@@ 93
feature 93
fulfilled 93
gained 93
ger 93
ian 93
ko 93
ley 93
log@@ 93
plan@@ 93
sted 93
sten@@ 93
trac@@ 93
visible 93
37 92
Bureau 92
Ele@@ 92
Finnish 92
Grand 92
Hel@@ 92
Mor@@ 92
Trans@@ 92
ambition 92
approximately 92
assurance 92
band 92
budgets 92
bul@@ 92
church 92
clients 92
complement 92
confron@@ 92
consequently 92
deadline 92
determining 92
diversification 92
faster 92
fed 92
foundation 92
gar@@ 92
gl@@ 92
imagine 92
jo@@ 92
length 92
moved 92
objec@@ 92
onto 92
ort 92
perspectives 92
piece 92
pla@@ 92
plays 92
ra 92
reaffir@@ 92
ron@@ 92
sell 92
stations 92
textile 92
veterinary 92
wood 92
38 91
Dra@@ 91
EMP@@ 91
Maritime 91
Next 91
OU 91
Ra@@ 91
SIS 91
assessing 91
au 91
ban@@ 91
coastal 91
doub@@ 91
du 91
fishery 91
honourable 91
hoped 91
indirect 91
lan@@ 91
lie 91
operator 91
opposite 91
organic 91
organis@@ 91
pluralism 91
posal 91
premium 91
recommend 91
replaced 91
resulted 91
sole 91
suggests 91
supple@@ 91
supplied 91
tourist 91
transposition 91
undoubtedly 91
vegetables 91
wonderful 91
39 90
Bosni@@ 90
COMP@@ 90
Can 90
Roma 90
Tim@@ 90
Ukrainian 90
Z 90
afford 90
appreciate 90
aro@@ 90
autonomy 90
careful 90
courses 90
dimensions 90
discipline 90
fil@@ 90
ju@@ 90
listen 90
municipalities 90
offences 90
ori@@ 90
pieces 90
pursuit 90
removed 90
shi@@ 90
slightly 90
son 90
stance 90
tariffs 90
third-country 90
tic@@ 90
tionally 90
tour 90
worse 90
,000 89
24@@ 89
77 89
Albanian 89
Amendments 89
Bre@@ 89
ING@@ 89
Iraqi 89
PHARE 89
SS@@ 89
See 89
Tri@@ 89
abilities 89
absor@@ 89
accommodation 89
accompanying 89
affects 89
alternatives 89
ath 89
award 89
center 89
channels 89
char@@ 89
concentrated 89
distor@@ 89
functional 89
ger@@ 89
helps 89
indication 89
laundering 89
lied 89
mor@@ 89
object 89
permitted 89
professionals 89
regulated 89
restoration 89
revenue 89
sement 89
showing 89
signs 89
sizes 89
smooth 89
somewhat 89
ultimate 89
yr@@ 89
1000 88
88 88
AF@@ 88
Accordingly 88
Arab 88
Ben@@ 88
Commun@@ 88
Hague 88
Islands 88
Main 88
Small 88
Taking 88
addresses 88
amend 88
appe@@ 88
aring 88
charged 88
closure 88
dating 88
decade 88
dest@@ 88
disman@@ 88
donors 88
dur@@ 88
exceed 88
faith 88
genuinely 88
gling 88
honest 88
infrastructures 88
interpre@@ 88
joined 88
liable 88
mutually 88
oning 88
pris@@ 88
quantitative 88
relate 88
responses 88
sections 88
securing 88
spon@@ 88
sport 88
techniques 88
treaties 88
unnecessary 88
44 87
Aid 87
Algeria 87
Del@@ 87
ECOFIN 87
EP 87
KO@@ 87
LL@@ 87
Liberia 87
Media 87
PER@@ 87
Pa@@ 87
Particip@@ 87
Recommendation 87
SOL@@ 87
Up 87
acknowledge 87
affir@@ 87
agency 87
analyses 87
but@@ 87
depending 87
deterioration 87
dist@@ 87
duction 87
ering 87
exhibition 87
format 87
graphic 87
hoc 87
influ@@ 87
inv@@ 87
lawful 87
minute 87
non-governmental 87
offices 87
organising 87
pling 87
pres@@ 87
profile 87
prosperous 87
push 87
ration 87
raw 87
scep@@ 87
servation 87
short-term 87
suggestion 87
themes 87
tom@@ 87
treat 87
visitors 87
42 86
Cre@@ 86
IB@@ 86
IMF 86
IONAL 86
Q@@ 86
acknowledges 86
acquired 86
advoc@@ 86
ang@@ 86
authori@@ 86
ben@@ 86
by-@@ 86
ca@@ 86
cent@@ 86
clearer 86
consequence 86
counter 86
cour@@ 86
democratisation 86
difficulty 86
enti@@ 86
extreme 86
female 86
forest 86
halt 86
ini@@ 86
input 86
joining 86
ky 86
leg@@ 86
loan 86
micro@@ 86
mistake 86
modernisation 86
momentum 86
observation 86
od@@ 86
ous@@ 86
polic@@ 86
rating 86
removal 86
resolving 86
salary 86
sphere 86
starts 86
un 86
« 86
5-@@ 85
Australia 85
ECHO 85
Em@@ 85
FR 85
Lanka 85
Qu@@ 85
SER@@ 85
Subject 85
TEN 85
accident 85
can@@ 85
capacities 85
cked 85
concerted 85
construc@@ 85
custom@@ 85
differenti@@ 85
dynam@@ 85
ein 85
fit 85
garden 85
inspections 85
interinstitutional 85
investors 85
leaves 85
macroeconomic 85
middle 85
outline 85
pp@@ 85
qualifications 85
quantity 85
reci@@ 85
reiterate 85
releases 85
rising 85
shortcomings 85
simplified 85
spec@@ 85
surrounding 85
teachers 85
ths 85
worthy 85
-B@@ 84
3-@@ 84
47 84
FL@@ 84
GO@@ 84
Georgi@@ 84
Ho@@ 84
IGC 84
IND@@ 84
NEW 84
Pen@@ 84
Plan@@ 84
Strasbourg 84
Support 84
Thursday 84
Ur@@ 84
Uruguay 84
annex 84
bathroom 84
belong 84
borne 84
case-@@ 84
cher 84
comb@@ 84
constitu@@ 84
cr@@ 84
disabilities 84
discrimin@@ 84
discriminatory 84
dossier 84
east 84
eliminate 84
evaluate 84
exceptions 84
gent 84
housing 84
ial 84
ily 84
in-depth 84
initially 84
lor@@ 84
marking 84
meantime 84
nine 84
ords 84
pat@@ 84
pleasant 84
reaction 84
refused 84
safeguards 84
secre@@ 84
Ä@@ 84
Ant@@ 83
Applause 83
Budgetary 83
Business 83
Co-@@ 83
Equal 83
Fischler 83
He@@ 83
MARK@@ 83
Martin 83
Shi@@ 83
ageing 83
aircraft 83
applicants 83
break@@ 83
ched 83
concluding 83
embar@@ 83
emphasized 83
ernity 83
ery 83
expenses 83
feed 83
flu@@ 83
foremost 83
frame 83
games 83
gross 83
hardly 83
hour 83
ide@@ 83
long-@@ 83
mag@@ 83
occur 83
ology 83
oppose 83
phenomenon 83
profit 83
quick 83
reception 83
reserved 83
saving 83
severe 83
solved 83
taining 83
teaching 83
tem@@ 83
terrorists 83
1-@@ 82
1.1 82
36 82
36@@ 82
Dec@@ 82
Director 82
OME 82
Op@@ 82
SK@@ 82
SM@@ 82
Staff 82
WH@@ 82
ade 82
and-@@ 82
arian 82
cards 82
cation 82
ch-@@ 82
completing 82
composition 82
concentr@@ 82
display 82
distributed 82
dramatic 82
drew 82
edy 82
error 82
eth@@ 82
explore 82
gy@@ 82
hear@@ 82
ile 82
initiate 82
lat@@ 82
love 82
machine 82
na 82
post@@ 82
question@@ 82
recogni@@ 82
reserves 82
sending 82
showed 82
simplifying 82
sold 82
subsequently 82
supplement 82
tis@@ 82
unilateral 82
veness 82
video 82
wherever 82
wn 82
6.@@ 81
Br@@ 81
Eff@@ 81
Mari@@ 81
Regarding 81
Time 81
Training 81
addi@@ 81
asser@@ 81
assisted 81
bio@@ 81
bl@@ 81
cle@@ 81
commission 81
condemned 81
conjunction 81
correctly 81
dict@@ 81
disadvantaged 81
distinction 81
entering 81
escal@@ 81
fron@@ 81
ga 81
gan@@ 81
gel 81
in-@@ 81
lec@@ 81
manufacturing 81
moreover 81
notification 81
ot 81
refer@@ 81
renewal 81
runs 81
select 81
stand@@ 81
tly 81
toral 81
tou@@ 81
transfers 81
usual 81
win@@ 81
-based 80
1,@@ 80
102 80
400 80
Au@@ 80
Brazil 80
Congress 80
Global 80
Instead 80
Or 80
PC@@ 80
Sa@@ 80
Will 80
abolish 80
ay 80
chapter 80
clarity 80
cod 80
cope 80
explanation 80
ga@@ 80
generated 80
hab@@ 80
high-@@ 80
hundreds 80
ici@@ 80
kinds 80
len@@ 80
loc@@ 80
lowest 80
manufacture 80
menting 80
occurred 80
offence 80
pan@@ 80
prime 80
religion 80
route 80
sely 80
sign@@ 80
sli@@ 80
soci@@ 80
spite 80
stream 80
train 80
transnational 80
units 80
warm 80
warmly 80
western 80
— 80
100@@ 79
49 79
6-@@ 79
65 79
Chancellor 79
Click 79
EH@@ 79
Innovation 79
Jean-Claude 79
Mil@@ 79
Pierre 79
SH@@ 79
Safety 79
Socialist 79
aiming 79
attach 79
az@@ 79
beach 79
berto 79
black 79
complied 79
cri@@ 79
database 79
device 79
efficiently 79
endeavo@@ 79
euros 79
fre@@ 79
frontier 79
graphy 79
intim@@ 79
mel@@ 79
observe 79
perpetr@@ 79
por@@ 79
pose 79
prece@@ 79
presents 79
procedural 79
promise 79
reactions 79
refusal 79
restoring 79
scrutiny 79
secondly 79
shift 79
shower 79
suspension 79
tim@@ 79
tion@@ 79
unds 79
vigor@@ 79
visas 79
voters 79
344 78
BOR@@ 78
Cas@@ 78
Citizens 78
College 78
Councils 78
DEBAT@@ 78
ERG@@ 78
Jean 78
Lomé 78
Pi@@ 78
Respon@@ 78
Through 78
ara 78
avoiding 78
biological 78
bor@@ 78
broadly 78
calm 78
cereals 78
chair 78
cin@@ 78
collecting 78
connections 78
cy@@ 78
cycle 78
departments 78
dged 78
dic@@ 78
dness 78
drop 78
enced 78
failing 78
fairness 78
far-reaching 78
ff@@ 78
flo@@ 78
gener@@ 78
inadequate 78
interference 78
licences 78
makers 78
ordinary 78
owners 78
person@@ 78
posed 78
rap@@ 78
react 78
residents 78
restrict 78
run@@ 78
satisfy 78
seekers 78
sensible 78
stood 78
systematic 78
tax@@ 78
tering 78
termin@@ 78
terrible 78
tically 78
typical 78
une 78
unemployed 78
vian 78
ward 78
ye 78
à 78
0,@@ 77
07 77
64 77
BIL@@ 77
Bas@@ 77
DP 77
Economy 77
Luc 77
Mercosur 77
PT 77
Speci@@ 77
Tel@@ 77
UP@@ 77
afternoon 77
allevi@@ 77
apparent 77
aspirations 77
avoid@@ 77
bel 77
belonging 77
bol@@ 77
clauses 77
cli@@ 77
contrac@@ 77
cutting 77
deliberations 77
dges 77
died 77
emission 77
establishments 77
exclusively 77
explicitly 77
expressly 77
federal 77
founding 77
fur@@ 77
incorporate 77
liberal 77
liberalization 77
pharmaceutical 77
prison@@ 77
prohibition 77
refuse 77
researchers 77
settled 77
south 77
suffer 77
transmission 77
wind 77
wn@@ 77
08 76
Clearly 76
Competitiveness 76
Do@@ 76
ID 76
Institutions 76
John 76
OECD 76
Pri@@ 76
RD 76
Sir 76
Southern 76
adapting 76
ah@@ 76
arrive 76
bil@@ 76
cia 76
communautaire 76
concepts 76
contents 76
conventions 76
deserves 76
desired 76
divi@@ 76
drafted 76
drafting 76
facility 76
fiable 76
formation 76
hotels 76
intervene 76
interventions 76
journey 76
law@@ 76
lending 76
massive 76
mb@@ 76
minors 76
off@@ 76
olive 76
ony 76
ordin@@ 76
outlook 76
pec@@ 76
preferences 76
proportionality 76
railway 76
raises 76
recall 76
signature 76
sm@@ 76
stabilisation 76
store 76
suppliers 76
surely 76
tensions 76
tism 76
unions 76
weak@@ 76
wide-ranging 76
43 75
46 75
Asian 75
Britain 75
Director@@ 75
Freedom 75
Geneva 75
LAF 75
Otherwise 75
SI@@ 75
TH 75
VIS@@ 75
Well 75
adjust 75
alize 75
anticip@@ 75
button 75
campaigns 75
certification 75
comparison 75
constraints 75
cular 75
deaths 75
declare 75
deserve 75
ession 75
familiar 75
finger@@ 75
finished 75
formul@@ 75
fra@@ 75
hol@@ 75
iled 75
industri@@ 75
ini 75
insist 75
investigate 75
ital 75
lic 75
mail 75
nor@@ 75
orities 75
publish 75
register 75
relationships 75
rice 75
twelve 75
ums 75
vor@@ 75
winter 75
ya 75
yed 75
ör@@ 75
„ 75
2,@@ 74
Bor@@ 74
ECO@@ 74
EST@@ 74
Essen 74
FF@@ 74
Monday 74
NAT@@ 74
Opportunities 74
RA 74
RC 74
UR 74
Verheugen 74
anese 74
appointing 74
assured 74
ba@@ 74
cho@@ 74
clo@@ 74
condemn 74
confirmation 74
consistently 74
dem 74
entrepreneurs 74
esian 74
expand 74
gence 74
grown 74
homo@@ 74
kers 74
limitation 74
losses 74
mere 74
migrants 74
nationality 74
ommunications 74
or-@@ 74
output 74
riding 74
seeds 74
sees 74
swift 74
tes 74
thers 74
universities 74
uph@@ 74
van@@ 74
window 74
.com 73
04 73
27@@ 73
35@@ 73
59 73
BAR@@ 73
Barroso 73
Budgets 73
Competition 73
Da@@ 73
FRA@@ 73
GUE 73
Immigration 73
Indon@@ 73
Organization 73
Philippe 73
Six@@ 73
Stockholm 73
apartments 73
breakfast 73
continuity 73
definitely 73
delays 73
disabled 73
disparities 73
elimination 73
enshrined 73
evolution 73
executive 73
extends 73
fifteen 73
gh 73
imbalances 73
innocent 73
irregularities 73
match 73
museum 73
officers 73
oll@@ 73
owned 73
restriction 73
spoken 73
summary 73
swe@@ 73
toler@@ 73
ty@@ 73
ust 73
watch 73
whenever 73
wonder 73
03 72
76 72
86 72
AR 72
Ci@@ 72
Data 72
David 72
Does 72
Enterprise 72
FI@@ 72
Florence 72
Should 72
We@@ 72
air@@ 72
alle@@ 72
attend 72
bekistan 72
coast 72
compatibility 72
contrast 72
convention 72
ct 72
democratically 72
doors 72
dul@@ 72
everybody 72
extra@@ 72
harass@@ 72
hit 72
ignore 72
interpreted 72
lingu@@ 72
losing 72
mix 72
nice 72
obstacle 72
pay@@ 72
permits 72
phas@@ 72
practi@@ 72
printing 72
recognising 72
reformed 72
reg@@ 72
relief 72
ris@@ 72
sau 72
sively 72
time-@@ 72
unprecedented 72
vers@@ 72
weak 72
websites 72
worst 72
ž@@ 72
A-@@ 71
Consul@@ 71
Cs 71
EC-@@ 71
EW@@ 71
Fi@@ 71
GMOs 71
Gar@@ 71
Humanitarian 71
JO@@ 71
MS 71
Medi@@ 71
Sen@@ 71
Solidarity 71
accelerate 71
adher@@ 71
airports 71
aled 71
ame 71
antly 71
ast 71
bin@@ 71
calculated 71
cat@@ 71
comfort 71
complementary 71
copyright 71
corporate 71
demanding 71
dig@@ 71
disc@@ 71
discover 71
dissemin@@ 71
dominant 71
ern@@ 71
eu@@ 71
ey 71
fic 71
free-@@ 71
friend 71
g-@@ 71
gets 71
gri@@ 71
guided 71
incoming 71
ing-up 71
ish@@ 71
judgments 71
learned 71
lement 71
lia@@ 71
mediation 71
mentar@@ 71
onal 71
over-@@ 71
ped 71
perform 71
pillars 71
preservation 71
sel@@ 71
sit@@ 71
suspended 71
tal@@ 71
transferred 71
withdraw 71
0s 70
Above 70
Around 70
DEN 70
Implementation 70
Met@@ 70
Ni@@ 70
Pe@@ 70
Real 70
Serbian 70
Sol@@ 70
Sou@@ 70
Tar@@ 70
Technical 70
York 70
abolished 70
ailing 70
anc@@ 70
approximation 70
arrival 70
beauty 70
blue 70
cast 70
che@@ 70
chemicals 70
consoli@@ 70
convic@@ 70
departure 70
disarmament 70
displayed 70
donor 70
feels 70
fewer 70
grav@@ 70
harmonization 70
iling 70
images 70
issuing 70
lunch 70
machines 70
monitored 70
ner 70
newspapers 70
occupational 70
olds 70
ope 70
premi@@ 70
realisation 70
reforming 70
responding 70
ries 70
routes 70
screen 70
short@@ 70
spectrum 70
succeeded 70
th-@@ 70
theme 70
ther 70
touch 70
uncertainty 70
ven 70
vis-à-vis 70
wed 70
.europa.eu 69
87 69
A. 69
ARE 69
Administration 69
FOR@@ 69
IK@@ 69
Lord 69
Minutes 69
P-@@ 69
PL 69
Ta@@ 69
Tibet@@ 69
Whether 69
adverse 69
arly 69
asing 69
attended 69
ba 69
birth 69
carri@@ 69
conferences 69
contin@@ 69
contracting 69
conver@@ 69
creative 69
das 69
deadlines 69
disasters 69
ecological 69
ect 69
elec@@ 69
ental 69
equ@@ 69
frequently 69
fu@@ 69
greenhouse 69
han@@ 69
hei@@ 69
imported 69
irrespective 69
lining 69
lived 69
manufactured 69
normally 69
organisms 69
overview 69
pra@@ 69
preserving 69
promising 69
rati@@ 69
signals 69
solving 69
stick 69
story 69
stre@@ 69
supervisory 69
tackled 69
tragedy 69
twice 69
ung@@ 69
utely 69
warning 69
Š@@ 69
23@@ 68
62 68
At@@ 68
B5-0@@ 68
Bon@@ 68
Bu@@ 68
CD 68
Catherine 68
Cultural 68
Ivoire 68
Juncker 68
Korean 68
MP@@ 68
Soviet 68
TS@@ 68
The@@ 68
accurate 68
aka 68
alleged 68
amen@@ 68
appreci@@ 68
arity 68
cap@@ 68
claimed 68
clarification 68
collected 68
colour 68
concludes 68
decrease 68
destination 68
dic 68
emp@@ 68
ended 68
entail 68
entity 68
environmentally 68
everywhere 68
guar@@ 68
high-quality 68
incorpor@@ 68
installation 68
judiciary 68
ki@@ 68
meets 68
mig@@ 68
moral 68
mountains 68
neighbourhood 68
om 68
ozone 68
pays 68
plus 68
potentially 68
prerequisite 68
proven 68
recommends 68
reimbur@@ 68
self-employed 68
sibility 68
strive 68
ue 68
woman 68
write 68
BU@@ 67
CE@@ 67
Chi@@ 67
Colom@@ 67
Hous@@ 67
KS 67
Milosevic 67
Prague 67
Review 67
Several 67
Task 67
UK@@ 67
ambitions 67
ared 67
ato@@ 67
beneficial 67
bia 67
blame 67
blood 67
bre 67
complaints 67
consolidated 67
dation 67
deemed 67
disproportionate 67
diversi@@ 67
ein@@ 67
fallen 67
fees 67
fif@@ 67
flag 67
fleet 67
funded 67
heat 67
ins@@ 67
intelligence 67
intergovernmental 67
ll@@ 67
maxim@@ 67
none 67
oned 67
portfolio 67
prompt 67
requiring 67
shopping 67
stat@@ 67
submitting 67
transformation 67
tre@@ 67
tto 67
tual 67
ush@@ 67
weigh@@ 67
51 66
Among 66
Belgrade 66
Company 66
Côte 66
Democracy 66
EX 66
FY@@ 66
Far@@ 66
Haiti 66
Liber@@ 66
Like 66
Mau@@ 66
Moscow 66
Pau@@ 66
Scientific 66
Sub@@ 66
Systems 66
Tom@@ 66
abstained 66
admit 66
agents 66
ancient 66
ap 66
ately 66
bes 66
cas@@ 66
certificates 66
choices 66
co-ordination 66
crimin@@ 66
deb@@ 66
earliest 66
ease 66
eco@@ 66
ell 66
emerged 66
engine 66
ensures 66
esses 66
everyday 66
evol@@ 66
expanded 66
flight 66
forcement 66
forgotten 66
furthermore 66
gation 66
holder 66
humanity 66
ishment 66
je@@ 66
justi@@ 66
killed 66
kl@@ 66
layer 66
mandatory 66
margin 66
meaningful 66
mother 66
non 66
observ@@ 66
park 66
preferential 66
pur@@ 66
rene@@ 66
resol@@ 66
roads 66
ruption 66
spir@@ 66
star@@ 66
sympathy 66
there@@ 66
uphold 66
visibility 66
wave 66
73 65
800 65
Administr@@ 65
BAL@@ 65
CP@@ 65
Cap@@ 65
Comm@@ 65
Fl@@ 65
Leb@@ 65
MID@@ 65
Maria 65
Rom@@ 65
TI 65
Visit 65
Vo@@ 65
adding 65
aging 65
agri@@ 65
alleg@@ 65
applau@@ 65
argued 65
asses 65
block 65
bridge 65
calculation 65
clari@@ 65
clean 65
comparative 65
compete 65
conventional 65
decent 65
deepening 65
democracies 65
derogation 65
diver@@ 65
eh@@ 65
ene 65
entr@@ 65
eping 65
ew 65
exceeded 65
focuses 65
formed 65
insufficient 65
invo@@ 65
know-how 65
lock 65
navigation 65
nonetheless 65
originally 65
prev@@ 65
proce@@ 65
radical 65
serv@@ 65
strike 65
symbol 65
tary 65
tations 65
tel@@ 65
thousand 65
transmitted 65
turnover 65
vement 65
von 65
wording 65
workplace 65
za 65
12.@@ 64
ASEAN 64
ATE 64
Am@@ 64
App@@ 64
Auth@@ 64
Er@@ 64
Friday 64
Har@@ 64
Kazakhstan 64
Lin@@ 64
Q 64
Spring 64
Troika 64
VII 64
accessibility 64
allowances 64
atten@@ 64
automatic 64
capability 64
condemnation 64
confusion 64
couple 64
cy 64
debated 64
delivering 64
dge 64
don@@ 64
driven 64
eli@@ 64
embargo 64
esse 64
exemption 64
fold 64
ful@@ 64
governed 64
incompatible 64
low-@@ 64
margins 64
mine 64
miss 64
missing 64
mm 64
occup@@ 64
opens 64
panel 64
parking 64
promises 64
race 64
resumed 64
retain 64
signat@@ 64
surplus 64
tal 64
tend 64
visits 64
visual 64
ze@@ 64
´ 64
41 63
AIDS 63
ALL 63
Access 63
CS@@ 63
Cam@@ 63
Conclu@@ 63
DC 63
EK 63
Everyone 63
GATT 63
HR 63
Ltd 63
Robert 63
Similarly 63
Take 63
Tre@@ 63
approving 63
atively 63
awarded 63
bag 63
banned 63
blo@@ 63
causing 63
centr@@ 63
civil@@ 63
condi@@ 63
demonstration 63
desirable 63
discretion 63
eller 63
fications 63
flying 63
geared 63
guest 63
hair 63
hazardous 63
holidays 63
implies 63
inaug@@ 63
installations 63
intentions 63
investing 63
judge 63
justification 63
letters 63
linking 63
northern 63
of-@@ 63
patent 63
perc@@ 63
poll@@ 63
ration@@ 63
resident 63
salaries 63
scene 63
selling 63
separation 63
shops 63
sorry 63
squ@@ 63
surprised 63
tage 63
thening 63
thir@@ 63
tioned 63
tuna 63
utions 63
verification 63
withdrawn 63
yo@@ 63
6,@@ 62
Bro@@ 62
CFP 62
Change 62
Lau@@ 62
Me@@ 62
Mit@@ 62
ORE 62
Person@@ 62
Rou@@ 62
Solana 62
Tr@@ 62
UNG@@ 62
Uganda 62
Who 62
Would 62
altern@@ 62
argu@@ 62
auth@@ 62
bal@@ 62
brand 62
cau@@ 62
certain@@ 62
chy 62
collect 62
combine 62
competitors 62
complexity 62
cro@@ 62
demonstrates 62
depth 62
description 62
dict 62
eigh@@ 62
embra@@ 62
encouragement 62
engineering 62
eph@@ 62
expressing 62
fic@@ 62
fs 62
fts 62
fulfilling 62
impressive 62
inevitably 62
ingu@@ 62
ita 62
k-@@ 62
lands 62
minim@@ 62
mobil@@ 62
municipal 62
norm@@ 62
occupation 62
operated 62
oring 62
oriz@@ 62
patients 62
positively 62
pped 62
prevented 62
preventive 62
proc@@ 62
prohibited 62
regis@@ 62
suff@@ 62
survey 62
um-@@ 62
valuation 62
vised 62
voices 62
zo@@ 62
è@@ 62
1.5 61
74 61
Cambodia 61
Climate 61
Col@@ 61
Cri@@ 61
Develop@@ 61
Future 61
GH@@ 61
High@@ 61
IO@@ 61
Legisl@@ 61
Pet@@ 61
Promo@@ 61
RAT@@ 61
Section 61
Water 61
accountable 61
acqu@@ 61
afraid 61
army 61
battle 61
bel@@ 61
bian 61
catches 61
composed 61
cop@@ 61
corner@@ 61
counts 61
coverage 61
cultivation 61
denied 61
designated 61
differ 61
dor@@ 61
dream 61
dro@@ 61
ech 61
far@@ 61
gas@@ 61
goo@@ 61
hence 61
household 61
hu@@ 61
ine@@ 61
istan 61
lend 61
lication 61
load 61
missed 61
multiple 61
nesses 61
ok@@ 61
onia 61
operates 61
opol@@ 61
ours 61
posts 61
pour 61
prints 61
profound 61
promotes 61
pupils 61
radi@@ 61
rejection 61
restored 61
rever@@ 61
seas 61
seed 61
sem@@ 61
spot 61
st-@@ 61
stly 61
struggle 61
submission 61
tionality 61
travelling 61
troops 61
ts@@ 61
unded 61
urr@@ 61
wage 61
Č@@ 61
ANA 60
Afghan 60
BL@@ 60
GEM@@ 60
Guine@@ 60
I. 60
INE 60
Multi@@ 60
Prin@@ 60
Progress 60
SME 60
Streng@@ 60
TEL@@ 60
Ter@@ 60
Three 60
Title 60
VAL@@ 60
WE@@ 60
Wednesday 60
abuses 60
accumul@@ 60
ales 60
aming 60
analyse 60
appearance 60
ardo 60
atro@@ 60
cancer 60
coinci@@ 60
communicate 60
condu@@ 60
cooperative 60
coordin@@ 60
dated 60
dry 60
els 60
encomp@@ 60
ender 60
exposure 60
fabric 60
faces 60
fat@@ 60
fer 60
first-@@ 60
fulfilment 60
hundred 60
igh@@ 60
ils 60
indicates 60
innovations 60
intense 60
las@@ 60
lift 60
lifting 60
machinery 60
mit@@ 60
multiannual 60
og@@ 60
prefer 60
privatisation 60
quiet 60
relevance 60
reliability 60
root 60
thoughts 60
ventions 60
vessel 60
visited 60
west 60
worrying 60
'll 59
5,@@ 59
Apart 59
CS 59
Cal@@ 59
Contin@@ 59
Environmental 59
Fe@@ 59
Full 59
Guarantee 59
ICT@@ 59
IX 59
Javier 59
Ku@@ 59
Sal@@ 59
TA 59
Web 59
accepting 59
ado 59
advisory 59
alists 59
allowance 59
apartment 59
arm 59
backing 59
bas@@ 59
carbon 59
chaired 59
cian 59
confidentiality 59
contra@@ 59
debating 59
defini@@ 59
deri@@ 59
derogations 59
dest 59
divisions 59
ech@@ 59
eless 59
em 59
embark@@ 59
empha@@ 59
finish 59
golf 59
ier@@ 59
ign@@ 59
ination 59
judged 59
lau@@ 59
liked 59
may@@ 59
monthly 59
parameters 59
pati@@ 59
posi@@ 59
profession 59
prosec@@ 59
realis@@ 59
realised 59
regrettable 59
relative 59
repression 59
retirement 59
sanit@@ 59
shaping 59
smoking 59
sovereign 59
spare 59
struck 59
tedly 59
three-@@ 59
timing 59
trees 59
unified 59
updating 59
ve-@@ 59
vine 59
voc@@ 59
wall 59
weaknesses 59
wise 59
201@@ 58
50@@ 58
52 58
@ 58
Bel@@ 58
CER@@ 58
CO 58
ECB 58
Equ@@ 58
Eri@@ 58
High-@@ 58
Hon@@ 58
LE@@ 58
Measures 58
Meeting 58
Mich@@ 58
O-@@ 58
Publ@@ 58
Quality 58
Stand@@ 58
TACs 58
Villa 58
Wor@@ 58
accompany 58
ached 58
acquisition 58
bigger 58
cket 58
dal 58
degra@@ 58
designs 58
deterior@@ 58
disability 58
divide 58
dr@@ 58
eng@@ 58
es-@@ 58
exploit 58
fate 58
fears 58
fusion 58
gains 58
group@@ 58
guiding 58
harm 58
incentive 58
incurred 58
indicative 58
inhabitants 58
irs 58
kes 58
le-@@ 58
lia 58
moves 58
nets 58
nobody 58
obtaining 58
olog@@ 58
pictures 58
poin@@ 58
port@@ 58
proportionate 58
protective 58
recourse 58
remarkable 58
revealed 58
reverse 58
sincerely 58
soft 58
specialist 58
succ@@ 58
sustain 58
tin@@ 58
tis 58
tivity 58
to-@@ 58
tough 58
tte 58
ê@@ 58
26@@ 57
37@@ 57
Albert 57
Bulgarian 57
CK@@ 57
Caribbean 57
Chile 57
Fernando 57
Fo@@ 57
HA 57
IL 57
Karel 57
SY@@ 57
Use 57
WE 57
accompl@@ 57
ack@@ 57
acquire 57
adequately 57
adju@@ 57
advise 57
airlines 57
album 57
all-@@ 57
ang 57
any@@ 57
arrived 57
attitudes 57
attri@@ 57
bases 57
basically 57
communic@@ 57
complaint 57
comprises 57
consulting 57
council 57
counting 57
dat@@ 57
demo@@ 57
deple@@ 57
enlar@@ 57
equitable 57
ets 57
exercising 57
experiencing 57
father 57
gues 57
importantly 57
indirectly 57
lawyers 57
loo@@ 57
manufacturer 57
mature 57
modernise 57
mouth 57
notified 57
ordering 57
oured 57
packaging 57
perio@@ 57
profits 57
programs 57
qui@@ 57
returned 57
sit 57
street 57
stret@@ 57
struc@@ 57
tain@@ 57
targeting 57
terrace 57
tet 57
thri@@ 57
umb@@ 57
victim 57
vising 57
vol@@ 57
walk 57
wishing 57
és 57
195@@ 56
Alliance 56
Bir@@ 56
Building 56
Cer@@ 56
Christmas 56
DER 56
DO 56
Est@@ 56
GRO@@ 56
Good 56
Klaus 56
M. 56
MED@@ 56
Na@@ 56
Open 56
Parti@@ 56
Sil@@ 56
Sport 56
St. 56
Swiss 56
TRAN@@ 56
VA 56
ack 56
aids 56
ally-@@ 56
associ@@ 56
avoided 56
balcony 56
bert 56
blind 56
career 56
cc@@ 56
cel@@ 56
centuries 56
collabor@@ 56
conducting 56
credi@@ 56
critic@@ 56
disp@@ 56
download 56
duly 56
efully 56
envis@@ 56
exam@@ 56
expor@@ 56
factory 56
flights 56
fol@@ 56
high-level 56
holdings 56
inde@@ 56
inform@@ 56
intelligent 56
iring 56
kg 56
ls 56
macro-@@ 56
manager 56
manifest@@ 56
moderni@@ 56
ol 56
ordered 56
ordination 56
ousness 56
performed 56
ral 56
rat 56
ratory 56
sake 56
securities 56
ser@@ 56
sion@@ 56
ska 56
sounds 56
ss@@ 56
sters 56
studied 56
surface 56
thematic 56
theory 56
thereof 56
tling 56
topical 56
trip 56
uri@@ 56
vacuum 56
vel@@ 56
vise 56
vo 56
71 55
Can@@ 55
Che@@ 55
Cologne 55
DEL@@ 55
Foundation 55
GRA@@ 55
Indi@@ 55
Kenya 55
Libya 55
May@@ 55
Negoti@@ 55
OL 55
Plen@@ 55
Recon@@ 55
Ul@@ 55
Vis@@ 55
Welcome 55
Works 55
aim@@ 55
ards 55
attain 55
attract 55
believed 55
beneficiaries 55
bet@@ 55
booking 55
bus 55
carriers 55
ceilings 55
cher@@ 55
client 55
closing 55
contribut@@ 55
cti@@ 55
deficits 55
eing 55
empty 55
encountered 55
ened 55
enthusiasm 55
ert 55
exact 55
expensive 55
forestry 55
genocide 55
girls 55
grants 55
hat@@ 55
ii 55
label 55
logical 55
mar 55
ner@@ 55
non-discrimination 55
order@@ 55
passing 55
placement 55
preference 55
properties 55
quar@@ 55
recruitment 55
references 55
refusing 55
remedy 55
roles 55
scenario 55
sh 55
stones 55
swimming 55
tourists 55
transportation 55
trials 55
updates 55
val 55
vari@@ 55
walls 55
well@@ 55
whatsoever 55
yn@@ 55
45@@ 54
56 54
Aviation 54
BET@@ 54
Cl@@ 54
Cuba 54
Cuban 54
Email 54
Erasmus 54
Euratom 54
Fu@@ 54
Head 54
Instance 54
Jan@@ 54
Jordan 54
LEADER 54
Mul@@ 54
Nature 54
OLAF 54
POL@@ 54
Park 54
Pol@@ 54
Roth@@ 54
Strategic 54
UP 54
Unit 54
ading 54
admission 54
ands 54
asi@@ 54
authors 54
cancellation 54
club 54
commission@@ 54
contradic@@ 54
dening 54
domain 54
dup@@ 54
eas@@ 54
edge 54
eve 54
existed 54
explicit 54
extremis@@ 54
fi 54
foo@@ 54
forwar@@ 54
frustr@@ 54
geograph@@ 54
gold 54
handle 54
headed 54
holders 54
inf@@ 54
invested 54
ishes 54
isolation 54
locations 54
main@@ 54
memory 54
mentary 54
metres 54
mixed 54
modernis@@ 54
mur@@ 54
nec@@ 54
objects 54
owner 54
paragraphs 54
physi@@ 54
plur@@ 54
pos@@ 54
public@@ 54
publicly 54
realities 54
resort 54
rupt 54
schedule 54
scientists 54
slaughter 54
slow 54
smug@@ 54
som@@ 54
speeches 54
stating 54
straight 54
stream@@ 54
supplier 54
surprise 54
tape 54
tender 54
tle 54
uty 54
vigil@@ 54
wat@@ 54
É@@ 54
ía 54
• 54
11@@ 53
67 53
82 53
Additional 53
Bern@@ 53
Black 53
Contrac@@ 53
DI 53
ECH@@ 53
Greens 53
ICA 53
Le 53
Mechanism 53
Museum 53
Neighbourhood 53
Off@@ 53
POS@@ 53
Parlia@@ 53
Provin@@ 53
Resol@@ 53
SO 53
Santer 53
TAC 53
UND 53
Wal@@ 53
adv@@ 53
adverti@@ 53
amed 53
annually 53
answered 53
arre@@ 53
assisting 53
aux 53
backed 53
book@@ 53
challenging 53
compla@@ 53
corri@@ 53
cross@@ 53
decre@@ 53
destroyed 53
disappointed 53
ean 53
earn 53
eit@@ 53
epide@@ 53
essence 53
expe@@ 53
explanations 53
ez 53
fe 53
ground@@ 53
ho 53
homes 53
hot 53
inevitable 53
instances 53
insula 53
inten@@ 53
ires 53
ki 53
knowledge-based 53
lateral 53
lesson 53
logic 53
lon@@ 53
mid-@@ 53
narrow 53
nit@@ 53
orts 53
oud 53
ouse 53
part-@@ 53
power@@ 53
pro-@@ 53
purchasing 53
qualitative 53
quote 53
regimes 53
removing 53
resp@@ 53
ré@@ 53
sco@@ 53
settle 53
simpler 53
sincere 53
specify 53
stain 53
systematically 53
terror 53
tioning 53
unite 53
vals 53
varied 53
web@@ 53
wished 53
63 52
72 52
Andr@@ 52
Anna 52
Balkan 52
Bangladesh 52
Bra@@ 52
Brok 52
Bundes@@ 52
CF@@ 52
Capital 52
Cypri@@ 52
DEM@@ 52
Dem@@ 52
EF 52
Ham@@ 52
Is@@ 52
King 52
Learning 52
Louis 52
Memorandum 52
PC 52
Por@@ 52
Ret@@ 52
Supreme 52
Taiwan 52
Thailand 52
abandon 52
ai@@ 52
ain 52
appreciated 52
belie@@ 52
collapse 52
conscience 52
copy 52
cuisine 52
dans 52
discovered 52
elderly 52
emerge 52
emergence 52
employer 52
enforced 52
eventually 52
exemptions 52
genetically 52
handed 52
inci@@ 52
inequalities 52
ingredients 52
institutes 52
l-@@ 52
lig@@ 52
likewise 52
mal@@ 52
massac@@ 52
medium-term 52
metal 52
minds 52
misleading 52
mit 52
multilater@@ 52
mus@@ 52
north 52
occupied 52
ole 52
os@@ 52
particip@@ 52
patterns 52
pet@@ 52
preserved 52
pressures 52
presu@@ 52
quo 52
region@@ 52
resistance 52
roo@@ 52
sciences 52
season 52
secondary 52
server 52
socially 52
specialised 52
stor@@ 52
successes 52
surpluses 52
suspen@@ 52
switch 52
translated 52
tt 52
twenty 52
university 52
unlike 52
welcoming 52
ye@@ 52
á 52
ä@@ 52
'm 51
1.2 51
4,@@ 51
54 51
Antonio 51
Assistance 51
CR 51
Common@@ 51
DN@@ 51
Dan@@ 51
Hong 51
IA@@ 51
Independent 51
Israelis 51
Jean-@@ 51
Jerusalem 51
Kaliningrad 51
Leader 51
Looking 51
Mat@@ 51
Pacific 51
Palestine 51
Red 51
Ref 51
Tari@@ 51
a.m 51
accused 51
anywhere 51
argue 51
arrested 51
at-@@ 51
atta@@ 51
bers 51
broken 51
characterised 51
conce@@ 51
confir@@ 51
conve@@ 51
convince 51
currencies 51
defending 51
defines 51
delicate 51
describe 51
din 51
diplomacy 51
distortions 51
dity 51
dom@@ 51
dual 51
edly 51
ening 51
entrusted 51
errors 51
ex 51
exercised 51
exten@@ 51
feasible 51
flat@@ 51
fly 51
forming 51
forth 51
frequency 51
gear 51
gers 51
ght 51
glob@@ 51
gue 51
helpful 51
hum@@ 51
iness 51
instability 51
ired 51
isi@@ 51
iz@@ 51
keen 51
listening 51
medicine 51
mistakes 51
mobili@@ 51
murder 51
openly 51
orient@@ 51
packages 51
partially 51
popul@@ 51
predic@@ 51
pression 51
progressi@@ 51
quanti@@ 51
quarters 51
rub@@ 51
secret 51
seminar 51
senior 51
shadow 51
soil 51
soldiers 51
spective 51
struction 51
thoroughly 51
underway 51
util@@ 51
wei@@ 51
yl@@ 51
ão 51
š@@ 51
120 50
250 50
Barnier 50
Commit@@ 50
Cra@@ 50
EK@@ 50
EZ 50
Exc@@ 50
FOL@@ 50
Gal@@ 50
Google 50
Kong 50
M-@@ 50
Mad@@ 50
Open@@ 50
Philipp@@ 50
SE@@ 50
Sk@@ 50
TAL 50
TER 50
WA@@ 50
WAR@@ 50
Wolfgang 50
abor@@ 50
academic 50
acceler@@ 50
accoun@@ 50
acknowled@@ 50
alike 50
assigned 50
assu@@ 50
author 50
boo@@ 50
bottom 50
branch 50
broadcast 50
catastro@@ 50
celebrate 50
clearance 50
compar@@ 50
confer@@ 50
confronted 50
counter-@@ 50
determines 50
doesn 50
enc@@ 50
enrich@@ 50
equity 50
exempt 50
exhaus@@ 50
expense 50
fare 50
football 50
footing 50
forecasts 50
freight 50
gras@@ 50
iger 50
imperative 50
inning 50
isolated 50
limiting 50
lob@@ 50
menu 50
musical 50
named 50
observer 50
ola 50
pan-European 50
patient 50
pollut@@ 50
rated 50
receives 50
reflecting 50
relax 50
reputation 50
scar@@ 50
sch 50
sch@@ 50
specifications 50
strongest 50
subsi@@ 50
temperature 50
thanking 50
tran@@ 50
transatlantic 50
transpos@@ 50
ute 50
valley 50
visiting 50
voic@@ 50
1st 49
2.5 49
7-@@ 49
Assessment 49
Bill 49
Ca@@ 49
Camp@@ 49
Caucasus 49
Char@@ 49
Contact 49
Cur@@ 49
Day@@ 49
Dom@@ 49
Europe-@@ 49
Fri@@ 49
Hol@@ 49
Horn 49
Jewish 49
Land 49
NOT 49
OB@@ 49
Order 49
Organis@@ 49
PPE 49
PSE 49
Pal@@ 49
Sunday 49
TACIS 49
Until 49
War@@ 49
abetes 49
adults 49
ai 49
ani 49
arises 49
benchmarks 49
bility 49
breaks 49
ciples 49
competi@@ 49
computers 49
correction 49
credits 49
dangers 49
decreased 49
deli@@ 49
department 49
deployed 49
direc@@ 49
ees 49
eh 49
ented 49
ential 49
entit@@ 49
entrepreneurship 49
eradic@@ 49
etri@@ 49
exciting 49
exposed 49
fashion 49
feasibility 49
fix@@ 49
foods 49
fruitful 49
fun 49
gements 49
ham@@ 49
iry 49
lets 49
logistics 49
manoeu@@ 49
mo 49
noise 49
ny 49
olo 49
p.m 49
pil@@ 49
poly@@ 49
pragmatic 49
presiden@@ 49
proceeding 49
pure 49
regulating 49
remember@@ 49
remote 49
rigorous 49
simil@@ 49
sole@@ 49
ss 49
stituted 49
suite 49
surveys 49
tees 49
thin@@ 49
threatened 49
thresh@@ 49
vest@@ 49
witness 49
zz@@ 49
1.3 48
84 48
Americans 48
Ashton 48
Ba@@ 48
Ban@@ 48
Bio@@ 48
Boli@@ 48
ESF 48
Erkki 48
Euro-@@ 48
Executive 48
Feira 48
George 48
LT@@ 48
Liberal 48
Men@@ 48
NE@@ 48
Non-@@ 48
Partners 48
Production 48
Rac@@ 48
Ram@@ 48
Rein@@ 48
S-@@ 48
Saturday 48
Vice-@@ 48
Whilst 48
Wi@@ 48
Zealand 48
alcohol 48
asset 48
assumed 48
audit 48
balances 48
calcul@@ 48
camps 48
carrier 48
chapters 48
commun@@ 48
compare 48
compensate 48
compo@@ 48
copies 48
corresponds 48
documentation 48
ere 48
ergy 48
eted 48
expanding 48
explains 48
gaps 48
geo@@ 48
grass@@ 48
gui@@ 48
gular 48
hectares 48
heres 48
impro@@ 48
inary 48
incorporating 48
indications 48
ino@@ 48
intra-@@ 48
killing 48
kno@@ 48
lea@@ 48
livestock 48
liz@@ 48
locating 48
lowing 48
margin@@ 48
mark@@ 48
measured 48
mobilise 48
nar@@ 48
newspaper 48
pal@@ 48
percent 48
perpet@@ 48
pick 48
rare 48
rational 48
rou@@ 48
sad@@ 48
seat 48
sett@@ 48
striking 48
supposed 48
tac@@ 48
tail@@ 48
tative 48
threaten 48
tigh@@ 48
timately 48
tti 48
vary 48
vers 48
villages 48
wer 48
workshops 48
're 47
3,@@ 47
69 47
8,@@ 47
Alb@@ 47
Allow 47
Basel 47
Deli@@ 47
Digital 47
Fab@@ 47
Kor@@ 47
Munich 47
Natural 47
Nonetheless 47
OM 47
Obviously 47
Pin@@ 47
REA@@ 47
Romanian 47
Swoboda 47
Tax@@ 47
Vic@@ 47
Vol@@ 47
Washington 47
Which 47
Wil@@ 47
absurd 47
advocate 47
ah 47
amb@@ 47
amoun@@ 47
anian 47
artists 47
att@@ 47
backs 47
benefiting 47
cable 47
chairs 47
confidential 47
consisting 47
controversial 47
damages 47
deciding 47
district 47
elli 47
employ@@ 47
energies 47
enjoyed 47
ep 47
ethical 47
exclude 47
exert 47
expl@@ 47
extrac@@ 47
fairer 47
fundament@@ 47
gel@@ 47
gibility 47
handled 47
harmonise 47
harmony 47
hydro@@ 47
individually 47
liberty 47
lingual 47
ll 47
loading 47
long@@ 47
managers 47
mitting 47
my@@ 47
networking 47
notion 47
oper@@ 47
oria 47
prefer@@ 47
prescri@@ 47
printed 47
prohi@@ 47
proximity 47
psychological 47
radiation 47
reconcile 47
restaurants 47
righ@@ 47
risen 47
rupted 47
sauna 47
scand@@ 47
shel@@ 47
sk 47
stays 47
stricter 47
student 47
suspend 47
synthetic 47
teams 47
til@@ 47
translate 47
tw@@ 47
virtually 47
visi@@ 47
wal@@ 47
walking 47
wars 47
well-being 47
whe@@ 47
wild 47
81 46
A4-0@@ 46
AC 46
Andorra 46
Anyone 46
Bah@@ 46
Besides 46
Could 46
De 46
Ecofin 46
Flynn 46
Gr@@ 46
Haar@@ 46
Ir@@ 46
Langu@@ 46
MEP 46
Mac@@ 46
Miguel 46
Pay@@ 46
Ph@@ 46
Pra@@ 46
Rio 46
SL@@ 46
Sam@@ 46
TI@@ 46
Ti@@ 46
Treasury 46
Veter@@ 46
adminis@@ 46
after@@ 46
airline 46
albeit 46
alties 46
ath@@ 46
bench@@ 46
bill 46
bunal 46
burg 46
caught 46
chances 46
checking 46
configuration 46
convey 46
cou@@ 46
counterparts 46
crossing 46
damaging 46
dents 46
doctors 46
draws 46
entails 46
er-@@ 46
eries 46
eter 46
excise 46
extern@@ 46
grew 46
guilty 46
hel@@ 46
hen@@ 46
hopefully 46
humane 46
hur@@ 46
hypo@@ 46
i-@@ 46
identi@@ 46
ier 46
ig 46
ill-@@ 46
impacts 46
inappropriate 46
inherent 46
inos 46
insist@@ 46
leisure 46
lier 46
lit@@ 46
lots 46
male 46
mers 46
moder@@ 46
norms 46
nutrition 46
ona 46
oping 46
ourable 46
p-@@ 46
participated 46
pel@@ 46
pes 46
practic@@ 46
practically 46
preferred 46
pricing 46
provider 46
reminded 46
remuneration 46
represent@@ 46
row 46
safer 46
seminars 46
sheep 46
ship@@ 46
shock 46
sofar 46
spices 46
statutory 46
subjected 46
subsidy 46
sums 46
tak@@ 46
teacher 46
tened 46
therto 46
ticket 46
tos 46
trav@@ 46
turns 46
undermined 46
unequivo@@ 46
univers@@ 46
upcoming 46
venture 46
witnessed 46
workforce 46
66 45
9-@@ 45
Ari@@ 45
COR@@ 45
Cardiff 45
Coun@@ 45
Cour@@ 45
England 45
GA@@ 45
Gen@@ 45
Govern@@ 45
Gre@@ 45
Integration 45
LEG@@ 45
Land@@ 45
MEDIA 45
OH@@ 45
Quar@@ 45
Roman 45
Transpar@@ 45
Tunisia 45
activ@@ 45
anda 45
appoint 45
asa 45
avec 45
aw@@ 45
blu@@ 45
bon@@ 45
bott@@ 45
branches 45
bureaucracy 45
camera 45
capit@@ 45
cas 45
consist 45
controlling 45
courage@@ 45
cum@@ 45
day-to-day 45
definitions 45
dent 45
dimin@@ 45
dinner 45
drink 45
dut@@ 45
edition 45
eld 45
elles 45
excluding 45
favo@@ 45
filled 45
gathered 45
glass 45
headquarters 45
ika 45
ili@@ 45
ills 45
immense 45
ink 45
interaction 45
isations 45
ji@@ 45
jun@@ 45
large-scale 45
lawyer 45
licence 45
maj@@ 45
mas 45
measuring 45
mic 45
micro-@@ 45
migrant 45
mir@@ 45
neutral 45
num@@ 45
oling 45
olo@@ 45
outbreak 45
papers 45
persuade 45
play@@ 45
ples 45
postal 45
prize 45
progre@@ 45
provin@@ 45
publ@@ 45
rants 45
recover 45
rem@@ 45
remo@@ 45
restric@@ 45
revi@@ 45
seri@@ 45
set-@@ 45
smo@@ 45
sou@@ 45
specialized 45
spr@@ 45
streets 45
stu@@ 45
subsidiary 45
sy@@ 45
tant 45
tening 45
thly 45
tight 45
transposed 45
upper 45
viability 45
well-known 45
wit@@ 45
č@@ 45
1. 44
196@@ 44
Ale@@ 44
Better 44
Bru@@ 44
Carlos 44
Exchange 44
FO@@ 44
Forest 44
GER@@ 44
Hein@@ 44
IR 44
Johannesburg 44
LAN 44
League 44
Mer@@ 44
PPE-DE 44
Regul@@ 44
Resources 44
Tampere 44
Tibet 44
Unless 44
VE 44
\ 44
acceding 44
advances 44
adver@@ 44
awa@@ 44
bab@@ 44
beds 44
boat 44
burdens 44
cam@@ 44
cattle 44
certified 44
chair@@ 44
chet 44
child@@ 44
coffee 44
cold 44
commend 44
criticised 44
decides 44
dedic@@ 44
deeper 44
deliveries 44
disagree 44
distinguish 44
dé@@ 44
ecosystems 44
emen 44
ena 44
end-@@ 44
exacerb@@ 44
fuels 44
fundamentally 44
generous 44
heavily 44
inquiry 44
insecurity 44
instructions 44
intensity 44
introduces 44
inviting 44
jects 44
listened 44
master 44
maybe 44
missi@@ 44
negoti@@ 44
nom@@ 44
ong 44
onwards 44
plain 44
plenty 44
pointing 44
portal 44
prehen@@ 44
premises 44
pressed 44
pron@@ 44
propri@@ 44
prov@@ 44
pru@@ 44
ranging 44
render 44
retained 44
rety 44
reviews 44
sacrifi@@ 44
screening 44
secured 44
shoulder 44
sky 44
stan 44
stored 44
suited 44
sul@@ 44
suppor@@ 44
synergies 44
tho@@ 44
torate 44
transpose 44
tz 44
unfortunate 44
vent 44
vre 44
w-@@ 44
wages 44
wear 44
y-free 44
án 44
've 43
1.6 43
450 43
5th 43
Advisory 43
Angol@@ 43
Argentina 43
Art 43
CA 43
Chair 43
Check 43
EAN 43
EIN@@ 43
EURO@@ 43
Equality 43
Fr@@ 43
GA 43
Hen@@ 43
Incre@@ 43
Mut@@ 43
Naturally 43
PA@@ 43
Part 43
Pas@@ 43
Pl@@ 43
Police 43
Ps 43
River 43
Sahara 43
Sec@@ 43
Simp@@ 43
Stri@@ 43
Territ@@ 43
abol@@ 43
alogue 43
anne 43
apparently 43
appeared 43
ardis@@ 43
astic 43
bears 43
cane 43
carries 43
cash 43
chment 43
clothing 43
color 43
connect 43
dead 43
dead@@ 43
dened 43
deny 43
deter@@ 43
discre@@ 43
distortion 43
dor 43
duct 43
eff@@ 43
eke@@ 43
evision 43
exemp@@ 43
feder@@ 43
federation 43
fee 43
fix 43
fulness 43
heating 43
hec@@ 43
i.@@ 43
identifies 43
ill 43
iny 43
iron 43
ji 43
kin@@ 43
liances 43
loy@@ 43
market-@@ 43
met@@ 43
moments 43
mostly 43
nights 43
ore@@ 43
part-session 43
passion 43
paths 43
pattern 43
postponed 43
precautionary 43
prevail 43
pride 43
ques@@ 43
redress 43
repair 43
resist 43
ri 43
river 43
robust 43
safely 43
sharp 43
six-@@ 43
stabili@@ 43
strengthens 43
successive 43
swit@@ 43
tancy 43
taught 43
temporarily 43
thy 43
ti 43
traders 43
treas@@ 43
twenty-@@ 43
ump 43
viewed 43
128 42
2. 42
83 42
ACK@@ 42
B. 42
Being 42
C. 42
Croatian 42
FF 42
Family 42
Guatemala 42
INI 42
ION@@ 42
Ly@@ 42
Maison 42
Map 42
NGO 42
None 42
Nuclear 42
Pil@@ 42
Prize 42
Quite 42
Rather 42
Sy@@ 42
Tuesday 42
Up@@ 42
VIII 42
Venezuela 42
accepts 42
adhere 42
afore@@ 42
alty 42
anticipated 42
badly 42
beneficiary 42
broad@@ 42
bureaucratic 42
care@@ 42
champi@@ 42
commerce 42
continuously 42
dant 42
databases 42
detriment 42
devote 42
diff@@ 42
diplom@@ 42
director 42
disciplinary 42
dishes 42
e-commerce 42
ee@@ 42
ek@@ 42
ele 42
emo@@ 42
ester 42
etal 42
false 42
foot 42
forecast 42
foreseeable 42
fought 42
ft@@ 42
für 42
globally 42
gratitude 42
hi 42
independently 42
indigenous 42
informing 42
ken 42
merits 42
mm@@ 42
multip@@ 42
orandum 42
ov 42
painful 42
patri@@ 42
permanently 42
phases 42
pipeline 42
pm 42
professions 42
proves 42
province 42
publishing 42
quo@@ 42
rau@@ 42
receipt 42
recurr@@ 42
refu@@ 42
relaxation 42
requesting 42
seemed 42
sensitivity 42
separately 42
speaks 42
specialists 42
tre 42
una 42
under-@@ 42
usage 42
use@@ 42
vente 42
warrant 42
ée 42
.... 41
58 41
700 41
Air 41
Chem@@ 41
Communist 41
Directorate-General 41
Due 41
Fis@@ 41
Franc@@ 41
Gali@@ 41
ILO 41
Koso@@ 41
Milit@@ 41
Much 41
NAF@@ 41
Objec@@ 41
Promotion 41
Rel@@ 41
School 41
Yesterday 41
advocates 41
agreeing 41
atri@@ 41
batteries 41
belongs 41
bound@@ 41
castle 41
cer@@ 41
ceremony 41
checked 41
circle 41
cky 41
classic 41
classification 41
complic@@ 41
compromises 41
connec@@ 41
contradiction 41
conversion 41
creativity 41
creature 41
dad 41
demonstrating 41
differing 41
dollar 41
drivers 41
earmarked 41
eat 41
en-@@ 41
encing 41
enjoying 41
enn@@ 41
erg@@ 41
ests 41
evi@@ 41
fir@@ 41
fleets 41
fragile 41
gaining 41
govern@@ 41
governmental 41
hair@@ 41
here@@ 41
hide 41
honest@@ 41
host@@ 41
ideological 41
incredible 41
installed 41
interface 41
investor 41
itation 41
kitchen 41
knew 41
ks@@ 41
lake 41
limitations 41
liter@@ 41
los 41
ly-@@ 41
mini@@ 41
moderate 41
modes 41
modifications 41
motions 41
neg@@ 41
offset 41
oul 41
ounce 41
persistent 41
philosophy 41
poorer 41
pretty 41
prof@@ 41
profitable 41
protects 41
protest 41
recognize 41
returning 41
rubber 41
ruled 41
sixth 41
sle@@ 41
sson 41
survive 41
thr@@ 41
unlimited 41
ush 41
verify 41
weekend 41
wines 41
о@@ 41
2007-@@ 40
3. 40
53 40
ANT 40
Addi@@ 40
Autonom@@ 40
BS 40
Bak@@ 40
Bav@@ 40
Blue 40
Cotonou 40
Cy@@ 40
D. 40
DG 40
FIN@@ 40
Fle@@ 40
Gulf 40
Herr@@ 40
Hussein 40
INA 40
JA@@ 40
Lan@@ 40
MM@@ 40
Marc 40
Marine 40
Mobile 40
Municip@@ 40
Mur@@ 40
Proto@@ 40
Sel@@ 40
Soci@@ 40
Taliban 40
Turkmen@@ 40
UM 40
Using 40
Week 40
Wel@@ 40
accelerated 40
activists 40
adapt@@ 40
admitted 40
ads 40
aking 40
ancing 40
ase 40
ate@@ 40
aver@@ 40
aving 40
bloo@@ 40
bridges 40
buffet 40
cco 40
channel 40
chil@@ 40
circum@@ 40
clarified 40
cols 40
combining 40
compact 40
confront 40
conscious 40
consultative 40
criminals 40
criticisms 40
ett@@ 40
evalu@@ 40
excellence 40
exchanged 40
f-@@ 40
fel@@ 40
films 40
finishing 40
friend@@ 40
functionality 40
genetic 40
infringements 40
interior 40
islands 40
je 40
legisl@@ 40
listing 40
mainstreaming 40
ment-@@ 40
messages 40
mineral 40
mines 40
motivation 40
multimedia 40
objections 40
optimum 40
ora 40
persu@@ 40
photo 40
plastic 40
politi@@ 40
recording 40
regulators 40
rs 40
s.@@ 40
scra@@ 40
sever@@ 40
slo@@ 40
square 40
stopped 40
strange 40
survi@@ 40
symbolic 40
tens 40
throw 40
top-@@ 40
tune 40
unchanged 40
understandable 40
vegetable 40
wake 40
weather 40
wonder@@ 40
-to-@@ 39
61 39
78 39
ALDE 39
Academy 39
Budd@@ 39
CM@@ 39
Church 39
Cresp@@ 39
D-@@ 39
Danube 39
Democ@@ 39
Det@@ 39
FC 39
Fa@@ 39
Fern@@ 39
Flash 39
Flo@@ 39
Gro@@ 39
Have 39
Hor@@ 39
Il@@ 39
Invest@@ 39
Kyi 39
MIT 39
Maj@@ 39
Niel@@ 39
Norwegian 39
OG@@ 39
OK 39
ORK 39
Os 39
Parag@@ 39
Poli@@ 39
Pr@@ 39
Questions 39
Rotterdam 39
Scotland 39
Suu 39
Terror@@ 39
Thomas 39
Very 39
accord@@ 39
aded 39
affordable 39
aria 39
arily 39
artificial 39
begins 39
bund@@ 39
cab@@ 39
cide 39
cla@@ 39
collec@@ 39
conditioning 39
cris@@ 39
crop 39
degrees 39
democrati@@ 39
dently 39
deposit 39
detection 39
develops 39
dialo@@ 39
differently 39
directions 39
disadvantage 39
disappear 39
discipl@@ 39
ela 39
eliminating 39
encryp@@ 39
engaging 39
entrance 39
eradication 39
ered 39
fluctu@@ 39
formula 39
frequent 39
full-@@ 39
gallery 39
gare@@ 39
gement 39
gest@@ 39
half-@@ 39
hard@@ 39
hesi@@ 39
hole 39
hr@@ 39
ight 39
ignored 39
ik@@ 39
immunity 39
impe@@ 39
inations 39
innov@@ 39
inspired 39
intermedi@@ 39
iti@@ 39
jecting 39
journalist 39
liness 39
logo 39
luxury 39
mergers 39
mes 39
monopoly 39
ned 39
neutr@@ 39
ong@@ 39
oni 39
ost@@ 39
ov@@ 39
par 39
porting 39
prominent 39
pull 39
rac@@ 39
real@@ 39
recipient 39
records 39
replacement 39
rul@@ 39
sa 39
sements 39
simultaneously 39
skilled 39
slow@@ 39
smoothly 39
split 39
suddenly 39
sym@@ 39
tari@@ 39
taste 39
than@@ 39
the-@@ 39
tible 39
ut 39
valu@@ 39
vention 39
versions 39
volun@@ 39
weapon 39
world-wide 39
yers 39
zia 39
zy 39
Å@@ 39
Ü@@ 39
ç@@ 39
1980 38
68 38
Aung 38
Background 38
Cha@@ 38
Children 38
Club 38
Concerning 38
Fin@@ 38
GM 38
Governance 38
Hondur@@ 38
Indian 38
Josef 38
Mas@@ 38
NOR@@ 38
Nig@@ 38
Ol@@ 38
Plus 38
Pé@@ 38
Refu@@ 38
Release 38
Ren@@ 38
Scottish 38
Sha@@ 38
Stre@@ 38
Transatlan@@ 38
Tro@@ 38
USB 38
abu@@ 38
accomplished 38
activate 38
adds 38
alled 38
analysed 38
anxi@@ 38
ari 38
ball 38
barrier 38
brutal 38
buyer 38
certificate 38
chains 38
cially 38
cious 38
codes 38
collectively 38
corner 38
correspon@@ 38
crew 38
delayed 38
demonstrations 38
depri@@ 38
detri@@ 38
dia 38
draw@@ 38
ede 38
elect 38
elegant 38
ello 38
enforce 38
exit 38
exploited 38
exported 38
exporting 38
fault 38
fire@@ 38
frequ@@ 38
gradu@@ 38
hall 38
healthcare 38
hes 38
imagin@@ 38
incident 38
incorrect 38
influenced 38
injured 38
injury 38
inser@@ 38
istri@@ 38
jec@@ 38
keeps 38
kid@@ 38
lam@@ 38
lie@@ 38
lis 38
mas@@ 38
methodology 38
non-EU 38
noticed 38
nutri@@ 38
oods 38
operative 38
ops 38
organisational 38
panels 38
parent 38
password 38
peripheral 38
photos 38
plane 38
planet 38
priv@@ 38
prosecution 38
radioactive 38
raph 38
relaxing 38
rewar@@ 38
rig@@ 38
sam@@ 38
second-@@ 38
severely 38
solvency 38
spo@@ 38
stric@@ 38
stringent 38
suit 38
sur 38
suspici@@ 38
tendency 38
time@@ 38
timet@@ 38
tless 38
ub@@ 38
unilater@@ 38
urt 38
utes 38
var 38
vier 38
vig@@ 38
wa 38
wholly 38
workshop 38
yiel@@ 38
yp@@ 38
Ø@@ 38
-in-@@ 37
10th 37
1985 37
1990s 37
2004-@@ 37
350 37
48@@ 37
79 37
9,@@ 37
Almost 37
Alpine 37
Anti@@ 37
Based 37
Cel@@ 37
Christ@@ 37
Commerce 37
Comple@@ 37
Delors 37
Dolom@@ 37
Experience 37
FP@@ 37
Gas 37
Globalisation 37
Initi@@ 37
Integrated 37
Intro@@ 37
Kat@@ 37
Likewise 37
List 37
MIL@@ 37
Mada@@ 37
Mario 37
Muslim 37
Neither 37
Nicar@@ 37
Operation 37
Pan@@ 37
Pap@@ 37
Peru 37
Practi@@ 37
Professor 37
RI@@ 37
Road 37
SON@@ 37
Saddam 37
Tex@@ 37
WC 37
X-@@ 37
abeth 37
adult 37
afterwards 37
aks 37
alis@@ 37
allo@@ 37
altogether 37
ante 37
approaching 37
arbitrary 37
artistic 37
ash 37
assemb@@ 37
atis@@ 37
bags 37
bone 37
catalogue 37
characteristic 37
chose 37
circ@@ 37
classified 37
colours 37
comitology 37
command 37
complying 37
comprising 37
confined 37
consci@@ 37
depl@@ 37
describes 37
destabil@@ 37
determin@@ 37
driver 37
ef@@ 37
energy-@@ 37
enfor@@ 37
eous 37
ero 37
esi@@ 37
euro-@@ 37
excuse 37
exempl@@ 37
fines 37
foot@@ 37
forcing 37
fred 37
fut@@ 37
ghter 37
gio 37
grand@@ 37
harmonious 37
hau@@ 37
highlighting 37
identical 37
insisted 37
instru@@ 37
ious 37
izing 37
lag@@ 37
lihood 37
lobby 37
manual 37
meal 37
mid@@ 37
nearby 37
nis@@ 37
nur@@ 37
occurs 37
officially 37
opt 37
ori 37
owing 37
own-initiative 37
phrase 37
pled 37
pot@@ 37
precious 37
pretext 37
promptly 37
publications 37
ques 37
reasonably 37
regul@@ 37
returns 37
revolution 37
rez 37
rors 37
sanc@@ 37
set@@ 37
shed 37
shipbuilding 37
slowly 37
specially 37
sporting 37
sse@@ 37
ssed 37
stein 37
supran@@ 37
surroundings 37
telling 37
tremendous 37
turn@@ 37
undermining 37
unlikely 37
ups 37
vague 37
veri@@ 37
wer@@ 37
wind@@ 37
winning 37
worried 37
worsen@@ 37
yield 37
yst@@ 37
² 37
600 36
Consumers 36
County 36
Deleg@@ 36
Delegation 36
Dimit@@ 36
Dor@@ 36
Edinburgh 36
Ethiop@@ 36
Grou@@ 36
Hal@@ 36
Hamburg 36
Island 36
James 36
Liikanen 36
Mary 36
Migration 36
Nordic 36
Prevention 36
R-@@ 36
SIT@@ 36
Singapore 36
TT@@ 36
Urban 36
VO@@ 36
Wall 36
Wol@@ 36
adopts 36
ams 36
ancy 36
anno@@ 36
appropriately 36
aquaculture 36
banning 36
bars 36
blog 36
boarding 36
breaking 36
breeding 36
business@@ 36
buying 36
ckets 36
combines 36
comprehensible 36
confi@@ 36
constructed 36
conten@@ 36
cost-@@ 36
damaged 36
decisi@@ 36
deleg@@ 36
demanded 36
dep@@ 36
deprived 36
destinations 36
eable 36
ee 36
emphasize 36
europ@@ 36
evil 36
exceptionally 36
fai@@ 36
fax 36
folder 36
fri@@ 36
ghted 36
gos 36
height 36
hes@@ 36
hidden 36
hill 36
iga 36
impor@@ 36
inequality 36
internally 36
isen 36
judges 36
knowing 36
lacking 36
license 36
liti@@ 36
maintains 36
manipulation 36
meters 36
miles 36
mitig@@ 36
mits 36
monu@@ 36
no-@@ 36
noon 36
ond 36
origin@@ 36
oun@@ 36
pers@@ 36
peti@@ 36
photo@@ 36
praise 36
pressions 36
privileged 36
prob@@ 36
profession@@ 36
prohib@@ 36
prohibit 36
q 36
reads 36
realize 36
repercussions 36
requ@@ 36
retention 36
rit 36
score 36
silence 36
sized 36
sun@@ 36
surrounded 36
sus 36
tailored 36
tful 36
the@@ 36
threatening 36
thro@@ 36
till@@ 36
tionary 36
trouble 36
tsch@@ 36
utter@@ 36
vac@@ 36
vali@@ 36
vent@@ 36
vest 36
virtual 36
wai@@ 36
wireless 36
zen 36
101 35
104 35
130 35
1988 35
2000-@@ 35
4th 35
About 35
Again 35
Airport 35
Andre@@ 35
Arafat 35
As@@ 35
BS@@ 35
Castle 35
Certainly 35
Chief 35
Chris@@ 35
Cro@@ 35
Ech@@ 35
Emp@@ 35
FA@@ 35
FIF@@ 35
Francisco 35
Han@@ 35
Hence 35
Intervention 35
Making 35
Nap@@ 35
Nov@@ 35
Oc@@ 35
Plat@@ 35
Rem@@ 35
Right 35
Rob@@ 35
SAT@@ 35
Santa 35
Sar@@ 35
Tob@@ 35
VIEW 35
Wilhelm 35
XX@@ 35
a.m. 35
aband@@ 35
accus@@ 35
acking 35
agua 35
ander 35
arom@@ 35
arranged 35
assin@@ 35
attending 35
bath@@ 35
calculations 35
chi@@ 35
circul@@ 35
clicking 35
closest 35
coalition 35
competing 35
conflic@@ 35
correspond 35
cosme@@ 35
coup 35
debts 35
defin@@ 35
den-@@ 35
dentally 35
derived 35
destroy 35
dging 35
dial 35
dies 35
distinguished 35
electrical 35
eliminated 35
emphas@@ 35
engines 35
enni@@ 35
excess 35
fair@@ 35
fen@@ 35
fere 35
financially 35
fitting 35
five-@@ 35
fruits 35
fun@@ 35
gar 35
generic 35
gression 35
horiz@@ 35
ield 35
il-@@ 35
illu@@ 35
indic@@ 35
inen 35
infl@@ 35
jack@@ 35
lez 35
licensing 35
matches 35
milestone 35
mode 35
modest 35
motivated 35
observations 35
ome 35
organize 35
out-@@ 35
peak 35
permission 35
promp@@ 35
prospec@@ 35
public-@@ 35
qualification 35
rarely 35
recession 35
reproduction 35
rid 35
ros 35
safeguar@@ 35
sends 35
sers 35
sevent@@ 35
shortage 35
sic 35
skiing 35
sses 35
standardisation 35
studying 35
sty 35
sudden 35
technically 35
telep@@ 35
thre@@ 35
tone 35
tracks 35
traditionally 35
tured 35
ural 35
venue 35
volati@@ 35
worry 35
yl 35
zu 35
260 34
34.@@ 34
A5-0@@ 34
Air@@ 34
Ak@@ 34
Arts 34
BAS@@ 34
Between 34
Cannes 34
Co 34
Cross 34
Cz@@ 34
Dum@@ 34
EST 34
Exper@@ 34
Fra@@ 34
G. 34
Gem@@ 34
Gender 34
Gener@@ 34
Gonz@@ 34
HR@@ 34
HT@@ 34
Harmon@@ 34
Inv@@ 34
Kin@@ 34
Mel@@ 34
Millennium 34
Mobility 34
Net 34
Nobel 34
POR@@ 34
PS 34
Proc@@ 34
Recent 34
SEN@@ 34
Socialists 34
Sometimes 34
Standards 34
Throughout 34
Win@@ 34
accommodate 34
aches 34
aer@@ 34
affili@@ 34
agen@@ 34
alistic 34
allocate 34
angle 34
authentic 34
ay@@ 34
bach 34
bonds 34
bought 34
claiming 34
clas@@ 34
clu@@ 34
colle@@ 34
congratulating 34
consul@@ 34
convincing 34
dance 34
dd@@ 34
desper@@ 34
dou@@ 34
emb@@ 34
enting 34
escape 34
essively 34
ette 34
even@@ 34
facto 34
fantastic 34
favour@@ 34
fically 34
gathering 34
glomer@@ 34
grand 34
harder 34
hardware 34
herself 34
hood 34
hop 34
hoping 34
ices 34
iii 34
individu@@ 34
int@@ 34
inventory 34
investig@@ 34
isite 34
jud@@ 34
lag 34
lower@@ 34
married 34
module 34
motor@@ 34
mul@@ 34
mut@@ 34
nomin@@ 34
notify 34
occurr@@ 34
offensive 34
oldest 34
opping 34
optimistic 34
oration 34
overwhelming 34
performing 34
persecution 34
pity 34
posted 34
pow@@ 34
precision 34
produces 34
pushed 34
rain 34
remit 34
renew@@ 34
revenues 34
reviewing 34
roll@@ 34
sad 34
settlements 34
steady 34
stit@@ 34
stuffs 34
sun 34
surprising 34
tion-@@ 34
toilet 34
toxic 34
tra 34
trained 34
uli@@ 34
unding 34
upgrade 34
vern 34
wrote 34
° 34
í 34
Ž@@ 34
$ 33
AM 33
Ag@@ 33
Basic 33
C5-0@@ 33
CIT@@ 33
Cab@@ 33
Center 33
Chapter 33
Consu@@ 33
Costa 33
Den@@ 33
Dimension 33
Direct 33
Domini@@ 33
EMS 33
F. 33
Feder@@ 33
Fer@@ 33
Five 33
Frank 33
Galileo 33
Goth@@ 33
HIV 33
Hop@@ 33
I-@@ 33
J. 33
Joe 33
Ki@@ 33
Leonardo 33
Lis@@ 33
Mark@@ 33
Meanwhile 33
Miert 33
Mol@@ 33
Montreal 33
Paul 33
REACH 33
RF@@ 33
Roy@@ 33
Salzburg 33
Supp@@ 33
Tax 33
UNHCR 33
Warsaw 33
West@@ 33
Zim@@ 33
abling 33
achie@@ 33
alarming 33
alls 33
ambigu@@ 33
asion 33
automotive 33
ble@@ 33
blocks 33
boats 33
borro@@ 33
cancel 33
cheap 33
cinema 33
ck-@@ 33
co-ordin@@ 33
concert 33
configur@@ 33
congratulations 33
cost-effective 33
crow@@ 33
culous 33
decla@@ 33
derog@@ 33
devi@@ 33
disclosure 33
distribute 33
dru@@ 33
enjoys 33
eti@@ 33
exceeding 33
expla@@ 33
fal@@ 33
feet 33
frameworks 33
furnished 33
ham 33
haz@@ 33
hem@@ 33
hunger 33
ied 33
illness 33
indi@@ 33
indicating 33
inspec@@ 33
insul@@ 33
interview 33
investigated 33
irresponsible 33
ishers 33
itable 33
itali@@ 33
itar 33
ité 33
ization 33
lab@@ 33
ler@@ 33
lifestyle 33
mill@@ 33
minimal 33
mma 33
modification 33
mont 33
monuments 33
narro@@ 33
ners 33
ounced 33
outlines 33
plac@@ 33
plant@@ 33
platforms 33
postpon@@ 33
pressive 33
protectionism 33
provo@@ 33
pushing 33
reciproc@@ 33
relie@@ 33
renowned 33
replacing 33
ron 33
s. 33
scann@@ 33
scho@@ 33
seller 33
semi-@@ 33
separ@@ 33
settings 33
shot 33
small-@@ 33
solu@@ 33
spa 33
stimulating 33
studio 33
subscri@@ 33
tables 33
talked 33
tel 33
testi@@ 33
thirty 33
tin 33
tours 33
transformed 33
urs@@ 33
ux 33
vice 33
vocation 33
wife 33
zero 33
ú@@ 33
1.0 32
180 32
22.@@ 32
2nd 32
900 32
ACE 32
BC 32
BI@@ 32
Bal@@ 32
Bol@@ 32
Busin@@ 32
Catal@@ 32
Chair@@ 32
Conver@@ 32
E. 32
Ed@@ 32
Edi@@ 32
Elis@@ 32
Enjoy 32
Es 32
Europe@@ 32
FIN 32
Fal@@ 32
Ferrero-Waldner 32
Finan@@ 32
Front 32
Gaz@@ 32
Günter 32
H-@@ 32
HAL@@ 32
Henri 32
IM 32
Improving 32
Jobs 32
KA 32
KL@@ 32
Laeken 32
Life 32
Luis 32
Mexi@@ 32
My@@ 32
Personal 32
Programmes 32
Provi@@ 32
Pu@@ 32
Reports 32
SI 32
SIM@@ 32
South-@@ 32
Spa@@ 32
Star 32
Statisti@@ 32
Steel 32
Tal@@ 32
Team 32
abil@@ 32
acro@@ 32
adventure 32
alizing 32
amazing 32
asts 32
attractions 32
beat 32
cataly@@ 32
categ@@ 32
cement 32
chief 32
clim@@ 32
clock 32
constituency 32
contest 32
craft 32
dark 32
decision-@@ 32
delete 32
deregulation 32
deser@@ 32
dictatorship 32
dog@@ 32
dramatically 32
earth 32
eness 32
enters 32
enza 32
eo@@ 32
esc@@ 32
ethan@@ 32
ety 32
eus 32
exag@@ 32
experimental 32
flat 32
forefront 32
formulated 32
generating 32
gestion 32
ick 32
iel@@ 32
inger 32
install 32
interactive 32
interoperability 32
journ@@ 32
laimed 32
lean 32
legacy 32
lengthy 32
lin 32
lio 32
locally 32
low@@ 32
mechanical 32
miss@@ 32
movie 32
new@@ 32
noti@@ 32
oblig@@ 32
obo@@ 32
olls 32
oni@@ 32
onom@@ 32
oque 32
origins 32
parado@@ 32
particul@@ 32
possession 32
prevents 32
propaganda 32
rass@@ 32
reaches 32
recti@@ 32
reluc@@ 32
sculp@@ 32
se-@@ 32
son@@ 32
stem@@ 32
strengths 32
sugge@@ 32
sw@@ 32
tab@@ 32
tea 32
tent@@ 32
tian 32
tiv@@ 32
touched 32
transfer@@ 32
tun@@ 32
ull 32
understands 32
unusual 32
user-@@ 32
wanting 32
winner 32
your@@ 32
zione 32
É 32
и@@ 32
2.0 31
3rd 31
AF 31
Ah@@ 31
Application 31
Bud@@ 31
CD@@ 31
Ce@@ 31
Charles 31
Current 31
Dar@@ 31
Ent@@ 31
G20 31
Geor@@ 31
Infrastructure 31
MD@@ 31
MEDA 31
Max 31
Net@@ 31
Patten 31
Princip@@ 31
Road@@ 31
Romano 31
Royal 31
Russians 31
SV 31
Sc@@ 31
Sim@@ 31
Um@@ 31
Vel@@ 31
abri@@ 31
aching 31
activated 31
actor 31
ada 31
aden 31
adequ@@ 31
ail 31
ailed 31
alliance 31
ami 31
anders 31
art@@ 31
asting 31
aus 31
await 31
bels 31
benefited 31
biotechnology 31
bis@@ 31
block@@ 31
blocked 31
bold 31
boosting 31
bot@@ 31
builds 31
camp@@ 31
cell@@ 31
coal 31
compet@@ 31
comprehen@@ 31
construct 31
cycles 31
dable 31
dealers 31
dem@@ 31
depen@@ 31
desi@@ 31
disastrous 31
discount 31
doctor 31
dollars 31
earned 31
earnings 31
ective 31
edoms 31
eful 31
ehold 31
employee 31
ene@@ 31
enor@@ 31
entrepreneur@@ 31
erial 31
eric 31
etry 31
event@@ 31
executed 31
experiment 31
fam@@ 31
fr@@ 31
frozen 31
hang@@ 31
hesitate 31
households 31
ico 31
ij@@ 31
imm@@ 31
inspiration 31
ister 31
isti@@ 31
itarian 31
jo 31
jour@@ 31
kil@@ 31
kilometres 31
landscapes 31
lers 31
liance 31
life-@@ 31
lively 31
ly@@ 31
maps 31
mentari@@ 31
mentation 31
mes@@ 31
minded 31
mini-@@ 31
mut 31
ok 31
onian 31
osity 31
pair 31
parlia@@ 31
perceived 31
projected 31
pursu@@ 31
qualify 31
qualities 31
quiry 31
reb@@ 31
rebuild 31
recru@@ 31
red@@ 31
regret@@ 31
rich@@ 31
satis@@ 31
saved 31
scrut@@ 31
sensi@@ 31
servants 31
sl@@ 31
state-@@ 31
stem 31
stic 31
stimulus 31
stories 31
strug@@ 31
substitute 31
supplying 31
survival 31
tagon@@ 31
tempor@@ 31
tends 31
tickets 31
tie 31
traceability 31
transferring 31
transform 31
travellers 31
ump@@ 31
vis 31
volunte@@ 31
vy 31
wel@@ 31
13.@@ 30
2.3 30
2000-2006 30
60@@ 30
7,@@ 30
ASS 30
Ann@@ 30
Annan 30
Athens 30
Best 30
Boh@@ 30
CN@@ 30
Conc@@ 30
DEN@@ 30
Don@@ 30
EU-wide 30
Facility 30
GAT@@ 30
HEI@@ 30
Japanese 30
Jews 30
Kurdish 30
LED@@ 30
Lar@@ 30
Länder 30
Mis@@ 30
Moz@@ 30
NET@@ 30
Oper@@ 30
POLIC@@ 30
Putin 30
Represent@@ 30
Satellite 30
Sco@@ 30
Some@@ 30
Taj@@ 30
Walter 30
abandoned 30
abund@@ 30
acute 30
adi@@ 30
ails 30
alo@@ 30
ambiguous 30
announ@@ 30
arriving 30
assuming 30
ata 30
audience 30
aug@@ 30
banana 30
black@@ 30
boards 30
buted 30
by@@ 30
caf@@ 30
cep@@ 30
change@@ 30
charging 30
charter 30
cheaper 30
ciliation 30
classes 30
cles 30
communicated 30
consequ@@ 30
cont@@ 30
contradi@@ 30
cooperating 30
couples 30
crates 30
dants 30
dear 30
defeat 30
deliberately 30
dev@@ 30
distinctive 30
dorf 30
dors 30
ears 30
ellers 30
entertainment 30
evaluated 30
ex-@@ 30
exclu@@ 30
exec@@ 30
exhau@@ 30
explan@@ 30
fossil 30
frag@@ 30
fragmentation 30
frank@@ 30
gher 30
ghts 30
gia 30
grey 30
heav@@ 30
holes 30
hospital 30
hus@@ 30
ids 30
illegally 30
imply 30
institution@@ 30
interven@@ 30
intoler@@ 30
kan 30
leather 30
li 30
libraries 30
library 30
lighting 30
lo 30
mation 30
merger 30
modify 30
monit@@ 30
mortality 30
neglec@@ 30
oils 30
ologies 30
oo@@ 30
ots 30
outcomes 30
panoramic 30
petrol 30
pione@@ 30
pit@@ 30
pos 30
posting 30
proactive 30
psycho@@ 30
punished 30
quali@@ 30
quest 30
retro@@ 30
ride 30
rigid 30
roadmap 30
seats 30
selves 30
servi@@ 30
short-@@ 30
skin 30
songs 30
start-@@ 30
steadily 30
supporters 30
sures 30
tennis 30
tiers 30
total@@ 30
toys 30
tries 30
triggered 30
trips 30
tron@@ 30
ular 30
up-to-date 30
victory 30
vie@@ 30
virtue 30
weaken 30
wholeheartedly 30
ér@@ 30
Š 30
с@@ 30
21st 29
220 29
40@@ 29
57 29
ARD 29
Algeri@@ 29
BA 29
BA@@ 29
Commer@@ 29
Cru@@ 29
District 29
EG 29
El 29
Eurobarometer 29
Excell@@ 29
FI 29
Fortunately 29
Golf 29
Intel 29
Ke@@ 29
LU@@ 29
Mag@@ 29
Moham@@ 29
Monti 29
NGL 29
Palace 29
Post 29
Produc@@ 29
Products 29
Room 29
S. 29
Sak@@ 29
Sky 29
Stat@@ 29
Sur@@ 29
TEN-@@ 29
Technologi@@ 29
USE 29
Vietnam 29
Vil@@ 29
Volu@@ 29
W-@@ 29
Windows 29
adap@@ 29
affair 29
age-@@ 29
alter 29
ample 29
ann 29
arri@@ 29
attempted 29
attempting 29
auer 29
aus@@ 29
automated 29
awaiting 29
awards 29
balancing 29
boxes 29
browser 29
cartel 29
cha@@ 29
cht 29
continually 29
convenient 29
custom 29
cut@@ 29
cz@@ 29
dam@@ 29
dependency 29
der-@@ 29
dient 29
distribut@@ 29
eive 29
elle 29
ements 29
emer@@ 29
envelop@@ 29
environment@@ 29
ext@@ 29
fascinating 29
feelings 29
flour@@ 29
furniture 29
globe 29
habitats 29
hygiene 29
ira 29
jk 29
ka@@ 29
kan@@ 29
keys 29
lical 29
lifted 29
luck 29
masters 29
matched 29
mining 29
nesty 29
op 29
organiz@@ 29
oul@@ 29
overla@@ 29
paint 29
passive 29
pesti@@ 29
phones 29
ple 29
princip@@ 29
reli@@ 29
road@@ 29
roof 29
roy@@ 29
self 29
shore 29
sibly 29
sights 29
smart 29
splendid 29
standardi@@ 29
strikes 29
suites 29
sympath@@ 29
template 29
therap@@ 29
thetic 29
thinks 29
torial 29
transl@@ 29
tree 29
umin@@ 29
uncertain 29
undermin@@ 29
uniqu@@ 29
upgrading 29
utili@@ 29
venues 29
vil@@ 29
virtu@@ 29
volumes 29
warran@@ 29
© 29
ès 29
ñ@@ 29
ô@@ 29
ø@@ 29
ı@@ 29
-European 28
-related 28
1.4 28
198@@ 28
Account 28
Alexander 28
Bay 28
Bul@@ 28
Child 28
Chr@@ 28
Cold 28
Cox 28
Dou@@ 28
ENG@@ 28
Electronic 28
Everything 28
FT 28
Fron@@ 28
ICH 28
Industries 28
Itali@@ 28
Jac@@ 28
Key 28
Kinnock 28
Kon@@ 28
Lake 28
Malaysia 28
Mes@@ 28
Networks 28
Ori@@ 28
Palacio 28
President@@ 28
Prof. 28
REI@@ 28
RU@@ 28
Recommend@@ 28
Select 28
Sound 28
Space 28
Ther@@ 28
Thessaloniki 28
U.S. 28
Unlike 28
Val 28
Ven@@ 28
accuracy 28
accurately 28
aes@@ 28
aggressive 28
alive 28
allies 28
ama 28
amps 28
anna 28
appalling 28
apped 28
appropri@@ 28
arti@@ 28
assign@@ 28
ast-@@ 28
beaches 28
beri@@ 28
bi 28
bits 28
boundaries 28
candi@@ 28
catalog 28
cells 28
chocolate 28
classical 28
cleaning 28
clear@@ 28
conceived 28
continental 28
corrected 28
coupled 28
deficiencies 28
deliberate 28
dental 28
displays 28
dom 28
domin@@ 28
dos 28
edt 28
essor 28
etary 28
eth 28
evaluating 28
floods 28
forums 28
found@@ 28
four@@ 28
frau@@ 28
fting 28
gases 28
gate 28
gather 28
grid 28
hosted 28
iner@@ 28
inge 28
institute 28
invali@@ 28
jan 28
job@@ 28
jum@@ 28
ker@@ 28
lacks 28
lear@@ 28
lessly 28
liqui@@ 28
lity 28
lying 28
magnetic 28
method@@ 28
mort@@ 28
museums 28
nowadays 28
open-@@ 28
oppos@@ 28
overnight 28
pered 28
performances 28
pig@@ 28
pregn@@ 28
privileges 28
prolon@@ 28
protocols 28
proving 28
q@@ 28
recovered 28
refin@@ 28
reprene@@ 28
responded 28
rey 28
rolling 28
seaf@@ 28
seconds 28
selecting 28
selective 28
separated 28
shoo@@ 28
sia 28
sided 28
simultane@@ 28
skill 28
snow 28
song 28
sored 28
soul 28
spacious 28
spectacular 28
stars 28
successor 28
suspect 28
telec@@ 28
theatre 28
threatens 28
tia 28
tings 28
troub@@ 28
ues 28
ure-@@ 28
ussions 28
villa 28
vous 28
ware@@ 28
wron@@ 28
z-@@ 28
zer 28
ï@@ 28
ć 28
š 28
.de 27
160 27
1987 27
19th 27
2.1 27
2.4 27
20.@@ 27
7th 27
Assad 27
Audio@@ 27
Benita 27
Christi@@ 27
Clu@@ 27
Copyright 27
Cris@@ 27
Dau@@ 27
Dri@@ 27
ETS 27
Ear@@ 27
Econom@@ 27
Erika 27
Feli@@ 27
Final 27
Frankfurt 27
God 27
Greater 27
Green@@ 27
Gs 27
Hau@@ 27
IER@@ 27
Ide@@ 27
Institu@@ 27
Kr@@ 27
Leon 27
Liberals 27
Lithu@@ 27
Located 27
Luxem@@ 27
Mah@@ 27
NA 27
News 27
Pat@@ 27
Pla@@ 27
Prestige 27
Protec@@ 27
RE 27
S.@@ 27
SK 27
SW@@ 27
Sau@@ 27
Shar@@ 27
Situation 27
Star@@ 27
Super@@ 27
Venice 27
Vice 27
Werner 27
YO@@ 27
acks 27
aders 27
anim@@ 27
ano@@ 27
appro@@ 27
approves 27
aqu@@ 27
arbit@@ 27
archives 27
ardi@@ 27
ario 27
ark@@ 27
astery 27
atically 27
attra@@ 27
ature 27
bath 27
bedroom 27
beginn@@ 27
besides 27
blan@@ 27
bo 27
busy 27
cann@@ 27
cen@@ 27
chestra 27
cip@@ 27
civi@@ 27
clearing 27
collections 27
commented 27
computer@@ 27
conduc@@ 27
connecting 27
contamination 27
convenience 27
costly 27
della 27
detect 27
directory 27
drinking 27
drinks 27
eit 27
emis@@ 27
employ 27
ems 27
ensu@@ 27
environments 27
eo 27
ess-@@ 27
essed 27
ever-@@ 27
exercises 27
extrem@@ 27
fit@@ 27
fresh@@ 27
garage 27
gens 27
get@@ 27
gn@@ 27
graphics 27
guides 27
handic@@ 27
hop@@ 27
impa@@ 27
improves 27
inner 27
inspectors 27
juries 27
laim@@ 27
learnt 27
live@@ 27
mad 27
mani@@ 27
mans 27
measurement 27
mir 27
mirror 27
modules 27
monopolies 27
nes@@ 27
net@@ 27
not@@ 27
officer 27
perception 27
persist@@ 27
phenomena 27
pot 27
projec@@ 27
purchased 27
rage 27
rations 27
realized 27
ref@@ 27
refriger@@ 27
remain@@ 27
rental 27
repa@@ 27
reveal 27
ricul@@ 27
sacri@@ 27
sel 27
sex@@ 27
sexu@@ 27
shorter 27
single-@@ 27
sional 27
sooner 27
spaces 27
spark@@ 27
spreading 27
ste 27
stores 27
stro@@ 27
swi@@ 27
tains 27
technique 27
thesis 27
thou@@ 27
tilation 27
till 27
tn@@ 27
tropical 27
unclear 27
ura 27
varies 27
ves@@ 27
visions 27
vities 27
ware 27
warned 27
watching 27
x-@@ 27
xi@@ 27
ys@@ 27
£ 27
§ 27
ühr@@ 27
.net 26
111 26
3.5 26
A.@@ 26
Alexand@@ 26
Alps 26
Ara@@ 26
Asyl@@ 26
Atom@@ 26
Autom@@ 26
Av@@ 26
Avi@@ 26
Bavaria 26
Bres@@ 26
COD 26
Charlie 26
Corporate 26
Der@@ 26
Docu@@ 26
EURO 26
Ei@@ 26
GE 26
GI@@ 26
Ga@@ 26
Ge@@ 26
Goals 26
H. 26
Holding 26
IO 26
Imp@@ 26
Koh@@ 26
Lei@@ 26
Marketing 26
Mu@@ 26
Note 26
Nothing 26
Oslo 26
Out@@ 26
PD@@ 26
PM 26
Pic@@ 26
Pier@@ 26
Prince 26
Private 26
Radio 26
Sig@@ 26
Software 26
Status 26
Sti@@ 26
Stu@@ 26
Sup@@ 26
USD 26
WT@@ 26
Whatever 26
Wie@@ 26
ab 26
ae 26
air-@@ 26
amt 26
anyway 26
architectural 26
arrange 26
arts 26
assist@@ 26
attacked 26
backdrop 26
benchmark 26
bike 26
bla@@ 26
bour 26
broadband 26
cancelled 26
caps 26
celebrated 26
cell 26
chann@@ 26
churches 26
colors 26
commodity 26
cts 26
deal@@ 26
declar@@ 26
declined 26
defended 26
deleted 26
density 26
detected 26
din@@ 26
dings 26
distinct 26
dress 26
eco-@@ 26
economics 26
ehow 26
electric 26
ellen@@ 26
ember@@ 26
enburg 26
esh@@ 26
fabri@@ 26
fici@@ 26
finger 26
focuss@@ 26
fortun@@ 26
hearts 26
high@@ 26
horse 26
horses 26
hospitality 26
humans 26
hunting 26
hy@@ 26
ingen 26
ink@@ 26
isa 26
itals 26
lakes 26
lav@@ 26
lements 26
let@@ 26
linear 26
literature 26
m2 26
magazine 26
magnificent 26
medieval 26
mini 26
noble 26
novel 26
obligatory 26
occurring 26
offen@@ 26
ommunic@@ 26
onic 26
optimal 26
org@@ 26
organizing 26
patents 26
pleas@@ 26
pone 26
predec@@ 26
priori@@ 26
privilege 26
process@@ 26
promotional 26
prop@@ 26
propor@@ 26
ption 26
quoted 26
rant 26
rat@@ 26
ratic 26
recre@@ 26
recycling 26
rhetoric 26
rolled 26
rum 26
rus 26
static 26
stra 26
suici@@ 26
tag 26
tainment 26
tech 26
tenden@@ 26
terminal 26
terminals 26
therapy 26
top@@ 26
transaction 26
treatments 26
ually 26
unforgettable 26
unknown 26
variations 26
verb@@ 26
vies 26
view@@ 26
ville 26
violated 26
void 26
weaker 26
wel 26
wis@@ 26
Í@@ 26
Č 26
е@@ 26
10-@@ 25
125 25
142 25
149 25
17.@@ 25
1978 25
197@@ 25
6th 25
88@@ 25
ALE 25
Advoc@@ 25
Ala@@ 25
Aut@@ 25
Award 25
Bag@@ 25
Bar 25
Beyond 25
Book 25
Bou@@ 25
Brian 25
Cent@@ 25
Chall@@ 25
Cher@@ 25
Colle@@ 25
DIN 25
DV@@ 25
Dr 25
ENP 25
Ecuador 25
Electri@@ 25
Enh@@ 25
Establ@@ 25
Europ@@ 25
G-@@ 25
H-0@@ 25
HM@@ 25
IMO 25
ISO 25
Inclu@@ 25
Individu@@ 25
Ka@@ 25
LEA@@ 25
Landes@@ 25
Leipzig 25
Mallorca 25
Markets 25
Mercedes 25
Monaco 25
Mus@@ 25
Nord@@ 25
Ober@@ 25
Package 25
Past@@ 25
Pur@@ 25
Republi@@ 25
Saf@@ 25
Sta@@ 25
Stock@@ 25
Stuttgart 25
Sus@@ 25
Tem@@ 25
Total 25
Tru@@ 25
V. 25
Websites 25
Wo@@ 25
appoint@@ 25
approxim@@ 25
assi@@ 25
assumption 25
ater 25
bathing 25
bet 25
biofuels 25
calendar 25
call@@ 25
camp 25
capture 25
cheese 25
codi@@ 25
concerts 25
contain@@ 25
curr@@ 25
dar 25
decorated 25
delivers 25
devastating 25
diagno@@ 25
diesel 25
disappeared 25
dying 25
ecks 25
effec@@ 25
ele@@ 25
enopho@@ 25
enthusi@@ 25
enz 25
essing 25
eting 25
filter 25
fitted 25
floo@@ 25
gent@@ 25
ger-@@ 25
gible 25
gift 25
gla@@ 25
glu@@ 25
grade 25
grams 25
gran@@ 25
guard 25
haul 25
http 25
indicator 25
kas@@ 25
laboratories 25
lications 25
lined 25
lion 25
locked 25
lt 25
market@@ 25
mend@@ 25
modi@@ 25
native 25
ness@@ 25
occa@@ 25
oli 25
optional 25
orrow 25
outs 25
persec@@ 25
porno@@ 25
portra@@ 25
provisi@@ 25
rad@@ 25
refresh@@ 25
relocation 25
reproductive 25
rescue 25
respec@@ 25
revise 25
rock 25
roughly 25
sand 25
scenarios 25
sens@@ 25
she@@ 25
shooting 25
signatures 25
silent 25
specul@@ 25
speculation 25
spor@@ 25
sto 25
stops 25
subscribe 25
teenth 25
telecoms 25
tells 25
tention 25
thi@@ 25
tied 25
tness 25
tonight 25
toward 25
transp@@ 25
tration 25
turing 25
unter@@ 25
utter 25
utting 25
variable 25
vin@@ 25
warranty 25
wheel 25
worthwhile 25
yle 25
zard 25
ý 25
ř@@ 25
д@@ 25
103 24
110 24
140 24
18th 24
1980s 24
1986 24
2.6 24
20th 24
21.@@ 24
3.0 24
33@@ 24
4. 24
AP 24
ART 24
Ach@@ 24
Bun@@ 24
CHT 24
Camp 24
Carl 24
Connec@@ 24
DS@@ 24
Direc@@ 24
EDF 24
EIN 24
ERDF 24
Fol@@ 24
Has 24
Head@@ 24
Hum@@ 24
Km 24
LON@@ 24
Lama 24
Let@@ 24
Lor@@ 24
Lul@@ 24
Mac 24
Major 24
Moldo@@ 24
Málaga 24
NE 24
Nicolas 24
Old 24
Online 24
Overall 24
Pakist@@ 24
Product 24
Pun@@ 24
Rand@@ 24
Schl@@ 24
Schrö@@ 24
Senior 24
Set@@ 24
Studies 24
Sum@@ 24
Technologies 24
Wit@@ 24
acco 24
ades 24
afford@@ 24
ala 24
aten 24
ater@@ 24
beverages 24
bid 24
blocking 24
bou@@ 24
buses 24
cap 24
cel 24
chest@@ 24
choosing 24
commonly 24
cos 24
dell 24
dena 24
designing 24
develop@@ 24
distingu@@ 24
distributors 24
docu@@ 24
dropped 24
eil 24
ells 24
enter@@ 24
excursions 24
exist@@ 24
ference 24
fes@@ 24
fest 24
festival 24
gated 24
gau@@ 24
ge-@@ 24
genic 24
gering 24
glo@@ 24
guil@@ 24
heated 24
hierarch@@ 24
hosting 24
ik 24
impede 24
imperi@@ 24
inst@@ 24
insu@@ 24
insur@@ 24
intellec@@ 24
intermediate 24
intern@@ 24
isn 24
it-@@ 24
labels 24
lah 24
layout 24
lica 24
liges 24
los@@ 24
lovely 24
lv@@ 24
marriage 24
master@@ 24
materi@@ 24
mean@@ 24
mol@@ 24
multinational 24
ologically 24
ongside 24
onymous 24
overlooking 24
pack@@ 24
pain@@ 24
past@@ 24
porte@@ 24
possess 24
purchases 24
quick@@ 24
recip@@ 24
recipi@@ 24
reduces 24
reveals 24
reward 24
ro-@@ 24
roll 24
servatives 24
shareholders 24
shr@@ 24
siden@@ 24
slopes 24
spar@@ 24
sta 24
taxpay@@ 24
temperatures 24
trin@@ 24
twin 24
tz@@ 24
uta 24
valued 24
vertical 24
videos 24
warm@@ 24
wisdom 24
yellow 24
Ó@@ 24
ż@@ 24
# 23
.ch 23
000@@ 23
1,5 23
109 23
1957 23
1976 23
1977 23
1984 23
22@@ 23
55@@ 23
750 23
AUS@@ 23
Aff@@ 23
Agen@@ 23
Apartment 23
Army 23
Baden-@@ 23
Be 23
Cambo@@ 23
Card 23
Dalai 23
Deutsche 23
Don 23
Dun@@ 23
EZ@@ 23
Erit@@ 23
Et@@ 23
Eurojust 23
Fair 23
Festival 23
Fon@@ 23
GAR@@ 23
HA@@ 23
Hei@@ 23
Juan 23
Kur@@ 23
L-@@ 23
Look 23
MA 23
Main@@ 23
Medina 23
Microsoft 23
Olympic 23
Organ@@ 23
Over@@ 23
Piazza 23
Platform 23
Prix 23
Raf@@ 23
Rol@@ 23
Saint 23
Sho@@ 23
Table 23
Ten 23
Wei@@ 23
Written 23
Young 23
`@@ 23
a.@@ 23
ace 23
ada@@ 23
alter@@ 23
aluminium 23
ank@@ 23
answer@@ 23
appearing 23
ares 23
arious 23
arities 23
arro@@ 23
authenti@@ 23
bat 23
batt@@ 23
bran@@ 23
breaches 23
broch@@ 23
bure@@ 23
burning 23
character@@ 23
commodities 23
compli@@ 23
cookies 23
copying 23
cosy 23
counterfeiting 23
dden 23
dei 23
dela@@ 23
delle 23
designer 23
diagnosis 23
dio@@ 23
documented 23
domains 23
double-@@ 23
eine 23
eled 23
embo@@ 23
emin@@ 23
emplo@@ 23
endanger@@ 23
endums 23
enjoy@@ 23
enshr@@ 23
enz@@ 23
este 23
eta 23
fan@@ 23
feedback 23
flag@@ 23
fon@@ 23
foreign@@ 23
fulfil@@ 23
gage 23
gericht 23
giant 23
gin 23
graph@@ 23
happ@@ 23
healing 23
herr@@ 23
hic 23
incap@@ 23
insight 23
inspir@@ 23
intent 23
ints 23
isp@@ 23
jar@@ 23
ladi@@ 23
lap@@ 23
lar@@ 23
licity 23
literally 23
lows 23
magic 23
mile 23
mono@@ 23
muni@@ 23
notic@@ 23
ols 23
ommission@@ 23
ood 23
opho@@ 23
outdoor 23
pass@@ 23
passage 23
penet@@ 23
personality 23
portion 23
posing 23
pper 23
precedent 23
predomin@@ 23
presentations 23
pro 23
profiles 23
promo@@ 23
protection@@ 23
pt@@ 23
reck@@ 23
rob@@ 23
romantic 23
rup@@ 23
shaped 23
sil@@ 23
simpl@@ 23
sition 23
solar 23
soli@@ 23
somewhere 23
spell 23
spots 23
stag@@ 23
staying 23
steam 23
surgery 23
symbol@@ 23
ter-@@ 23
theti@@ 23
thful 23
tiles 23
train@@ 23
two@@ 23
ude 23
ury 23
utt@@ 23
va@@ 23
warming 23
windows 23
writer 23
zel@@ 23
ö@@ 23
т@@ 23
16.@@ 22
1967 22
1975 22
240 22
Ali 22
Alp@@ 22
Ambass@@ 22
Ang@@ 22
Apartments 22
Barrot 22
Bec@@ 22
Bonn 22
Bri@@ 22
CNS 22
Dat@@ 22
Directors 22
Dur@@ 22
Enter@@ 22
FA 22
Four 22
Frontex 22
German@@ 22
Ghan@@ 22
Guatem@@ 22
Gui@@ 22
HU 22
Hab@@ 22
Her 22
History 22
Holy 22
IE 22
ISS@@ 22
Import@@ 22
Ja@@ 22
Language 22
Malmström 22
Mark 22
Med@@ 22
Meg@@ 22
Mem@@ 22
Minis@@ 22
Minister@@ 22
Mountains 22
Ny@@ 22
Oil 22
PE 22
PS@@ 22
Patri@@ 22
Pedro 22
Price 22
Radi@@ 22
Ré@@ 22
San@@ 22
Sep@@ 22
Site 22
Standard 22
Street 22
Subsidi@@ 22
Sv@@ 22
THER 22
Tan@@ 22
Tanz@@ 22
Tit@@ 22
Tony 22
Vitorino 22
additives 22
adily 22
admire 22
ado@@ 22
ager 22
aggre@@ 22
alert 22
anced 22
array 22
artist 22
ateg@@ 22
atics 22
atmosp@@ 22
attraction 22
aults 22
bed@@ 22
bedrooms 22
boys 22
brow@@ 22
cali@@ 22
casting 22
cere@@ 22
challeng@@ 22
cians 22
ckers 22
class@@ 22
convers@@ 22
crip@@ 22
cyc@@ 22
dam 22
defe@@ 22
descriptions 22
desk 22
diam@@ 22
didn 22
dite 22
dium 22
dog 22
dus 22
ear 22
editor 22
ember 22
endless 22
enses 22
ent-@@ 22
entries 22
enzo 22
erc@@ 22
ern 22
essen@@ 22
etc. 22
eurozone 22
exploring 22
ey@@ 22
fat 22
felong 22
fis@@ 22
formity 22
gardens 22
generates 22
genous 22
gical 22
grap@@ 22
hai 22
hil@@ 22
hills 22
hip 22
iet 22
imagination 22
impressed 22
inher@@ 22
internation@@ 22
itan 22
ities 22
itment 22
kov@@ 22
lags 22
legi@@ 22
lik@@ 22
liminary 22
merch@@ 22
mil@@ 22
mouse 22
negligence 22
neo-@@ 22
non@@ 22
oming 22
open@@ 22
opp@@ 22
opponents 22
pain 22
patch 22
path@@ 22
pension@@ 22
phy@@ 22
pin@@ 22
plug@@ 22
predictable 22
productions 22
ran 22
ranges 22
reas@@ 22
reboard 22
rel 22
ria 22
routine 22
saf@@ 22
sample 22
script 22
searching 22
sham@@ 22
shof 22
shor@@ 22
shoul@@ 22
slight 22
sophisticated 22
sorts 22
spa@@ 22
stam@@ 22
state-of-the-art 22
stes 22
stock@@ 22
straight@@ 22
stran@@ 22
stru@@ 22
stuff 22
suits 22
symbols 22
system@@ 22
teach 22
termination 22
tier 22
tile 22
tiny 22
trademark 22
translations 22
tress 22
trigger 22
understand@@ 22
ung 22
uter 22
varieties 22
vec@@ 22
veget@@ 22
verty 22
vir@@ 22
wadays 22
woo@@ 22
yard 22
yards 22
Á 22
ā@@ 22
106 21
14.@@ 21
16th 21
24.@@ 21
5. 21
> 21
Additionally 21
Airbus 21
Aires 21
Al 21
Animal 21
Bali 21
Banking 21
Beau@@ 21
Brun@@ 21
Buenos 21
C.@@ 21
Canc@@ 21
Chap@@ 21
Commission@@ 21
Conditions 21
Cu@@ 21
Currently 21
DVD 21
Dam@@ 21
Des@@ 21
Fas@@ 21
GS 21
Gor@@ 21
Gran@@ 21
Histor@@ 21
IST 21
Inform@@ 21
Intelli@@ 21
Israeli@@ 21
Jam@@ 21
Jen@@ 21
Joseph 21
Ken@@ 21
LAN@@ 21
Make 21
Mann 21
NET 21
NO 21
Naz@@ 21
Nep@@ 21
Num@@ 21
Obama 21
On@@ 21
PDF 21
Phil@@ 21
Piebalgs 21
Port 21
Power 21
Rab@@ 21
Recently 21
Sard@@ 21
Saudi 21
Schulz 21
St 21
Still 21
Stra@@ 21
Sun 21
Supervisory 21
TAC@@ 21
TEI@@ 21
Town 21
Tu@@ 21
Ug@@ 21
Ves@@ 21
Vinci 21
Viol@@ 21
Wür@@ 21
ZI@@ 21
Zagreb 21
abour-@@ 21
accessories 21
acci@@ 21
administr@@ 21
advised 21
agon@@ 21
aly@@ 21
ao 21
arch@@ 21
archit@@ 21
arena 21
aspir@@ 21
attrac@@ 21
attracted 21
ault 21
automobile 21
baby 21
bankrupt@@ 21
bat@@ 21
bis 21
bread 21
bright 21
bs@@ 21
buil@@ 21
bulk 21
camping 21
cargo 21
cham@@ 21
chambres 21
chap@@ 21
chno@@ 21
cigare@@ 21
ckness 21
cle 21
clean@@ 21
commit@@ 21
concep@@ 21
concer@@ 21
convert 21
cultiv@@ 21
cultur@@ 21
default 21
defects 21
demon@@ 21
denti@@ 21
destruc@@ 21
detec@@ 21
disrup@@ 21
dler 21
doc 21
dow@@ 21
doz@@ 21
e.@@ 21
ea 21
educ@@ 21
ef 21
ehr@@ 21
eks 21
electro@@ 21
eling 21
encounter 21
enda 21
endo@@ 21
enemy 21
engineers 21
ept 21
erous 21
exceeds 21
fan 21
fans 21
fashi@@ 21
fauna 21
filling 21
fitness 21
forbi@@ 21
forec@@ 21
forever 21
gan 21
gates 21
gely 21
gher@@ 21
globalization 21
grace 21
graphical 21
harm@@ 21
haven 21
imple@@ 21
incomplete 21
instal@@ 21
iss 21
iss@@ 21
kes@@ 21
lage 21
land-@@ 21
langu@@ 21
laser 21
leverage 21
lian 21
liquidity 21
luggage 21
matic 21
meals 21
meas@@ 21
merit 21
mid 21
motiv@@ 21
mounting 21
neys 21
ocean 21
ow@@ 21
oxi@@ 21
parks 21
phe 21
photograph@@ 21
photographs 21
populated 21
pose@@ 21
powered 21
precau@@ 21
prejudi@@ 21
prim@@ 21
profit@@ 21
ras 21
rea 21
reason@@ 21
refined 21
reflec@@ 21
salon 21
selec@@ 21
ser 21
seven@@ 21
share@@ 21
shire 21
sortium 21
stan@@ 21
subsidiaries 21
sulph@@ 21
suspected 21
sustain@@ 21
talent 21
tank@@ 21
tanks 21
thwest 21
tracking 21
tter@@ 21
uation 21
vacation 21
varying 21
vents 21
versities 21
wns 21
zen@@ 21
zin@@ 21
án@@ 21
éri@@ 21
č 21
0,000 20
196 20
27.@@ 20
546 20
Af@@ 20
Arabia 20
Basi@@ 20
Beijing 20
Bil@@ 20
Bla@@ 20
Bolkestein 20
Bus@@ 20
Bush 20
C4-0@@ 20
Cape 20
Cec@@ 20
Clear@@ 20
Corporation 20
Customer 20
DM@@ 20
Die 20
Eu@@ 20
FAO 20
Fischer@@ 20
GB 20
Germans 20
Gom@@ 20
Gonzal@@ 20
Gott@@ 20
Hans@@ 20
Imple@@ 20
Jür@@ 20
Kau@@ 20
LA 20
Line 20
Lon@@ 20
Medical 20
Metho@@ 20
Micro@@ 20
Milan 20
Modernis@@ 20
NG@@ 20
Operational 20
Passa@@ 20
Pir@@ 20
Place 20
Politi@@ 20
Priority 20
Richard 20
Ris@@ 20
SR@@ 20
SS 20
Sav@@ 20
Seville 20
Sor@@ 20
Syn@@ 20
Type 20
UNESCO 20
Valley 20
Via 20
Wh@@ 20
acid 20
acies 20
adjacent 20
advan@@ 20
ain@@ 20
amenities 20
anch@@ 20
anded 20
ank 20
aster 20
asyl@@ 20
auction 20
bananas 20
bau@@ 20
birth@@ 20
blin@@ 20
bonus 20
bration 20
bud@@ 20
buttons 20
chamber 20
chan@@ 20
charming 20
cht@@ 20
cides 20
cit@@ 20
classi@@ 20
clinical 20
combin@@ 20
commer@@ 20
contamin@@ 20
corporations 20
counted 20
countless 20
cover@@ 20
dea@@ 20
degre@@ 20
dele@@ 20
descri@@ 20
dominated 20
dra 20
dreams 20
ebo@@ 20
eck@@ 20
embry@@ 20
emotional 20
ere@@ 20
etings 20
exhibit@@ 20
experiments 20
feeding 20
fits 20
folios 20
fore 20
founder 20
ften 20
fts@@ 20
gor@@ 20
grati@@ 20
gs@@ 20
hausen 20
high-speed 20
hiking 20
histor@@ 20
hosts 20
hun@@ 20
ie-@@ 20
iel 20
ilers 20
inciner@@ 20
inia 20
iter@@ 20
legitim@@ 20
loaded 20
locate 20
log 20
lou@@ 20
lounge 20
magazines 20
milit@@ 20
min 20
minis@@ 20
mix@@ 20
mon 20
moun@@ 20
mount 20
musi@@ 20
nationalism 20
ney 20
nica 20
nobyl 20
nominal 20
omm@@ 20
onship 20
opport@@ 20
ouldn 20
outh 20
overseas 20
p.@@ 20
pack 20
parall@@ 20
part@@ 20
passes 20
passion@@ 20
peror 20
preme 20
prep@@ 20
rag@@ 20
recreational 20
remedies 20
revers@@ 20
rought 20
rue 20
salt 20
scenes 20
scre@@ 20
sequ@@ 20
servative 20
shame 20
sheet 20
sist@@ 20
six@@ 20
slau@@ 20
ssa 20
ssiers 20
stal@@ 20
strategi@@ 20
styles 20
tage@@ 20
theast 20
thei@@ 20
thermal 20
thrown 20
tising 20
tot@@ 20
traffi@@ 20
transform@@ 20
tro 20
ul 20
unities 20
urn 20
utor 20
vacc@@ 20
vels 20
vulnerability 20
weakness 20
winners 20
wooden 20
world-@@ 20
yearly 20
younger 20
zi 20
zion@@ 20
Ä 20
ère 20
ě@@ 20
ł@@ 20
м@@ 20
о 20
™ 20
-in 19
18.@@ 19
2.2 19
Afri@@ 19
Ankara 19
Boo@@ 19
CHF 19
Carlo 19
Certi@@ 19
Christians 19
Christop@@ 19
Cou@@ 19
Deutschland 19
Diamantopoulou 19
Differ@@ 19
Earth 19
Events 19
Export 19
FT@@ 19
Find 19
Gab@@ 19
Heritage 19
ISA 19
Image 19
Inn 19
Instrument 19
Jak@@ 19
Joh@@ 19
Johannes 19
Jur@@ 19
Kab@@ 19
Karl 19
Kil@@ 19
LIN 19
Len@@ 19
Mart@@ 19
Master 19
Modern 19
Monter@@ 19
Nav@@ 19
Notes 19
Ot@@ 19
PN@@ 19
Piet@@ 19
Porto 19
Pro 19
Refer@@ 19
Regime 19
Rin@@ 19
Ry@@ 19
SL 19
Securities 19
Sett@@ 19
Son@@ 19
Spr@@ 19
Tak@@ 19
Tradi@@ 19
Travel 19
Trust 19
Tus@@ 19
Us 19
Various 19
Verts 19
Vir@@ 19
Visa 19
Waste 19
Watson 19
ac 19
accommod@@ 19
agre@@ 19
agu@@ 19
allow@@ 19
amm@@ 19
anca 19
anom@@ 19
arest 19
asp@@ 19
awar@@ 19
bak@@ 19
barely 19
beer 19
bilater@@ 19
bio-@@ 19
brea@@ 19
campaign@@ 19
chn@@ 19
collap@@ 19
competitions 19
contemporary 19
converted 19
country-@@ 19
decoration 19
defici@@ 19
demonstr@@ 19
dens 19
destroying 19
diet 19
dis 19
disk 19
do-@@ 19
dogs 19
dust 19
econom@@ 19
economical 19
editing 19
electronics 19
eman@@ 19
ener 19
enne 19
ente 19
entreprene@@ 19
entu@@ 19
etic 19
fall@@ 19
farm@@ 19
fertil@@ 19
figh@@ 19
forge 19
fortunate 19
gency 19
gericht@@ 19
gest 19
gging 19
golden 19
gon 19
gy 19
habit@@ 19
heal@@ 19
hospitals 19
ideally 19
ineffective 19
inet 19
infec@@ 19
infr@@ 19
insert 19
io 19
isely 19
isons 19
leng@@ 19
list@@ 19
lle 19
luxurious 19
musicians 19
myst@@ 19
nau@@ 19
nel 19
nic@@ 19
note@@ 19
ob 19
oes 19
off-@@ 19
on-line 19
onds 19
ool 19
organs 19
ough 19
outermost 19
ova 19
own@@ 19
penal@@ 19
plause 19
poss@@ 19
produc@@ 19
ranks 19
recommen@@ 19
ree 19
reiter@@ 19
relaxed 19
resear@@ 19
ress 19
revol@@ 19
rhyth@@ 19
rises 19
rol@@ 19
rot@@ 19
rounded 19
scienti@@ 19
screens 19
segments 19
servers 19
snow@@ 19
spatial 19
spee@@ 19
spre@@ 19
station@@ 19
stim@@ 19
stitutes 19
sty@@ 19
superior 19
surpr@@ 19
tat 19
theoretical 19
third-@@ 19
tica 19
tieth 19
timber 19
travel@@ 19
treating 19
tu 19
unstable 19
ured 19
uti@@ 19
was@@ 19
washing 19
weal@@ 19
weekly 19
will@@ 19
ycle 19
ă@@ 19
.org 18
115 18
116 18
120@@ 18
210 18
230 18
3.1 18
6. 18
A5-00@@ 18
Add 18
Andalu@@ 18
Angela 18
Any@@ 18
Are@@ 18
Baroness 18
Broad@@ 18
CB@@ 18
Cast@@ 18
Centr@@ 18
Civi@@ 18
Clau@@ 18
Continental 18
Cup 18
Deb@@ 18
Dep@@ 18
Double 18
Download 18
Dro@@ 18
Emer@@ 18
Extra@@ 18
François 18
Frau@@ 18
GEN 18
GM@@ 18
General@@ 18
Herman 18
Hi@@ 18
Isa@@ 18
Islam 18
Iz@@ 18
Je@@ 18
Jer@@ 18
KG 18
Kra@@ 18
Kub@@ 18
L. 18
LIFE 18
Lang@@ 18
Lim@@ 18
Mak@@ 18
Mand@@ 18
Manufac@@ 18
Mun@@ 18
Muslims 18
Pad@@ 18
Panel 18
Patent 18
Plans 18
Player 18
Pop@@ 18
Read 18
Restaurant 18
SAR@@ 18
Sad@@ 18
Schwar@@ 18
Sis@@ 18
Slovenian 18
Stan@@ 18
Station 18
Stei@@ 18
Struc@@ 18
Sun@@ 18
Sym@@ 18
Sz@@ 18
TN@@ 18
Turk@@ 18
Ty@@ 18
V-@@ 18
Vinc@@ 18
airo 18
amp 18
applic@@ 18
articul@@ 18
auc@@ 18
avi@@ 18
bene@@ 18
bes@@ 18
best-@@ 18
bic@@ 18
billions 18
bn 18
bon 18
boot 18
brands 18
cancell@@ 18
cast@@ 18
certi@@ 18
ces@@ 18
chen@@ 18
chronic 18
cigarettes 18
cir@@ 18
cks@@ 18
cleared 18
column 18
congress 18
constra@@ 18
contro@@ 18
counterf@@ 18
crash 18
dar@@ 18
daughter 18
declining 18
dential 18
depar@@ 18
designers 18
deta@@ 18
distances 18
distant 18
dle 18
door@@ 18
dryer 18
duce 18
eln 18
emble 18
energe@@ 18
erup@@ 18
escap@@ 18
ethics 18
exhi@@ 18
famili@@ 18
fli@@ 18
flowers 18
ft-@@ 18
gal@@ 18
gaming 18
gau 18
graph 18
grass 18
hig@@ 18
hit@@ 18
ideology 18
iles 18
ilia 18
index 18
iner 18
info 18
isc@@ 18
isol@@ 18
isse 18
ket 18
key@@ 18
laboratory 18
landing 18
lemma 18
limin@@ 18
lov@@ 18
lovers 18
m-@@ 18
maker 18
manages 18
manu@@ 18
mathemati@@ 18
memories 18
mood 18
mothers 18
mp 18
multination@@ 18
nar 18
oh@@ 18
ont 18
ort@@ 18
painting 18
palace 18
pe-@@ 18
pharmaceu@@ 18
pic@@ 18
plates 18
portable 18
protein 18
pup@@ 18
recep@@ 18
recover@@ 18
rella 18
rements 18
residential 18
rev@@ 18
revolutionary 18
rie@@ 18
shipment 18
simpli@@ 18
sionally 18
sn@@ 18
spiritual 18
spot@@ 18
spra@@ 18
ssen 18
staff@@ 18
stat 18
stimul@@ 18
ston 18
stylish 18
substanti@@ 18
surfing 18
t-out 18
tability 18
techni@@ 18
ten-@@ 18
textiles 18
thin 18
tox@@ 18
trop@@ 18
tude 18
ty-@@ 18
typically 18
ultra-@@ 18
umn 18
umul@@ 18
unic@@ 18
vation 18
versity 18
vic 18
vic@@ 18
volcan@@ 18
volution 18
vou@@ 18
week@@ 18
wellness 18
wen 18
writ@@ 18
xenopho@@ 18
л@@ 18
1,000 17
112 17
15th 17
1968 17
1973 17
1981 17
202 17
30-@@ 17
34@@ 17
500@@ 17
90@@ 17
< 17
Andris 17
Appartement 17
Ash@@ 17
BG 17
Beach 17
Canary 17
Catholic 17
Cho@@ 17
Close 17
Coast 17
E-mail 17
EI 17
Egyptian 17
Especially 17
F-@@ 17
Fischer 17
Frank@@ 17
Giovanni 17
Go 17
Guide 17
Horiz@@ 17
Hotels 17
Hy@@ 17
IMM@@ 17
Il 17
Inc 17
Islam@@ 17
Italia 17
Janez 17
Jon@@ 17
Kn@@ 17
Leon@@ 17
Light 17
Log@@ 17
Lom@@ 17
Lou@@ 17
Lud@@ 17
MS@@ 17
Mach@@ 17
Man 17
Manchester 17
Mandelson 17
Mass@@ 17
Mongo@@ 17
Mountain 17
New@@ 17
Nie@@ 17
Opera 17
PARTICIP@@ 17
Pel@@ 17
Phili@@ 17
Privacy 17
Project 17
REE 17
Radio@@ 17
Rate 17
Rimini 17
Ros@@ 17
Sab@@ 17
Seg@@ 17
Sie 17
Ski 17
Sports 17
Square 17
Sustain@@ 17
São 17
TL@@ 17
Tai@@ 17
Test 17
Them@@ 17
Tom 17
UN-@@ 17
URBAN 17
VED 17
Veri@@ 17
Viviane 17
ZE 17
acces@@ 17
accredi@@ 17
ación 17
agent 17
alpine 17
anism 17
anner 17
ans@@ 17
anti 17
apprenti@@ 17
approx 17
assumes 17
audio 17
avian 17
axis 17
baggage 17
bara 17
beg@@ 17
canc@@ 17
chers 17
clubs 17
communist 17
cooking 17
ctic 17
decor@@ 17
desktop 17
directors 17
dispar@@ 17
e.g 17
earthquake 17
echo 17
educated 17
ego@@ 17
eira 17
eme 17
essen 17
essi@@ 17
estig@@ 17
etta 17
exhibitions 17
factories 17
failures 17
favourite 17
fers 17
flexi@@ 17
flora 17
formats 17
fru@@ 17
fu 17
gastronom@@ 17
hof 17
hoods 17
hormon@@ 17
ic-@@ 17
icon 17
ille 17
inhab@@ 17
itably 17
itar@@ 17
itz 17
itz@@ 17
joy 17
jury 17
laun@@ 17
lay@@ 17
lends 17
lick 17
liferation 17
liqu@@ 17
mal 17
merg@@ 17
meter 17
modal 17
nee@@ 17
need@@ 17
ni 17
oder 17
oms 17
opou@@ 17
orable 17
organ 17
organ@@ 17
orious 17
ority 17
phil@@ 17
pied 17
plying 17
pol 17
prerequ@@ 17
press@@ 17
problematic 17
prosp@@ 17
rad 17
radic@@ 17
rear 17
refund 17
rela@@ 17
religi@@ 17
residen@@ 17
resili@@ 17
reti@@ 17
sical 17
silver 17
sing@@ 17
spokes@@ 17
spons@@ 17
stainless 17
stitution 17
suffici@@ 17
sum@@ 17
take@@ 17
teach@@ 17
tele@@ 17
tely 17
tit@@ 17
titles 17
tiz@@ 17
trademarks 17
trage@@ 17
tus 17
upgra@@ 17
ure@@ 17
uth 17
vements 17
vens 17
visu@@ 17
walks 17
wholehear@@ 17
wil@@ 17
woods 17
writers 17
yar@@ 17
year-old 17
ça 17
ü@@ 17
ła@@ 17
,5 16
.000 16
00-@@ 16
09.@@ 16
108 16
170 16
19.@@ 16
190 16
1982 16
23.@@ 16
360 16
3D 16
43@@ 16
56@@ 16
7. 16
8. 16
APPRO@@ 16
Adv@@ 16
All@@ 16
Arti@@ 16
Asi@@ 16
BM@@ 16
Bangemann 16
Bie@@ 16
Bour@@ 16
CAN@@ 16
Canadian 16
Cancún 16
Champi@@ 16
Chan@@ 16
Channel 16
Citiz@@ 16
Clas@@ 16
ESA 16
EUR@@ 16
Far 16
Film 16
Fru@@ 16
GL@@ 16
Games 16
Get 16
Hall 16
Hom@@ 16
Igl@@ 16
Innov@@ 16
Istanbul 16
Jes@@ 16
Joaqu@@ 16
KON@@ 16
Kan@@ 16
Kie@@ 16
Knowledge 16
Kunst@@ 16
Lea@@ 16
Left 16
Lev@@ 16
MAN 16
MB@@ 16
Marie 16
Mauri@@ 16
Mess@@ 16
Model 16
Moh@@ 16
Music 16
NC@@ 16
Nag@@ 16
Nielson 16
Oli@@ 16
Outlook 16
P. 16
Partner 16
Pascal 16
Pati@@ 16
Phase 16
Poettering 16
Point 16
Property 16
Rus@@ 16
SC@@ 16
Sant 16
Sax@@ 16
Schreyer 16
Server 16
Sharon 16
Slov@@ 16
Summer 16
TC 16
TF@@ 16
Techni@@ 16
Terms 16
Traff@@ 16
Upon 16
Wallström 16
Website 16
a. 16
acity 16
acquisi@@ 16
ad-@@ 16
agi@@ 16
agra@@ 16
ais 16
ami@@ 16
appar@@ 16
archae@@ 16
archi@@ 16
aut@@ 16
avoi@@ 16
ax@@ 16
basin 16
bay 16
boy 16
bus@@ 16
cand@@ 16
carte 16
characters 16
civili@@ 16
colon@@ 16
conservative 16
controller 16
cycling 16
deci@@ 16
delines 16
dex 16
dialog 16
differ@@ 16
dining 16
dio 16
dioxide 16
discovery 16
duced 16
economists 16
enemies 16
enship 16
episo@@ 16
erh@@ 16
estim@@ 16
et-@@ 16
eten@@ 16
eur 16
eventh 16
fa 16
family-@@ 16
fantas@@ 16
far-@@ 16
fast-@@ 16
ford 16
gam@@ 16
gangs 16
girl 16
hairdryer 16
han 16
hion 16
home@@ 16
hyper@@ 16
ign 16
ignor@@ 16
illing 16
infra@@ 16
intelli@@ 16
inters 16
introduc@@ 16
invent@@ 16
ison@@ 16
issu@@ 16
itely 16
itement 16
ito 16
ja@@ 16
judgement 16
legendary 16
leges 16
lifts 16
lights 16
ling@@ 16
lition 16
lli 16
lood 16
loved 16
massage 16
mg 16
modul@@ 16
modular 16
mt 16
n-@@ 16
nas@@ 16
nat@@ 16
nd 16
newsletter 16
opath@@ 16
pet 16
pho@@ 16
piracy 16
plate 16
prin@@ 16
privatis@@ 16
pum@@ 16
railways 16
ranking 16
reasoned 16
resist@@ 16
resistant 16
ret 16
retailers 16
ris 16
rol 16
ruins 16
sac@@ 16
sailing 16
satisfac@@ 16
segment 16
semi@@ 16
shell 16
show@@ 16
simp@@ 16
singer 16
smallest 16
smoke 16
socialist 16
solo 16
south-@@ 16
specialities 16
specific@@ 16
ss-@@ 16
stren@@ 16
symp@@ 16
tag@@ 16
tail 16
tance 16
tariat 16
tas 16
tent 16
terrasse 16
therapeutic 16
tiveness 16
trails 16
tut@@ 16
ur-@@ 16
utility 16
vicinity 16
vide@@ 16
vineyards 16
vision@@ 16
wet@@ 16
º 16
ös@@ 16
üssel 16
ő@@ 16
в@@ 16
е 16
1945 15
1983 15
20-@@ 15
2008-@@ 15
2010-@@ 15
2050 15
25.@@ 15
3.2 15
300@@ 15
Adjustment 15
Agri@@ 15
Ali@@ 15
Already 15
Analy@@ 15
Australi@@ 15
Barro@@ 15
Berlusconi 15
Blair 15
Blan@@ 15
Blu@@ 15
Box 15
Buil@@ 15
CAM@@ 15
CO2-@@ 15
Car 15
Casino 15
Cathedral 15
Chris 15
Contacts 15
Cruz 15
DH@@ 15
DM 15
Daniel 15
Division 15
EW 15
Ec@@ 15
Eurozone 15
FREE 15
Fili@@ 15
Fla@@ 15
Follow 15
Ford 15
Fren@@ 15
GF@@ 15
GMO 15
Get@@ 15
Gibraltar 15
Guests 15
Gy@@ 15
HD@@ 15
Heb@@ 15
Hübner 15
Imm@@ 15
Institution 15
Jord@@ 15
Kenn@@ 15
King@@ 15
Klin@@ 15
Large 15
Les 15
Limited 15
Little 15
Mali 15
Marco 15
Metro@@ 15
Mir@@ 15
Motor@@ 15
Nord 15
Nu@@ 15
Out 15
PK@@ 15
Per 15
Pho@@ 15
Phy@@ 15
Program 15
Rail 15
Ras@@ 15
Refle@@ 15
Regis@@ 15
Remo@@ 15
Renaissance 15
Revolution 15
Rum@@ 15
Russi@@ 15
SM 15
Save 15
Sciences 15
Seminar 15
She@@ 15
Shop 15
Sin@@ 15
Spa 15
Sty@@ 15
Submitted 15
Surv@@ 15
Swe@@ 15
TW@@ 15
Thir@@ 15
Tokyo 15
Top 15
Transfer 15
Tun@@ 15
Turin 15
Vent@@ 15
Wales 15
Whit@@ 15
WiFi 15
Wolf 15
Workshop 15
abl@@ 15
academ@@ 15
accep@@ 15
accessed 15
ago@@ 15
alco@@ 15
alyst@@ 15
amaz@@ 15
ameter 15
anz@@ 15
arbitr@@ 15
arium 15
arm@@ 15
arta 15
asse 15
auf 15
auto@@ 15
bathrooms 15
battery 15
bir@@ 15
birds 15
bots 15
brut@@ 15
busin@@ 15
cameras 15
cans 15
cat 15
chaos 15
cils 15
clon@@ 15
cm 15
coach 15
coll@@ 15
compani@@ 15
compos@@ 15
consist@@ 15
conveniently 15
cooling 15
cz 15
dago@@ 15
dark@@ 15
deck@@ 15
deliber@@ 15
demic 15
depic@@ 15
diving 15
dras@@ 15
edings 15
eggs 15
el-@@ 15
enjoyable 15
enth@@ 15
eria 15
essimis@@ 15
estic 15
euro@@ 15
finest 15
flood 15
formerly 15
four-@@ 15
fted 15
ges@@ 15
gesellschaft 15
gged 15
gil@@ 15
gin@@ 15
gni@@ 15
grain 15
health@@ 15
hire 15
hist@@ 15
homepage 15
hung 15
hung@@ 15
illi@@ 15
in-house 15
inclu@@ 15
incredi@@ 15
invoice 15
itt 15
ject 15
lad@@ 15
les@@ 15
licensed 15
lifest@@ 15
lige 15
lim@@ 15
limit@@ 15
loser 15
mals 15
manufac@@ 15
mati@@ 15
mi 15
mill 15
ne-@@ 15
nearest 15
negli@@ 15
neighbor@@ 15
nine@@ 15
odation 15
oli@@ 15
omin@@ 15
omo 15
oos 15
ord@@ 15
orian 15
otive 15
our@@ 15
overwhel@@ 15
pause 15
perfec@@ 15
pharmac@@ 15
piano 15
picturesque 15
polis 15
pon@@ 15
privati@@ 15
processor 15
promin@@ 15
pt 15
pts 15
qualit@@ 15
rak@@ 15
regeneration 15
resul@@ 15
right-@@ 15
ror 15
rum@@ 15
sav@@ 15
schol@@ 15
sear@@ 15
secu@@ 15
sensus 15
sharply 15
si 15
signi@@ 15
sos 15
sound@@ 15
stelle 15
stering 15
strand 15
superb 15
sweet 15
sy 15
tank 15
teness 15
tioners 15
tips 15
tise 15
tissue 15
tower 15
translators 15
umb 15
ungalows 15
usses 15
vel 15
villas 15
vin 15
warnings 15
wis 15
zer@@ 15
zy@@ 15
ë 15
ín 15
ě 15
а@@ 15
б@@ 15
ч@@ 15
'd 14
--@@ 14
15.@@ 14
17th 14
1960 14
1974 14
2,5 14
296 14
299 14
64@@ 14
Age 14
Along 14
Apple 14
Aqu@@ 14
Archit@@ 14
Ass@@ 14
Assist@@ 14
Az@@ 14
Bau@@ 14
Beh@@ 14
Ben 14
Biom@@ 14
Byrne 14
CDs 14
CHER@@ 14
Cir@@ 14
Cli@@ 14
Control@@ 14
Creative 14
Dal@@ 14
Dell 14
Discover 14
Educ@@ 14
Fig@@ 14
Fil@@ 14
Fro@@ 14
Func@@ 14
GP 14
Garden 14
Gau@@ 14
Harbour 14
IND 14
Industrie 14
Ingenie@@ 14
JavaScript 14
Ky@@ 14
LED 14
Leg@@ 14
Liby@@ 14
Lit@@ 14
Long 14
Madeira 14
Mar 14
Meter 14
Mé@@ 14
OP 14
Ombudsman 14
Page 14
Pass@@ 14
Peri@@ 14
Pon@@ 14
Provider 14
Pub@@ 14
Py@@ 14
Queen 14
R. 14
Rad@@ 14
Reser@@ 14
Ric@@ 14
SAP 14
STA@@ 14
Scho@@ 14
Spec@@ 14
Stab@@ 14
Suite 14
Tech 14
Though 14
Tuscany 14
Tyrol 14
US-@@ 14
Valencia 14
Vall@@ 14
Vit@@ 14
Web@@ 14
Winter 14
Zap@@ 14
Zurich 14
abul@@ 14
aca 14
addre@@ 14
ademi@@ 14
alle 14
allo 14
anding 14
aran 14
archive 14
ateway 14
ationale 14
automation 14
azzo 14
bad@@ 14
ball@@ 14
bere@@ 14
betra@@ 14
bler 14
bor 14
brain 14
catering 14
cio 14
ción 14
cken 14
clothes 14
cock@@ 14
commissioned 14
con 14
crystal 14
culo@@ 14
cure 14
dak@@ 14
day@@ 14
derivatives 14
dez 14
dice 14
dit 14
dive 14
dre 14
dum 14
dump@@ 14
ected 14
elf 14
elite 14
ema 14
emerg@@ 14
ennis 14
esia 14
essors 14
ete 14
experi@@ 14
fet@@ 14
fing 14
fires 14
flash 14
fortunately 14
frames 14
fro@@ 14
gee 14
gend 14
geographic 14
ghtful 14
gressive 14
grie@@ 14
harbour 14
hetero@@ 14
hydrau@@ 14
ights 14
iler 14
import@@ 14
integr@@ 14
intel@@ 14
inth 14
irlpool 14
iti 14
ition 14
ium 14
jet@@ 14
jung@@ 14
juris@@ 14
ke-@@ 14
kids 14
lens 14
mach@@ 14
mare 14
matching 14
mechan@@ 14
metals 14
midt 14
mixture 14
moment@@ 14
mond 14
mounted 14
movies 14
municipality 14
neo@@ 14
nes 14
nette 14
news@@ 14
nick@@ 14
od 14
one@@ 14
onio 14
ook 14
oro 14
perf@@ 14
phal@@ 14
po 14
popularity 14
potenti@@ 14
present@@ 14
proo@@ 14
purch@@ 14
rain@@ 14
recei@@ 14
resorts 14
restri@@ 14
ret@@ 14
ric 14
ring@@ 14
ront 14
sandy 14
seasonal 14
secon@@ 14
sein@@ 14
senses 14
senti@@ 14
shir@@ 14
shut 14
sie@@ 14
simul@@ 14
situ@@ 14
siv@@ 14
ski@@ 14
stayed 14
string 14
success@@ 14
sunny 14
super 14
sz@@ 14
te-@@ 14
tec@@ 14
tig 14
tradi@@ 14
trains 14
trau@@ 14
trig@@ 14
und-@@ 14
underground 14
up-@@ 14
urn@@ 14
uro@@ 14
urred 14
ussy 14
vaccination 14
var@@ 14
verage 14
viewer 14
viewing 14
visitor 14
voltage 14
volu@@ 14
vor 14
witness@@ 14
xel 14
zu@@ 14
zzi 14
Ņ@@ 14
к@@ 14
0.000 13
04@@ 13
107 13
15-@@ 13
1970 13
2002-@@ 13
2030 13
3000 13
75@@ 13
9001 13
AB 13
ATA 13
Adam 13
Agr@@ 13
Ani@@ 13
Archi@@ 13
Ath@@ 13
BMW 13
Bab@@ 13
Brussel@@ 13
Buch@@ 13
CHE 13
CP 13
Call 13
Clinton 13
Companies 13
Constitu@@ 13
Cookies 13
Credit 13
Dest@@ 13
Dé@@ 13
EPA 13
Enter 13
Environ@@ 13
Euros 13
Exist@@ 13
Exp@@ 13
Farm 13
Flex@@ 13
G8 13
GH 13
Gallery 13
Garda 13
Gel@@ 13
Gran 13
Gö@@ 13
Hand@@ 13
Henn@@ 13
Hz 13
IT-@@ 13
Index 13
Insurance 13
Intern@@ 13
Interpretation 13
John@@ 13
Kir@@ 13
Klima 13
LT 13
Lab@@ 13
Las 13
Lic@@ 13
Lyon 13
Meas@@ 13
Mode 13
Money 13
Mont@@ 13
Name 13
Nami@@ 13
Nar@@ 13
Nat@@ 13
Pal 13
Pav@@ 13
Pension 13
Plaza 13
Poly@@ 13
Pom@@ 13
Posi@@ 13
Posselt 13
Post@@ 13
Professional 13
Projects 13
Quali@@ 13
Reding 13
Sarkozy 13
Scandin@@ 13
Schnei@@ 13
Secre@@ 13
Sign@@ 13
Solutions 13
Song 13
Split 13
Stiftung 13
Sto@@ 13
Thy@@ 13
Toul@@ 13
Trading 13
Treas@@ 13
URG 13
Vor@@ 13
With@@ 13
XP 13
Yu@@ 13
Za@@ 13
Zone 13
agen 13
airspace 13
aje@@ 13
altar 13
ame@@ 13
anas 13
ander@@ 13
anta 13
as-@@ 13
aul@@ 13
bands 13
bass@@ 13
bei@@ 13
benef@@ 13
bird 13
boom 13
booth 13
breathtaking 13
buffer 13
capac@@ 13
casino 13
centers 13
centrally 13
characterized 13
chat 13
climbing 13
coher@@ 13
cons 13
consultants 13
continu@@ 13
cook@@ 13
cool 13
country@@ 13
cue 13
culinary 13
delicious 13
denburg 13
dent@@ 13
developers 13
disclos@@ 13
downloaded 13
effici@@ 13
ei 13
eiro 13
enthusias@@ 13
esco 13
ettes 13
execute 13
expan@@ 13
fail@@ 13
feh@@ 13
ferry 13
festivals 13
folk 13
forth@@ 13
fully-@@ 13
gru@@ 13
has@@ 13
het 13
hol 13
ich 13
icul@@ 13
igo 13
illed 13
infected 13
ingham 13
injection 13
interfaces 13
invasion 13
is-@@ 13
iser 13
ish-@@ 13
issance 13
ith 13
itu@@ 13
jer@@ 13
kel 13
kill 13
kon@@ 13
las 13
lla 13
mass@@ 13
meaning@@ 13
measurements 13
militar@@ 13
mobi@@ 13
mountain@@ 13
nific@@ 13
night@@ 13
nisch 13
ovi@@ 13
paintings 13
pap@@ 13
para@@ 13
philosoph@@ 13
plo@@ 13
poration 13
pp 13
printer 13
programm@@ 13
proportional 13
protests 13
rank 13
refra@@ 13
rement 13
remuner@@ 13
rent@@ 13
replac@@ 13
reve@@ 13
rigi@@ 13
samples 13
seek@@ 13
sequence 13
shine 13
simulation 13
sons 13
sourcing 13
sten 13
stin@@ 13
structuring 13
studios 13
stunning 13
subscription 13
suspec@@ 13
tec 13
teri@@ 13
tern@@ 13
terri@@ 13
tes@@ 13
tif 13
tol@@ 13
toms 13
typ@@ 13
umes 13
uns 13
ussion 13
vi 13
volta@@ 13
welve 13
wholesale 13
wie 13
wire 13
wol@@ 13
ycl@@ 13
zzo 13
â@@ 13
été 13
ön@@ 13
ý@@ 13
и 13
н@@ 13
я 13
....@@ 12
0,5 12
001 12
06.@@ 12
08.@@ 12
12-@@ 12
123 12
135 12
1972 12
2003-@@ 12
255 12
295 12
3,5 12
320 12
95@@ 12
Abbas 12
Al-@@ 12
Alt@@ 12
Altern@@ 12
Ander@@ 12
Andreas 12
Anonymous 12
Ast@@ 12
Augu@@ 12
Bell@@ 12
Berg 12
Bl@@ 12
Bridge 12
But@@ 12
CAD 12
Care 12
Cham@@ 12
Chirac 12
Cin@@ 12
Clo@@ 12
Cr@@ 12
Cross-@@ 12
DL@@ 12
DNA 12
Days 12
Depending 12
Di 12
Doma@@ 12
ENN@@ 12
ETA 12
Eb@@ 12
Engineering 12
Europa 12
Ev@@ 12
Exhibition 12
Expl@@ 12
Explo@@ 12
Express 12
Figures 12
File 12
Firefox 12
Flor@@ 12
Foo@@ 12
Frattini 12
Ful@@ 12
Functioning 12
GAL@@ 12
GALILEO 12
Georgieva 12
Gl@@ 12
HS 12
Habit@@ 12
Hav@@ 12
Hill 12
Holland 12
Hyper@@ 12
Icel@@ 12
Id 12
Intel@@ 12
Java 12
Jung@@ 12
Key@@ 12
Kost@@ 12
LAND@@ 12
LCD 12
Linux 12
Listen 12
MOs 12
Maced@@ 12
Mail 12
Marin@@ 12
Nicol@@ 12
Number 12
Offen@@ 12
Origin@@ 12
Original 12
Ou@@ 12
PM@@ 12
Pack@@ 12
Parallel 12
Ped@@ 12
Pek@@ 12
Peters@@ 12
Petitions 12
Phone 12
Pie@@ 12
Pots@@ 12
Rat@@ 12
Reform@@ 12
Region@@ 12
Rei@@ 12
Religi@@ 12
Residence 12
Rü@@ 12
SP 12
SV@@ 12
Sac@@ 12
Sah@@ 12
Sat@@ 12
Seattle 12
Sem@@ 12
Simply 12
Stal@@ 12
Stav@@ 12
Stefan 12
Ster@@ 12
TV@@ 12
Tam@@ 12
Temp@@ 12
Tour@@ 12
UNG 12
Ukra@@ 12
Users 12
Var@@ 12
Vie@@ 12
Water@@ 12
Yo@@ 12
ador 12
advent@@ 12
aggregate 12
aj@@ 12
alleys 12
alpha@@ 12
amen 12
anni@@ 12
architects 12
ard-@@ 12
arran@@ 12
austerity 12
ava 12
bean 12
behavi@@ 12
berger 12
booked 12
boy@@ 12
brilli@@ 12
bub@@ 12
burn 12
bury 12
charm 12
chart 12
check@@ 12
choo@@ 12
circuit 12
cker 12
clin@@ 12
coa 12
coast@@ 12
colo@@ 12
colour@@ 12
com 12
commands 12
conditioned 12
cons@@ 12
cream 12
curement 12
cycl@@ 12
dan 12
deter 12
doc@@ 12
dt 12
dures 12
eating 12
ec 12
edit 12
egal 12
electron@@ 12
elev@@ 12
elt 12
eties 12
fasc@@ 12
feu@@ 12
food@@ 12
fort@@ 12
furnishings 12
galleries 12
geni@@ 12
gi 12
gle@@ 12
gram 12
gun 12
hat 12
hea@@ 12
hine 12
hot@@ 12
hut@@ 12
ila 12
illon 12
immen@@ 12
imper@@ 12
impul@@ 12
incre@@ 12
invest@@ 12
istance 12
iste 12
ix 12
kar@@ 12
kas 12
kat@@ 12
kitchen@@ 12
lan 12
lash@@ 12
ld@@ 12
lei@@ 12
liers 12
loses 12
manipul@@ 12
max 12
mente 12
mento 12
mium 12
mming 12
nav@@ 12
navig@@ 12
near@@ 12
nels 12
nement 12
newest 12
nic 12
nik 12
oa 12
ol-@@ 12
olen 12
ologi@@ 12
op-@@ 12
operation@@ 12
optical 12
orph@@ 12
osop@@ 12
ot@@ 12
oth@@ 12
packed 12
paradise 12
pets 12
pharm@@ 12
photography 12
php 12
pine 12
pools 12
pop 12
proportion@@ 12
proto@@ 12
rable 12
racing 12
racle 12
racy 12
redundant 12
renovated 12
retri@@ 12
rigor@@ 12
rivers 12
s.com 12
san@@ 12
satell@@ 12
sci@@ 12
seu@@ 12
shoes 12
sleep 12
sour@@ 12
spac@@ 12
sper@@ 12
sq@@ 12
standardis@@ 12
still@@ 12
surfaces 12
surve@@ 12
sus@@ 12
terrain 12
thor@@ 12
tier@@ 12
titude 12
tius 12
tivities 12
tour@@ 12
trail 12
transpar@@ 12
transported 12
ula 12
ules 12
unch 12
valent 12
verified 12
veter@@ 12
vibrant 12
waves 12
wheels 12
wholes@@ 12
wle@@ 12
xide 12
y-to-@@ 12
zo 12
Ó 12
ÜSS@@ 12
î@@ 12
ş@@ 12
Ū@@ 12
ст@@ 12
ь 12
.-@@ 11
03.@@ 11
12,@@ 11
18-@@ 11
1958 11
1979 11
44@@ 11
46@@ 11
Activ@@ 11
Adri@@ 11
Advanced 11
Agre@@ 11
Album 11
Algarve 11
Ameri@@ 11
Amm@@ 11
Argent@@ 11
Armen@@ 11
Austri@@ 11
B.@@ 11
BN@@ 11
BRA@@ 11
Bat@@ 11
Bei@@ 11
Belliard 11
Bet@@ 11
Big 11
Blo@@ 11
Brazilian 11
Bremen 11
Britt@@ 11
Budapest 11
Camping 11
Chanc@@ 11
Choose 11
Claude 11
Collection 11
Content 11
Core 11
Custom@@ 11
DES 11
Die@@ 11
Diplom@@ 11
Display 11
Dist@@ 11
E-Mail 11
Essen@@ 11
Every@@ 11
Explorer 11
Fam@@ 11
Fan@@ 11
Fast 11
Fire@@ 11
Foot@@ 11
GT@@ 11
Gesellschaft 11
Gir@@ 11
Golden 11
Goo@@ 11
Gord@@ 11
Granada 11
Gri@@ 11
Gün@@ 11
Hear@@ 11
Hil@@ 11
Holiday 11
Hosp@@ 11
Hän@@ 11
IP-@@ 11
Identi@@ 11
Iran@@ 11
Isch@@ 11
Jack 11
KUK@@ 11
Kam@@ 11
Kaz@@ 11
Ker@@ 11
Kim 11
Live 11
Lux@@ 11
MP3 11
Magh@@ 11
Manager 11
Marina 11
Mid@@ 11
Minimum 11
Mod@@ 11
Motor 11
Mr@@ 11
Müller 11
Nic@@ 11
Night 11
Noti@@ 11
Olymp@@ 11
Partner@@ 11
Petersburg 11
Photo@@ 11
Physi@@ 11
Princ@@ 11
RI 11
Ran@@ 11
Roh@@ 11
S.A. 11
SN@@ 11
Salvador 11
Search 11
Series 11
Set 11
Sex@@ 11
Studio 11
TRIP@@ 11
Tac@@ 11
Ten@@ 11
Terrain 11
Test@@ 11
Thai 11
Times 11
Tou@@ 11
Tour 11
User 11
Vene@@ 11
Verona 11
Vienn@@ 11
Vin@@ 11
Vladimir 11
WHO 11
WM@@ 11
Wa@@ 11
Weg@@ 11
Ze@@ 11
ader 11
af 11
ald 11
alog@@ 11
ames 11
ancies 11
anger 11
apar@@ 11
aston@@ 11
ate-@@ 11
ateau 11
ather 11
athle@@ 11
ation-@@ 11
autonom@@ 11
bac@@ 11
bann@@ 11
bare 11
basi@@ 11
belon@@ 11
belt 11
ber-@@ 11
bie@@ 11
brov@@ 11
brun@@ 11
burg-@@ 11
butes 11
capitalism 11
capitalist 11
chs 11
coastline 11
conclu@@ 11
configured 11
containers 11
cription 11
cryst@@ 11
dding 11
democ@@ 11
depos@@ 11
dictator@@ 11
ds@@ 11
dy@@ 11
eland 11
eler@@ 11
emit@@ 11
enchan@@ 11
ende@@ 11
enever 11
enge 11
err@@ 11
esk@@ 11
featured 11
filed 11
floors 11
follow@@ 11
fs@@ 11
gene 11
geom@@ 11
gir@@ 11
gle 11
gross@@ 11
guaran@@ 11
gyp@@ 11
heim 11
hili@@ 11
hn 11
hn-@@ 11
hoo@@ 11
human@@ 11
hund@@ 11
ignano 11
ih@@ 11
illa 11
indoor 11
inhal@@ 11
inson 11
ital@@ 11
itly 11
jur@@ 11
kilometers 11
layers 11
lifetime 11
lit 11
malaria 11
mbH 11
menus 11
merged 11
mild 11
mins 11
mise 11
mly 11
monopol@@ 11
moon 11
motorway 11
mou@@ 11
nam@@ 11
nie 11
nos 11
painted 11
panorama 11
para 11
pas 11
pers 11
plen@@ 11
pole 11
ported 11
prestigious 11
progno@@ 11
radio@@ 11
redundancies 11
reless 11
remark@@ 11
renovation 11
rest@@ 11
rh@@ 11
rä@@ 11
sand@@ 11
serial 11
setup 11
shots 11
sligh@@ 11
spam 11
ssel@@ 11
stances 11
statisti@@ 11
stige 11
ström 11
stun@@ 11
subsidi@@ 11
ta-@@ 11
tan 11
taxi 11
tem 11
thes@@ 11
thos 11
thouse 11
tini 11
tournament 11
tta 11
tunnel 11
ug@@ 11
unbe@@ 11
uss 11
ution 11
versal 11
versary 11
versi@@ 11
vio 11
virus 11
vul@@ 11
vulner@@ 11
wen@@ 11
wig 11
wins 11
wled@@ 11
wohl 11
worlds 11
wra@@ 11
year-@@ 11
zio 11
Ö 11
ées 11
ó 11
ś@@ 11
в 11
п@@ 11
ь@@ 11
----------------@@ 10
-F@@ 10
.00 10
105 10
169 10
2014-2020 10
2017 10
228 10
25-@@ 10
30.@@ 10
70@@ 10
Affili@@ 10
Amon@@ 10
Antwer@@ 10
Auto@@ 10
Bendit 10
CI 10
CV@@ 10
Carl@@ 10
Cash@@ 10
Castro 10
Catalunya 10
Class 10
Cle@@ 10
Clin@@ 10
Computer 10
Cul@@ 10
Cyber@@ 10
Dol@@ 10
Dut@@ 10
E.@@ 10
Easy 10
End 10
Eth@@ 10
FE 10
FEM@@ 10
Fun@@ 10
GB@@ 10
Geo@@ 10
Gil@@ 10
Gold 10
Guaran@@ 10
Has@@ 10
Heidel@@ 10
Hus@@ 10
ICA@@ 10
Ima@@ 10
Inc. 10
Jackson 10
Ji@@ 10
Jos@@ 10
Jose@@ 10
Journ@@ 10
Jun@@ 10
Karl@@ 10
Kle@@ 10
Kore@@ 10
Kroes 10
Kun@@ 10
LD@@ 10
Lad@@ 10
Lange 10
Las@@ 10
László 10
MR@@ 10
Malay@@ 10
Mani@@ 10
Medic@@ 10
Monte 10
Monte@@ 10
Multi-@@ 10
N-@@ 10
Non@@ 10
Officer 10
Pack 10
Pes@@ 10
Port@@ 10
Portal 10
Portfolio 10
Prote@@ 10
Rati@@ 10
Recovery 10
Register 10
Resi@@ 10
Rh@@ 10
Rub@@ 10
Run@@ 10
SD 10
Sand@@ 10
Santiago 10
Scha@@ 10
Seri@@ 10
Siena 10
Sit@@ 10
Sm@@ 10
Str@@ 10
Strategi@@ 10
Suites 10
T. 10
TM 10
Tos@@ 10
Trek 10
Twitter 10
Version 10
Video 10
View 10
Volks@@ 10
W. 10
WA 10
Well@@ 10
Word@@ 10
Wur@@ 10
abstra@@ 10
accessing 10
aces 10
adi 10
agers 10
air-conditioned 10
aker 10
alition 10
alla 10
alt 10
amination 10
anni 10
aps 10
ar-@@ 10
armament 10
asis 10
atar 10
atom@@ 10
avoured 10
azz@@ 10
b-@@ 10
band@@ 10
beha@@ 10
ben 10
big@@ 10
bikes 10
bin 10
bles 10
brother 10
bute 10
bution 10
cape 10
cha 10
chem@@ 10
chip 10
ci 10
cili@@ 10
circu@@ 10
clos@@ 10
coff@@ 10
config@@ 10
danger@@ 10
dend 10
dependen@@ 10
deposits 10
developer 10
dish 10
distinc@@ 10
dow 10
drag 10
drives 10
dun@@ 10
eck 10
ects 10
ecture 10
edited 10
enta 10
esa 10
essive 10
fastest 10
featuring 10
fem@@ 10
ffs 10
figur@@ 10
filters 10
finan@@ 10
fort 10
fried 10
fur 10
furn@@ 10
gery 10
gl 10
gli@@ 10
gram@@ 10
hang 10
hibitions 10
hile 10
hne 10
hs 10
hybri@@ 10
iPhone 10
ige 10
immer@@ 10
indepen@@ 10
inno@@ 10
inspi@@ 10
ische 10
isher 10
isi 10
isto@@ 10
iz 10
join@@ 10
judi@@ 10
kW 10
kos 10
ktor 10
ku@@ 10
lages 10
lease 10
lich@@ 10
line-@@ 10
liquid 10
loads 10
lok@@ 10
lou 10
lug 10
m. 10
manage@@ 10
marri@@ 10
mary 10
mei@@ 10
mercury 10
mmer 10
model@@ 10
mom@@ 10
nano@@ 10
nez 10
nia 10
nois@@ 10
ny@@ 10
oked 10
opera 10
ople 10
orange 10
orthodo@@ 10
pen 10
percent@@ 10
perform@@ 10
pez 10
pha 10
piec@@ 10
pir@@ 10
pots 10
purchaser 10
py@@ 10
r.@@ 10
racies 10
raft 10
reach@@ 10
recon@@ 10
reform@@ 10
refurbished 10
rehabil@@ 10
retail@@ 10
rows 10
ry@@ 10
sage 10
sat@@ 10
scandal 10
scri@@ 10
sequently 10
sheets 10
sich 10
socio-@@ 10
ssi@@ 10
stark 10
stell@@ 10
streaming 10
surf 10
surro@@ 10
t-in 10
tackl@@ 10
taire 10
tants 10
tap 10
tar 10
techn@@ 10
technologi@@ 10
terraces 10
toll 10
tons 10
towels 10
trace 10
transi@@ 10
trillion 10
trucks 10
tudes 10
tural 10
undry 10
utation 10
vas@@ 10
vious 10
wedding 10
wo 10
you@@ 10
äm@@ 10
æ@@ 10
è 10
élé@@ 10
én@@ 10
ë@@ 10
ė 10
ů@@ 10
г@@ 10
з@@ 10
р@@ 10
у@@ 10
,00 9
1040 9
28.@@ 9
31.@@ 9
4-0@@ 9
5-00@@ 9
650 9
65@@ 9
74@@ 9
9. 9
99@@ 9
ANTS 9
Abu 9
Active 9
Adobe 9
Almunia 9
Amat@@ 9
Atlan@@ 9
Audit 9
Ay@@ 9
B-@@ 9
Beauty 9
Berlin@@ 9
Besi@@ 9
Brand 9
Breakfast 9
CIA 9
Cau@@ 9
Cav@@ 9
Chal@@ 9
Cit@@ 9
Colum@@ 9
Come 9
Competi@@ 9
DEM 9
DF 9
Def@@ 9
Design@@ 9
Distribution 9
Donald 9
Dynam@@ 9
Düsseldorf 9
EFA 9
Ecu@@ 9
Entertainment 9
Equi@@ 9
Ernst 9
Es@@ 9
Ever@@ 9
FM@@ 9
Fat@@ 9
Flexi@@ 9
Freu@@ 9
GSP 9
Gad@@ 9
Guar@@ 9
Gur@@ 9
HD 9
HTML 9
Hannover 9
Hotel@@ 9
Hur@@ 9
I.@@ 9
INTERREG 9
Inn@@ 9
Instruments 9
Internation@@ 9
Jack@@ 9
KM@@ 9
Kla@@ 9
Komm@@ 9
Krist@@ 9
Labor@@ 9
Lady 9
Lamy 9
Later 9
Libr@@ 9
Lig@@ 9
Links 9
Lob@@ 9
Loo@@ 9
Loyola 9
MIT@@ 9
Mam@@ 9
Merger 9
Module 9
NI 9
Navigation 9
Newsletter 9
Nom@@ 9
Not@@ 9
Optim@@ 9
Option 9
Os@@ 9
PI 9
Poker 9
Premier 9
Reg@@ 9
Regi@@ 9
Resour@@ 9
Riviera 9
Rompuy 9
Ron@@ 9
Saint-@@ 9
Sales 9
Salz@@ 9
Siemens 9
Simon 9
Situated 9
Sky@@ 9
Smith 9
Store 9
Super 9
Tag 9
Theatre 9
Til@@ 9
Tol@@ 9
Transl@@ 9
Transpor@@ 9
Tut@@ 9
U-@@ 9
Van@@ 9
Veneti@@ 9
Volkswagen 9
Watch 9
You@@ 9
abe@@ 9
aco 9
aga@@ 9
alb@@ 9
alp@@ 9
anium 9
aren 9
arming 9
atures 9
ause 9
backup 9
bank@@ 9
beside 9
bets 9
bli@@ 9
boasts 9
bollah 9
cabin 9
cam 9
card@@ 9
caus@@ 9
cca 9
chi 9
chips 9
chner 9
cipl@@ 9
colonial 9
compiled 9
container 9
cool@@ 9
copper 9
cript 9
cryp@@ 9
culp@@ 9
cus 9
dal@@ 9
destro@@ 9
det 9
dev 9
dies@@ 9
digit@@ 9
dimensional 9
districts 9
eda 9
eed 9
ehol@@ 9
einer 9
eived 9
ento 9
erie 9
esp@@ 9
esti@@ 9
eter@@ 9
eu 9
eva 9
eval 9
ever@@ 9
exac@@ 9
exotic 9
expendi@@ 9
fia 9
gab@@ 9
geb@@ 9
ght@@ 9
gic 9
gments 9
grades 9
grow@@ 9
gym 9
hibition 9
hou@@ 9
html 9
icals 9
igno@@ 9
installing 9
interest@@ 9
interoper@@ 9
intuitive 9
ismo 9
iso@@ 9
ket@@ 9
keyword 9
kol@@ 9
kt@@ 9
la-@@ 9
ldn 9
lich 9
lick@@ 9
lins 9
metro@@ 9
mile@@ 9
mole@@ 9
muster 9
nai@@ 9
natur@@ 9
ois 9
onder@@ 9
oth 9
outer 9
own-@@ 9
ox@@ 9
parameter 9
peop@@ 9
phen@@ 9
plas@@ 9
plot 9
pop@@ 9
por 9
poultry 9
prag@@ 9
psych@@ 9
queries 9
quet 9
ray 9
rd 9
readers 9
record@@ 9
redund@@ 9
rei@@ 9
rix 9
rom@@ 9
sau@@ 9
scenery 9
sched@@ 9
sels 9
ses@@ 9
shar@@ 9
snacks 9
sofa 9
sourc@@ 9
spi@@ 9
split@@ 9
stadt 9
stant 9
stroll 9
synchron@@ 9
taine 9
takings 9
tali@@ 9
tane@@ 9
ternal 9
teur 9
theater 9
tig@@ 9
til 9
timent 9
tip 9
tique 9
toi@@ 9
tories 9
tourna@@ 9
traded 9
tranqu@@ 9
trol@@ 9
trou@@ 9
tungs@@ 9
upload 9
uries 9
uro 9
us-@@ 9
uss@@ 9
veh@@ 9
wan@@ 9
weg 9
werden 9
where@@ 9
width 9
wr@@ 9
yang 9
year@@ 9
yn 9
ynn 9
Ñ@@ 9
ń@@ 9
ş 9
а 9
м 9
.- 8
10,@@ 8
1969 8
297 8
38@@ 8
4-star 8
400@@ 8
5000 8
54@@ 8
76@@ 8
96@@ 8
Adap@@ 8
Afgh@@ 8
Alicante 8
Amaz@@ 8
Arab@@ 8
Bad 8
Balance 8
Barri@@ 8
Base 8
Batter@@ 8
Bed 8
Behin@@ 8
Belgi@@ 8
Borg 8
Brenn@@ 8
Bron@@ 8
Brown 8
Café 8
California 8
Chin@@ 8
Clar@@ 8
Consulting 8
Cop@@ 8
Crist@@ 8
Definition 8
Designer 8
Details 8
Deutsch@@ 8
Equipment 8
Erk@@ 8
Esc@@ 8
Event 8
Experi@@ 8
Fau@@ 8
Ferr@@ 8
Fir@@ 8
Fit@@ 8
Fitness 8
Focus 8
Fontaine 8
Formul@@ 8
Franç@@ 8
Free@@ 8
Fü@@ 8
Gas@@ 8
Gerichtshof 8
Göteborg 8
HOTEL 8
HP 8
Hin@@ 8
Hitler 8
Integr@@ 8
Iraq@@ 8
Ital@@ 8
Jacuzzi 8
Juli@@ 8
Junior 8
K-@@ 8
KDE 8
Karls@@ 8
Kas@@ 8
Kl@@ 8
Kno@@ 8
Kommunikations@@ 8
Lag@@ 8
Legi@@ 8
Leh@@ 8
Les@@ 8
Library 8
License 8
Los 8
Love 8
Mare 8
Mec@@ 8
Mechan@@ 8
Merkel 8
Micha@@ 8
Mig@@ 8
Modi@@ 8
Ocean 8
Offic@@ 8
PROCESS@@ 8
PVC 8
Pass 8
Pesti@@ 8
Pf@@ 8
Pilot 8
Plas@@ 8
Qui@@ 8
Quo@@ 8
RSS 8
Rah@@ 8
Railway 8
Relax 8
Reserve 8
Revision 8
Revolu@@ 8
Ring 8
Rooms 8
SMS 8
SPA 8
Safe 8
Salv@@ 8
Sebas@@ 8
Secure 8
Sie@@ 8
Ski@@ 8
Sloven@@ 8
Smart@@ 8
Sofia 8
Son 8
Sour@@ 8
Stephen 8
Stuttgar@@ 8
Syri@@ 8
TB 8
Tajani 8
Tourist 8
Typ@@ 8
URL 8
Ve@@ 8
WER@@ 8
Was 8
Week@@ 8
Wid@@ 8
Willi@@ 8
William 8
Wind@@ 8
absen@@ 8
accompani@@ 8
acher 8
acht 8
ade@@ 8
adel@@ 8
adt 8
adul@@ 8
amo 8
ange@@ 8
anto 8
architec@@ 8
ardous 8
artier 8
ations@@ 8
ativ@@ 8
atur@@ 8
audio@@ 8
automati@@ 8
avo@@ 8
beau@@ 8
bei 8
bey 8
bicycle 8
bond 8
breath@@ 8
buff@@ 8
chal@@ 8
chens 8
chron@@ 8
comforts 8
commerci@@ 8
complimentary 8
concre@@ 8
convi@@ 8
counterfeit@@ 8
customized 8
deck 8
deliver@@ 8
dereg@@ 8
dership 8
dition 8
dows 8
dul 8
easi@@ 8
een 8
eins 8
elegance 8
elimin@@ 8
emed 8
enberg 8
engine@@ 8
enstein 8
entrum 8
eras 8
erce 8
eren 8
erly 8
excur@@ 8
exo@@ 8
exquisite 8
extre@@ 8
fen 8
fest@@ 8
ffen 8
ficial 8
fin 8
func@@ 8
geh@@ 8
glas 8
gli 8
gratul@@ 8
highway 8
hotel@@ 8
icro 8
ida 8
illeg@@ 8
ings@@ 8
inn 8
intimate 8
ip 8
itate 8
itter 8
jana 8
jection 8
jet 8
junction 8
kam@@ 8
keep@@ 8
kel@@ 8
kit@@ 8
kn@@ 8
kra@@ 8
labor 8
langes 8
ld 8
login 8
lon 8
lug@@ 8
mac@@ 8
macro@@ 8
mari@@ 8
merc@@ 8
nail 8
nen 8
neuro@@ 8
nt 8
ole@@ 8
onte 8
ony@@ 8
ording 8
orer 8
ose 8
otel 8
parag@@ 8
pdf 8
peri@@ 8
peripher@@ 8
phr@@ 8
pin 8
plau@@ 8
policy@@ 8
politik 8
pollu@@ 8
prise 8
prote@@ 8
rank@@ 8
reader 8
reds 8
rele@@ 8
rival 8
rü@@ 8
screen@@ 8
seem@@ 8
soldi@@ 8
sont 8
sperity 8
sph@@ 8
stechnik 8
sé@@ 8
tau@@ 8
tels 8
textu@@ 8
thias 8
tially 8
transpo@@ 8
tube 8
tv 8
ulf 8
urban@@ 8
urg@@ 8
velop 8
ver-@@ 8
versati@@ 8
vez 8
west@@ 8
wild@@ 8
worth@@ 8
yo 8
zog 8
Ï 8
Ï@@ 8
ños 8
ò 8
öh@@ 8
ğ@@ 8
ит@@ 8
ы@@ 8
--------@@ 7
.j@@ 7
226 7
280 7
5.000 7
78@@ 7
93@@ 7
ARB@@ 7
Acquis 7
Acro@@ 7
Anders 7
Andro@@ 7
Ange@@ 7
Antoine 7
Aus@@ 7
Available 7
Back 7
Back@@ 7
Bad@@ 7
Ball@@ 7
Below 7
Bes@@ 7
Block 7
Bologna 7
Byr@@ 7
CD-@@ 7
CMS 7
Castell@@ 7
Classic 7
Clean 7
DJ 7
Date 7
Den 7
Dim@@ 7
Disabled 7
Dub@@ 7
EIT@@ 7
Emis@@ 7
Empire 7
En 7
Extre@@ 7
Facebook 7
Fair@@ 7
Famili@@ 7
Form 7
Frei@@ 7
Friedrich 7
GAS@@ 7
GBP 7
GO 7
Gam@@ 7
Gelder 7
Gh@@ 7
Glob@@ 7
Gross@@ 7
Handels@@ 7
Harry 7
Hart@@ 7
Haus@@ 7
Hoff@@ 7
Holi@@ 7
Holo@@ 7
Hung@@ 7
Kombin@@ 7
Krem@@ 7
Lap@@ 7
Learn 7
Lufthansa 7
Lá@@ 7
M.@@ 7
MB 7
Market@@ 7
Maximum 7
Mou@@ 7
Musi@@ 7
Nation@@ 7
Natura 7
Neigh@@ 7
PCs 7
PP 7
Palma 7
Pit@@ 7
Platz 7
Play 7
Playa 7
Points 7
Popul@@ 7
Problems 7
Programm@@ 7
RS 7
Reader 7
Red@@ 7
Referendum 7
Rep@@ 7
Reserv@@ 7
Rock 7
SD@@ 7
Seb@@ 7
Sev@@ 7
Simil@@ 7
Sing@@ 7
Sites 7
Smart 7
Stahl 7
Studios 7
Sw@@ 7
Tas@@ 7
Telef@@ 7
Thail@@ 7
Tools 7
Top@@ 7
Tor 7
Tower 7
U.@@ 7
Universit@@ 7
VP 7
Vali@@ 7
Vari@@ 7
Vas@@ 7
Village 7
Wat@@ 7
Wi-Fi 7
Wiener 7
Work@@ 7
Yor@@ 7
Zer@@ 7
Zimmer@@ 7
actu@@ 7
adem@@ 7
adop@@ 7
affec@@ 7
aki 7
akia 7
alen 7
alien@@ 7
altitude 7
ance-@@ 7
andal@@ 7
anen 7
arks 7
aro 7
asi 7
aters 7
athon 7
ati 7
ativity 7
ats@@ 7
auf@@ 7
avail@@ 7
aya 7
bag@@ 7
bau 7
beautifully 7
bedded 7
bilities 7
boar@@ 7
bra 7
bru@@ 7
ceram@@ 7
cerem@@ 7
chec@@ 7
christ@@ 7
chro@@ 7
chur@@ 7
citiz@@ 7
claim@@ 7
concern@@ 7
configure 7
corpor@@ 7
d.@@ 7
dau@@ 7
ddle 7
dien@@ 7
dige 7
dir@@ 7
dispens@@ 7
dities 7
dless 7
eder 7
ego 7
egoti@@ 7
einf@@ 7
embedded 7
encoun@@ 7
ense 7
enty 7
enty-@@ 7
essions 7
eters 7
excell@@ 7
fabrik 7
favor 7
fil 7
finanz@@ 7
flan@@ 7
fruit@@ 7
gal 7
gang 7
gem 7
gem@@ 7
geneti@@ 7
gotten 7
ha-@@ 7
hart 7
hinter@@ 7
horn 7
hous@@ 7
ieties 7
ight@@ 7
ima@@ 7
inev@@ 7
infection 7
instantly 7
invol@@ 7
irregul@@ 7
isms 7
itte 7
juni@@ 7
kal@@ 7
ken@@ 7
keyboard 7
knowledge-@@ 7
kor@@ 7
kreis 7
leg 7
lem 7
lief 7
liste 7
lung 7
lé@@ 7
mail@@ 7
mailing 7
mali@@ 7
mens 7
metall@@ 7
nicht 7
nie@@ 7
non-smoking 7
nut@@ 7
onie 7
onn@@ 7
oran@@ 7
orca 7
orn 7
ovo 7
pedestrian 7
platz 7
pository 7
ppy 7
proble@@ 7
profi@@ 7
protec@@ 7
pré@@ 7
put@@ 7
qui 7
quiries 7
rail@@ 7
rats 7
recognis@@ 7
rein 7
repar@@ 7
repr@@ 7
ruhe 7
rying 7
s- 7
salle 7
scen@@ 7
scop@@ 7
seg@@ 7
senal 7
sensors 7
sey 7
shal@@ 7
shuttle 7
sie 7
sig@@ 7
sightseeing 7
sin 7
sincer@@ 7
sis@@ 7
sme@@ 7
so-@@ 7
some@@ 7
sorti@@ 7
spectac@@ 7
stasi@@ 7
stron@@ 7
su 7
supp@@ 7
tails 7
tat@@ 7
teleph@@ 7
tera 7
tex@@ 7
thal@@ 7
theat@@ 7
themati@@ 7
thes 7
thorou@@ 7
throu@@ 7
tima 7
tiv 7
tob@@ 7
tom 7
tool@@ 7
tra-@@ 7
trage 7
transpor@@ 7
trit@@ 7
tum@@ 7
tyard 7
té 7
uch 7
unt 7
urities 7
urmet 7
usi@@ 7
uten@@ 7
ventive 7
verse 7
vom 7
vos 7
weap@@ 7
werk 7
wir@@ 7
witz 7
wski 7
xim@@ 7
xis 7
xy 7
ás 7
ì@@ 7
ña 7
über 7
ī@@ 7
ņ@@ 7
Ň@@ 7
ен@@ 7
ра@@ 7
ро@@ 7
‚ 7
-TV 6
10. 6
1500 6
1971 6
6-0@@ 6
600@@ 6
800@@ 6
98@@ 6
A3@@ 6
Aar@@ 6
Acces@@ 6
Adriatic 6
Alpha 6
Alternative 6
Ambi@@ 6
Angel@@ 6
Assess@@ 6
Att@@ 6
Audi@@ 6
Auto 6
Automob@@ 6
BB@@ 6
BES@@ 6
Band@@ 6
Barack 6
Bay@@ 6
Berg@@ 6
Boden 6
Break@@ 6
Buch 6
Buffet 6
Burg 6
Busquin 6
Cala 6
Casa 6
Chef 6
Christ 6
Client 6
DB 6
DVDs 6
Da 6
Dank@@ 6
Davi@@ 6
Defin@@ 6
Der 6
Desk 6
Detail 6
Domain 6
Dr@@ 6
Dre@@ 6
Duis@@ 6
Dy@@ 6
EESC 6
EO 6
ESC 6
Ein@@ 6
Energi@@ 6
Ep@@ 6
Ern@@ 6
Excellent 6
FS@@ 6
Files 6
Finanz@@ 6
Finn@@ 6
Fire 6
Frie@@ 6
GD 6
Game 6
Gon@@ 6
Grande 6
Göte@@ 6
Handels 6
Help 6
Holl@@ 6
Hä@@ 6
INN@@ 6
IW@@ 6
Ideal 6
Images 6
Immig@@ 6
Inflation 6
Info 6
Info@@ 6
Interpre@@ 6
Jah@@ 6
Jazz 6
Jesus 6
Joaquín 6
Kit@@ 6
Kol@@ 6
Kre@@ 6
Kris@@ 6
Laden 6
Lav@@ 6
Lear@@ 6
Liter@@ 6
Location 6
Lock@@ 6
Lyn@@ 6
MT@@ 6
Malaga 6
Managing 6
Master@@ 6
Materials 6
Merce@@ 6
Michel@@ 6
Montene@@ 6
Monu@@ 6
Mount 6
Muse@@ 6
Má@@ 6
N.@@ 6
NA@@ 6
Nano@@ 6
Nation 6
Nationale 6
Neu@@ 6
Ok@@ 6
Opposition 6
Ost@@ 6
Patrick 6
Pent@@ 6
Peti@@ 6
Planet 6
Play@@ 6
Pod@@ 6
Posten 6
Power@@ 6
Premi@@ 6
Proven@@ 6
Regar@@ 6
Rele@@ 6
Resort 6
Rest 6
Rhein@@ 6
Roll@@ 6
Rosen@@ 6
Schi@@ 6
Schu@@ 6
Scre@@ 6
Servi@@ 6
Sey@@ 6
Shanghai 6
Silver@@ 6
Slo@@ 6
Sn@@ 6
Sol 6
Spo@@ 6
Sport@@ 6
Stim@@ 6
Superior 6
Teams 6
Translation 6
Tunisi@@ 6
VIS 6
Venezu@@ 6
Verbraucher@@ 6
Vision 6
Vul@@ 6
WORD 6
Wahl 6
Wasser@@ 6
Wellness 6
Wer@@ 6
Wien 6
Wir 6
Wu@@ 6
XML 6
Zig@@ 6
Zo@@ 6
accommodations 6
accur@@ 6
act@@ 6
administrator 6
ady 6
age@@ 6
agements 6
agne 6
ague 6
ahl@@ 6
ahn@@ 6
ake 6
aliz@@ 6
allen 6
aller@@ 6
ampagne 6
ando 6
aning 6
api@@ 6
aris 6
arma@@ 6
aser 6
ateur 6
atus 6
auses 6
azz 6
azza 6
barri@@ 6
bish@@ 6
bizar@@ 6
bot 6
capital@@ 6
chin@@ 6
comfortably 6
comit@@ 6
commo@@ 6
control@@ 6
cott@@ 6
ddenly 6
dealer 6
debat@@ 6
deploy@@ 6
diction 6
diger 6
distribu@@ 6
downloading 6
dule 6
durch 6
efs 6
els@@ 6
endy 6
eng 6
entru@@ 6
erior 6
ership 6
esen@@ 6
ett 6
etti 6
evo 6
favorite 6
fier 6
fr 6
fter 6
gabe@@ 6
gather@@ 6
genes 6
geri@@ 6
gigan@@ 6
gon@@ 6
grad 6
gramm@@ 6
gres@@ 6
helicop@@ 6
hell 6
hesion 6
hibi@@ 6
hl 6
holi@@ 6
hosp@@ 6
hr 6
ility 6
illes 6
ingo 6
inian 6
inner@@ 6
instant 6
inte@@ 6
ischen 6
ision 6
istics 6
jac@@ 6
kilomet@@ 6
king@@ 6
kit 6
knowled@@ 6
kraft 6
ku 6
kä@@ 6
lash 6
licate 6
mails 6
mann@@ 6
medium-@@ 6
mehr 6
meister 6
mentos 6
miner@@ 6
monet@@ 6
nden 6
nis 6
nity 6
ock 6
offic@@ 6
oll 6
oner 6
ons@@ 6
oo 6
oph@@ 6
optimized 6
ored 6
org 6
orium 6
ould 6
ouver@@ 6
pa 6
pac@@ 6
panoram@@ 6
partition 6
pedestri@@ 6
pf@@ 6
phs 6
plann@@ 6
pment 6
poli@@ 6
poten@@ 6
preci@@ 6
produ@@ 6
prostitution 6
proxim@@ 6
quer 6
random 6
ratings 6
regierung 6
rell 6
rem 6
reme@@ 6
ren 6
renov@@ 6
roman@@ 6
rt 6
sab@@ 6
sche 6
schedul@@ 6
schi@@ 6
schutz@@ 6
schwei@@ 6
sei 6
semination 6
sident 6
speeds 6
sse 6
stac@@ 6
stadium 6
stag 6
stas@@ 6
stil@@ 6
stitu@@ 6
such@@ 6
tab 6
taste@@ 6
tegr@@ 6
tern 6
text@@ 6
thodo@@ 6
thous@@ 6
thu@@ 6
tico 6
tish 6
tober 6
translat@@ 6
tras 6
tremend@@ 6
unge 6
urop@@ 6
usti@@ 6
ventura 6
viously 6
viruses 6
von@@ 6
wan 6
wander@@ 6
wash@@ 6
wird 6
withdraw@@ 6
ywood 6
zar@@ 6
zh@@ 6
µ@@ 6
½ 6
Ç@@ 6
à@@ 6
är@@ 6
å@@ 6
ów 6
Ė 6
Ń@@ 6
Špidla 6
ţ@@ 6
то@@ 6
ю@@ 6
∗ 6
----@@ 5
..... 5
0.00 5
10.00 5
10.000 5
26.@@ 5
32-@@ 5
Adju@@ 5
Aga@@ 5
Alle@@ 5
Amt 5
Angeles 5
Appar@@ 5
Argu@@ 5
Arm@@ 5
Atmosp@@ 5
Beg@@ 5
Bench@@ 5
Bild@@ 5
Blog 5
Bom@@ 5
Bos@@ 5
Brow@@ 5
By@@ 5
Bö@@ 5
CD-ROM 5
CEO 5
CPU 5
Califor@@ 5
Canal 5
Canaria 5
Cash 5
Chil@@ 5
Cock@@ 5
Contain@@ 5
Corbett 5
DAS 5
DVD-@@ 5
Das 5
Deep 5
Dele@@ 5
Delta 5
Deposit 5
Dire@@ 5
Doc@@ 5
Downloads 5
Edel@@ 5
Edition 5
Egyp@@ 5
Engl@@ 5
Enlar@@ 5
Erdo@@ 5
Ether@@ 5
Eur@@ 5
Event@@ 5
FTP 5
Flora 5
Flu@@ 5
Frankfur@@ 5
Frequ@@ 5
Fundament@@ 5
Fur@@ 5
Fusion 5
GES@@ 5
GI 5
Gay 5
Geb@@ 5
Gig@@ 5
Giov@@ 5
Gold@@ 5
Guest 5
HY@@ 5
Hier@@ 5
Hob@@ 5
Homepage 5
Hou@@ 5
Hun@@ 5
IBM 5
Ibiza 5
Ig@@ 5
Import 5
Industri@@ 5
Interface 5
Jav@@ 5
Job 5
Kabel 5
Klu@@ 5
Kri@@ 5
LINK 5
Lee 5
Lie@@ 5
List@@ 5
Lounge 5
Ltd. 5
Magic 5
Mann@@ 5
Marsei@@ 5
McCreevy 5
Messe 5
Miner@@ 5
Model@@ 5
Mom@@ 5
Morgan 5
Musik@@ 5
Män@@ 5
München 5
Nas@@ 5
Ner@@ 5
News@@ 5
Nich@@ 5
Nob@@ 5
Nür@@ 5
Ox@@ 5
PARTIC@@ 5
Palais 5
Palazzo 5
Panoram@@ 5
Photo 5
Planungs@@ 5
Polo 5
Proper@@ 5
Psy@@ 5
Puerto 5
Punta 5
Put@@ 5
Qual@@ 5
Ques@@ 5
RATES 5
Rates 5
Recycling 5
Reit@@ 5
Religion 5
SF 5
Schul@@ 5
Schweiz 5
Schä@@ 5
Sek@@ 5
Skype 5
Soft 5
Soli@@ 5
Sommer 5
Spani@@ 5
Spirit 5
Squ@@ 5
Staats@@ 5
Start 5
Stor@@ 5
Stur@@ 5
Sul@@ 5
Swi@@ 5
Telekom 5
Tie@@ 5
Tourismus 5
Tradition 5
Transfer@@ 5
Transport@@ 5
UPS 5
Univers@@ 5
VON 5
Valen@@ 5
Vassiliou 5
Vec@@ 5
Verwaltungs@@ 5
WEI@@ 5
WIR@@ 5
WLAN 5
WW@@ 5
Want 5
Weis@@ 5
Will@@ 5
Wireless 5
Wort 5
Yah@@ 5
Zar@@ 5
Zeh@@ 5
Zeitung 5
Zu@@ 5
absur@@ 5
access@@ 5
accom@@ 5
achel@@ 5
acio 5
aciones 5
aculture 5
adal@@ 5
ahl 5
ahn 5
ahr@@ 5
algorith@@ 5
alien 5
aller 5
ameri@@ 5
ange 5
anony@@ 5
anstal@@ 5
anwal@@ 5
aph@@ 5
arab@@ 5
arance 5
arte 5
asser 5
atin 5
atorium 5
auto 5
autom@@ 5
balcon@@ 5
bedro@@ 5
borg 5
bourg 5
cache 5
chem 5
cho 5
cke 5
collecti@@ 5
compati@@ 5
compu@@ 5
ctu@@ 5
da-@@ 5
defense 5
dere 5
diagnosti@@ 5
dienst 5
ding@@ 5
dire@@ 5
donation 5
downtown 5
drin@@ 5
e- 5
ec.europa.eu 5
ece 5
ecke 5
ecu@@ 5
eim 5
eir 5
eli 5
elson 5
endt 5
endu@@ 5
engl@@ 5
enhof 5
enness 5
enst@@ 5
erei 5
ers@@ 5
ervice 5
especi@@ 5
etch 5
eux 5
eventu@@ 5
explic@@ 5
faire 5
fascin@@ 5
favor@@ 5
fel 5
festi@@ 5
ffer 5
fig@@ 5
fisher@@ 5
flation 5
fortable 5
gall@@ 5
gen-@@ 5
generi@@ 5
geno@@ 5
gious 5
haus 5
herein 5
ima 5
incorrec@@ 5
ington 5
inhabit@@ 5
ischer 5
isl@@ 5
iten@@ 5
iter 5
jah@@ 5
kir@@ 5
kr@@ 5
kul@@ 5
kur@@ 5
lars 5
lass 5
last@@ 5
leh@@ 5
len 5
liches 5
lip 5
lä@@ 5
lö@@ 5
machin@@ 5
manually 5
ments@@ 5
metho@@ 5
meworks 5
milli@@ 5
mitt@@ 5
ml 5
mos 5
mund 5
mus 5
mün@@ 5
nach 5
o. 5
o.@@ 5
obs 5
occ@@ 5
occu@@ 5
olle 5
ommen@@ 5
on-site 5
onen 5
oom 5
oub@@ 5
ouverne@@ 5
partments 5
partner@@ 5
perman@@ 5
pher@@ 5
plat@@ 5
plugin 5
poul@@ 5
projekt 5
pulation 5
pute 5
quil 5
r. 5
races 5
ras@@ 5
reau 5
refle@@ 5
revolution@@ 5
rist@@ 5
riteri@@ 5
rot 5
rout@@ 5
scher 5
seaside 5
sehen 5
selb@@ 5
semin@@ 5
sidi@@ 5
sili@@ 5
sim@@ 5
sind 5
spaper 5
splen@@ 5
stak@@ 5
stakehol@@ 5
stir@@ 5
straße 5
symbo@@ 5
sä@@ 5
t- 5
t.@@ 5
technik 5
tee 5
territori@@ 5
terror@@ 5
tici@@ 5
timate 5
tissu@@ 5
tner 5
trag@@ 5
tschaft 5
tten 5
twen@@ 5
ud 5
uk 5
undering 5
ungalo@@ 5
ungs@@ 5
universe 5
usa 5
utz@@ 5
verk@@ 5
verwal@@ 5
vie 5
vine@@ 5
vá@@ 5
wels 5
werke 5
wich@@ 5
wir 5
xels 5
xx 5
z. 5
za@@ 5
zel 5
zur 5
À@@ 5
Ë@@ 5
Õ@@ 5
ÖR@@ 5
Öst@@ 5
ß@@ 5
ät@@ 5
öl@@ 5
ürz@@ 5
ą@@ 5
ż 5
Х@@ 5
ж@@ 5
ол@@ 5
у 5
э@@ 5
► 5
01.@@ 4
1,2 4
11,@@ 4
11.00 4
24-@@ 4
39@@ 4
68@@ 4
A1 4
AN-@@ 4
ASA 4
Adre@@ 4
Airlines 4
Allgemeine 4
Ama@@ 4
Amp@@ 4
Anto@@ 4
Apar@@ 4
Arbeits@@ 4
Arctic 4
Art@@ 4
Auf@@ 4
Avenue 4
Awards 4
Band 4
Bangkok 4
Bayern 4
Bed@@ 4
Benjamin 4
Benz@@ 4
Bergen 4
Bern 4
Betriebs@@ 4
Billi@@ 4
Blin@@ 4
Brit@@ 4
Brü@@ 4
Bulgari@@ 4
Bus 4
Caf@@ 4
Canadi@@ 4
Canon 4
Converter 4
Cust@@ 4
D.@@ 4
DB@@ 4
DEB@@ 4
Daten@@ 4
Dek@@ 4
Diam@@ 4
Doh@@ 4
Dres@@ 4
Ds 4
Du 4
Dubai 4
EOS 4
Eas@@ 4
Eco@@ 4
Eis@@ 4
Execu@@ 4
Expan@@ 4
FAQ 4
Facilities 4
Fel@@ 4
Florida 4
Flughafen 4
Fonds 4
Fotogra@@ 4
Friendly 4
Für@@ 4
GV@@ 4
Gat@@ 4
Gebietsk@@ 4
Ges@@ 4
Glas@@ 4
Gol@@ 4
HI@@ 4
Hack@@ 4
Hahn 4
Hand 4
Haup@@ 4
Haus 4
Henry 4
Hö@@ 4
IK 4
ISCH@@ 4
Informations@@ 4
Innsbruck 4
Institut 4
Internationale 4
Isol@@ 4
JP@@ 4
Jap@@ 4
KOM@@ 4
Kart@@ 4
Kath@@ 4
Keyn@@ 4
Kinder@@ 4
Kli@@ 4
Kranken@@ 4
Kro@@ 4
Kä@@ 4
Lanzarote 4
Ligh@@ 4
Maga@@ 4
Malaria 4
Mall@@ 4
Marbella 4
Material 4
Maz@@ 4
Mie@@ 4
Milli@@ 4
Mob@@ 4
Moder@@ 4
Molda@@ 4
Mün@@ 4
Natur@@ 4
Neg@@ 4
Nether@@ 4
Neue 4
Nev@@ 4
OEC@@ 4
Om@@ 4
Oracle 4
Ord@@ 4
Oxford 4
PDF-@@ 4
PG 4
Panorama 4
Perf@@ 4
Phar@@ 4
Pool 4
Premium 4
President-in-@@ 4
Prof@@ 4
Prü@@ 4
Quer@@ 4
Rail@@ 4
Rehn 4
Reis@@ 4
Rica 4
Rich@@ 4
Rim@@ 4
Robo@@ 4
Rock@@ 4
Rundfun@@ 4
Russ@@ 4
SSL 4
Schil@@ 4
Schwer@@ 4
Sei@@ 4
Seite 4
Sequ@@ 4
Show 4
Sli@@ 4
Snow@@ 4
Solar 4
Songs 4
Sonn@@ 4
Source 4
Spam 4
Storage 4
Stress 4
Studien@@ 4
Swis@@ 4
Sydney 4
Tag@@ 4
Tarifa 4
Taxi 4
Techn@@ 4
Tele@@ 4
Teneri@@ 4
Termin@@ 4
Tests 4
Theater 4
Therap@@ 4
Tier@@ 4
Tool 4
Tuber@@ 4
UNH@@ 4
UNK@@ 4
Universität 4
Veg@@ 4
Verein 4
Vict@@ 4
Video@@ 4
Visi@@ 4
WTO-@@ 4
Wan@@ 4
Wenn 4
Wet@@ 4
Whe@@ 4
Wies@@ 4
Wir@@ 4
Woche 4
Zak@@ 4
Zie@@ 4
Ziel@@ 4
` 4
aan 4
aber 4
absol@@ 4
acqui@@ 4
ademy 4
agement 4
ahr 4
alarm@@ 4
aler 4
alley 4
alog 4
ambience 4
anthro@@ 4
antibio@@ 4
anton 4
app 4
arbeitungs@@ 4
arin 4
ark 4
astro@@ 4
ateful 4
ategi@@ 4
athan 4
ator@@ 4
atories 4
att 4
aum 4
aut 4
autor@@ 4
avour 4
ax 4
bai 4
behavior 4
bek@@ 4
berg@@ 4
besie@@ 4
breast 4
burger 4
c. 4
check-in 4
chef 4
chit@@ 4
chmal 4
contr@@ 4
convinc@@ 4
cos@@ 4
cot@@ 4
d. 4
damm 4
deu@@ 4
deutsche 4
deutscher 4
die@@ 4
dig 4
dir 4
ditions 4
dner 4
doma@@ 4
downloads 4
ebook 4
ebs@@ 4
eig@@ 4
einen 4
elegan@@ 4
enen 4
enger 4
enon 4
environ@@ 4
eon 4
eres 4
erk@@ 4
ero-@@ 4
erreich@@ 4
etz 4
exe 4
feld 4
formu@@ 4
frau 4
ftly 4
g. 4
gambling 4
gang@@ 4
gels 4
gg@@ 4
gins 4
gramme 4
great@@ 4
hof@@ 4
horizont@@ 4
hostel 4
ht@@ 4
hydr@@ 4
hygi@@ 4
ieder@@ 4
iere 4
ind@@ 4
install@@ 4
institu@@ 4
intenance 4
investi@@ 4
isch 4
ise@@ 4
isions 4
istic@@ 4
ita@@ 4
jan@@ 4
koh@@ 4
kom@@ 4
kop@@ 4
krank@@ 4
kö@@ 4
laden 4
landes@@ 4
lang 4
lans 4
large-@@ 4
ldwide 4
leb@@ 4
leit@@ 4
lender 4
leu@@ 4
lien 4
lings 4
lock@@ 4
lus 4
luxuri@@ 4
machen 4
macher 4
maximal 4
medic@@ 4
melt 4
mie 4
modern@@ 4
n.@@ 4
nah@@ 4
nationale 4
necess@@ 4
nov@@ 4
nächsten 4
oboda 4
of-the-@@ 4
olz 4
om-@@ 4
ommis@@ 4
ondly 4
opini@@ 4
oppon@@ 4
oren 4
orie 4
ove 4
ow 4
palette 4
peline 4
pi 4
policymakers 4
porate 4
port-@@ 4
posure 4
progra@@ 4
promenade 4
pub@@ 4
publi@@ 4
quer@@ 4
query 4
racht@@ 4
rag 4
rand@@ 4
rapi@@ 4
rash 4
real-@@ 4
reco@@ 4
reduc@@ 4
rema@@ 4
revolu@@ 4
rhetor@@ 4
rom 4
rus@@ 4
sation 4
scripts 4
sender 4
sensor 4
sequent 4
sert 4
sibilities 4
sidency 4
small@@ 4
smar@@ 4
sovereign@@ 4
speak@@ 4
standard@@ 4
statt 4
stopp@@ 4
strasse 4
stur@@ 4
styl@@ 4
tags 4
tana 4
terer 4
termost 4
tex 4
them@@ 4
tiger 4
tik@@ 4
tions@@ 4
tung@@ 4
uli 4
undoub@@ 4
unter 4
urious 4
uxe 4
uzzi 4
verband 4
vern@@ 4
vis-@@ 4
vo-@@ 4
wap 4
wart 4
ween 4
weren 4
werk@@ 4
wes@@ 4
wirtschaft 4
xe 4
zentrale 4
zig 4
zur@@ 4
zza 4
¼ 4
Ã@@ 4
ÄN@@ 4
Ò@@ 4
Ý 4
äch@@ 4
än@@ 4
är 4
õ@@ 4
ö 4
öst@@ 4
ühle 4
ül@@ 4
ür@@ 4
Ē@@ 4
ē@@ 4
ı 4
Ź@@ 4
І@@ 4
ат@@ 4
ел@@ 4
ер@@ 4
й@@ 4
но@@ 4
ре@@ 4
т 4
х@@ 4
ш@@ 4
″ 4
-Sh@@ 3
.e@@ 3
.eu 3
.html 3
000-@@ 3
1.000 3
10,000 3
11. 3
13. 3
15. 3
1930 3
229 3
3-star 3
3D-@@ 3
5-0@@ 3
AID@@ 3
ANNE@@ 3
APS 3
Airways 3
Alber@@ 3
Am 3
Andor 3
Andor@@ 3
Apri@@ 3
Archiv 3
Arena 3
Ausch@@ 3
Autor@@ 3
Aven@@ 3
Azer@@ 3
Azur 3
B-1040 3
BSE-@@ 3
Bang@@ 3
Banglades@@ 3
Baron@@ 3
Bem@@ 3
Bezir@@ 3
Bit@@ 3
Blau@@ 3
Browser 3
Buff@@ 3
Bundesrepublik 3
Catho@@ 3
Chicago 3
Clubs 3
Cont@@ 3
Controller 3
Copy@@ 3
Croati@@ 3
Cub@@ 3
Cube 3
Daim@@ 3
Description 3
Designs 3
Diagno@@ 3
Dialo@@ 3
Dig@@ 3
Divi@@ 3
Dresden 3
Drive 3
EFSA 3
EIT 3
Editor 3
End@@ 3
Eng@@ 3
Enga@@ 3
Evalu@@ 3
Feld@@ 3
Film@@ 3
Format 3
Fort@@ 3
Frat@@ 3
Freis@@ 3
Fut@@ 3
GFP 3
GNU 3
GPS 3
Galile@@ 3
Gan@@ 3
Gast@@ 3
Generation 3
Gest@@ 3
Gift 3
Glo@@ 3
Got@@ 3
Gru@@ 3
Grund@@ 3
Guant@@ 3
Gut@@ 3
Gü@@ 3
Hard@@ 3
Hoch@@ 3
Hof 3
Host@@ 3
Hot@@ 3
Human@@ 3
Hydro@@ 3
II-@@ 3
IS-@@ 3
Ih@@ 3
Im 3
Inte@@ 3
Inten@@ 3
Ira@@ 3
Kap@@ 3
Kazakh@@ 3
Kel@@ 3
Kf@@ 3
Klau@@ 3
Kolle@@ 3
Kom@@ 3
Küh@@ 3
Kün@@ 3
Label 3
Last@@ 3
Lib@@ 3
Link 3
Linu@@ 3
Lju@@ 3
Logos 3
Luxemburg 3
Lö@@ 3
Lü@@ 3
MEMO 3
Mai 3
Male 3
Malm@@ 3
Manu@@ 3
Marken@@ 3
Martin@@ 3
Marx 3
Maschinen@@ 3
Maxim@@ 3
Mean@@ 3
Metro 3
Mini@@ 3
Mira@@ 3
Mitte 3
Mobil@@ 3
Monitor 3
Morgen 3
Mosco@@ 3
Mozilla 3
Nach@@ 3
Napole@@ 3
Newspapers 3
Nokia 3
Norm@@ 3
Nr. 3
Opport@@ 3
Orange 3
PROCESSED 3
Park@@ 3
Patent@@ 3
Perform@@ 3
Performance 3
Philosoph@@ 3
Piz@@ 3
Portugu@@ 3
Pres@@ 3
Press@@ 3
Priv@@ 3
Problem 3
Produ@@ 3
Psych@@ 3
Pul@@ 3
Pum@@ 3
Que@@ 3
RAM 3
Rath@@ 3
Real@@ 3
Reh@@ 3
Rehabil@@ 3
Reinig@@ 3
Reli@@ 3
Rena@@ 3
SDL 3
Sach@@ 3
Samsung 3
Sant@@ 3
Schen@@ 3
Schloss 3
Schwei@@ 3
Script 3
Secur@@ 3
See@@ 3
Seen 3
Sensi@@ 3
Septem@@ 3
Sever@@ 3
Sevilla 3
Share 3
Sicherheit 3
Sinn 3
Smoking 3
Solar@@ 3
Solarium 3
Solidar@@ 3
Sony 3
Sound@@ 3
Spi@@ 3
Spitzen@@ 3
Spon@@ 3
Stadt@@ 3
Stock 3
Stro@@ 3
Subs@@ 3
Süd@@ 3
TP 3
TV-@@ 3
Tab@@ 3
Tat@@ 3
Tau@@ 3
Technik 3
Tei@@ 3
Tennis 3
Terminal 3
Texas 3
Tool@@ 3
Top-@@ 3
Trau@@ 3
Treu@@ 3
Tube 3
Tunnel 3
URB@@ 3
Update 3
VIP 3
Verb@@ 3
Verfassungs@@ 3
Verk@@ 3
Victoria 3
Vide@@ 3
Videos 3
Vier@@ 3
Viertel 3
Viet@@ 3
Virtu@@ 3
Virtual 3
Wah@@ 3
Wall@@ 3
Wand@@ 3
Welt 3
Wen@@ 3
Wirtschafts@@ 3
Wis@@ 3
Wohn@@ 3
Woo@@ 3
Word 3
YouTube 3
Zei@@ 3
Zi@@ 3
aber@@ 3
abet@@ 3
absolut 3
acier 3
ados 3
afri@@ 3
aga 3
aggressi@@ 3
agna 3
ags 3
aired 3
airs 3
akh@@ 3
aku@@ 3
alt@@ 3
alth 3
ambling 3
anci@@ 3
andt 3
aner 3
antas@@ 3
apor@@ 3
arien 3
arios 3
astri@@ 3
aten@@ 3
athedral 3
atie 3
aton 3
auch 3
auff@@ 3
az 3
bal 3
banken 3
beauti@@ 3
bieten 3
billi@@ 3
bitte 3
brand@@ 3
bul 3
burg@@ 3
bz@@ 3
ciary 3
cil 3
cile 3
cinal 3
coding 3
consi@@ 3
const@@ 3
controversi@@ 3
countr@@ 3
cup 3
damer 3
dat 3
dd 3
dei@@ 3
dener 3
deriv@@ 3
deutsch@@ 3
diesem 3
diox@@ 3
distri@@ 3
diz 3
doch 3
drei 3
dustri@@ 3
ead 3
eil@@ 3
eiling 3
eillance 3
electri@@ 3
ellor 3
endum 3
eni@@ 3
enjo@@ 3
entives 3
entri@@ 3
erio@@ 3
erre@@ 3
erster 3
erte 3
essenger 3
ester@@ 3
etes 3
etz@@ 3
euch 3
every@@ 3
expen@@ 3
exper@@ 3
f. 3
fe-@@ 3
femin@@ 3
ffe 3
fig 3
foc@@ 3
forts 3
frie@@ 3
ftung 3
für@@ 3
ganis@@ 3
genau@@ 3
gibt 3
gion 3
gra 3
grat@@ 3
greenh@@ 3
gt 3
hardt 3
haus@@ 3
hef@@ 3
iPod 3
ief 3
ien 3
ien@@ 3
ilater@@ 3
illas 3
inely 3
intu@@ 3
ior 3
isch-@@ 3
isco 3
ista 3
isten@@ 3
istik 3
izi@@ 3
jeden 3
kann 3
kilom@@ 3
kle@@ 3
kli@@ 3
klin@@ 3
kon 3
kro@@ 3
kung 3
lam 3
lands@@ 3
later@@ 3
leged 3
libr@@ 3
liest 3
lifer@@ 3
limm@@ 3
linder 3
lingen 3
listings 3
lub 3
lung@@ 3
lü@@ 3
magnific@@ 3
mel 3
ministeri@@ 3
mous 3
ms@@ 3
muse@@ 3
más 3
nam 3
nei@@ 3
nel@@ 3
nier 3
nise 3
nur 3
offici@@ 3
og 3
ohne 3
ologne 3
partment 3
pd@@ 3
pictu@@ 3
ppe 3
prior@@ 3
psy@@ 3
raid 3
regi@@ 3
reich 3
reser@@ 3
ried 3
rig 3
ritt@@ 3
robots 3
sag@@ 3
sch-@@ 3
schaft 3
schem@@ 3
schul@@ 3
schule 3
sich@@ 3
smooth@@ 3
sowie 3
span@@ 3
spati@@ 3
sprä@@ 3
staats@@ 3
stark@@ 3
startet 3
stau@@ 3
staun@@ 3
sth@@ 3
stil 3
stitute 3
strateg@@ 3
stro 3
studi@@ 3
syst@@ 3
tei@@ 3
tene 3
tere 3
terranean 3
thotel 3
thy@@ 3
tisch 3
tizen 3
trace@@ 3
traff@@ 3
transplan@@ 3
traum@@ 3
tritt 3
trum 3
tur 3
typ 3
ua 3
ue@@ 3
uel 3
ui 3
ulsory 3
ums@@ 3
unab@@ 3
unde 3
undes@@ 3
unfor@@ 3
ungen 3
urance 3
utory 3
veau 3
vehic@@ 3
velop@@ 3
veran@@ 3
versit@@ 3
visit@@ 3
waff@@ 3
wagen 3
wah@@ 3
wald 3
wher@@ 3
wid@@ 3
wide-@@ 3
wie@@ 3
ww@@ 3
xt 3
ype 3
ysteme 3
zei@@ 3
zim@@ 3
zin 3
zip@@ 3
zum 3
~ 3
º@@ 3
Í 3
Ø 3
â 3
ä 3
ì 3
ú 3
ún 3
üh@@ 3
ün@@ 3
ā 3
Ă@@ 3
ą 3
ę 3
İ@@ 3
ł 3
Α@@ 3
Ν@@ 3
Ο 3
Τ@@ 3
Н@@ 3
П@@ 3
Р@@ 3
во@@ 3
ет@@ 3
й 3
ко@@ 3
н 3
по@@ 3
х 3
下@@ 3
载 3
.htm 2
000.@@ 2
12. 2
16. 2
17. 2
2014-@@ 2
22. 2
24-hour 2
API 2
Ab 2
Abend 2
Ad-@@ 2
Adjust@@ 2
Adresse 2
Akademie 2
Akti@@ 2
Alex@@ 2
Alle 2
Aller@@ 2
Allianz 2
Aluminium 2
Alz@@ 2
Anla@@ 2
Aro@@ 2
Astri@@ 2
Asy@@ 2
Attra@@ 2
Aug@@ 2
Autob@@ 2
Avail@@ 2
Azerbaij@@ 2
Baby@@ 2
Bade@@ 2
Bahn 2
Ball 2
Bank@@ 2
Basis 2
Belast@@ 2
Beratungs@@ 2
Beri@@ 2
Berliner 2
Beste 2
Bin@@ 2
Bluetooth 2
Brand@@ 2
Brasili@@ 2
Brazi@@ 2
Bris@@ 2
Bristol 2
Brücke 2
Buen@@ 2
Business@@ 2
Busse 2
CHT@@ 2
Cards 2
Chance 2
Check-@@ 2
Clients 2
Clim@@ 2
Codes 2
Communic@@ 2
Compu@@ 2
Coo@@ 2
Currency 2
DON 2
Dach@@ 2
Dann 2
Das@@ 2
Deluxe 2
Demonstration 2
Desktop 2
Deutsch 2
Deutschen 2
Dialog 2
Diese 2
Dimas 2
Dimen@@ 2
Distri@@ 2
Div@@ 2
Diversi@@ 2
Dollar 2
Dry 2
Dör@@ 2
EADS 2
Emo@@ 2
Energie 2
Engine@@ 2
Erb@@ 2
Erbe 2
Ergebnisse 2
Erzeug@@ 2
Europa@@ 2
Europar@@ 2
Europä@@ 2
Europäer 2
Excel 2
Fall 2
Fall@@ 2
Februar 2
Fest@@ 2
Flag@@ 2
Flori@@ 2
Form@@ 2
Forschungs@@ 2
Forums 2
Foto@@ 2
Fotos 2
Frau 2
Fried@@ 2
Fris@@ 2
Fä@@ 2
GP@@ 2
Gei@@ 2
Glas 2
Golf@@ 2
Grafiken 2
Grenz@@ 2
Große 2
Grün@@ 2
HIN@@ 2
Haf@@ 2
Handel@@ 2
Hat 2
Herr 2
Hier 2
Hilfe 2
Hist@@ 2
Hit@@ 2
Hohe 2
Holz 2
Hostel@@ 2
Hostels 2
Hôtel 2
IRS 2
Illu@@ 2
In-@@ 2
Inf@@ 2
Infin@@ 2
Information@@ 2
Informationen 2
Infos 2
Inst@@ 2
Intensi@@ 2
Internet-@@ 2
Interoper@@ 2
Iron@@ 2
Isra@@ 2
Jar@@ 2
Jet 2
Jugend 2
Juli 2
Jury 2
Jus@@ 2
KB 2
Kaiser 2
Kamp@@ 2
Kartell@@ 2
Kind 2
Kongo 2
Konsu@@ 2
Kooperations@@ 2
Kraft 2
Kreuz@@ 2
Kul@@ 2
Kyo@@ 2
Kö@@ 2
Köln 2
Köni@@ 2
Kü@@ 2
Labor 2
Landwirtschafts@@ 2
Laser@@ 2
Layout 2
Leip@@ 2
Leit@@ 2
Lett@@ 2
Licht 2
Lloy@@ 2
Loch 2
Lok@@ 2
Loy@@ 2
Luft@@ 2
Lun@@ 2
Magazine 2
Mail@@ 2
Massage 2
Max@@ 2
Medium 2
Mein@@ 2
Merco@@ 2
Merg@@ 2
Mill@@ 2
Mini 2
Minim@@ 2
Misch@@ 2
Mitteilungen 2
Mix 2
Mosk@@ 2
MySQL 2
Mä@@ 2
Mäd@@ 2
Neelie 2
Non-Smoking 2
Normen 2
Noten@@ 2
Organ 2
PRO 2
PUNK@@ 2
Palestini@@ 2
Panasonic 2
Para@@ 2
Peking 2
Plug@@ 2
Plugin 2
Porsche 2
Poten@@ 2
Potential 2
Poto@@ 2
Potočnik 2
Privi@@ 2
Produkte 2
Produktion 2
Profil@@ 2
Profile 2
Programm 2
Proz@@ 2
Puer@@ 2
RS@@ 2
Ramblas 2
Rass@@ 2
Rat 2
Recht@@ 2
Reisen 2
Renn@@ 2
Rest@@ 2
Restaurants 2
Rie@@ 2
Ring@@ 2
Rohr@@ 2
Roo@@ 2
Rot@@ 2
Rotary 2
Route 2
Rubri@@ 2
Rö@@ 2
SCHL@@ 2
SOLV@@ 2
SQL 2
STAT 2
Sand 2
Satur@@ 2
Schal@@ 2
Schau@@ 2
Schie@@ 2
Schiff@@ 2
Schuld@@ 2
Schutz@@ 2
Schw@@ 2
Schwein@@ 2
Scienti@@ 2
Seit@@ 2
Sens@@ 2
Service-@@ 2
Sher@@ 2
Shopping 2
Signal 2
Situ@@ 2
Skand@@ 2
Sob@@ 2
Soh@@ 2
Somm@@ 2
Sonder@@ 2
Spann@@ 2
Speed 2
Sponsor@@ 2
Spor@@ 2
Spra@@ 2
Spre@@ 2
Stadium 2
Stahl@@ 2
Stamm@@ 2
Stand 2
Stau@@ 2
Stern@@ 2
Strasse 2
Strateg@@ 2
Stru@@ 2
Städ@@ 2
Stück 2
Synergi@@ 2
System@@ 2
Südafrika 2
Südti@@ 2
Tali@@ 2
Taste 2
Technische 2
Telek@@ 2
Tep@@ 2
Terr@@ 2
Terrace 2
Text 2
Thom@@ 2
Tickets 2
Toler@@ 2
Trav@@ 2
Tren@@ 2
Trend 2
Tsch@@ 2
USB-@@ 2
Uhr 2
Um 2
Umwelt@@ 2
Unsere 2
Unter@@ 2
Unterkunft 2
Unternehmens@@ 2
Updates 2
Urlau@@ 2
Us@@ 2
Veget@@ 2
Veranstaltungen 2
Verpack@@ 2
Verpackung 2
Vertrag@@ 2
Video-@@ 2
Visual 2
Vogel@@ 2
Volk@@ 2
Von 2
Vulkan@@ 2
Wach@@ 2
Waren@@ 2
Weekly 2
Weiter@@ 2
Wer 2
Wes@@ 2
Wettbewerb@@ 2
Where@@ 2
Wild@@ 2
Wind 2
Wirtschaft 2
Wirtschaft@@ 2
Wochen 2
Workshops 2
Wör@@ 2
Zah@@ 2
Zau@@ 2
Zentrum 2
Zürich 2
^ 2
abel 2
absolu@@ 2
acht@@ 2
adidas 2
adise 2
advantaged 2
ae@@ 2
akan 2
allen@@ 2
alles 2
ameters 2
amin 2
amin@@ 2
anderen 2
andin@@ 2
angel 2
anks 2
annes 2
ansa 2
anten 2
anya 2
ao@@ 2
aper 2
arbeits@@ 2
artikel 2
asen 2
assen 2
astern 2
atik 2
aty 2
auber@@ 2
automob@@ 2
bah@@ 2
bahn 2
bare@@ 2
barom@@ 2
bas 2
bauer 2
behält 2
behörde 2
benefici@@ 2
benutzt 2
bequ@@ 2
berat@@ 2
bergen 2
betri@@ 2
biens 2
ble-@@ 2
buch 2
buds@@ 2
bug 2
bugs 2
bureauc@@ 2
burgh 2
bü@@ 2
c-@@ 2
campa@@ 2
certific@@ 2
chester 2
chung 2
cker@@ 2
clar@@ 2
comings 2
compan@@ 2
confidenti@@ 2
conom@@ 2
conv@@ 2
dap@@ 2
daran 2
daraus 2
das@@ 2
datab@@ 2
dens@@ 2
derer 2
derly 2
dern 2
deten 2
did@@ 2
dien 2
diese 2
diesen 2
dieser 2
dion 2
downlo@@ 2
dramati@@ 2
eigenen 2
eilings 2
eines 2
einfach 2
eis@@ 2
eken 2
elten 2
enden 2
endo 2
energ@@ 2
enhaus 2
enterpr@@ 2
entes 2
entran@@ 2
entsch@@ 2
er- 2
erequ@@ 2
erfahren 2
erfolgt 2
ergi@@ 2
erische 2
erning 2
esch@@ 2
establish@@ 2
etwas 2
eur@@ 2
evy 2
excep@@ 2
exi@@ 2
facil@@ 2
falsch 2
fand 2
fas@@ 2
fast@@ 2
fea@@ 2
ffer@@ 2
fiel@@ 2
fik@@ 2
findet 2
fined 2
firma 2
flü@@ 2
fonds 2
fox 2
fug@@ 2
funda@@ 2
funktion@@ 2
för@@ 2
ganz 2
garten 2
gefunden 2
gei@@ 2
geln 2
genu@@ 2
gepf@@ 2
gesetz 2
ghly 2
gig 2
gine 2
grafi@@ 2
grund@@ 2
gruppe 2
gut 2
haf@@ 2
haft@@ 2
hen 2
hier 2
him@@ 2
hospit@@ 2
hows 2
humanit@@ 2
häuser 2
iPo@@ 2
igner 2
ilities 2
immer 2
ince 2
industrie 2
inion 2
int-@@ 2
interessiert 2
internationale 2
irl@@ 2
isches 2
ishings 2
isine 2
isten 2
ister@@ 2
ity@@ 2
jahr 2
jap@@ 2
jed@@ 2
jen@@ 2
jetzt 2
junk@@ 2
ka-@@ 2
kandidaten 2
kat 2
kein 2
kenn@@ 2
kia 2
kin 2
kle 2
kleine 2
kommen 2
konom@@ 2
kost@@ 2
kraftwagen 2
kre@@ 2
kri@@ 2
ktionen 2
kw 2
lagen@@ 2
landscap@@ 2
lange 2
latt 2
leider 2
lernen 2
lib@@ 2
lieren 2
liner 2
malen 2
marily 2
medizin@@ 2
mein 2
member@@ 2
menten@@ 2
mess@@ 2
mich 2
mie@@ 2
mier@@ 2
minister@@ 2
mische 2
mittel@@ 2
modus 2
mug@@ 2
musik 2
möchten 2
neue 2
neun 2
nings 2
noch 2
nun@@ 2
oeu@@ 2
olle@@ 2
ollen 2
ommission 2
opoulou 2
ote 2
ovina 2
partn@@ 2
pau@@ 2
ph 2
phenom@@ 2
poker 2
polies 2
popu@@ 2
posit@@ 2
position@@ 2
poth@@ 2
pragmati@@ 2
pread 2
probe 2
programm 2
projek@@ 2
promis@@ 2
proper@@ 2
propos@@ 2
push@@ 2
qual@@ 2
quantit@@ 2
quin 2
raum@@ 2
recht 2
rechte 2
redi@@ 2
refus@@ 2
reit@@ 2
relax@@ 2
relev@@ 2
repeat@@ 2
resque 2
ries@@ 2
riffen 2
ritt 2
robu@@ 2
rolle 2
ror@@ 2
rung 2
rut@@ 2
sam 2
sar@@ 2
schafts@@ 2
schau 2
sche@@ 2
schl@@ 2
schon 2
schw@@ 2
schwi@@ 2
see@@ 2
seeable 2
seh@@ 2
sehr 2
sein 2
seiner 2
seines 2
senden 2
sharp@@ 2
shilfe 2
signific@@ 2
sions@@ 2
sity 2
sives 2
sophistic@@ 2
spann@@ 2
splan@@ 2
spreis 2
spru@@ 2
sser 2
stauran@@ 2
stehen 2
stein@@ 2
stel@@ 2
stellen 2
stätten 2
substan@@ 2
sugges@@ 2
sung 2
systeme 2
teln 2
tene@@ 2
terran@@ 2
territ@@ 2
textual 2
thema 2
theore@@ 2
thou 2
thumb@@ 2
tisches 2
tivi@@ 2
tol 2
touristischen 2
trade@@ 2
tradition@@ 2
trages 2
trags@@ 2
tseite 2
tsp@@ 2
tter 2
tungen 2
tut 2
tö@@ 2
ule 2
ult@@ 2
undation 2
up-to-@@ 2
urer 2
uts 2
v. 2
v.@@ 2
vel-@@ 2
verages 2
verkehrs@@ 2
verzeichn@@ 2
vesti@@ 2
vestock 2
vidu@@ 2
viel 2
viel@@ 2
wand 2
welt 2
wesen 2
wettbewerbs@@ 2
wice 2
wurden 2
www@@ 2
xis@@ 2
z.@@ 2
ziger 2
zimmer 2
zt 2
zus@@ 2
zusammen 2
zö@@ 2
¡ 2
¢ 2
¾ 2
Ô@@ 2
Öl@@ 2
Österreich 2
Ú@@ 2
ß 2
à-@@ 2
ärm 2
ärm@@ 2
å 2
ç 2
ï 2
ò@@ 2
ù 2
üb@@ 2
ür 2
Ā@@ 2
ă 2
ć@@ 2
ĕ@@ 2
ę@@ 2
Ī@@ 2
Ķ@@ 2
Ľ 2
Ľ@@ 2
ń 2
ň 2
ő 2
Ř 2
Ř@@ 2
ś 2
ū@@ 2
ů 2
ș@@ 2
В 2
Й@@ 2
Т@@ 2
Х 2
ал@@ 2
д 2
з 2
л 2
на 2
на@@ 2
ни@@ 2
с 2
щ@@ 2
ъ@@ 2
ю 2
я@@ 2
‒ 2
′ 2
› 2
舞@@ 2
艳@@ 2
迅@@ 2
-Spe@@ 1
-Sti@@ 1
.h@@ 1
0er 1
14. 1
15.00 1
18. 1
19. 1
1950 1
20. 1
2009-@@ 1
21. 1
229@@ 1
23. 1
24. 1
25. 1
26. 1
27. 1
430@@ 1
AFFA@@ 1
Abteilung 1
Ado@@ 1
Afghan@@ 1
Agenturen 1
Agrar@@ 1
Aktu@@ 1
Alkohol 1
Allah 1
Alli@@ 1
Alpen 1
Alpen@@ 1
Alter 1
Ambiente 1
Amerika 1
Andal@@ 1
Androulla 1
Anfang 1
Anforderungen 1
Angaben 1
Angestellten 1
Angst 1
Anmel@@ 1
Anmeldung 1
Annu@@ 1
Ano@@ 1
Anreize 1
Anspruch 1
Apache 1
Arbeitslosen@@ 1
Arten 1
Aspekten 1
Atlantik 1
Auch 1
Audio 1
Auf 1
Aufnahme 1
Auftrag 1
Augen@@ 1
Ausgabe 1
Austr@@ 1
Australien 1
Authenti@@ 1
Autobahn 1
Autovermietung 1
BIP 1
Bahn@@ 1
Balkan@@ 1
Balkon 1
Barcel@@ 1
Barcelona-@@ 1
Bedingung 1
Bedingungen 1
Beim 1
Bek@@ 1
Benutzern 1
Beruf 1
Bestellung 1
Besuchen 1
Biblioth@@ 1
Bild 1
Bilder 1
Bildung 1
Bildungs@@ 1
Black@@ 1
Ble@@ 1
Blei@@ 1
Blick 1
Brasilien 1
Brau@@ 1
Brie@@ 1
Broschür@@ 1
Bürger@@ 1
Büro@@ 1
CIL 1
Cameron 1
Campingplatz 1
Cardi@@ 1
Certain@@ 1
Charta 1
Chinas 1
Comfort 1
Computer@@ 1
Cook@@ 1
Coton@@ 1
Curr@@ 1
Cô@@ 1
Dach 1
Dad@@ 1
Damit 1
Dank 1
Datenschutz 1
Debian 1
Deck@@ 1
Defini@@ 1
Dem 1
Demonstr@@ 1
Denn 1
Depression 1
Deri@@ 1
Des 1
Dienst 1
Dies@@ 1
Digit@@ 1
Digital@@ 1
Diskussion 1
Dom 1
Downlo@@ 1
Druck@@ 1
Dusche 1
E.ON 1
EG-@@ 1
EPs 1
Eben@@ 1
Eck@@ 1
Ehr@@ 1
Eiff@@ 1
Eig@@ 1
Ein 1
Einführung 1
Eingang 1
Einsatz 1
Electron@@ 1
Elek@@ 1
Elektro@@ 1
Elev@@ 1
Elite 1
Empfehlung 1
Englisch 1
Entwicklung 1
Entwicklungen 1
Entwicklungs@@ 1
Erd@@ 1
Ere@@ 1
Erfahrungen 1
Erforschung 1
Erkenntnisse 1
Erste 1
Ess@@ 1
Eurex 1
Eurocopter 1
Europa-@@ 1
Europäischer 1
FS 1
Fabri@@ 1
Fahr@@ 1
Fahrt 1
Fahrzeug@@ 1
Fahrzeuge 1
Fakten 1
Falle 1
Falls 1
Fan 1
Fans 1
Fassung 1
Features 1
Feh@@ 1
Fei@@ 1
Feri@@ 1
Fi 1
Filter 1
Finanzi@@ 1
Fing@@ 1
Firma 1
Firmen@@ 1
Flan@@ 1
Fleisch 1
Florenz 1
Flug@@ 1
Forschungsin@@ 1
Foto 1
Fotografie 1
Frauen 1
Freiheit 1
Freit@@ 1
Freunde 1
Funktionsweise 1
FÜ@@ 1
För@@ 1
Für 1
GAP 1
Gang 1
Ganz 1
Gastfreundschaft 1
Gate 1
Geis@@ 1
Geist 1
Geld 1
Gemein@@ 1
Gemeinde 1
Gentoo 1
Gesch@@ 1
Geschichte 1
Geschichten 1
Gesprächen 1
Gewer@@ 1
Gitar@@ 1
Glau@@ 1
Glück@@ 1
Gouverne@@ 1
Grap@@ 1
Grie@@ 1
Grundlage 1
Gruppen 1
Gründung 1
Grüne 1
Guantánamo 1
Gut 1
Gäste 1
Haag 1
Haben 1
Hafen 1
Halle 1
Handbuch 1
Handel 1
Handy 1
Hardware 1
Harmonie 1
Haupt@@ 1
Haut@@ 1
Heath@@ 1
Heating 1
Heili@@ 1
Helsin@@ 1
Herz 1
Herzeg@@ 1
Hig@@ 1
Hilfs@@ 1
Him@@ 1
Hochschule 1
Hohen 1
Humanit@@ 1
Höhepunkt 1
IEN 1
INTERR@@ 1
Ich 1
Idee 1
Immobili@@ 1
Imperi@@ 1
Industrie- 1
Industrie@@ 1
Infl@@ 1
Infra@@ 1
Infrastruktur 1
Inhalt 1
Innovation@@ 1
Innsbru@@ 1
Insgesamt 1
Installation 1
Instru@@ 1
Instrument@@ 1
Insur@@ 1
Interview 1
Investition@@ 1
Investitionsbank 1
Italien 1
Ja 1
Jacqu@@ 1
Jahr 1
Jahres 1
Jahres@@ 1
Janu@@ 1
Jarzembowski 1
Journalisten 1
Jugen@@ 1
Jugendliche 1
Juni 1
Juni@@ 1
Justi@@ 1
KOM 1
Kalender 1
Kali@@ 1
Kallas 1
Kanada 1
Kanal 1
Kenntnisse 1
Keram@@ 1
Kernkraft@@ 1
Kinder 1
Klang@@ 1
Klein@@ 1
Klick 1
Klicken 1
Know-how 1
Komfort 1
Kommunal@@ 1
Komp@@ 1
Komple@@ 1
Komplex 1
Kongress@@ 1
Kontakt 1
Konzert 1
Koordination 1
Kop@@ 1
Kosten 1
Kraft@@ 1
Kredi@@ 1
Kreis 1
Krie@@ 1
Krimin@@ 1
Kron@@ 1
Kultur@@ 1
Kunst 1
Kunststoff@@ 1
Kurs 1
Kurz@@ 1
Köl@@ 1
König 1
König@@ 1
Körper@@ 1
Künst@@ 1
Künstler@@ 1
Küste 1
LK@@ 1
Lande 1
Lanz@@ 1
Lassen 1
Leben@@ 1
Lehr@@ 1
Leitung 1
Lern@@ 1
Leu@@ 1
Licht@@ 1
Lido 1
Lieb@@ 1
Liecht@@ 1
Lieferung 1
Linie 1
Linien 1
Lobby 1
Lobby@@ 1
Loc@@ 1
Lodge 1
Logistik 1
Logo 1
Loh@@ 1
Lt@@ 1
Luggage 1
Lász@@ 1
Län@@ 1
MHz 1
ML 1
Manche 1
Marke 1
Marken 1
Maschine 1
Maschinen 1
Materialien 1
Medien 1
Mehr 1
Mehr@@ 1
Mei@@ 1
Menschen 1
Merc@@ 1
Messenger 1
Metall@@ 1
Mex@@ 1
Migrations@@ 1
Million 1
Milo@@ 1
Minibar 1
Minute 1
Mio 1
Miss@@ 1
Mitarbeit 1
Mittel@@ 1
Modelle 1
Modul 1
Monit@@ 1
Mono@@ 1
Monopol@@ 1
Montre@@ 1
Motto 1
Moun@@ 1
Musik 1
Musli@@ 1
Mw@@ 1
Mär@@ 1
Mö@@ 1
Möglichkeit 1
Möglichkeiten 1
Nachbar@@ 1
Nachdem 1
Nacht 1
Nacht@@ 1
Neben 1
Neut@@ 1
Nieder@@ 1
Nit@@ 1
Norwe@@ 1
Nr 1
Nur 1
Nutz@@ 1
Objek@@ 1
Oliver 1
Onlin@@ 1
Online-@@ 1
Ort 1
Orts@@ 1
Ost 1
Ostse@@ 1
Oz@@ 1
PHP 1
PV@@ 1
Paci@@ 1
Parks 1
Parla@@ 1
Parlament 1
Person 1
Personen 1
Personen@@ 1
Perspektive 1
Pflan@@ 1
Photoshop 1
Planung 1
Poet@@ 1
Portu@@ 1
Preis 1
Print 1
Prior@@ 1
Privat@@ 1
Pro-@@ 1
Proble@@ 1
Produk@@ 1
Produkten 1
Profession@@ 1
Profi@@ 1
Progno@@ 1
Projekt 1
Projekt@@ 1
Projekte 1
Prop@@ 1
Prozess@@ 1
Prozesse 1
Prä@@ 1
Quad@@ 1
Quarte@@ 1
Rande 1
Raum 1
Raum@@ 1
Realisierung 1
Reb@@ 1
Rechnung 1
Rechts 1
Rede@@ 1
Regierung@@ 1
Registri@@ 1
Reich 1
Reich@@ 1
Rennen 1
Rental 1
Rez@@ 1
Richter 1
Risi@@ 1
Rom 1
Rout@@ 1
Runde 1
SA-@@ 1
SA.@@ 1
SQL-@@ 1
Sammlung 1
Samstag 1
Sauna 1
Schla@@ 1
Schle@@ 1
Schn@@ 1
Schwarz@@ 1
Schwe@@ 1
Sci@@ 1
Seh@@ 1
Semester 1
Send@@ 1
Shops 1
Sili@@ 1
SilverFast 1
Simul@@ 1
Sind 1
Skri@@ 1
Slides@@ 1
Smo@@ 1
Soft@@ 1
Software-@@ 1
Solange 1
Sollten 1
Sommer@@ 1
Sonntag 1
Sovi@@ 1
Sozial@@ 1
Spam@@ 1
Span@@ 1
Spanien 1
Spek@@ 1
Sper@@ 1
Spezi@@ 1
Spie@@ 1
Spiegel 1
Spir@@ 1
Spitz@@ 1
Sprit@@ 1
Staat@@ 1
Stad@@ 1
Stadt 1
Standard@@ 1
Stars 1
Start@@ 1
Statistik 1
Statut 1
Stell@@ 1
Stelle 1
Steuer@@ 1
Stil@@ 1
Stockhol@@ 1
Strand 1
Strand@@ 1
Straße 1
Strei@@ 1
Strö@@ 1
Studenten 1
Stütz@@ 1
Swimmingpool 1
Swit@@ 1
Systeme 1
Systemen 1
Sü@@ 1
TA-@@ 1
Tamp@@ 1
Tap@@ 1
Teil 1
Teilen 1
Teilnehmern 1
Telefon@@ 1
Temperat@@ 1
Tempo 1
Termine 1
Terror 1
Theat@@ 1
Thess@@ 1
Thun@@ 1
Ticket 1
Ticket@@ 1
Tier 1
Tip 1
Tipps 1
Tok@@ 1
Ton@@ 1
Treff@@ 1
Trends 1
Trink@@ 1
Trock@@ 1
Tö@@ 1
UNES@@ 1
UNO 1
Uhr@@ 1
Umwel@@ 1
Unabhängi@@ 1
Und 1
Unternehmen 1
Untersuchungen 1
Upgrade 1
Urheber@@ 1
Urlaub 1
Urugu@@ 1
VOR@@ 1
Vassili@@ 1
Verbin@@ 1
Verf@@ 1
Verfügung 1
Verlei@@ 1
Verpackungs@@ 1
Vers@@ 1
Versand@@ 1
Versicherung 1
Vertrieb 1
Verzögerung 1
Veröffentlichung 1
Vet@@ 1
Viele 1
Vielen 1
Virus 1
Vista 1
Vivi@@ 1
Viz@@ 1
Volkes 1
Vom 1
Vor 1
Vorder@@ 1
Voy@@ 1
Vö@@ 1
Völ@@ 1
WIRT@@ 1
Wag@@ 1
Wahrnehmung 1
Wald@@ 1
Waldner 1
Wander@@ 1
Warcraft 1
Wart@@ 1
Web-@@ 1
Wedn@@ 1
Wein@@ 1
Weise 1
Weiterbildung 1
Welle 1
Welt@@ 1
Werbung 1
Werk 1
Werk@@ 1
Werke 1
Werkzeug@@ 1
Wett@@ 1
Wetter 1
Wetter@@ 1
Whenever 1
Whirlpool 1
Wiki@@ 1
Windows-@@ 1
Winter@@ 1
Wirtschaf@@ 1
Wochenende 1
Wohl@@ 1
Wohnungen 1
Wolf@@ 1
Wort@@ 1
Wunsch 1
YORK 1
Yugosla@@ 1
Zeit 1
Zeu@@ 1
Zimmer 1
Zin@@ 1
Zit@@ 1
Zur@@ 1
Zusammenarbeit 1
Zwei 1
Zwei@@ 1
Zy@@ 1
abled 1
abler 1
accessory 1
activis@@ 1
adresse 1
advant@@ 1
ag 1
agno@@ 1
agt 1
akadem@@ 1
aktiv 1
aktu@@ 1
alte 1
ampi@@ 1
analog 1
andere 1
angan 1
anger@@ 1
anien 1
anit@@ 1
anlagen 1
anmelden 1
anta@@ 1
anten@@ 1
anter 1
antes 1
anwalt 1
anz 1
apart@@ 1
appoin@@ 1
architek@@ 1
arel 1
arib@@ 1
arkt 1
atem@@ 1
athedr@@ 1
ationen 1
atischen 1
ativ 1
atte 1
atten 1
atum 1
atur 1
atz@@ 1
audiovisu@@ 1
auen 1
aufgenommen 1
aufgrund 1
aufs 1
ausch 1
ausgeliefert 1
ausgerichtet 1
ausgestattet 1
ausgewäh@@ 1
autaire 1
außergewöhn@@ 1
backgrounds 1
bahn@@ 1
bald 1
bark@@ 1
barkeit 1
beam@@ 1
befindet 1
beginnt 1
behin@@ 1
behold 1
bele@@ 1
bella 1
beloh@@ 1
bene 1
beratung 1
berei@@ 1
bereich 1
bereit@@ 1
besser 1
beste 1
besteht 1
bestellen 1
bestellt 1
besten 1
besti@@ 1
bestimmten 1
besuchen 1
betro@@ 1
beu@@ 1
bewahren 1
bezahl@@ 1
bezo@@ 1
bien 1
bieter 1
bild@@ 1
bildet 1
bildungs@@ 1
blatt 1
blick 1
bourhood 1
bracelet, 1
braucht 1
bril@@ 1
brin@@ 1
bringen 1
bry@@ 1
brü@@ 1
bt 1
bzw. 1
bün@@ 1
can't 1
chall@@ 1
check-@@ 1
chni@@ 1
chs@@ 1
chte 1
chter 1
chtest 1
chä@@ 1
cket@@ 1
col 1
comfort@@ 1
como 1
contextu@@ 1
contextual 1
contri@@ 1
contribu@@ 1
conveni@@ 1
coo@@ 1
countries, 1
covery 1
criteri@@ 1
critique 1
dafri@@ 1
dah@@ 1
daher 1
dalam 1
dank 1
dann 1
darunter 1
daten@@ 1
deine 1
deinen 1
deiner 1
dene 1
denen 1
denk@@ 1
denn 1
deren 1
descrip@@ 1
desto@@ 1
destri@@ 1
deutschen 1
dh@@ 1
dich 1
dichte 1
dienen 1
dienst@@ 1
dierung 1
diesel@@ 1
dieses 1
difficul@@ 1
digen 1
direkt 1
dirty 1
disast@@ 1
disastro@@ 1
dische 1
dise@@ 1
drei@@ 1
dringen 1
dung 1
earch 1
earth@@ 1
earthqu@@ 1
eb 1
ebenfalls 1
ebenso 1
eck-@@ 1
eckt 1
ecomm@@ 1
eigenes 1
eilig@@ 1
eill@@ 1
eils 1
einem 1
einge@@ 1
einiger 1
einzusetzen 1
eite 1
ekt 1
elen 1
elings 1
elte 1
empf@@ 1
empl@@ 1
employe@@ 1
en.@@ 1
en.htm 1
ende 1
ender@@ 1
endly 1
ener@@ 1
energi@@ 1
engen 1
enhagen 1
enseits 1
enster 1
enten@@ 1
entfernt 1
enth 1
entlassen 1
enzen 1
era@@ 1
erb@@ 1
erenden 1
erer 1
erfüllt 1
ergie 1
erhol@@ 1
erien 1
erin 1
erleben 1
erner 1
erreicht 1
ersten 1
erstes 1
erstklassige 1
erten 1
erter 1
erweitern 1
erzielt 1
esen 1
eservice 1
esn 1
esten 1
etoo@@ 1
etor@@ 1
etten 1
etzen 1
eure 1
europa 1
europa.eu 1
exklu@@ 1
fach 1
fak@@ 1
fassen 1
fern@@ 1
ferner 1
fert 1
fes 1
fession@@ 1
festgelegt 1
finanzi@@ 1
finanzielle 1
finden 1
flug 1
folgende 1
foli@@ 1
fork 1
formular 1
forschung 1
fortabel 1
foto@@ 1
fragt 1
frei 1
freu@@ 1
freuen 1
friger@@ 1
frische 1
früh 1
fte 1
funden 1
funk@@ 1
fähigkeit 1
fährt 1
gabe 1
gasse 1
gebene 1
gebiet 1
gebung 1
geg@@ 1
gegen 1
gehen 1
geht 1
geis@@ 1
gele@@ 1
gelegt 1
geleitet 1
gemeinsam 1
gend@@ 1
gende 1
genden 1
genen 1
gener 1
geniessen 1
genommen 1
gens@@ 1
gente 1
geplant 1
gerade 1
gerechte 1
gered 1
gern 1
geschicht@@ 1
geschrieben 1
gesetzes 1
gesetzt 1
gesprä@@ 1
gestaltung 1
gestellt 1
gestellten 1
getro@@ 1
gettable 1
gew@@ 1
gewisse 1
gezielt 1
gian 1
gie@@ 1
glei@@ 1
gosla@@ 1
graphie 1
gratis 1
gratu@@ 1
gress 1
gressi@@ 1
gro 1
großen 1
grün@@ 1
gut@@ 1
gute 1
gän@@ 1
gü@@ 1
h-@@ 1
habe 1
haft 1
halb 1
handel 1
handel@@ 1
handels 1
happens, 1
haps 1
hast 1
heb@@ 1
heimer 1
heit 1
heits@@ 1
helfen 1
helpf@@ 1
heraus 1
heu@@ 1
hie@@ 1
hilfe 1
hin 1
hingewiesen 1
hoch@@ 1
hostels 1
hour, 1
ht 1
hunder@@ 1
hyth@@ 1
hän@@ 1
idealen 1
ieren 1
iert 1
ierter 1
iet@@ 1
ihr 1
ihre 1
ily-@@ 1
immedi@@ 1
immerhin 1
implemen@@ 1
incor@@ 1
indispens@@ 1
individuellen 1
informationen 1
informellen 1
informiert 1
ining@@ 1
innen 1
integriert 1
intensiver 1
internationales 1
intro@@ 1
intui@@ 1
isch@@ 1
islam@@ 1
islat@@ 1
italien@@ 1
itas 1
iten 1
ittee 1
ität 1
jected 1
jede 1
jedes 1
jeg@@ 1
jemand 1
ju 1
jährliche 1
kam 1
kana 1
kannst 1
kap@@ 1
karte 1
kaum 1
keine 1
keinen 1
kern 1
kern@@ 1
kette 1
klar@@ 1
klasse 1
klausel 1
knapp 1
knapp@@ 1
kolle@@ 1
kombin@@ 1
kommunik@@ 1
komplette 1
komplex 1
konnte 1
kosten 1
krati@@ 1
kreu@@ 1
kräfte 1
kt 1
kte 1
ktion 1
ktions@@ 1
ktiv 1
kulturelle 1
kun@@ 1
kunden 1
kus 1
können 1
könnte 1
lagen 1
lagt 1
langer 1
lare 1
leben 1
leben@@ 1
lege 1
legen@@ 1
legt 1
legte 1
lehen 1
leis@@ 1
lesen 1
lette 1
levard 1
liche 1
lichem 1
licher 1
lichkeit 1
licop@@ 1
licy 1
liefern 1
liegen 1
life@@ 1
lig 1
ligkeit 1
lip@@ 1
lis@@ 1
litz 1
llen 1
loh@@ 1
lokale 1
loosened 1
losen@@ 1
loyment 1
lus@@ 1
lust 1
lux@@ 1
luxem@@ 1
lymp@@ 1
ländische 1
lässt 1
macht 1
mag 1
maga@@ 1
magaz@@ 1
magne@@ 1
manent 1
manufactur@@ 1
markiert 1
mau@@ 1
mbo@@ 1
meaningfully 1
mee 1
meisten 1
meister@@ 1
mend 1
merk 1
methoden 1
metro 1
minal 1
ministr@@ 1
minuten 1
mire 1
mises 1
mitted 1
mming@@ 1
mmt 1
modell 1
modells 1
moderne 1
modernes 1
mware 1
mä@@ 1
mö@@ 1
möglichkeiten 1
nachzu@@ 1
nah 1
nder 1
necklace, 1
nen@@ 1
neu@@ 1
neues 1
neuesten 1
neut@@ 1
nex 1
niti@@ 1
niveau 1
nock 1
nover 1
nummer 1
nun 1
näch@@ 1
nö@@ 1
ober@@ 1
objek@@ 1
odate 1
ologie 1
ologischen 1
omen 1
omer@@ 1
ont@@ 1
orama 1
ordn@@ 1
organisator@@ 1
organisiert 1
orien 1
orientieren 1
orig@@ 1
oriums 1
pak@@ 1
park@@ 1
passt 1
perat@@ 1
percussions 1
pf 1
pfer@@ 1
pg 1
phen 1
pid@@ 1
plom@@ 1
plätzen 1
pole@@ 1
preced@@ 1
precedented 1
preis@@ 1
prepar@@ 1
presen@@ 1
pret@@ 1
privat@@ 1
proofed 1
provi@@ 1
prozess 1
präsent@@ 1
punk@@ 1
puy 1
quelle 1
raff@@ 1
rah@@ 1
reak@@ 1
rech@@ 1
recht@@ 1
rechtlichen 1
recom@@ 1
redu@@ 1
refur@@ 1
refurb@@ 1
regen 1
regionale 1
registri@@ 1
reiber 1
reichung 1
reihe 1
rek@@ 1
rekt 1
reland 1
reprodu@@ 1
require@@ 1
rer 1
reservi@@ 1
resultier@@ 1
richten 1
riere 1
rund 1
ruppe 1
räder 1
räu@@ 1
rö@@ 1
saal 1
sache 1
sagt 1
sah@@ 1
samer 1
satz 1
schaften 1
schei@@ 1
schein 1
schicken 1
schied 1
schlechter 1
schließen 1
schließt 1
schnelle 1
schnelles 1
schnitt 1
schriften 1
schriftliche 1
schu@@ 1
schwer 1
schwer@@ 1
schön 1
schöner 1
seit 1
seized 1
sekre@@ 1
sens 1
serie 1
sern 1
servations 1
setzt 1
shoelaces 1
sicherheit 1
sichtbar 1
siehe 1
sitzen 1
siv 1
skap@@ 1
skep@@ 1
slowen@@ 1
sogar 1
solch 1
solcher 1
solidar@@ 1
solidi@@ 1
sollen 1
sollte 1
sondern 1
sonst 1
sorge 1
spap@@ 1
sparen 1
spezi@@ 1
speziell 1
speziellen 1
spiel 1
splat@@ 1
spoon 1
sport@@ 1
sposition 1
sprachigen 1
sprin@@ 1
spätestens 1
stab@@ 1
stad@@ 1
stahl 1
stained 1
stande 1
stead 1
stechnologie 1
stehenden 1
stellte 1
stern 1
stheti@@ 1
strength@@ 1
strom 1
stronom@@ 1
struk@@ 1
struktion 1
strö@@ 1
stunden 1
stä@@ 1
ständigen 1
susp@@ 1
sü@@ 1
südlichen 1
teil 1
teilweise 1
temperat@@ 1
tener 1
tero@@ 1
tete 1
teu@@ 1
teuer 1
thaf@@ 1
theit 1
therapeu@@ 1
thermore 1
thern 1
ticle 1
tien 1
tige 1
tik 1
tische 1
together, 1
tot 1
tragene 1
trat 1
treat@@ 1
tril@@ 1
träge 1
ttes 1
turel@@ 1
twa 1
tä@@ 1
tätigkeit 1
ulen 1
ulla 1
umini@@ 1
umwelt@@ 1
undi 1
uner 1
ungs 1
ungs- 1
ungsan@@ 1
ungsh@@ 1
ungsp@@ 1
ungst@@ 1
ungsverfahren 1
unseren 1
unternehmen 1
unum@@ 1
unver@@ 1
uren 1
urlaub 1
usw 1
usw. 1
utz 1
variables 1
verbessern 1
verbo@@ 1
vere 1
vereinigung 1
verfahren 1
verfassungs@@ 1
verfügbar 1
verfügen 1
verfügt 1
verhältnis 1
verkaufen 1
verkehrs 1
verschiedenen 1
verschoben 1
verteilt 1
verwaltung 1
verz@@ 1
verzichten 1
veränder@@ 1
verändern 1
veröffentlicht 1
veröffentlichte 1
vielen 1
vigation 1
virtuelle 1
vorausgesetzt 1
ware-@@ 1
waren 1
wartet 1
wasser 1
wasser@@ 1
weder 1
wegen 1
weis@@ 1
weit 1
welches 1
welle 1
wenig 1
weniger 1
wenn@@ 1
westen 1
whole@@ 1
wich 1
wick@@ 1
wider@@ 1
wieder@@ 1
willi@@ 1
wirken 1
wirklich 1
wissen 1
wledge 1
wobei 1
wollen 1
wur@@ 1
wurde 1
xen 1
y-to-day 1
yel@@ 1
ynam@@ 1
ystem 1
z.B. 1
zah@@ 1
zeichnen 1
zeichnung 1
zeigen 1
zeit 1
zeiten 1
zell@@ 1
zende 1
zenten 1
zentr@@ 1
zentrum 1
zern 1
zig@@ 1
zun@@ 1
zwei 1
{ 1
} 1
¬ 1
± 1
³ 1
¸ 1
¹ 1
¿ 1
Â 1
Ägyp@@ 1
Änderungen 1
Æ@@ 1
Ê@@ 1
Î@@ 1
Õ 1
× 1
Über 1
Ý@@ 1
ßen 1
ã@@ 1
äck 1
äh@@ 1
äl@@ 1
änen 1
ätze 1
äu@@ 1
äuft 1
ê 1
öhne 1
ök@@ 1
ön 1
ös 1
ø 1
û@@ 1
ück@@ 1
üller 1
üs@@ 1
üssel@@ 1
üt@@ 1
Ď@@ 1
ď 1
Ė@@ 1
ė@@ 1
Ę@@ 1
Ě@@ 1
Ġ@@ 1
ħ@@ 1
Ł@@ 1
ň@@ 1
Ő@@ 1
Ś@@ 1
Ş 1
Ş@@ 1
Ţ@@ 1
ţ 1
ť 1
ť@@ 1
Ů 1
ų 1
Ż@@ 1
ž 1
ș 1
Ε@@ 1
Κ@@ 1
Υ@@ 1
μ@@ 1
Ў@@ 1
О@@ 1
ан@@ 1
г 1
к 1
ны@@ 1
п 1
ц@@ 1
ч 1
ы 1
ћ@@ 1
ќ@@ 1
↑ 1
◊ 1
伴@@ 1
刘@@ 1
可@@ 1
吉@@ 1
就@@ 1
崎@@ 1
杨@@ 1
海 1
爱@@ 1
直@@ 1
绪@@ 1
舞 1
雷 1
雷@@ 1
颖 1
﻿It 1
