, 216343
der 147067
. 141883
die 137006
und 113887
in 55606
den 47345
zu 44648
für 39427
des 37890
von 36219
auf 29477
ist 27089
im 26046
mit 24197
Die 23571
das 23254
eine 22919
werden 22615
dem 19888
dass 18765
nicht 17920
- 17500
sich 15854
zur 15597
wir 15530
wird 15391
es 15242
über 14883
ein 14674
auch 13965
an 13919
Union 13778
: 13737
Kommission 13048
sind 12643
) 12288
um 11884
Europäischen 11738
( 11532
" 11490
Der 11386
hat 11187
daß 11088
einer 10988
als 10428
Sie 10081
haben 9975
ich 9717
Rat 9684
bei 9632
sie 9206
wie 9204
einen 9023
oder 8147
dieser 7912
Europäische 7809
/ 7587
EU 7359
Mitgliedstaaten 7324
Ich 7320
diese 7242
; 7152
Herr 7151
zum 7020
durch 6887
nach 6706
aus 6619
können 6409
Wir 6393
vor 6159
kann 6055
müssen 5941
diesem 5744
Das 5710
einem 5646
uns 5569
sowie 5552
noch 5513
-@@ 5465
so 5298
er 5265
ihre 5246
eines 5226
zwischen 5056
nur 4929
Es 4900
alle 4818
sein 4814
wenn 4609
In 4512
aber 4397
Maßnahmen 4348
wurde 4148
unter 4103
am 4072
Entwicklung 4003
Europa 3994
% 3958
er@@ 3789
ver@@ 3726
Rahmen 3651
Präsident 3616
dieses 3606
mehr 3592
Zusammenarbeit 3591
Länder 3572
möchte 3560
ten 3516
Erklärung 3511
insbesondere 3467
vom 3388
sehr 3354
damit 3323
Minister 3320
K@@ 3287
Gemeinschaft 3277
Parlament 3258
– 3245
Republik 3150
gegen 3143
diesen 3097
? 3070
unsere 3062
Bericht 3061
B@@ 3055
europäischen 3023
muss 3023
! 3000
anderen 2998
ihrer 2976
un@@ 2957
an@@ 2922
was 2867
neuen 2844
ge@@ 2790
Ver@@ 2754
war 2709
Richtlinie 2707
S@@ 2691
denen 2686
bis 2657
Jahr 2614
Frage 2604
Rates 2598
T@@ 2592
dies 2591
weiterhin 2579
ein@@ 2572
ischen 2565
Im 2557
te 2554
keine 2552
be@@ 2536
EN 2522
politischen 2522
bereits 2504
DER 2487
gibt 2486
Bereich 2475
sollte 2462
en 2457
G@@ 2432
man 2429
darauf 2416
Frau 2413
k@@ 2408
neue 2403
jedoch 2389
wurden 2349
Diese 2342
hier 2332
unserer 2327
aus@@ 2313
ung 2288
Vorschlag 2286
ab@@ 2284
* 2281
L@@ 2260
Z@@ 2260
H@@ 2250
habe 2249
1 2242
Unterstützung 2231
en@@ 2231
R@@ 2224
seine 2218
allen 2217
heute 2214
Regierung 2205
soll 2188
EU-@@ 2168
da 2163
Namen 2153
D@@ 2146
vor@@ 2141
sollten 2139
dann 2131
ER@@ 2120
t 2098
a 2094
Fragen 2089
N@@ 2084
dazu 2073
e 2070
ihren 2069
An@@ 2058
M@@ 2049
zu@@ 2042
2 2038
immer 2037
Ziel 2033
Regionen 2032
mich 2030
Bedeutung 2025
W@@ 2018
sondern 1981
de 1975
s 1961
ungs@@ 1943
Lage 1938
Zusammenhang 1925
ische 1920
Jahren 1907
ungen 1896
Ab@@ 1884
Unternehmen 1883
dafür 1873
seiner 1872
Zeit 1868
ohne 1868
Ihnen 1852
P@@ 1846
Sicherheit 1838
Herrn 1827
F@@ 1817
geht 1811
worden 1799
Staaten 1797
Er 1775
Landwirtschaft 1774
Menschen 1758
zwei 1756
Arbeit 1751
internationalen 1742
muß 1742
T 1734
' 1725
Mit 1723
d@@ 1717
Kenntnis 1715
I@@ 1713
Angelegenheiten 1706
enden 1694
n@@ 1691
andere 1680
Dies 1668
machen 1651
Rolle 1646
Vorsitzes 1629
nationalen 1629
Türkei 1620
lichen 1616
ter 1608
Umsetzung 1606
stellen 1605
würde 1604
O@@ 1602
gemeinsamen 1602
Politik 1597
E@@ 1596
weil 1588
„ 1586
E 1585
jetzt 1575
Verhandlungen 1574
Be@@ 1573
A@@ 1567
Parlaments 1567
gen 1563
auf@@ 1555
Wenn 1554
Förderung 1547
ob 1546
waren 1543
liche 1540
Ein@@ 1539
schließen 1539
unterstützen 1538
Vor@@ 1536
Bürger 1534
UNG 1529
politische 1525
Zukunft 1520
g@@ 1520
s@@ 1518
daher 1516
Jahre 1514
ganz 1511
Ebene 1503
i 1497
Verordnung 1488
geben 1488
ihr 1487
Grundlage 1483
Artikel 1480
Menschenrechte 1479
f@@ 1479
sch@@ 1475
Er@@ 1471
deren 1471
Gerichtshof 1470
t@@ 1469
stehen 1468
europäische 1466
Ländern 1465
gegenüber 1461
ersten 1459
wollen 1459
weitere 1455
Kroatien 1454
Informationen 1449
möglich 1445
3 1443
C@@ 1429
steht 1429
bringen 1423
V@@ 1421
e@@ 1417
ent@@ 1417
kommen 1417
weiter 1416
Land 1414
Beziehungen 1411
Und 1409
sagen 1405
Ziele 1403
wieder 1401
Recht 1398
bin 1384
wichtig 1382
Abkommen 1371
Rechts@@ 1370
einige 1370
z@@ 1368
nehmen 1365
lich 1363
über@@ 1363
J@@ 1359
EN@@ 1353
allem 1353
letzten 1353
stellt 1351
Stabilisierungs- 1345
Aus@@ 1341
Schutz 1337
mir 1333
Erweiterung 1332
Welt 1329
f 1328
Wirtschaft 1327
Eine 1318
Vorschläge 1317
r@@ 1316
selbst 1314
wirtschaftlichen 1313
beim 1305
denn 1299
nahm 1298
Hinblick 1296
schon 1293
Ein 1286
Fortschritte 1285
Sch@@ 1284
meine 1278
Region 1271
gemeinsame 1271
o 1271
unseren 1269
drei 1267
DE 1264
Weg 1263
“ 1263
assoziierten 1261
Wie 1260
Für 1258
aller 1255
ge 1254
in@@ 1251
Verfahren 1246
dabei 1243
Mittel 1242
Fall 1241
ST@@ 1238
lassen 1238
Entscheidung 1231
Bemühungen 1230
m@@ 1230
darüber 1224
Nach 1221
r 1216
ende 1214
seit 1211
wäre 1207
U@@ 1202
ch@@ 1201
Behörden 1200
Europas 1198
ab 1198
finden 1195
b@@ 1193
Parteien 1192
fest 1190
sten 1190
führen 1189
Dialog 1188
Ende 1188
tun 1185
st@@ 1183
Was 1182
sollen 1181
begrüßt 1177
nun 1177
Mitglied 1172
besteht 1172
innerhalb 1172
angenommen 1171
al@@ 1168
ens 1168
sowohl 1165
Anwendung 1163
Thema 1163
Mazedonien 1160
Lösung 1159
Ihre 1154
ehemalige 1153
eren 1145
beiden 1141
UNION 1136
Teil 1130
zwar 1126
viel 1122
Beitrag 1118
Probleme 1116
Weise 1112
um@@ 1112
fordert 1111
unterstützt 1109
unter@@ 1099
Auffassung 1097
Euro 1097
AN@@ 1096
nimmt 1095
viele 1093
könnte 1092
Wirtschaftsraum 1089
hatte 1089
EFTA-Länder 1085
jugoslawische 1084
während 1084
daran 1082
Aber 1078
Verbesserung 1078
doch 1077
Hilfe 1076
Reform 1073
Aussprache 1069
Durchführung 1067
re@@ 1067
+ 1066
Bereichen 1063
Grund@@ 1063
öffentlichen 1062
auswärtige 1060
EUROPÄISCHEN 1058
UND 1055
Interesse 1054
seinen 1053
is@@ 1047
Rechte 1045
Programm 1043
also 1041
nächsten 1040
Zugang 1038
ihnen 1038
Standpunkt 1037
angehörenden 1036
sozialen 1034
Vertreter 1032
Bewerberländer 1027
Demokratie 1020
tragen 1019
große 1018
regionalen 1016
2000 1011
Tagung 1008
Strategie 1007
4 1004
Möglichkeit 1004
davon 1003
Ausschuss 1002
ER 1000
hin 999
einmal 996
ern 996
ts 994
verschiedenen 993
3@@ 991
A 991
Bekämpfung 991
prozesses 990
Ü@@ 986
EU@@ 985
Beschäftigung 984
Auswirkungen 983
Auf 976
erhalten 976
nämlich 976
u@@ 971
gilt 970
Mitteilung 969
l@@ 969
teil 968
welche 968
Bei 967
Zu@@ 962
erforderlich 960
tes 960
fördern 959
Zypern 958
RAT 956
l 956
gehen 954
Finanz@@ 953
Ausdruck 952
Wahlen 950
Kollegen 949
wissen 948
Mitglieder 947
Wirtschafts@@ 947
sei 947
Problem 944
bereit 944
Bestimmungen 942
o@@ 942
Nationen 937
liegt 935
Ä@@ 933
meiner 928
Art 926
ere 924
Vertrag 922
el@@ 920
gut 919
0,@@ 915
ferner 915
k 914
arbeiten 913
schaffen 913
Auch 908
wo 906
Situation 903
Schaffung 901
etwas 896
brauchen 891
5 890
kein 889
AL@@ 888
Bevölkerung 887
Un@@ 887
a@@ 885
Vorsitz 884
besonders 884
Ansicht 879
Bedingungen 879
Personen 878
großen 877
EL@@ 876
erneut 876
Ausschusses 875
d 870
m 866
Frieden 865
unser 864
g 862
gemacht 861
de@@ 860
erste 860
darin 859
Institutionen 858
ar@@ 857
i@@ 856
dessen 855
einschließlich 854
licher 854
Agrar@@ 853
CH@@ 853
Regierungen 851
kommt 851
EI@@ 846
fragen 846
solche 845
Ergebnisse 844
ste 844
wichtige 844
6 843
Bezug 841
Gesellschaft 840
erreichen 840
Herren 833
hinsichtlich 830
Frauen 829
nach@@ 829
UN@@ 828
7 826
Island 824
darf 822
Gemeinsamen 821
Vereinten 820
recht 820
ländlichen 818
IN@@ 817
maßnahmen 817
ti@@ 817
werde 816
Verantwortung 815
Arbeits@@ 813
ung@@ 813
Daten 812
Dieser 811
Deutschland 810
Gemeinschafts@@ 810
betrifft 810
ger 809
Rechtsvorschriften 808
gemeinsam 808
Damen 807
einzelnen 806
wirklich 804
Vereinigten 802
di@@ 802
klar 802
Umwelt 801
alles 801
... 799
Brüssel 798
hinaus 795
dürfen 794
halten 794
natürlich 793
sk@@ 793
weiteren 793
wirtschaftliche 792
Verpflichtungen 791
sehen 789
Schritt 787
ja 787
Tag 786
Debatte 785
Einklang 784
AR@@ 783
einigen 781
I 779
Konferenz 779
Assoziierungsprozess 778
vertreten 778
Kommissar 777
aufgrund 777
St@@ 775
chen 775
folgende 775
AdR 774
Deshalb 774
erreicht 772
prüfen 771
Delegation 770
8 767
Stabilität 767
h@@ 766
ihrem 766
Seiten 765
ber@@ 762
Wahl@@ 759
ale 757
Gebiet 756
kon@@ 756
Krise 755
gestellt 755
Reihe 754
Ukraine 751
genommen 751
10 749
IT@@ 749
VER@@ 749
ebenfalls 749
könnten 748
In@@ 747
Staatssekretär 747
Um@@ 747
Norwegen 744
Regelung 744
end 743
leisten 743
Aufgabe 742
SCH@@ 742
Haushalts@@ 741
demokratischen 741
Seite 739
ber 739
deshalb 739
on@@ 739
Jahres 738
Meinung 738
EUROSTAT 737
cht@@ 737
Handel 736
beitragen 735
glaube 735
handelt 734
soziale 734
tige 734
gewährleisten 733
Änderung 733
Forschung 732
Millionen 732
bekräftigt 731
lokalen 730
2015 729
Initiative 729
Integration 729
Verfügung 728
Abstimmung 727
Industrie 727
gen@@ 727
deutlich 726
Präsidentschaft 725
Auf@@ 724
genannten 724
Über@@ 724
Y@@ 722
folgt 721
gesagt 721
würden 719
Bildung 717
ES 716
Wettbewerbsfähigkeit 716
p@@ 716
besser 715
bestimmte 714
v@@ 714
Ent@@ 713
b 713
ischer 712
te@@ 712
gesamten 711
politik 711
u 711
Notwendigkeit 710
Vorschriften 710
at 710
bar 710
es@@ 710
geführt 710
Anstrengungen 709
DIE 708
wobei 708
Als 707
wichtigen 707
Mitgliedstaat 705
will 705
System 702
bereich 702
Ausschuß 701
j@@ 701
le@@ 700
Finanzen 699
S 699
Schlussfolgerungen 699
ange@@ 696
verbessern 696
indem 695
nationale 695
Beispiel 693
N 692
Herausforderungen 691
notwendig 691
Abkommens 690
Markt@@ 690
li@@ 688
Einführung 687
Präsidenten 686
bietet 686
setzen 685
Wachstum 683
festgelegt 683
Malta 682
Form 681
der@@ 680
ihm 680
Punkt 679
ert 679
Ge@@ 678
or@@ 678
tigen 678
weniger 678
ä@@ 678
Montenegro 675
SP@@ 675
la@@ 675
folgenden 674
eigenen 672
as 670
0 669
Arbeiten 669
Sonder@@ 669
Einigung 667
gemäß 667
internationale 667
y@@ 667
Möglichkeiten 666
Verwendung 665
sieht 664
Kosten 662
bedeutet 662
bezug 662
Beitritt 661
ri@@ 661
ruft 661
Reformen 659
Fischerei 658
Gericht 657
Fraktion 656
vorgesehen 655
AT@@ 654
So 653
mittel- 653
Friedens@@ 651
jeder 651
Al@@ 650
Haupt@@ 650
derzeit 650
verfahren 650
Koordinierung 649
erzielt 649
Binnenmarkt 648
voll 648
Da 646
Entwurf 646
2006 645
bleiben 645
Dezember 644
zusammen 643
IG@@ 641
Verbraucher 641
keinen 641
Vertrags 640
zweiten 639
Herzegowina 637
Medien 635
at@@ 635
ur@@ 635
Öffentlichkeit 635
betreffend 634
9 633
Stärkung 632
her@@ 632
4@@ 631
z 631
Um 630
elle 629
gerade 629
Dieses 628
Albanien 627
Gelegenheit 627
Gesundheit 627
CO@@ 625
OR@@ 625
Liechtenstein 624
Beratungen 623
Investitionen 623
Zeitpunkt 623
Agrarpolitik 622
all 622
1999 621
Rechnung 621
Unter@@ 621
ellen 621
Euroraum 620
anzu@@ 620
bestimmten 620
Erfolg 619
Königreich 619
st 619
28 618
Aspekte 618
Berichterstatter 617
Prozess 617
Sinne 615
betreffenden 615
nutzen 615
Verkehr 614
au@@ 614
Gruppe 613
Regeln 613
ermöglichen 613
Initiativen 612
K 612
Ministerin 612
Staats@@ 612
Außerdem 611
Grund 611
gebracht 611
ger@@ 611
osteuropäischen 611
ziehen 611
Themen 609
Bulgarien 608
Stellungnahme 608
bzw. 607
ter@@ 607
20 604
Annahme 604
fen 604
si@@ 604
Re@@ 603
UNGEN 603
Wege 603
Zur 603
unternehmen 603
Transparenz 602
bieten 602
Mehrheit 600
dar 600
Rumänien 599
Entscheidungen 598
einfach 598
ni@@ 598
Bosnien 596
L 596
bestehenden 596
ser@@ 596
am@@ 595
zi@@ 595
zusammen@@ 595
Markt 594
bei@@ 594
macht 594
Ergebnis 593
zurück@@ 593
beispielsweise 592
n 592
weit 592
Rück@@ 591
isch 591
Schlußfolgerungen 590
Website 590
Leitlinien 589
erst 589
Qualität 588
et@@ 588
15 587
Dienstleistungen 587
Dialogs 586
Kontrolle 586
M 586
Sorge 586
genau 585
ation 584
den@@ 584
führt 583
vorgelegt 582
Aus 581
nichts 581
Interessen 580
Serbien 580
seinem 580
sprechen 578
Übereinkommen 578
6@@ 577
öffentliche 577
etwa 576
Grundsätze 575
ch 575
gegeben 575
vielen 575
Zu 574
Partnerschaft 573
Sicherheits@@ 573
darum 573
w@@ 573
EL 571
derzeitigen 571
sorgen 571
Präsidentin 570
Programme 569
angesichts 569
europäischer 569
gehört 569
hoffe 568
000 565
a-@@ 565
EH@@ 564
sogar 564
einzu@@ 563
Unsere 562
bleibt 561
künftigen 559
Juni 558
Leben 558
O 558
Organisationen 557
RA@@ 557
treten 555
system 554
28@@ 553
Agenda 553
sicher 553
Entwicklungen 552
Landes 552
DES 551
2007 550
C-@@ 550
LI@@ 550
allgemeinen 550
1996 549
bald 549
lage 549
Justiz 548
Steuer@@ 548
gleichzeitig 548
liches 547
spielen 547
Kriterien 546
it@@ 545
1997 544
dort 544
liegen 544
Finanzierung 543
IN 543
erster 543
ins 543
12 542
Assoziierungs@@ 542
BER@@ 542
vier 542
EG@@ 541
wichtigsten 541
Einsatz 540
Gewalt 539
ler 538
se 538
2010 537
G 537
is 537
vorgeschlagen 537
unserem 536
regionale 535
C 534
Entschließung 534
Sozial@@ 534
erforderlichen 534
stand 534
Abgeordneten 533
Vielfalt 532
durch@@ 532
ihn 532
jüngsten 532
Gebietskörperschaften 531
se@@ 531
alen 530
Nutzung 529
gute 529
ED@@ 528
Kon@@ 528
Vereinbarung 527
hin@@ 527
Gesamt@@ 526
Prioritäten 526
außerdem 526
nachdrücklich 526
betont 525
land 525
Delegationen 524
EIN@@ 524
em 524
Daher 521
Richtung 521
zuständigen 521
32 520
jeden 520
Beschluß 519
Zahl 519
enthalten 519
legen 519
Meine 518
treffen 518
Frankreich 517
IS@@ 517
Todesstrafe 517
fünf 517
30 516
Berücksichtigung 516
det 516
Anerkennung 515
Beschluss 515
Beteiligung 515
USA 515
finanziellen 515
Achtung 514
DEN 514
Monaten 514
besch@@ 514
erte 514
leben 513
ne 513
P 512
Polen 512
solchen 512
2002 511
Information 511
iert 511
rei@@ 511
chten 510
mittel 510
sp@@ 510
führung 509
le 509
Aufgaben 508
and 508
ö@@ 508
Presse 506
Verwaltungs@@ 505
ak@@ 505
bitte 504
Prüfung 503
allerdings 502
gt 502
neuer 502
sen 502
wegen 502
ender 501
gleichen 500
somit 500
statt 500
Kultur 499
Verwaltung 499
.@@ 498
bessere 498
beschlossen 497
entwickeln 497
Antwort 496
Terrorismus 496
ten@@ 496
ß@@ 496
Gemeinschaften 495
Land@@ 495
anderer 495
fest@@ 495
genden 495
hätte 493
Damit 492
erung 492
hatten 492
ersucht 491
prozess 491
zweite 490
Absatz 489
bestehen 489
R 488
Ungarn 488
ben 488
lichkeit 488
Gemeinschaft@@ 487
Wirtschafts- 487
aufgenommen 487
dern 487
ihres 487
bringt 486
25 485
RO@@ 485
je 485
ko@@ 485
tig 485
Aufmerksamkeit 484
Programms 484
Solidarität 484
Spanien 484
erklärt 484
ken 484
Grenzen 483
Ort 483
D 482
Freiheit 481
Kinder 481
heißt 481
Bundes@@ 480
Gebieten 480
Hier 480
5@@ 479
Beihilfen 479
stärker 479
vergangenen 479
Ferner 478
enthält 478
2005 477
Bürgern 477
che 477
Festlegung 476
denke 476
AB@@ 475
Menschenrechts@@ 475
al 475
besondere 475
potenziellen 475
Handels@@ 474
Ihrer 474
tern 474
Liste 473
et 473
lo@@ 473
weiß 473
E-@@ 471
gelten 471
insgesamt 471
on 471
Empfehlungen 470
Erfahrungen 470
dar@@ 470
19 469
Oktober 469
anderem 469
nachhaltige 469
weist 469
Ministerium 468
auszu@@ 468
betroffenen 468
helfen 468
Arbeitnehmer 467
Instrumente 467
berücksichtigen 467
2001 466
durchgeführt 466
mit@@ 466
verpflichtet 466
Drittländern 465
Durch 465
Dank 464
nen 464
of 464
schen 464
kommenden 463
Ansatz 462
LA@@ 462
gel@@ 462
ra@@ 462
sche 462
2004 461
c@@ 461
entsprechenden 461
gleich@@ 461
Text 460
Umfang 460
appelliert 460
ck@@ 460
einge@@ 460
sicherzustellen 460
Fischerei@@ 459
Urteil 459
Geschichte 458
Änderungen 458
Alle 457
ON@@ 457
geschaffen 457
Stand 456
besorgt 456
ie 456
rasch 456
Aktionen 455
Diskussion 455
Tatsache 455
erten 455
sektor 455
zehn 455
Entwicklungs@@ 454
Irland 454
gs 454
tigung 454
ts@@ 454
Energie 453
September 453
ationen 453
heutigen 453
zen 453
Italien 452
großer 452
stellte 452
98 451
Zum 451
Übereinkommens 451
50 450
Bereiche 450
ieren 450
rechts 450
unseres 450
wider@@ 450
baren 449
prozeß 449
übrigen 449
11 448
EWG 448
bare 448
erungs@@ 448
h 448
Zoll@@ 447
berücksichtigt 447
EG 446
ET@@ 446
Einhaltung 446
ei@@ 446
ermöglicht 446
Berichts 445
China 445
Europ@@ 445
aler 445
ebenso 445
Umwelt@@ 444
gi@@ 444
meisten 444
Griechenland 443
Lösungen 443
Russland 443
programm 443
wichtiger 443
cht 442
op@@ 442
th@@ 442
veröffentlicht 442
Internationalen 441
Voraussetzungen 440
jedes 440
Punkte 439
zeigt 439
bisher 438
dringend 438
ierten 438
1,@@ 437
beide 437
weisen 437
Stelle 436
ß 436
B 435
Grundsatz 435
Verpflichtung 435
Verwirklichung 435
findet 435
konnte 435
p 435
Januar 434
Kolleginnen 434
Ständigen 434
Wettbewerb 434
ations@@ 434
ländliche 434
stärken 434
tatsächlich 434
ES@@ 433
sa@@ 433
systeme 433
vorlegen 433
Ihr 432
Kraft 432
Recht@@ 432
V 432
nationaler 432
Gemeinsame 431
eln 431
verfolgt 431
zeigen 431
SA@@ 430
ers 430
technischen 430
Produkte 429
Vertrauen 429
dadurch 429
Neu@@ 428
entsprechend 428
ergreifen 428
verfolgen 428
1998 427
Landwirte 427
Lettland 427
Vor 427
Zweck 427
Besorgnis 426
II 426
Moldau 426
men 426
Hinsicht 425
bel@@ 425
Engagement 424
Produktion 424
Vorbereitung 424
konkrete 424
2014 423
Reform@@ 423
Ressourcen 423
los 423
verkehr 423
2@@ 422
Lissabon 422
November 422
Raum 422
Mit@@ 421
darstellt 421
schaft 421
so@@ 421
2003 420
Mar@@ 420
Zeitraum 420
Gefahr 419
Wort 419
möchten 419
Hotel 418
Schritte 418
hält 418
lange 418
schließlich 418
vielleicht 418
PUNKTE 417
Schließlich 417
Übergangs@@ 417
März 416
wesentlichen 416
programme 415
Lassen 414
Organisation 414
Werte 414
Z 414
fort@@ 414
heit 414
ff@@ 413
ing@@ 413
Beschlüsse 412
Dabei 412
möglichst 412
Ö@@ 412
Welt@@ 411
ag@@ 411
besten 411
freien 411
Projekte 410
schnell 410
umfassenden 410
Einrichtung 409
Unions@@ 409
mu@@ 409
voll@@ 409
Verhandlungs@@ 408
verurteilt 408
Litauen 407
Überwachung 407
Gründen 406
gemeinschaftlichen 406
zunächst 406
Änderungsantrag 406
gende 405
ro@@ 405
Darüber 404
gung 404
jedem 404
ta@@ 404
umgesetzt 404
Abschluß 403
Anfang 403
Forschungs@@ 403
IL@@ 403
künftige 403
len 403
8@@ 402
Beginn 402
Zusammen@@ 402
allein 402
em@@ 402
Juli 401
vorgeschlagenen 401
Bewertung 400
Einzel@@ 400
danken 400
Aufnahme 399
Di@@ 399
dung 399
ek@@ 399
gesamte 399
Ex@@ 398
jeweiligen 398
kleinen 398
regelung 398
Partner 397
gern 397
1995 396
bezüglich 396
chte 396
eller 396
fuer 396
rechtlichen 396
weltweit 396
Tschechische 395
geschlossen 395
jede 395
meinen 395
men@@ 395
setzt 394
zuständig 394
Ausgaben 393
sin@@ 393
wirken 393
Erklärungen 392
Folgen 392
Gebiete 392
Instrument 392
us@@ 392
9@@ 391
AM@@ 391
gab 391
politischer 391
Projekt 390
UR@@ 390
cher 390
ist@@ 390
lagen 390
wenig 390
Gegen@@ 389
Maßnahme 389
Praxis 389
getan 389
mehrere 389
sechs 389
äußerst 389
DER@@ 388
Konzept 388
Behandlung 387
Israel 387
oft 387
Slowenien 386
gehören 386
haltung 386
technische 386
wieder@@ 386
eingesetzt 385
Iran 384
Lesung 384
Tagesordnung 384
ke 384
tiger 384
völlig 384
7@@ 383
Schweden 383
el 383
freiheit 383
gesetzt 383
ol@@ 383
Luxemburg 382
humanitären 382
inter@@ 382
tischen 382
Am 381
Gruppen 381
Politiken 381
finanzielle 380
fortzusetzen 380
lan@@ 380
y 380
AUS@@ 379
Amt 379
Kooperations@@ 379
Tätigkeit 379
hr@@ 379
Erzeugnisse 378
Uhr 378
besonderen 378
fast 378
gerecht 378
wohl 378
18 377
Dokument 377
Höhe 377
Mai 377
OL@@ 377
SE 377
getroffen 377
ze 377
ü@@ 377
13 376
Schwierigkeiten 376
vorgesehenen 376
ausge@@ 375
cher@@ 375
gelegt 375
aktiv 374
pro 374
stehenden 374
trägt 374
Aktivitäten 373
Anpassung 373
aten 373
humanitäre 373
diejenigen 372
the 372
Antrag 371
Sache 371
erfüllen 371
ungs- 371
Österreich 371
Aktionsplan 370
BR@@ 370
Von 370
ierung 370
Kampf 369
Mal 369
TER@@ 369
halte 369
hätten 369
richtig 369
tet 369
weder 369
Einvernehmen 368
Fällen 368
ir@@ 368
os 368
Verfassung 367
aufzunehmen 367
or 367
ul@@ 367
ENT@@ 366
Hand 366
TE 366
frei 366
tig@@ 366
wer@@ 366
Euro@@ 365
TEN 365
ums 365
vorzulegen 365
Beschäftigungs@@ 364
Bo@@ 364
Haus 364
Kunden 364
eb@@ 364
Ausarbeitung 363
GASP 363
Tätigkeiten 363
behandelt 363
mi@@ 363
überzeugt 363
entwickelt 362
staaten 362
stellung 362
vorschriften 362
weiter@@ 362
Ar@@ 361
Belarus 361
Kommissarin 361
Osten 361
Änderungsanträge 361
Einrichtungen 360
GAP 360
teilen 360
Gesundheits@@ 359
Informations@@ 359
Inhalt 359
gewährleistet 359
neu 359
c 358
erfüllt 358
ene 357
erleichtern 357
Überprüfung 357
Linie 356
Struktur@@ 356
bilden 356
erinnert 356
Phase 355
Sektor 355
notwendigen 355
tz@@ 355
Rechtsstaatlichkeit 354
gegebenenfalls 354
BIP 353
KMU 353
darstellen 353
konnten 353
umfassende 353
Dimension 352
US@@ 352
direkt 352
Estland 351
Ihren 351
Kommissions@@ 351
tre@@ 351
verhindern 351
verwendet 351
Absicht 350
alisierung 350
aufzu@@ 350
hervor 350
to 350
verbessert 350
gleich 349
handeln 349
kulturellen 349
-S@@ 348
Anforderungen 348
betreffen 348
eg@@ 348
mer 348
sen@@ 348
Inter@@ 347
Internet 347
all@@ 347
ens@@ 347
kte 347
MO@@ 346
Wahl 346
Wunsch 346
meinem 346
spezifischen 346
Nach@@ 345
Woche 345
gten 345
ma@@ 345
Voll@@ 344
entscheiden 344
hohen 344
Arbeit@@ 343
Berichte 343
Hohen 343
Ma@@ 343
me 343
Einbeziehung 342
Geld 342
ft 342
2008 341
Beteiligten 341
ISCH@@ 341
ach@@ 341
allgemeine 341
enn@@ 341
unverzüglich 341
Energi@@ 340
GEMEIN@@ 340
Georgien 340
Kern@@ 340
Ro@@ 340
abzu@@ 340
nachhaltigen 340
Opfer 339
Pro@@ 339
Staat 339
· 339
AU@@ 338
VN-@@ 338
ausschusses 338
bedarf 338
0@@ 337
Blick 337
Jugoslawien 337
Verbindung 337
be 337
ges@@ 337
Abschluss 336
Kultur@@ 336
Regelungen 336
lediglich 336
nahme 336
14 335
Dienste 335
General@@ 335
Sicht 335
UNG@@ 335
Vertragsparteien 335
eindeutig 335
laufenden 335
Gipfel 334
Strukturfonds 334
ar 334
bestätigt 334
gefunden 334
ierte 334
tr@@ 334
tungs@@ 334
Arbeitsplätze 333
Charta 333
RE@@ 333
ausschuß 333
einschlägigen 333
geworden 333
morgen 333
Anhang 332
Beitritts@@ 332
Stadt 332
Treffen 332
bestimmter 332
staatliche 332
su@@ 332
1994 331
größere 331
lässt 331
EB@@ 330
Erachtens 330
da@@ 330
hingewiesen 330
Bereitschaft 329
Dänemark 329
IC@@ 329
Unser 329
Vereinfachung 329
and@@ 329
bi@@ 329
geb@@ 329
kurz 329
nunmehr 329
stark 329
stimmen 329
April 328
Belgien 328
kan@@ 328
la 328
positive 328
verschiedene 328
F 327
Zweitens 327
begrüßen 327
freie 327
2009 326
Aktion 326
EV@@ 326
aufge@@ 326
befindet 326
danke 326
fe 326
gekommen 326
internationaler 326
strategie 326
CH 325
Man 325
Wochen 325
e-@@ 325
eh@@ 325
Abschaffung 324
Grundrechte 324
Konflikt 324
abgeschlossen 324
guten 324
ländern 324
schafts@@ 324
to@@ 324
Ausbau 323
DI@@ 323
En@@ 323
Lebens@@ 323
Preise 323
Stellen 323
Verkehrs@@ 323
alität 323
aufmerksam 323
entsprechende 323
spricht 323
tische 323
& 322
EM@@ 322
FÜR 322
Gas@@ 322
Mitteln 322
Prozeß 322
Prä@@ 322
bekannt 322
minister 322
pro@@ 322
Minister@@ 321
Protokoll 321
Sitzung 321
ativen 321
bericht 321
entschieden 321
staatlichen 321
Den 320
Doch 320
Erfahrung 320
Wahrung 320
man@@ 320
Zeit@@ 319
en-@@ 319
enen 319
ften 319
getragen 319
Lo@@ 318
Mo@@ 318
Zustimmung 318
dienste 318
est@@ 318
ganzen 318
nie 318
stelle 318
Monate 317
bek@@ 317
kten 317
möglichen 317
nis 317
übernehmen 317
Grenz@@ 316
Ist 316
Nur 316
Schutz@@ 316
außerhalb 316
geleistet 316
mittel@@ 316
Kommunikation 315
alten 315
freue 315
gefördert 315
positiven 315
Ausbildung 314
Sprache 314
Systems 314
Verringerung 314
anbelangt 314
chen@@ 314
gruppe 314
institutionellen 314
CHT 313
Drogen@@ 313
befinden 313
erfolgreich 313
weit@@ 313
á@@ 313
AS@@ 312
Her@@ 312
Rede 312
einsetzen 312
lösen 312
w 312
Armut 311
Hoffnung 311
Märkte 311
Selbst@@ 311
achten 311
anischen 311
zurück 311
AN 310
Denn 310
Empfehlung 310
HR@@ 310
Niederlande 310
Slowakei 310
To@@ 310
Willen 310
erfolgen 310
är@@ 310
Richtlinien 309
Volk 309
frage 309
fähigkeit 309
spolitik 309
später 309
wei@@ 309
10@@ 308
erzielen 308
hal@@ 308
lungs@@ 308
tung 308
unternommen 308
wenden 308
Nutzen 307
Vorteile 307
Währung 307
vi@@ 307
Chance 306
Haushalt 306
Vereinbarungen 306
länder 306
[ 305
erwartet 305
fordern 305
nahmen 305
sagte 305
ster 305
uneingeschränkt 305
Mittel@@ 304
Nicht@@ 304
Rats@@ 304
legt 304
Quartal 303
] 303
demokratische 303
möglichkeiten 303
ASS@@ 302
Falle 302
Herausforderung 302
Kosovo 302
Stimme 302
eingehen 302
festgestellt 302
isches 302
16 301
Finnland 301
IM 301
Zielen 301
sicherheit 301
EK@@ 300
IS 300
Priorität 300
chtung 300
geprüft 300
inner@@ 300
1@@ 299
26 299
40 299
Aufbau 299
ECU 299
hören 299
versuchen 299
vorliegenden 299
vorschläge 299
zeit@@ 299
Fonds 298
Ko@@ 298
Vergangenheit 298
fte 298
2011 297
ELL@@ 297
ION@@ 297
Vorhaben 297
bar@@ 297
deutschen 297
dritten 297
me@@ 297
seines 297
stattfinden 297
bekommen 296
entspricht 296
erinnern 296
fallen 296
ob@@ 296
ran@@ 296
satz 296
CHE 295
Haltung 295
abge@@ 295
größte 295
recht@@ 295
wesentliche 295
Februar 294
Rechts 294
Vorschlägen 294
gefordert 294
ne@@ 294
verbunden 294
Bau@@ 293
Dinge 293
IK@@ 293
T-@@ 293
Unter 293
führte 293
gezeigt 293
hofft 293
ier@@ 293
tem 293
wesentlich 293
‑ 293
100 292
= 292
Effizienz 292
Teilnahme 292
beteiligen 292
meines 292
qu@@ 292
verfügen 292
verstärken 292
Diskriminierung 291
Prozesses 291
WTO-@@ 291
Zivilgesellschaft 291
bau@@ 291
besseren 291
gemeinschaft 291
it 291
tenden 291
ändern 291
TS@@ 290
Waren 290
leider 290
2016 289
Heute 289
Innovation 289
Position 289
geltenden 289
iger 289
klare 289
und@@ 289
Beschlusses 288
Erhaltung 288
Fach@@ 288
Tat 288
einiger 288
esischen 288
ru@@ 288
verabschiedet 288
Bildungs@@ 287
EUROPÄISCH@@ 287
Globalisierung 287
eigentlich 287
eingeführt 287
gesch@@ 287
ie@@ 287
künftig 287
obwohl 287
par@@ 287
stell@@ 287
systems 287
OS@@ 286
Regional@@ 286
Seit 286
per 286
27 285
Afrika 285
FT@@ 285
einzige 285
gegenwärtigen 285
sch 285
stre@@ 285
v 285
weise 285
Angesichts 284
EF@@ 284
einerseits 284
offenen 284
sicherung 284
Analyse 283
Preis@@ 283
gestimmt 283
ing 283
zusätzliche 283
Euro-@@ 282
il@@ 282
mein 282
trag@@ 282
verstehen 282
verstärkt 282
wesen 282
Hintergrund 281
Strukturen 281
dienen 281
ganze 281
gewesen 281
soweit 281
Bürger@@ 280
Portugal 280
Rechtssache 280
as@@ 280
bedingungen 280
beteiligt 280
ep@@ 280
mindestens 280
tigt 280
warum 280
AUF 279
Energie@@ 279
Mitgliedern 279
Zuständigkeit 279
ehemaligen 279
entwurf 279
gesehen 279
konkreten 279
X@@ 278
bestimmt 278
erwarten 278
fr 278
teten 278
tungen 278
unterbreiten 278
æ@@ 278
überein 278
Vorschlags 277
barkeit 277
form@@ 277
ität 277
lung 277
neues 277
seien 277
vertre@@ 277
EWR-@@ 276
Entschlossenheit 276
Raums 276
ben@@ 276
ern@@ 276
globalen 276
zugunsten 276
Armenien 275
Bundesrepublik 275
De@@ 275
Preis 275
TEILNEHMER 275
Veränderungen 275
Wieder@@ 275
entschlossen 275
regionaler 275
staat 275
Anzahl 274
EIT 274
erungen 274
gemein@@ 274
raums 274
sh@@ 274
Maße 273
Vorgehen 273
folgen 273
gar 273
suchen 273
volle 273
Genugtuung 272
Geschäfts@@ 272
Liberalisierung 272
Mindest@@ 272
Mon@@ 272
Ru@@ 272
gerne 272
hohe 272
ordnung 272
solcher 272
träge 272
vermeiden 272
vollem 272
wären 272
Person 271
Rahmen@@ 271
bes@@ 271
erfolgt 271
fa@@ 271
gelangen 271
gestalten 271
kam 271
lei@@ 271
spezifische 271
tlich 271
ungser@@ 271
verkehrs 271
Anliegen 270
ST 270
VON 270
ati@@ 270
ation@@ 270
begrüßte 270
erkennen 270
festgelegten 270
offen 270
streit 270
trotz 270
unterschiedlichen 270
97 269
Druck 269
Medien@@ 269
Organe 269
Verbraucher@@ 269
geh@@ 269
pf@@ 269
stra@@ 269
tiges 269
zumindest 269
Austausch 268
BESCH@@ 268
Binnenmarktes 268
OM@@ 268
Sp@@ 268
Status 268
eigene 268
eri@@ 268
kleine 268
ständigen 268
unver@@ 268
vergessen 268
15@@ 267
Fahr@@ 267
Volks@@ 267
Wohlstand 267
unmittelbar 267
Ausführungen 266
Familie 266
Gleichzeitig 266
Le@@ 266
Natürlich 266
Voraussetzung 266
Wirkung 266
bewusst 266
denken 266
geeignete 266
gewährt 266
legung 266
letzte 266
schützen 266
verfahrens 266
AND@@ 265
Anteil 265
Bestandteil 265
Mehr@@ 265
Mission 265
TA@@ 265
gegen@@ 265
gleiche 265
innen 265
jährlich 265
teil@@ 265
wirtschaft 265
Einige 264
FISCH@@ 264
Gründe 264
Tel 264
Verbreitung 264
Völker@@ 264
ad@@ 264
begrüße 264
bildung 264
braucht 264
lag 264
positiv 264
privaten 264
prä@@ 264
t-@@ 264
vollständig 264
Kongo 263
P-@@ 263
Rußland 263
ker 263
kl@@ 263
konferenz 263
laufen 263
richtige 263
umzusetzen 263
unbedingt 263
é@@ 263
Angaben 262
R-@@ 262
Verbot 262
bau 262
enz@@ 262
zahlreichen 262
Überzeugung 262
Städte 261
Tage 261
Vertretern 261
alismus 261
gestiegen 261
ständig 261
us 261
vollen 261
Dazu 260
Folge 260
Kopenhagen 260
La@@ 260
Milliarden 260
miteinander 260
Berufs@@ 259
Normen 259
Privat@@ 259
Technologien 259
bevor 259
digen 259
greifen 259
scheint 259
Ernährung 258
Ohne 258
Se@@ 258
Unabhängigkeit 258
Verfahrens 258
du 258
for@@ 258
gruppen 258
teile 258
we@@ 258
21 257
Erfüllung 257
Stellung 257
TR@@ 257
Wert 257
andererseits 257
gesprochen 257
programms 257
Auslegung 256
Zweifel 256
ell@@ 256
entsprechen 256
erfordert 256
lang 256
z.B. 256
18@@ 255
Hin@@ 255
UM@@ 255
abkommen 255
abrufbar 255
betrachtet 255
bo@@ 255
chung 255
ehr@@ 255
sektors 255
stands 255
Überlegungen 255
AS 254
Ad@@ 254
Bel@@ 254
Europäer 254
Gen@@ 254
Informationsgesellschaft 254
Meeres@@ 254
Tagen 254
beginnen 254
min@@ 254
selbstverständlich 254
stets 254
zahlreiche 254
AG@@ 253
Erstens 253
Formen 253
KOMM@@ 253
Kar@@ 253
MIT@@ 253
SO@@ 253
West@@ 253
anhand 253
erk@@ 253
for 253
regeln 253
x 253
ø@@ 253
Assoziationsrat 252
Flexibilität 252
GER@@ 252
Zusammenhalt 252
angemessene 252
diskutieren 252
eher 252
lebens@@ 252
rechte 252
zeit 252
Angelegenheit 251
EU-Mitgliedstaaten 251
GR@@ 251
Produktions@@ 251
SI@@ 251
Völker 251
WTO 251
bedauert 251
bil@@ 251
endgültigen 251
ismus 251
lungen 251
mo@@ 251
re 251
sicherlich 251
sprach@@ 251
statistischen 251
wies 251
wonach 251
Arbeitslosigkeit 250
Besch@@ 250
Entwicklungsländern 250
Harmonisierung 250
KL@@ 250
schlagen 250
sofern 250
tieren 250
u. 250
zentr@@ 250
Angebot 249
Handeln 249
UR 249
fonds 249
ien 249
mögliche 249
17 248
Diskussionen 248
Kommissionsmitglied 248
Partnern 248
Tagungen 248
bemühen 248
lich@@ 248
markt 248
schutz 248
ör@@ 248
13@@ 247
Aspekt 247
Entlastung 247
FOL@@ 247
Kontakt 247
Konvent 247
Standards 247
enger 247
ergriffen 247
erhöhen 247
ha@@ 247
sti@@ 247
Rechtsakte 246
Wirtschaft@@ 246
eng 246
größten 246
mal 246
po@@ 246
wirtschaftlicher 246
Aussöhnung 245
Gerichtshofs 245
Gespräche 245
Groß@@ 245
Nahen 245
fällt 245
gezogen 245
her 245
mon@@ 245
tritt 245
Anspruch 244
Inkrafttreten 244
LICH@@ 244
Schlüssel@@ 244
Y 244
eng@@ 244
ersuchte 244
lernen 244
mehreren 244
tionen 244
weiterer 244
Me@@ 243
betonen 243
ell 243
gend 243
hei@@ 243
ig@@ 243
nächste 243
schutz@@ 243
tiert 243
12@@ 242
Amsterdam 242
Chancengleichheit 242
Demokratischen 242
Unterzeichnung 242
Wien 242
einheitlichen 242
endes 242
erklärte 242
gek@@ 242
gel 242
geändert 242
konzentrieren 242
kün@@ 242
preise 242
zusammenarbeiten 242
EIT@@ 241
Qualitäts@@ 241
U 241
Verlängerung 241
Wissenschaft 241
behörden 241
falls 241
fälle 241
häufig 241
mission 241
rat 241
tete 241
zurückzu@@ 241
Resolution 240
aktive 240
ler@@ 240
umwelt@@ 240
unabhängig 240
versucht 240
zusammenzuarbeiten 240
Allerdings 239
EUR 239
Zunächst 239
ausdrücklich 239
fall 239
fung 239
genutzt 239
1992 238
For@@ 238
Gedankenaustausch 238
du@@ 238
verantwortlich 238
Ak@@ 237
Bürgerinnen 237
Geschäftsordnung 237
Gewährleistung 237
Kontroll@@ 237
Mor@@ 237
Praktiken 237
Strategien 237
endlich 237
harmon@@ 237
lt 237
politisches 237
restri@@ 237
tigkeit 237
2,@@ 236
Basis 236
Verträge 236
erklären 236
französischen 236
gegenwärtig 236
ges 236
kt 236
neben 236
uner@@ 236
Akteure 235
Am@@ 235
Berichterstatterin 235
Bundesminister 235
Friedens 235
OSZE 235
Par@@ 235
Presse@@ 235
UT@@ 235
genug 235
hand@@ 235
miß@@ 235
sichern 235
struktur@@ 235
wirksame 235
Gra@@ 234
Kriminalität 234
Mittelpunkt 234
STR@@ 234
Wirtschaftspolitik 234
fer@@ 234
gabe 234
überhaupt 234
Frieden@@ 233
Grundsätzen 233
IE 233
Systeme 233
Währungsunion 233
anerkannt 233
bet@@ 233
einzelstaatlichen 233
ergeben 233
hinweisen 233
im@@ 233
miss@@ 233
mitteln 233
raum 233
schlägt 233
starke 233
tenen 233
werk 233
zudem 233
24 232
Bar@@ 232
SCHL@@ 232
Sach@@ 232
br@@ 232
durchaus 232
eben 232
ssen 232
wor@@ 232
48 231
Abschließend 231
Co@@ 231
Forderung 231
Forderungen 231
Prinzip 231
Runde 231
Sektoren 231
Sprachen 231
Wiederaufbau 231
dienst 231
dige 231
fassen 231
politisch 231
produktion 231
schwierigen 231
werte 231
AK@@ 230
Fort@@ 230
Netze 230
Nun 230
Rahmenbedingungen 230
Vertreters 230
glich 230
lichem 230
zug 230
1993 229
Anschluß 229
Augen 229
Erwartungen 229
Eurostat 229
Flüchtlinge 229
Vereinigtes 229
Vergleich 229
Verhältnis 229
besonderer 229
cken 229
möglicherweise 229
om@@ 229
ungsp@@ 229
uss@@ 229
ut@@ 229
60 228
Fortschritt 228
Ideen 228
SU@@ 228
chter@@ 228
erhebliche 228
sicherstellen 228
tigte 228
Ausrichtung 227
EA@@ 227
Kindern 227
USS@@ 227
VOR@@ 227
Verständnis 227
illegalen 227
jene 227
regelmäßig 227
seitens 227
Außen@@ 226
Ereignisse 226
Irak 226
Rückgang 226
Wasser@@ 226
Zeichen 226
end@@ 226
gelöst 226
hinzu@@ 226
landwirtschaftlichen 226
ris@@ 226
sämtliche 226
zentrale 226
1. 225
An 225
Entwicklungsländer 225
Gesellschaften 225
Konflikts 225
Ursprung 225
Verteidigung 225
Zivil@@ 225
entgegen@@ 225
halt 225
kre@@ 225
Beiträge 224
ERÖRTERTE 224
Lebensmittel@@ 224
Zwischen@@ 224
di 224
festzulegen 224
ka 224
land@@ 224
lie@@ 224
scher 224
schul@@ 224
sicher@@ 224
zulassen 224
ANGENOMMENE 223
Jetzt 223
Kohärenz 223
Ordnung 223
Vermittlungs@@ 223
are 223
ate 223
bal@@ 223
ban@@ 223
bisherigen 223
dungs@@ 223
durchzuführen 223
entscheidende 223
ging 223
hoch@@ 223
nicht@@ 223
rund 223
schaften 223
str@@ 223
van 223
22 222
Chancen 222
Familien@@ 222
IM@@ 222
Konflikt@@ 222
Umständen 222
Während 222
Zimmer 222
beitre@@ 222
erzielten 222
glichen 222
mut 222
tion@@ 222
Anti@@ 221
BER 221
Einfuhren 221
Elemente 221
Kontrollen 221
Platz 221
aufgefordert 221
führ@@ 221
zuvor 221
ÜSS@@ 221
ßt 221
ären 221
Erhöhung 220
Erreichung 220
Ihrem 220
Regierungschefs 220
derzeitige 220
vorschlag 220
Gremien 219
Herstellung 219
Plenart@@ 219
Programm@@ 219
Rückkehr 219
Schul@@ 219
Technologie 219
Wiederherstellung 219
ass@@ 219
beizutragen 219
echte 219
leicht 219
tigten 219
tliche 219
Errichtung 218
Fähigkeiten 218
Man@@ 218
Premierminister 218
Werbung 218
abkommens 218
akzeptieren 218
ap@@ 218
gemeinsamer 218
tra@@ 218
wirksam 218
Einstellung 217
Entscheidungs@@ 217
GE 217
Sanktionen 217
ZU 217
hoffen 217
lokale 217
reicht 217
schriftlich 217
verfügt 217
23 216
Berlin 216
PR@@ 216
Programmen 216
Wirksamkeit 216
arbeit 216
ausschließlich 216
befassen 216
beteiligten 216
darunter 216
fra@@ 216
gangs 216
gu@@ 216
heiten 216
lä@@ 216
nden 216
schwer 216
spolitischen 216
Ch@@ 215
Förder@@ 215
Infrastruktur 215
Krieg 215
Li@@ 215
Verfassungs@@ 215
arbeit@@ 215
bestimmungen 215
entscheidender 215
frei@@ 215
per@@ 215
rechts@@ 215
richten 215
Funktionieren 214
Handlung 214
SCHAF@@ 214
Slowak@@ 214
Unterschiede 214
ausschuss 214
ck 214
stes 214
sätze 214
unterstreicht 214
zufolge 214
Mobilität 213
Nahrungsmittel@@ 213
Service 213
erlaubt 213
hinter 213
markt@@ 213
tik@@ 213
vereinbart 213
Bedarf 212
Kohäsionspolitik 212
WEI@@ 212
a. 212
d.h. 212
dan@@ 212
daraus 212
dauerhaften 212
ds 212
ent 212
gegenseitigen 212
isch@@ 212
kulturelle 212
nah@@ 212
ur 212
versch@@ 212
ßen 212
A-@@ 211
Ben@@ 211
SONSTIGE 211
Sudan 211
beste 211
echten 211
erlassen 211
friedliche 211
gestern 211
industrie 211
lands 211
oben 211
organisationen 211
’ 211
August 210
Durch@@ 210
Protokolls 210
ef@@ 210
gebiet 210
größeren 210
nung 210
sichergestellt 210
ta 210
voller 210
vollständige 210
wünscht 210
x@@ 210
2013 209
Beseitigung 209
Gu@@ 209
angemessen 209
bilateralen 209
dagegen 209
einverstanden 209
haft 209
ho@@ 209
kommission 209
sage 209
sprache 209
tan@@ 209
H 208
Idee 208
Mitgliedstaats 208
au 208
behörde 208
dürfte 208
ed@@ 208
spielt 208
verlangt 208
überprüfen 208
,@@ 207
70 207
Handels 207
Kapital@@ 207
Kontakte 207
MIT 207
igen 207
lau@@ 207
sab@@ 207
stärkere 207
Faktoren 206
Gegenstand 206
So@@ 206
Untersuchung 206
einzusetzen 206
genannt 206
glauben 206
lokaler 206
militärischen 206
sobald 206
stimme 206
tätig 206
än@@ 206
übermittelt 206
Begriff 205
Gesetz 205
No@@ 205
Regierungskonferenz 205
Staats- 205
Ur@@ 205
entfernt 205
erkennt 205
feststellen 205
folgendes 205
hoch 205
schließt 205
text 205
unterschiedliche 205
Flug@@ 204
Gestaltung 204
Gleich@@ 204
Ost@@ 204
Stellungnahmen 204
Teil@@ 204
grundsätzlich 204
vereinbarten 204
vertritt 204
wünschen 204
Lu@@ 203
Minderheiten 203
Problemen 203
Ri@@ 203
Staates 203
außer 203
do@@ 203
erstellt 203
hierbei 203
italienischen 203
rechtliche 203
sofort 203
wa@@ 203
Bedürfnisse 202
Bemerkungen 202
Beweis 202
Familien 202
Föderation 202
HIN@@ 202
Investitions@@ 202
Mi@@ 202
Nachbarn 202
Nor@@ 202
Partei 202
Reis@@ 202
ZI@@ 202
Ziel@@ 202
chs 202
deutsche 202
essen 202
gender 202
laut 202
legte 202
wichtiges 202
Über 202
ο@@ 202
14@@ 201
DR@@ 201
El@@ 201
Gemein@@ 201
Konsultationen 201
MEN@@ 201
Mitgliedschaft 201
Rassismus 201
Zeitplan 201
do 201
erg@@ 201
mel@@ 201
reichen 201
rück@@ 201
starken 201
zugleich 201
FOR@@ 200
Fest@@ 200
Milch@@ 200
Modell 200
Modernisierung 200
Regel 200
dritte 200
gew@@ 200
no@@ 200
ster@@ 200
zw@@ 200
96 199
Buch@@ 199
Erweiterungs@@ 199
FR@@ 199
Gerichts 199
Leistungen 199
Ost 199
Verbrechen 199
entgegen 199
neu@@ 199
ste@@ 199
tions@@ 199
Bestimmung 198
Fax 198
Fälle 198
Klage 198
Teilnehmer 198
Waffen 198
dr@@ 198
internen 198
itäts@@ 198
lose 198
nissen 198
nochmals 198
og 198
tigkeiten 198
vo@@ 198
zuletzt 198
Arbeitsmarkt 197
Fähigkeit 197
Gem@@ 197
Konsolidierung 197
Punkten 197
Zeiten 197
betonte 197
bu@@ 197
fassung 197
gehalten 197
weis@@ 197
wert 197
AD@@ 196
Bereitstellung 196
ENN@@ 196
IT 196
Urteils 196
Wandel 196
beauftragte 196
betroffen 196
del@@ 196
einheitliche 196
einzigen 196
enthaltenen 196
hierfür 196
hierzu 196
leiten 196
rates 196
sches 196
wissenschaftlichen 196
äu@@ 196
� 196
BO@@ 195
Definition 195
Fernseh@@ 195
Gleichgewicht 195
Risiken 195
Tier@@ 195
af@@ 195
bestimmtes 195
bitten 195
ches 195
ci@@ 195
dank 195
digung 195
entwicklung 195
isten 195
jeweils 195
notwendige 195
sachen 195
sprachen 195
unterzeichnet 195
wahr@@ 195
-B@@ 194
Arten 194
Einwanderung 194
Grenze 194
Mechanismen 194
aktuellen 194
benötigen 194
fällen 194
gang 194
he@@ 194
stand@@ 194
teilweise 194
vorgeschlagene 194
wer 194
Ebenen 193
Frei@@ 193
Hand@@ 193
Kontinent 193
Kräfte 193
Leit@@ 193
PRO@@ 193
RATES 193
Reaktion 193
Regierungs@@ 193
Wiederaufnahme 193
dliche 193
ischem 193
nennen 193
schi@@ 193
sta@@ 193
stri@@ 193
tisch 193
vielmehr 193
zer@@ 193
Übergang 193
16@@ 192
35 192
ARB@@ 192
Ber@@ 192
Daten@@ 192
Kontext 192
allgemein 192
ats 192
danach 192
dungen 192
igkeit 192
läßt 192
stoffe 192
ven 192
80 191
Dem@@ 191
Eigen@@ 191
Hart@@ 191
Macht 191
deten 191
einbezogen 191
elt 191
fortgesetzt 191
geeignet 191
gest@@ 191
messen 191
nisse 191
Abgeordnete 190
Allgemeinen 190
Bedenken 190
Bewältigung 190
Da@@ 190
Dar@@ 190
Konsens 190
Laufe 190
Schiffe 190
US 190
Zusage 190
ang 190
ang@@ 190
einander 190
erwähnt 190
hebt 190
unabhängigen 190
usw. 190
ziele 190
é 190
00 189
17@@ 189
20@@ 189
Bet@@ 189
GA@@ 189
Generalsekretär 189
Hindernisse 189
Mandat 189
Waffen@@ 189
Weiterentwicklung 189
aussch@@ 189
bindet 189
einig@@ 189
els 189
eu@@ 189
inzwischen 189
ktive 189
tsch@@ 189
vorzu@@ 189
wünsche 189
zahlen 189
ÄN@@ 189
üsse 189
τ@@ 189
Do@@ 188
EZ@@ 188
Führung 188
Grundfreiheiten 188
Kompetenzen 188
LE 188
Männern 188
Rue 188
Stellvertretender 188
Vielen 188
Wettbewerbs@@ 188
af 188
anten 188
britischen 188
dient 188
geschehen 188
gesellschaft 188
gliche 188
kennen 188
nachdem 188
reform 188
stat@@ 188
ständige 188
welchen 188
zentralen 188
Arbeitsplätzen 187
Bild 187
Dok 187
Generalsekretärs 187
Indien 187
Or@@ 187
Sinn 187
Verbesserungen 187
Zentrum 187
beruht 187
geeigneten 187
reagieren 187
teilnehmen 187
ven@@ 187
verbundenen 187
å@@ 187
überall 187
EP@@ 186
Gründung 186
Hoch@@ 186
Insbesondere 186
Nachdruck 186
Natur 186
go 186
pre@@ 186
richtigen 186
ses 186
stu@@ 186
tiv@@ 186
würdigt 186
Agentur 185
Anlage 185
Beachtung 185
Einkommen 185
End@@ 185
Europa-@@ 185
Gerichte 185
OS 185
Stellvertreter 185
Teilen 185
agung 185
cks 185
eck@@ 185
enten 185
lag@@ 185
liebe 185
strategischen 185
verstärkte 185
zunehmen 185
übertragen 185
” 185
06 184
255 184
Br@@ 184
Forsch@@ 184
Fu@@ 184
Mitarbeiter 184
Paket 184
Pflicht 184
Staat@@ 184
alis@@ 184
angewandt 184
ans 184
enz 184
erfolgreichen 184
langfristige 184
schrittweise 184
verb@@ 184
€ 184
Allgemeine 183
EW@@ 183
Einheit 183
Erzeuger@@ 183
Ho@@ 183
Min@@ 183
Worte 183
Zusatz@@ 183
ann@@ 183
beg@@ 183
bekräf@@ 183
hervor@@ 183
irischen 183
kosten 183
mer@@ 183
senden 183
19@@ 182
95 182
Anbetracht 182
Auswahl 182
Fang@@ 182
GEN 182
IF@@ 182
NA@@ 182
NE 182
Struktur 182
Unternehmens@@ 182
Wel@@ 182
Zahlungs@@ 182
Zivilbevölkerung 182
dauerhafte 182
dlich 182
entstehen 182
fahrt 182
gewinnen 182
informieren 182
uri@@ 182
warten 182
äre 182
Angriff 181
Anstieg 181
Au@@ 181
Ausnahme 181
Ausübung 181
Dokumente 181
Finanzierungs@@ 181
Lichte 181
Menschen@@ 181
Vertrags@@ 181
Viele 181
angeht 181
begonnen 181
bildet 181
erörtert 181
fahren 181
fahrzeuge 181
globale 181
heraus@@ 181
hergestellt 181
historischen 181
istische 181
kaum 181
kommens 181
pfen 181
rahmen 181
zutiefst 181
Dokumenten 180
EC@@ 180
EFTA-@@ 180
Frist 180
Genehmigung 180
IER@@ 180
Kam@@ 180
ON 180
Ratifizierung 180
Sicherheitsrates 180
Stat@@ 180
anische 180
d-@@ 180
ex@@ 180
fin@@ 180
heits@@ 180
isiert 180
ms 180
o-@@ 180
persönlichen 180
sei@@ 180
vorgelegten 180
wahren 180
weiteres 180
Anfrage 179
Betrag 179
EG-@@ 179
Klima@@ 179
Schwerpunkt 179
Veröffentlichung 179
Warum 179
Worten 179
Zahlen 179
angesprochen 179
berufen 179
enge 179
friedlichen 179
grund@@ 179
stellten 179
ßten 179
Aussch@@ 178
Beurteilung 178
E-Mail 178
GES@@ 178
Modalitäten 178
Ober@@ 178
SS@@ 178
STA@@ 178
Tabak@@ 178
Wer 178
bislang 178
diesbezüglichen 178
gewähren 178
jahr 178
qualifizierter 178
quote 178
sozialer 178
wichtigste 178
zielt 178
90 177
ANG@@ 177
Antworten 177
Arbeitsplatz 177
Arbeitsprogramm 177
Einfluss 177
Fehler 177
OH@@ 177
Vizepräsident 177
Vorsitzender 177
Wei@@ 177
anders 177
effiziente 177
nisses 177
tim@@ 177
tur@@ 177
verringern 177
weg 177
weg@@ 177
352 176
93 176
EI 176
Eindruck 176
Gewal@@ 176
Gr@@ 176
Grün@@ 176
Plan 176
Prinzipien 176
Ratspräsident 176
Realität 176
Stoffe 176
bel 176
chs@@ 176
einstimmig 176
eten 176
grenzüberschreitenden 176
ise 176
losen 176
ou@@ 176
tel 176
Aufhebung 175
Fischer 175
Journalisten 175
Kor@@ 175
Mittel- 175
Standpunkte 175
beauftragten 175
eingeleitet 175
früheren 175
fu@@ 175
hen 175
hier@@ 175
kürzlich 175
lin@@ 175
sam@@ 175
spek@@ 175
sprä@@ 175
ters 175
unterbreitet 175
zusehen 175
2012 174
500 174
85 174
ANT@@ 174
Beitrittsländer 174
EM 174
Hilfs@@ 174
IV 174
Mittelmeer@@ 174
Moment 174
Nr. 174
PH@@ 174
Sk@@ 174
Teile 174
WEIS 174
anderes 174
ant 174
anzuwenden 174
betrachten 174
char@@ 174
eingerichtet 174
forderte 174
menschlichen 174
russischen 174
sehe 174
tierung 174
unbe@@ 174
ungsverfahren 174
verwaltung 174
vorgenommen 174
Abbau 173
Fol@@ 173
Folter 173
Fortsetzung 173
O-@@ 173
Politiker 173
Wer@@ 173
X 173
gebieten 173
gegangen 173
hilfe 173
itäten 173
lösung 173
menten 173
rate 173
schaft@@ 173
75 172
Fra@@ 172
Gerechtigkeit 172
III 172
See@@ 172
Zudem 172
beigetragen 172
dete 172
erheblich 172
gebiete 172
gem 172
gewisse 172
heit@@ 172
institutionelle 172
mehr@@ 172
rasche 172
reden 172
tere 172
tierten 172
wahrscheinlich 172
wollte 172
4303 171
Aspekten 171
Auftrag 171
B. 171
Botschafter 171
Dauer 171
Gemeinschaftsebene 171
Gesetzgebung 171
II@@ 171
Niveau 171
Pressekontakt 171
Wissen 171
entscheidend 171
fo@@ 171
gegenseitige 171
grundlegenden 171
nichtamtliches 171
nieder@@ 171
nis@@ 171
nte 171
punkt 171
verleihen 171
verwenden 171
voran@@ 171
weitgehend 171
Überarbeitung 171
Übereinstimmung 171
Ausbildungs@@ 170
Drittens 170
ESS@@ 170
Hotels 170
Mechanismus 170
Titel 170
Umfeld 170
akzeptiert 170
behandeln 170
dert 170
erhoben 170
gehenden 170
gelungen 170
ine 170
international 170
palästinensischen 170
reit@@ 170
sagt 170
setz@@ 170
stellungen 170
verlangen 170
wiederholt 170
zusätzlichen 170
Öffnung 170
Konsultation 169
Kre@@ 169
Projekten 169
Rei@@ 169
Vereinigte 169
Ziels 169
assen 169
denk@@ 169
erhält 169
erzielte 169
grundlegende 169
kraft 169
langen 169
liegenden 169
schwierig 169
setzung 169
stehende 169
tive 169
umfasst 169
voraus@@ 169
zustimmen 169
Drittel 168
Element 168
Entwicklungszusammenarbeit 168
Europäisches 168
Hälfte 168
Lern@@ 168
Luft@@ 168
Minuten 168
Nachhaltigkeit 168
Staatsangehö@@ 168
Vorlage 168
ah@@ 168
damals 168
erneu@@ 168
erter 168
fe@@ 168
förderung 168
lig@@ 168
läuft 168
rü@@ 168
spolitiken 168
tion 168
vers@@ 168
zugänglich 168
ße 168
Grunde 167
Höchst@@ 167
Industrie@@ 167
Kinder@@ 167
Nord@@ 167
Po@@ 167
Rahmens 167
SCHAFT 167
Schweiz 167
Sehr 167
Spiel@@ 167
Tri@@ 167
arbeitet 167
des@@ 167
dlichen 167
erweiterten 167
gebilligt 167
indi@@ 167
tum 167
ueber 167
weite 167
α@@ 167
Jo@@ 166
Kal@@ 166
Nicht 166
Polizei@@ 166
Software 166
Su@@ 166
W 166
Waffenstill@@ 166
ad 166
ausgerichtet 166
gemeinsames 166
geschützt 166
produ@@ 166
ungsin@@ 166
welcher 166
zukommt 166
Außenpolitik 165
Con@@ 165
Dem 165
Geist 165
HM@@ 165
Information@@ 165
Kommunikations@@ 165
Konflikte 165
Ni@@ 165
Tourismus 165
angesehen 165
d. 165
eingehalten 165
entweder 165
gem@@ 165
gestaltung 165
grenzen 165
ison@@ 165
klaren 165
stützen 165
wirksamen 165
zwei@@ 165
Berg@@ 164
Car@@ 164
Gegenteil 164
Maß 164
Orienti@@ 164
Straf@@ 164
Ständiger 164
ac@@ 164
ales 164
barer 164
bestehende 164
einzuhalten 164
fähig 164
führenden 164
ku@@ 164
ner 164
nungs@@ 164
one 164
tt@@ 164
verletzt 164
überein@@ 164
Binnen@@ 163
Erzeugung 163
Gedanken 163
Perspektive 163
Produkten 163
Suche 163
Vorab@@ 163
Welche 163
geleitet 163
gestärkt 163
klar@@ 163
kontrolle 163
länger 163
persönlich 163
stoffen 163
sub@@ 163
trägen 163
wenige 163
wenigen 163
wesentlicher 163
wi@@ 163
änderungen 163
Botschaft 162
CA@@ 162
Freizügigkeit 162
Gipfeltreffen 162
Herzen 162
Hinweis 162
Kapitel 162
Mis@@ 162
Netz 162
Weitere 162
Zurück@@ 162
dargelegt 162
ente 162
erstatten 162
fortsetzen 162
gene 162
glaub@@ 162
menschliche 162
speziell 162
uneingeschränkte 162
versorgung 162
Afghanistan 161
Betracht 161
Burundi 161
Dienstleistungs@@ 161
Durchführungs@@ 161
Fün@@ 161
Ger@@ 161
Ha@@ 161
Marktes 161
Rechtsgrundlage 161
Statut 161
Wein@@ 161
absolut 161
amerikanischen 161
eingegangen 161
heutige 161
ing-@@ 161
modell 161
praktische 161
vollständigen 161
weltweiten 161
westlichen 161
wirtschaftlich 161
1-@@ 160
Aktionsplans 160
Binnenmarkts 160
Forum 160
Inneres 160
Kat@@ 160
Kooperation 160
Lebensmittel 160
Verabschiedung 160
Verlauf 160
Vorausschau 160
angemessenen 160
einzelne 160
erhöht 160
esse 160
fer 160
hoher 160
näher 160
sicht 160
vorliegen 160
wirtschaft@@ 160
wür@@ 160
Artikels 159
Beihilfe 159
Ministerpräsident 159
Sachver@@ 159
Umstände 159
annehmen 159
bereiche 159
denden 159
einig 159
en- 159
ige 159
ina 159
istischen 159
kurzem 159
ma 159
programmen 159
siehe 159
standards 159
trifft 159
zung 159
ALL@@ 158
FA@@ 158
Handel@@ 158
Jahrhundert 158
Königreichs 158
Regulierung 158
Schule 158
Senkung 158
einrichtungen 158
ener 158
erfahren 158
führten 158
gro@@ 158
pp@@ 158
teilte 158
ungsan@@ 158
ün@@ 158
ür@@ 158
Bedrohung 157
Dienst 157
Fischereipolitik 157
ITIK 157
Methoden 157
Ta@@ 157
Umweltschutz 157
VI@@ 157
Vis@@ 157
breite 157
chens 157
derartige 157
diskutiert 157
dringlich 157
entscheidenden 157
europ@@ 157
gewählten 157
h. 157
halt@@ 157
isierung 157
j 157
nachzukommen 157
niveau 157
nten 157
strukturen 157
tene 157
zunehmend 157
Beide 156
Berichten 156
Bu@@ 156
Demokrati@@ 156
GEN@@ 156
Geld@@ 156
Jugend 156
Kraft@@ 156
Sicherheitspolitik 156
Vorteil 156
Würde 156
bekun@@ 156
bewältigen 156
bezieht 156
durchführen 156
durchgeführten 156
geltend 156
keiten 156
stätigkeit 156
tä@@ 156
unden 156
verabschieden 156
Ausweitung 155
Entwicklungspolitik 155
Ja 155
Kompro@@ 155
Mittelmeerraum 155
Pl@@ 155
The 155
VN 155
Vorbereitungen 155
Zahlungen 155
aufnehmen 155
bekämpfen 155
bin@@ 155
del 155
derung 155
dig@@ 155
garantieren 155
gesellschaftlichen 155
handel 155
konstruktiven 155
les 155
ministerin 155
rats 155
weisung 155
Antidump@@ 154
Bei@@ 154
Legislativ@@ 154
Nutz@@ 154
S-@@ 154
Zuständigkeiten 154
Zwecke 154
ausgaben 154
ausgesetzt 154
beschränkt 154
fas@@ 154
geplanten 154
onen 154
politi@@ 154
schutzes 154
spanischen 154
tten 154
umfassend 154
vorhandenen 154
welt 154
Aktions@@ 153
Dennoch 153
Fraktionen 153
Gang 153
Mil@@ 153
Monat 153
Ratstagung 153
Telekommunikations@@ 153
Verletzung 153
Versammlung 153
Wirtschaftswachstum 153
Zentral@@ 153
beraten 153
beruflichen 153
erscheint 153
fle@@ 153
gericht@@ 153
getreten 153
landwirtschaftliche 153
len@@ 153
praktisch 153
spolitische 153
stimmt 153
zieht 153
Behörde 152
Bi@@ 152
Charakter 152
Fl@@ 152
Friedensprozess 152
Hoheitsgebiet 152
INHAL@@ 152
Jeder 152
Krisen@@ 152
Kritik 152
Mark@@ 152
Meiner 152
Verteilung 152
Vision 152
Wirklichkeit 152
aktiven 152
angenommenen 152
ausgesprochen 152
bedeuten 152
ckt 152
demokratischer 152
ergibt 152
funktion@@ 152
gewal@@ 152
gol@@ 152
hervorgehoben 152
ierungs@@ 152
krimin@@ 152
lieren 152
rechten 152
sam 152
steigen 152
verhandlungen 152
y-@@ 152
Dann 151
Gi@@ 151
Netz@@ 151
Sal@@ 151
beabsichtigt 151
dende 151
ebene 151
ei 151
endgültige 151
gemeinschaftliche 151
geschlossenen 151
gestellten 151
gs@@ 151
hauptsächlich 151
komme 151
konfrontiert 151
langfristigen 151
licherweise 151
profitieren 151
verabschiedete 151
200 150
Assoziations@@ 150
ICH 150
Lernen 150
National@@ 150
Neben 150
Politi@@ 150
Russischen 150
Sti@@ 150
Tonnen 150
UK@@ 150
VERK@@ 150
ates 150
aussprechen 150
bestand 150
chts 150
elles 150
entscheidet 150
gebühr@@ 150
keiner 150
offensichtlich 150
sichere 150
standen 150
verlassen 150
war@@ 150
wettbewerbs@@ 150
2-@@ 149
AC@@ 149
Beschäftig@@ 149
Bewirtschaftung 149
Erzeugnissen 149
FRA@@ 149
Faktor 149
Gewährung 149
KON@@ 149
Plan@@ 149
San@@ 149
Sektors 149
direkten 149
enzen 149
funktioniert 149
gr@@ 149
mag 149
netze 149
normen 149
regierung 149
wählen 149
zusätzlich 149
Amts@@ 148
Baum@@ 148
CHT@@ 148
EFTA 148
IEN 148
Klein@@ 148
Plenum 148
Qu@@ 148
Subsidiaritätsprinzip 148
ausgestattet 148
dennoch 148
flo@@ 148
führende 148
gehende 148
ha 148
lichkeiten 148
ph@@ 148
rufen 148
sel@@ 148
stands@@ 148
tel@@ 148
tief 148
tschechische 148
verlieren 148
verstärkten 148
Übersch@@ 148
Beschränkungen 147
Hauses 147
Klima 147
Militär@@ 147
Mitwirkung 147
beziehen 147
externen 147
langfristig 147
ment 147
mittels 147
multilateralen 147
natürlichen 147
oren 147
richtlinie 147
teilten 147
tu@@ 147
uni@@ 147
weiterzu@@ 147
zählen 147
übernommen 147
Asyl@@ 146
Außen- 146
Ebenso 146
Identität 146
Reduzierung 146
Sicherung 146
bestimmen 146
go@@ 146
hervorheben 146
isieren 146
lige 146
res 146
schafft 146
ziel@@ 146
zo@@ 146
zufrieden 146
í@@ 146
Erleichterung 145
Funktion 145
Justiz@@ 145
KO@@ 145
Opposition 145
Vertrages 145
ausreichend 145
baus 145
beschränken 145
erleichtert 145
eter 145
hängt 145
höheren 145
könne 145
manchmal 145
praktischen 145
rich@@ 145
s-@@ 145
stolz 145
tier@@ 145
ungspolitik 145
ve 145
vorsieht 145
ön@@ 145
92 144
AP@@ 144
Durchsetzung 144
Gar@@ 144
Ku@@ 144
Kur@@ 144
Lehr@@ 144
Scho@@ 144
Schutzes 144
Sen@@ 144
Telekommunikation 144
Zugangs 144
_ 144
abhängig 144
alte 144
ank@@ 144
beobachten 144
billigte 144
genen 144
gens 144
geregelt 144
ica 144
inn@@ 144
iste 144
log@@ 144
ministerium 144
rechtzeitig 144
ständen 144
tschechischen 144
verfügbaren 144
zustellen 144
österreichischen 144
1.@@ 143
Beispiele 143
Dynamik 143
Fre@@ 143
Gültigkeit 143
Regionalpolitik 143
Verordnungen 143
Wachstums@@ 143
ativer 143
beibehalten 143
beinhaltet 143
digt 143
ergänzen 143
festzustellen 143
gan@@ 143
geehrte 143
gerechtfertigt 143
isch-@@ 143
isen 143
management 143
rä@@ 143
sicht@@ 143
sionen 143
vertrau@@ 143
äußerte 143
AG 142
Begründung 142
Erzeuger 142
Glaubwürdigkeit 142
Grünbuch 142
Innern 142
Kandidatenländer 142
Konvents 142
Leistung 142
Mut 142
Nähe 142
Sozialpartner 142
Stimmen 142
Studie 142
TEL@@ 142
Texte 142
Th@@ 142
Tisch 142
Verhütung 142
Wiederauf@@ 142
anz 142
begründet 142
dlicher 142
erstellen 142
fand 142
gewi@@ 142
gewählt 142
grenzüberschreitende 142
gte 142
lan 142
mechanismen 142
ment@@ 142
müsse 142
pl@@ 142
räume 142
schlag 142
ss@@ 142
tn@@ 142
vis@@ 142
zus@@ 142
Bank 141
Besuch 141
Bürgermeister 141
Ergebnissen 141
Erstellung 141
Europa@@ 141
Fein@@ 141
Freilassung 141
Heran@@ 141
Märkten 141
Obwohl 141
Planung 141
Rahmenprogramm 141
SEN 141
Standpunkts 141
Studien 141
Süd@@ 141
TI@@ 141
erklärung 141
iti@@ 141
jetzigen 141
klausel 141
kommen@@ 141
liefern 141
ort 141
schreiben 141
sto@@ 141
tsp@@ 141
unterstreichen 141
weltweite 141
» 141
94 140
Ablauf 140
Ausfuhr@@ 140
BET@@ 140
D-@@ 140
Fern@@ 140
Freude 140
Gewicht 140
Kollege 140
Kompromiss 140
Korruption 140
Rat@@ 140
Sozialpolitik 140
Volkes 140
ali@@ 140
ass 140
bewußt 140
derten 140
ess@@ 140
gener 140
innen@@ 140
licht 140
organisierten 140
paket 140
relevanten 140
stal@@ 140
stru@@ 140
unterstütze 140
wissenschaftliche 140
Darfur 139
Emissionen 139
GmbH 139
Hause 139
Kulturen 139
NI@@ 139
Nr 139
Produkt 139
Schulen 139
Todes@@ 139
Untersuchungen 139
Vorrang 139
ausgeschlossen 139
bereit@@ 139
bewegen 139
ce 139
eigen@@ 139
europa@@ 139
früher 139
genauso 139
geschieht 139
israelischen 139
technischer 139
verkehrs@@ 139
ε@@ 139
Beitrittsverhandlungen 138
Des 138
Entschließungsantrag 138
Ernährungssicherheit 138
Europae@@ 138
Evaluierung 138
Fernsehen 138
Feststellung 138
GRAM@@ 138
INN@@ 138
Landwirtschafts@@ 138
Mio. 138
Nachfrage 138
POL@@ 138
Souveränität 138
Sport@@ 138
TER 138
Wa@@ 138
entwickelten 138
ete 138
km 138
ktion 138
leit@@ 138
mal@@ 138
ratifiziert 138
schä@@ 138
späteren 138
überwinden 138
01 137
45 137
Außenbeziehungen 137
BIL@@ 137
Bitte 137
Eröffnung 137
Gas 137
Gesam@@ 137
Menge 137
Partnerschafts@@ 137
Risiko@@ 137
Somalia 137
Syrien 137
Tiere 137
WEL@@ 137
acht@@ 137
alt 137
ansch@@ 137
best@@ 137
bestätigen 137
bewaffneten 137
chtet 137
don@@ 137
einzel@@ 137
eit@@ 137
erheblichen 137
genannte 137
keit@@ 137
net 137
ore 137
sach@@ 137
sich@@ 137
solange 137
spiel@@ 137
spätestens 137
ungsmaßnahmen 137
unterliegen 137
vorbereitet 137
1991 136
31 136
Anschluss 136
FF@@ 136
Informations- 136
Jugend@@ 136
Kürze 136
LIN@@ 136
Nich@@ 136
Op@@ 136
Pa@@ 136
Perspektiven 136
Resolutionen 136
San 136
Stunden 136
Wasser 136
anti@@ 136
bedeut@@ 136
behalten 136
bern 136
besitzt 136
elektronischen 136
erlauben 136
gener@@ 136
gut@@ 136
he 136
hinaus@@ 136
inen 136
je@@ 136
ktions@@ 136
ktiven 136
niemals 136
stabil@@ 136
tut 136
vereinbar 136
verteidigen 136
wahlen 136
wechsel@@ 136
2.@@ 135
Befugnisse 135
ET 135
Management 135
Nachbar@@ 135
Pi@@ 135
Stütz@@ 135
Versorgung 135
Versuch 135
Vielzahl 135
Völkerrecht 135
Weißbuch 135
Zentralbank 135
ative 135
aufs 135
auswirken 135
beginnt 135
betreffende 135
beziehungen 135
dens 135
diesbezüglich 135
entschei@@ 135
fäl@@ 135
fördert 135
gerichtet 135
großes 135
hob 135
integrierten 135
koordin@@ 135
lu@@ 135
paar 135
ren 135
strategische 135
verwirklichen 135
vorhanden 135
wiederum 135
zahl@@ 135
zugrunde 135
zugute 135
zweifellos 135
ι@@ 135
Auge 134
Garantie 134
Marktwirtschaft 134
Miß@@ 134
Männer 134
Rin@@ 134
Schluss 134
Sprach@@ 134
Verantwortlichen 134
Vorsitzenden 134
aff@@ 134
betra@@ 134
bezogene 134
diger 134
digte 134
ergänzt 134
falsch 134
finde 134
führer 134
gekennzeichnet 134
gelangt 134
genießen 134
hren 134
informiert 134
kal@@ 134
mb@@ 134
nahme@@ 134
om 134
ord@@ 134
pa@@ 134
preis@@ 134
schweren 134
sidenten 134
sieben 134
tro@@ 134
umfassen 134
vorbe@@ 134
Aufgrund 133
Befriedigung 133
Dis@@ 133
Generation 133
Inflations@@ 133
Integrations@@ 133
Konsequenzen 133
Mutter@@ 133
Natur@@ 133
Organen 133
Schiff@@ 133
Verstärkung 133
Vielleicht 133
Waren@@ 133
abgegeben 133
altung 133
amen 133
chts@@ 133
dene 133
dis@@ 133
ed 133
hol@@ 133
ierter 133
jederzeit 133
leistungs@@ 133
müßte 133
persönliche 133
richtungen 133
stände 133
terror@@ 133
trau@@ 133
va 133
verantwortungs@@ 133
Änderungsanträgen 133
Beamten 132
Bis 132
DA 132
Einleitung 132
Europol 132
GF@@ 132
Garantien 132
IR@@ 132
Industri@@ 132
MON@@ 132
Mehr 132
Terror@@ 132
Verteidigungs@@ 132
Vertrag@@ 132
WIRTSCHAFT 132
Widerspruch 132
ator 132
austausch 132
beschleunigen 132
beschäftigt 132
bevorstehenden 132
brachte 132
freuen 132
historische 132
investieren 132
leistungen 132
märkte 132
nt 132
ok@@ 132
richtung 132
unmöglich 132
voraus 132
wirkt 132
Anlagen 131
Aserbaidschan 131
Aussicht 131
CHER@@ 131
Gaza 131
HAL@@ 131
Hersteller 131
Landwirten 131
Pakistan 131
Parlamentar@@ 131
Sa@@ 131
Spiel 131
Tra@@ 131
acht 131
beru@@ 131
berufliche 131
ca 131
doku@@ 131
eckt 131
enst@@ 131
geri@@ 131
gesetz@@ 131
griffen 131
issen 131
konkret 131
mes 131
ner@@ 131
rigen 131
rischen 131
sit@@ 131
vermieden 131
verstanden 131
80@@ 130
Export@@ 130
Fassung 130
Gleichstellung 130
He@@ 130
Krisen 130
Liefer@@ 130
Mau@@ 130
Team 130
Trotz 130
UM 130
Veranstaltung 130
Verteidigungspolitik 130
Weiter@@ 130
alisierten 130
angegeben 130
bemüht 130
einzuführen 130
esische 130
förder@@ 130
gre@@ 130
griechischen 130
ia 130
ktionen 130
na@@ 130
nahezu 130
spre@@ 130
stieg 130
uts 130
vereinbarung 130
vorschlagen 130
wiederholen 130
äl@@ 130
überprüft 130
Balkan@@ 129
Bauern 129
Betriebe 129
Drogen 129
Eing@@ 129
FER@@ 129
Freiheiten 129
Gebrauch 129
Problems 129
Präsidentschaftswahlen 129
Spannungen 129
Steuern 129
Stufe 129
Sü@@ 129
Vertretung 129
aren 129
chter 129
derte 129
ebenen 129
eingeräumt 129
erhältlich 129
eröffnet 129
fl@@ 129
ft@@ 129
gerechte 129
gespielt 129
handels 129
mann 129
militärische 129
negativen 129
regelungen 129
schwer@@ 129
shilfe 129
terte 129
terung 129
ver 129
vern@@ 129
verstän@@ 129
verstößt 129
zes 129
äußern 129
κ@@ 129
ATION 128
Besteuerung 128
Deswegen 128
ECH@@ 128
Geh@@ 128
Gel@@ 128
Japan 128
Klimawandel 128
Mal@@ 128
Methode 128
Rechnungs@@ 128
Refer@@ 128
Tro@@ 128
Tschechischen 128
Ursachen 128
Versch@@ 128
Zusagen 128
ersch@@ 128
gegeb@@ 128
gere@@ 128
groß 128
han@@ 128
handels@@ 128
junge 128
kehr@@ 128
kontin@@ 128
mechanismus 128
stei@@ 128
sy@@ 128
union 128
verboten 128
verehrte 128
viel@@ 128
zeiten 128
199@@ 127
EIB 127
FINAN@@ 127
Früh@@ 127
Haf@@ 127
ISSION 127
Konzentration 127
Pflichten 127
Signal 127
Tradition 127
UN-@@ 127
ani@@ 127
daten 127
diskrimin@@ 127
erforderliche 127
ernst 127
fahr@@ 127
fr@@ 127
förmlich 127
geln 127
inform@@ 127
mangel@@ 127
nötig 127
partei@@ 127
tari@@ 127
tigungs@@ 127
tiven 127
toren 127
uss 127
verhindert 127
ziert 127
Á@@ 127
175 126
33 126
Amtsblatt 126
Anwendungsbereich 126
CK@@ 126
Europar@@ 126
Gemeinden 126
Ju@@ 126
Nummer 126
RAT@@ 126
Si@@ 126
Verb@@ 126
Vo@@ 126
Vollendung 126
Wohn@@ 126
Zusammenhalts 126
anwalt 126
benötigt 126
erfolgreiche 126
fern 126
festlegen 126
förm@@ 126
gutes 126
ino 126
jährige 126
kom@@ 126
mäßig 126
müßten 126
organisation 126
preis 126
qualität 126
sekre@@ 126
sonst 126
stattgefunden 126
territorialen 126
untersuchen 126
vorstellen 126
vorzunehmen 126
wodurch 126
02 125
Erk@@ 125
Gewässer 125
Gleichbehandlung 125
Handlungen 125
Hans 125
J 125
José 125
Leider 125
Mc@@ 125
Meinungsäußerung 125
Mitte 125
Optionen 125
Schl@@ 125
Seine 125
Zahlung 125
abstimmen 125
assozi@@ 125
ausgearbeitet 125
bt 125
dänischen 125
effizient 125
entsch@@ 125
erteilt 125
festen 125
handlung 125
kor@@ 125
kräf@@ 125
lautet 125
ligen 125
mie 125
sabkommen 125
un 125
zeichnet 125
öffentlicher 125
5.@@ 124
Ant@@ 124
Ausgrenzung 124
Betrieb 124
Ernennung 124
FL@@ 124
Gesetze 124
Haushalts 124
Ir@@ 124
Jugendlichen 124
Marokko 124
OT@@ 124
Risiko 124
Van 124
Verbindungen 124
Version 124
Vertreterin 124
ade 124
aktuelle 124
anda 124
chern 124
dauer 124
denjenigen 124
gerechten 124
herzlich 124
iz@@ 124
krise 124
las@@ 124
modernen 124
respektieren 124
speziellen 124
systemen 124
teien 124
teilt 124
ursprünglichen 124
vorgesehene 124
zeugnisse 124
4,@@ 123
Arbeitnehmern 123
Ausgleich 123
Ausnahmen 123
Außengrenzen 123
Bedürfnissen 123
Beendigung 123
Buchstabe 123
Debatten 123
Geb@@ 123
Gerade 123
IV@@ 123
Menschenrechtsverletzungen 123
akzep@@ 123
arbeits@@ 123
ard 123
beizu@@ 123
berichten 123
beschluss 123
bewertung 123
binden 123
co 123
dig 123
ds@@ 123
eingegangenen 123
erenden 123
erörtern 123
europäisches 123
gebeten 123
gegebenen 123
jahres@@ 123
ks@@ 123
kämpfen 123
offene 123
opp@@ 123
projekte 123
punkte 123
sm@@ 123
son@@ 123
unverändert 123
vertrag 123
30@@ 122
Ausgangs@@ 122
Einzelheiten 122
Fortschritten 122
Indikatoren 122
Jacques 122
Kräften 122
ME 122
Mein 122
Mittelmeer 122
OR 122
Schi@@ 122
Ser@@ 122
Stra@@ 122
abgestimmt 122
anhängi@@ 122
dnisse 122
finanziert 122
französische 122
fried@@ 122
grün@@ 122
ingen 122
intensivieren 122
lö@@ 122
mut@@ 122
pr@@ 122
probleme 122
runde 122
theit 122
verfol@@ 122
verstoßen 122
wirkliche 122
www.@@ 122
zungen 122
ó@@ 122
österreichische 122
Bas@@ 121
Defizit 121
Gegebenheiten 121
Go@@ 121
Helsinki 121
Herkunfts@@ 121
Ihres 121
Jahres@@ 121
NRO 121
Nachdem 121
Partner@@ 121
Personal 121
Sierra 121
Stimm@@ 121
TH@@ 121
Unterschied 121
Verfahrens@@ 121
Volkswirtschaften 121
Zw@@ 121
beachten 121
beruhen 121
demo@@ 121
fach@@ 121
fairen 121
führungs@@ 121
gebo@@ 121
gh@@ 121
hör@@ 121
ier 121
mäßigen 121
niemand 121
ons@@ 121
organisieren 121
ori@@ 121
rau@@ 121
rige 121
umsetzen 121
voranzubringen 121
waffen 121
würdigen 121
zun@@ 121
Übrigen 121
0-@@ 120
25@@ 120
Aktionsprogramm 120
Arbeitsgruppe 120
Datenschutz@@ 120
Dossier 120
EIN 120
Fremdenfeindlichkeit 120
Halbjahr 120
Hu@@ 120
IMM@@ 120
Im@@ 120
Institution 120
Intensivierung 120
Kenntnisse 120
Kommunal@@ 120
Michael 120
Option 120
Quote 120
Strafgerichtshof 120
Tod 120
Verbraucherschutz 120
War@@ 120
abgelehnt 120
ach 120
begrenzt 120
chtig 120
cke 120
erteilen 120
ertes 120
fall@@ 120
fähige 120
gearbeitet 120
gefährden 120
kohär@@ 120
lesen 120
mern 120
niederländischen 120
produkte 120
schli@@ 120
solches 120
spar@@ 120
unabhängige 120
uren 120
verzeichnen 120
vorrangig 120
wollten 120
zusetzen 120
Anpassungen 119
Außenminister 119
Betriebs@@ 119
Bewerber@@ 119
EU-Ebene 119
Einsetzung 119
Finanzkrise 119
Fran@@ 119
ID@@ 119
Interim@@ 119
Menschenrecht@@ 119
SA 119
Schätzungen 119
Steigerung 119
Wettbewerbs 119
Wohl@@ 119
Währungs@@ 119
ack@@ 119
begleit@@ 119
beiträgt 119
brechen 119
dahin 119
endgültig 119
engen 119
funktionieren 119
generell 119
gestattet 119
mente 119
rein@@ 119
relativ 119
richtet 119
schaftlicher 119
shaushalt 119
stan@@ 119
teren 119
verfassungs@@ 119
verändert 119
wachsen 119
wasser@@ 119
weshalb 119
00@@ 118
300 118
Arbeitnehmer@@ 118
Drittländer 118
Erwägung 118
Herbst 118
Per@@ 118
Pilot@@ 118
Schluß@@ 118
Sommer 118
Sorgen 118
Ste@@ 118
Städten 118
Te@@ 118
UC@@ 118
US-@@ 118
Uni@@ 118
Viz@@ 118
WWU 118
abschließend 118
angebracht 118
auer 118
begegnen 118
benachteiligten 118
bereitgestellt 118
bewerten 118
effizienten 118
einzustellen 118
fan@@ 118
fisch@@ 118
fähigen 118
garantiert 118
gestatten 118
grad 118
größter 118
jenen 118
jährigen 118
leistet 118
leistung 118
läßlich 118
nahe 118
rechtlich 118
reich@@ 118
reisen 118
schw@@ 118
schwedischen 118
sper@@ 118
strich 118
tal@@ 118
ton 118
tte 118
welches 118
werfen 118
yer 118
zeug@@ 118
… 118
29 117
3,@@ 117
NO@@ 117
Parlaments@@ 117
Pläne 117
Son@@ 117
Vollstreck@@ 117
Vorstellung 117
ano 117
anzupassen 117
benen 117
decken 117
ermitteln 117
ernsthaft 117
igung 117
leiden 117
liert 117
mischen 117
mitzu@@ 117
schl@@ 117
sicheren 117
spreche 117
til 117
verdient 117
verwal@@ 117
vollkommen 117
zweiter 117
öl@@ 117
All 116
Barcelona 116
Beilegung 116
Beitra@@ 116
Besitz@@ 116
Birma 116
Entwicklungshilfe 116
Gefühl 116
IST 116
Kanada 116
Leute 116
Papier 116
Personen@@ 116
UL@@ 116
Verarbeitung 116
anwenden 116
atische 116
bauen 116
beding@@ 116
beeinträchtigen 116
beihilfen 116
beschl@@ 116
beträchtliche 116
drücken 116
erfordern 116
erstmals 116
gestützt 116
höhere 116
ig 116
industriellen 116
its 116
jegliche 116
jüngste 116
letztlich 116
pen@@ 116
prior@@ 116
stehe 116
trag 116
unterrichtet 116
wachsenden 116
zahlungen 116
zen@@ 116
zukommen 116
zü@@ 116
® 116
übrigens 116
91 115
Anhörung 115
Beitrittsländern 115
Beru@@ 115
Bre@@ 115
Direktzahlungen 115
EUROP@@ 115
GU@@ 115
Gebäude 115
Hamas 115
Hel@@ 115
Inhalte 115
Integrität 115
Kandidaten 115
Mand@@ 115
Ratspräsidentschaft 115
Referendum 115
Tr@@ 115
abzielen 115
anwal@@ 115
arm 115
befürwortet 115
beider 115
bekräftigen 115
breiten 115
einfache 115
eiten 115
früh@@ 115
gehandelt 115
gemeinsamem 115
luß@@ 115
mar@@ 115
republik 115
ständiger 115
technologischen 115
tiefe 115
wand@@ 115
wel@@ 115
zuführen 115
zuzu@@ 115
zäh@@ 115
üssen 115
Ablehnung 114
Beitrittskandidaten 114
Bewegung 114
DA@@ 114
HEI@@ 114
Handlungs@@ 114
Haup@@ 114
Haushalte 114
Internationale 114
Kün@@ 114
Leone 114
Material 114
Parlamente 114
Sicherheits- 114
Wird 114
Zucker@@ 114
afrikanischen 114
anschließen 114
atoren 114
bereichen 114
druck 114
effizienter 114
einzubeziehen 114
ffen 114
gegenwärtige 114
guter 114
hohes 114
hängen 114
konstruktive 114
kop@@ 114
ks 114
liste 114
por@@ 114
satz@@ 114
spezi@@ 114
verloren 114
versichern 114
vertei@@ 114
vertreter 114
vorhaben 114
vorläufigen 114
welt@@ 114
wiesen 114
Äthiopien 114
Übernahme 114
ähr@@ 114
AND 113
Afrikanischen 113
Design 113
Dienststellen 113
Kandidaten@@ 113
Konvergenz 113
Licht 113
MI@@ 113
New 113
Operation 113
Osteuropas 113
Pflanzenschutz@@ 113
RIS@@ 113
Rom 113
Vorsch@@ 113
achtet 113
außen 113
ele@@ 113
gän@@ 113
hän@@ 113
kas 113
keinerlei 113
rechnen 113
reifen 113
schätzen 113
tischer 113
trags 113
weiten 113
Öl@@ 113
8,@@ 112
Alternative 112
Beobachter 112
Beratung 112
Eingliederung 112
Experten 112
Informationsaustausch 112
KOM 112
LER 112
La 112
Politikbereichen 112
Rau@@ 112
Rechtsrahmen 112
Regime 112
SK@@ 112
See 112
Verschlechterung 112
Vorstellungen 112
abzuschließen 112
app@@ 112
av@@ 112
beauftragt 112
bedeutenden 112
beenden 112
begangen 112
britische 112
bs 112
drin@@ 112
ersetzen 112
fehlt 112
formen 112
frem@@ 112
geschrieben 112
illegale 112
italienische 112
rein 112
sion@@ 112
sorgfältig 112
stein 112
tri@@ 112
unzu@@ 112
vergleich@@ 112
verringert 112
vorliegt 112
ze@@ 112
ziehung 112
überzeugen 112
Akteuren 111
Allgemein@@ 111
Beibehaltung 111
Berat@@ 111
Finanzmittel 111
Gemäß 111
Gesprächen 111
Krankheiten 111
MA@@ 111
Meer 111
Räume 111
Schluss@@ 111
Subsidiarität 111
Südafrika 111
Umgebung 111
Verbrauchern 111
Verwaltungen 111
Wahlbeob@@ 111
ativ@@ 111
beurteilen 111
ermäch@@ 111
erör@@ 111
etz@@ 111
flu@@ 111
garanti@@ 111
genügend 111
gesetzten 111
glie@@ 111
großem 111
kn@@ 111
kriterien 111
leg@@ 111
lichkeits@@ 111
lig 111
machte 111
musste 111
orienti@@ 111
periode 111
sident 111
sonstigen 111
sprach 111
stoff@@ 111
sur@@ 111
tagung 111
ungeh@@ 111
verein@@ 111
verk@@ 111
verlängert 111
welchem 111
öffnen 111
4.@@ 110
Ansichten 110
Aufenthalt 110
Bemerkung 110
Bes@@ 110
Bio@@ 110
Forstwirtschaft 110
Freunde 110
Grundlagen 110
Kosten@@ 110
NATO 110
Nizza 110
PO@@ 110
Partnerschaften 110
Potenzial 110
Präsenz 110
Reise@@ 110
Schäden 110
Sitzungen 110
Sozialfonds 110
Stand@@ 110
TO@@ 110
Vertiefung 110
WIRT@@ 110
angehörigen 110
aufzubauen 110
ausgewogenen 110
automatisch 110
biom@@ 110
bre@@ 110
direkte 110
entliche 110
ett@@ 110
get@@ 110
geänderten 110
haften 110
jungen 110
ko 110
kontrollen 110
linie 110
läge 110
med 110
mittleren 110
net@@ 110
que 110
rit@@ 110
sektor@@ 110
situation 110
sogenannten 110
tierte 110
traditionellen 110
transeuropäischen 110
vorschlags 110
zählt 110
99 109
Anlass 109
Banken 109
Dadurch 109
Einkommens@@ 109
Erwartung 109
Firma 109
Franz 109
Führer 109
Großen 109
Haar@@ 109
Initiativ@@ 109
Korea 109
Kunst@@ 109
Kurz@@ 109
Ne@@ 109
Parlamentswahlen 109
Quoten 109
Sol@@ 109
Straftaten 109
UK 109
Verträgen 109
ame 109
angehören 109
angewendet 109
arten 109
autonom@@ 109
bes 109
bilaterale 109
dor@@ 109
eingehend 109
fri@@ 109
gewissen 109
höchste 109
ic@@ 109
ierenden 109
intensiv 109
interne 109
klären 109
kräfte 109
letz@@ 109
marktes 109
rische 109
schie@@ 109
sweise 109
tatsächlichen 109
tens 109
u.a. 109
usses 109
vereinbarungen 109
vierten 109
werten 109
wo@@ 109
wunder@@ 109
zunehmende 109
ökonomischen 109
ρ@@ 109
0,5 108
Annäherung 108
Atmosphäre 108
Aufteilung 108
Erzeug@@ 108
Insel 108
Internet@@ 108
Kabelj@@ 108
Kommissionsvorschlag 108
Last@@ 108
Lebensmitteln 108
Mitentscheidungs@@ 108
Nah@@ 108
Regelungs@@ 108
Schw@@ 108
Vertri@@ 108
Werten 108
abhängi@@ 108
alistischen 108
allzu 108
aufbauen 108
auszuarbeiten 108
auszubauen 108
ausüben 108
bekämpfung 108
definiert 108
dien@@ 108
diensten 108
gesam@@ 108
geäußert 108
ka@@ 108
lat@@ 108
liber@@ 108
ll@@ 108
sten@@ 108
terin 108
terungen 108
zei@@ 108
zt 108
Überblick 108
ßte 108
überwachen 108
ž@@ 108
Angst 107
Ausgleichs@@ 107
Ermittlung 107
Funktionen 107
Hierzu 107
Klausel 107
Kontinents 107
Libanon 107
MAR@@ 107
MP@@ 107
Myanmar 107
Münzen 107
Paris 107
Rechtsprechung 107
Situationen 107
ausreichende 107
beantworten 107
behaupten 107
beider@@ 107
bezogenen 107
formuliert 107
forschung 107
fü@@ 107
fün@@ 107
gelassen 107
gewis@@ 107
gezwungen 107
ierende 107
kurze 107
langem 107
multi@@ 107
mäßige 107
ordn@@ 107
schneller 107
schwierige 107
sum@@ 107
treff@@ 107
türkischen 107
verfügbar 107
verständlich 107
woh@@ 107
zuerst 107
zunehmenden 107
zurückzuführen 107
äußert 107
σ@@ 107
150 106
Angleichung 106
Anreize 106
Ansch@@ 106
Aussichten 106
BAR@@ 106
Balkan 106
Beifall 106
Betreiber 106
Erfolge 106
Eritrea 106
Europa-Mittelmeer-@@ 106
Hier@@ 106
Kan@@ 106
Lei@@ 106
Lin@@ 106
Na@@ 106
OP@@ 106
Personal@@ 106
Produkt@@ 106
Prozent 106
RO 106
Sport 106
Technik 106
Textil@@ 106
Tran@@ 106
Umstrukturierung 106
Umweltfragen 106
Unternehmens 106
Wirtschaf@@ 106
alem 106
eien 106
einzuleiten 106
etwa@@ 106
fahrzeugen 106
fre@@ 106
geboten 106
gedacht 106
gremien 106
grenze 106
hafte 106
ierungen 106
iges 106
kamen 106
mentar@@ 106
ou 106
private 106
rahmens 106
satzes 106
solide 106
utz@@ 106
ventionen 106
verordnung 106
vertrag@@ 106
wahrnehmen 106
würfe 106
2020 105
4-@@ 105
Appell 105
Energiepolitik 105
Erinnerung 105
Fer@@ 105
Flüchtlingen 105
Grünen 105
Hä@@ 105
Kooperationsabkommen 105
LL@@ 105
Lebensqualität 105
Maastricht 105
Mandats 105
Mangel 105
Menschenrechten 105
Migration 105
Nichtregierungsorganisationen 105
Niederlanden 105
Rechten 105
Schulden@@ 105
Sitz 105
Verhalten 105
Zunahme 105
aller@@ 105
amp@@ 105
beglückwünschen 105
dumping 105
ffene 105
gendes 105
halten@@ 105
infolge 105
jedenfalls 105
kur@@ 105
mus 105
ober@@ 105
pe@@ 105
sekretärin 105
sor@@ 105
sozi@@ 105
sse 105
technologische 105
veranstal@@ 105
verhängt 105
z. 105
zukünftigen 105
1989 104
2007-2013 104
Abend 104
Del@@ 104
Doppel@@ 104
Folge@@ 104
Haftung 104
Indonesien 104
Infrastrukturen 104
Leitung 104
Not@@ 104
Portu@@ 104
RI@@ 104
Sicher@@ 104
Stabilisierung 104
Tages@@ 104
Trans@@ 104
Zuge 104
ana 104
art@@ 104
ba@@ 104
bedeutende 104
beglück@@ 104
deckt 104
effektiv 104
engere 104
erer 104
ises 104
ita@@ 104
keinem 104
kolle@@ 104
platz 104
ra 104
ranken 104
regionen 104
ritt@@ 104
stärksten 104
wirksamer 104
wolle 104
Überwachungs@@ 104
3.@@ 103
55 103
Absatz@@ 103
Bilanz 103
Bran@@ 103
Bö@@ 103
Energien 103
FR 103
Fis@@ 103
Gegensatz 103
Haushaltsplan 103
Kl@@ 103
Lam@@ 103
Michel 103
Mün@@ 103
Pra@@ 103
Pre@@ 103
Seen 103
VI 103
Verkauf 103
Wider@@ 103
antworten 103
ast@@ 103
betreiben 103
erfreut 103
fizierung 103
freier 103
fun@@ 103
gefaßt 103
genehmig@@ 103
genommenen 103
gewahrt 103
gige 103
hrt 103
konzentriert 103
koordinieren 103
lehnt 103
ling@@ 103
methoden 103
mün@@ 103
nachzu@@ 103
oll@@ 103
ppen 103
quoten 103
raschen 103
vieler 103
wege 103
wen@@ 103
ziel 103
zuversichtlich 103
üben 103
Finanzdienstleistungen 102
Gaz@@ 102
Gelder 102
Gemeinschaftsrecht 102
Gäste 102
Kom@@ 102
Konzer@@ 102
Massen@@ 102
Mel@@ 102
Mängel 102
Nieder@@ 102
Sozi@@ 102
Stadt@@ 102
Vorsitzende 102
Weiterbildung 102
Wor@@ 102
anbieten 102
bende 102
berechtigt 102
bezeichnet 102
bindung 102
bür@@ 102
eingesch@@ 102
einzelstaatlicher 102
elten 102
entscheidung 102
ergeb@@ 102
erleben 102
erläutern 102
erwar@@ 102
fik@@ 102
fris@@ 102
gang@@ 102
gefährdet 102
grundlage 102
herrscht 102
laden 102
mü@@ 102
müssten 102
na 102
offen@@ 102
reiten 102
spezielle 102
staats 102
stehend 102
stellungs@@ 102
tätigen 102
wann 102
zweck@@ 102
züge 102
ón 102
ν@@ 102
29@@ 101
Ausland 101
Betroffenen 101
Beziehung 101
EP 101
Einfuhr 101
Energiequellen 101
Grad 101
Investitionsbank 101
Lebens 101
Nachfolger 101
Online-@@ 101
Politik@@ 101
Projekts 101
SM@@ 101
Schaden 101
Sech@@ 101
Simbabwe 101
Staatsführung 101
Strafe 101
Unternehmen@@ 101
Weiteren 101
Zwar 101
ak 101
anerkannten 101
are@@ 101
ast 101
dieselben 101
einfacher 101
erforder@@ 101
erlebt 101
erzeugnisse 101
feld 101
gesunken 101
größer 101
itä@@ 101
jemand 101
kter 101
ktion@@ 101
ruhe 101
schen@@ 101
sla@@ 101
stattung 101
strei@@ 101
struktur 101
testen 101
verpflichten 101
übermitteln 101
1990 100
AU 100
Arbeitgeber 100
DN@@ 100
Europäischer 100
Fes@@ 100
Gast@@ 100
Gefangenen 100
Gesetzes@@ 100
Hinsichtlich 100
IA@@ 100
Instrumenten 100
Lieferung 100
Mio 100
Nahrungsmittel 100
Netzes 100
REG@@ 100
Sicherheit@@ 100
TEN@@ 100
Tschetschenien 100
Wiederein@@ 100
alisiert 100
amt 100
angehen 100
anpassen 100
anzunehmen 100
bten 100
co@@ 100
dri@@ 100
ek 100
entstanden 100
erarbeiten 100
erarbeitet 100
fal@@ 100
fän@@ 100
gesichert 100
groß@@ 100
hilft 100
mark@@ 100
organis@@ 100
organisiert 100
ost@@ 100
pä@@ 100
regelmäßigen 100
stellvertreten@@ 100
steuer@@ 100
teilung 100
untereinander 100
unterstrichen 100
veranstaltet 100
volumen 100
5,@@ 99
8-@@ 99
Ad-@@ 99
Arzneimittel 99
Ausmaß 99
Bild@@ 99
Darlehen 99
Fisch@@ 99
Fristen 99
Gefahren 99
IP@@ 99
Kin@@ 99
LAND@@ 99
Lissabon-Strategie 99
Mu@@ 99
Multi@@ 99
Nacht@@ 99
Obst 99
Redner 99
SOL@@ 99
Schwer@@ 99
Sri 99
Universität 99
Val@@ 99
Vorfeld 99
anstatt 99
effek@@ 99
eintreten 99
erende 99
erneuerbaren 99
ethnischen 99
ette 99
gelegten 99
gestaltet 99
hi@@ 99
hinweg 99
intensi@@ 99
klu@@ 99
leichter 99
lieferungen 99
planung 99
spra@@ 99
tives 99
umfaßt 99
unlängst 99
untersucht 99
verursacht 99
werke 99
wert@@ 99
wä@@ 99
ziemlich 99
zulässig 99
zweitens 99
9.@@ 98
AKP-@@ 98
Alter 98
Atom@@ 98
Ausführung 98
BES@@ 98
Ergänzung 98
Funktionsweise 98
Impulse 98
Jan 98
Kopf 98
Kredit@@ 98
Lebensmittelsicherheit 98
Maß@@ 98
Meinungs@@ 98
Met@@ 98
Ministerrat 98
NL 98
Polizei 98
Ra@@ 98
Rundfun@@ 98
Schrift@@ 98
Schwe@@ 98
Stell@@ 98
Stunde 98
TEI@@ 98
Wirtschaftskrise 98
Ziffer 98
Zustand 98
bedroht 98
begünsti@@ 98
benutzen 98
betragen 98
biologischen 98
bringung 98
deck@@ 98
emp@@ 98
ersetzt 98
gaben 98
gerung 98
hoc-@@ 98
justi@@ 98
kat@@ 98
kol@@ 98
konsolidi@@ 98
lern 98
partner@@ 98
schung 98
sinnvoll 98
sozial@@ 98
streben 98
unterschiedlich 98
verteilung 98
vol@@ 98
wesens 98
zeichn@@ 98
zeitraum 98
zügig 98
ähnliche 98
34 97
9,@@ 97
AT 97
Abfall@@ 97
All@@ 97
Alters@@ 97
Cor@@ 97
Essen 97
Kommissionspräsident 97
Peter 97
Reise 97
Ren@@ 97
Repräsent@@ 97
Roma 97
Schreiben 97
Statistiken 97
Stück 97
Termin 97
Tä@@ 97
Vi@@ 97
Zwei@@ 97
adet 97
aktion 97
anstehenden 97
asse 97
bean@@ 97
beschließen 97
beschrän@@ 97
brauch 97
derer 97
empf@@ 97
ermutigt 97
essen@@ 97
fs 97
gelingen 97
gesp@@ 97
gewonnen 97
grundlegender 97
ik 97
innovative 97
kür@@ 97
letzter 97
liger 97
ments 97
müsste 97
nachhaltig 97
nütz@@ 97
problem 97
serb@@ 97
staat@@ 97
steller 97
ure 97
vorge@@ 97
zentraler 97
zy@@ 97
.. 96
3-@@ 96
38 96
Abhängigkeit 96
Beträge 96
Dies@@ 96
Dritt@@ 96
Eigentum 96
Erarbeitung 96
Eurozone 96
Hotel@@ 96
Konzepte 96
Leiter 96
Letz@@ 96
Mann 96
Problematik 96
S. 96
Satz 96
Säule 96
Wesentlichen 96
ands 96
ausgewogene 96
berechtigten 96
beträgt 96
bewirken 96
demokratisch 96
derungen 96
ehrt 96
eigenes 96
enswert 96
eres 96
eröffnen 96
fi@@ 96
fühlen 96
gelingt 96
getroffenen 96
hingegen 96
höchsten 96
ide@@ 96
inger 96
itt 96
künfte 96
lierung 96
mung 96
plans 96
ret@@ 96
stitu@@ 96
stärkeren 96
territoriale 96
ut 96
verschiedener 96
verzichten 96
widmen 96
wirksam@@ 96
wohl@@ 96
« 96
Öko@@ 96
Überein@@ 96
ücken 96
2. 95
44 95
Amerika 95
Andere 95
Arbeitsbedingungen 95
Berich@@ 95
Bur@@ 95
Eisenbahn@@ 95
Energieeffizienz 95
Erörterung 95
Folgendes 95
Geschäft@@ 95
Gipfels 95
Inverkehr@@ 95
Kohäsionsfonds 95
Küsten@@ 95
Landes@@ 95
Mexiko 95
PAR@@ 95
Rechtsetzung 95
Sicherheitsrat 95
Sollte 95
Sub@@ 95
Telefon 95
Trag@@ 95
Unterrichtung 95
Verk@@ 95
Zusammensetzung 95
atischen 95
ativ 95
außerordentlich 95
bemerk@@ 95
berg 95
beschäftigen 95
beseitigen 95
bewer@@ 95
bewertet 95
dynam@@ 95
eins 95
erheben 95
erscheinen 95
fein@@ 95
fortsch@@ 95
geprägt 95
gerichteten 95
hinzufügen 95
hörte 95
keineswegs 95
lauf@@ 95
linien 95
mm 95
statisti@@ 95
stattfindet 95
tief@@ 95
tigem 95
tors 95
verbesserte 95
verdienen 95
verteilt 95
verwiesen 95
völ@@ 95
wirk@@ 95
würdige 95
.000 94
89 94
Aufrechterhaltung 94
Beim 94
Belastung 94
Georgi@@ 94
Ges@@ 94
Hilf@@ 94
Innovationen 94
Mengen 94
Milch 94
Musik 94
Pf@@ 94
Pr@@ 94
Rahmenprogramms 94
Websites 94
age 94
angekündigt 94
beitreten 94
bemühungen 94
berührt 94
breit@@ 94
bur@@ 94
cken@@ 94
entes 94
ermittelt 94
faire 94
finanzi@@ 94
gebaut 94
gegenseitig 94
gemessen 94
gra@@ 94
jährlichen 94
kehren 94
mäch@@ 94
nutz@@ 94
prü@@ 94
realis@@ 94
rel@@ 94
sinn@@ 94
stärkt 94
täglich 94
uneingeschrän@@ 94
verwirklicht 94
verzerr@@ 94
vorher@@ 94
1000 93
Anträge 93
Ausrüstung 93
Ban@@ 93
Behinderungen 93
Eltern 93
Erfordernisse 93
Erläuterungen 93
Erör@@ 93
IP 93
Jahrhunderts 93
Kapazitäten 93
Kategorie 93
Koordinierungs@@ 93
Manuel 93
Mari@@ 93
Neue 93
Noch 93
Osteuropa 93
Pap@@ 93
Prin@@ 93
Revision 93
Rindfleisch 93
Soziales 93
Spezi@@ 93
Tourismus@@ 93
Umgang 93
Verbrauch 93
Verfolgung 93
Verlust 93
Wander@@ 93
Wille 93
Zielsetzungen 93
amtierender 93
anlässlich 93
aufen 93
aufgebaut 93
auftreten 93
beabsich@@ 93
bün@@ 93
eingeleiteten 93
er-@@ 93
ernste 93
gewicht 93
größt@@ 93
hel@@ 93
maßgeb@@ 93
mm@@ 93
ons 93
region 93
scht 93
stattungen 93
stützt 93
südlichen 93
tariat 93
umfangreiche 93
verschaffen 93
zuständige 93
Änderungs@@ 93
üh@@ 93
42 92
5-@@ 92
88 92
Amtszeit 92
Ausgangspunkt 92
Beobach@@ 92
Beruf@@ 92
Demokratisierung 92
Diensten 92
Einbindung 92
Generalversammlung 92
Generationen 92
Gewässern 92
Kämpf@@ 92
Merkmale 92
Mod@@ 92
Prodi 92
Spar@@ 92
Still@@ 92
Veranstaltungen 92
Verhaltenskodex 92
abend 92
anlagen 92
arbeiteten 92
ausgebaut 92
auszur@@ 92
beantragt 92
bri@@ 92
dänische 92
eingeh@@ 92
erinn@@ 92
erzeugnissen 92
ever@@ 92
fähig@@ 92
gefasst 92
gegenüber@@ 92
gelegen 92
gerin 92
gkeit 92
integriert 92
ker@@ 92
linge 92
mis@@ 92
mitgeteilt 92
mitteilen 92
mä@@ 92
os@@ 92
richtete 92
ro 92
sofor@@ 92
st-@@ 92
stütz@@ 92
system@@ 92
thal@@ 92
transparente 92
täglichen 92
vertiefen 92
vier@@ 92
vorher 92
vornehmen 92
wie@@ 92
will@@ 92
zig 92
ökologischen 92
05 91
Besonders 91
Betrieb@@ 91
Bevölkerungsgruppen 91
Brüssel@@ 91
Dass 91
Einfuhr@@ 91
Ermittlungen 91
Fünf@@ 91
Großbritannien 91
Halb@@ 91
Hei@@ 91
Ka@@ 91
Kla@@ 91
Kurs 91
Leistungs@@ 91
Mrd. 91
Nepal 91
Plat@@ 91
Por@@ 91
Respekt 91
Rücküber@@ 91
SL@@ 91
Schwellen@@ 91
Sie@@ 91
Verhinderung 91
WIR@@ 91
Ware 91
Weg@@ 91
Weiß@@ 91
Zone 91
alisierte 91
anzugehen 91
ausgeführt 91
beeinträchtigt 91
befasst 91
blicken 91
cor@@ 91
erweiterte 91
esen 91
finanzieren 91
gerufen 91
gratulieren 91
gulierung 91
handel@@ 91
hinter@@ 91
hoffentlich 91
holen 91
maß@@ 91
mitglie@@ 91
mp@@ 91
ordnungsgemäß 91
potenti@@ 91
soeben 91
spanische 91
steuern 91
verabschiedeten 91
verankert 91
vorüber@@ 91
ς 91
3. 90
AF@@ 90
Druck@@ 90
EG-Vertrag 90
Einladung 90
Fischer@@ 90
Führ@@ 90
Größe 90
Halbzeit@@ 90
Kollegi@@ 90
Krisenbewäl@@ 90
Minder@@ 90
Nein 90
Netto@@ 90
Sied@@ 90
Terroristen 90
Ti@@ 90
Veterinär@@ 90
Wiener 90
Zivilisten 90
Zulassung 90
angeboten 90
angezeigt 90
aufnahme 90
derjenigen 90
ec@@ 90
ecken 90
ehrgeizige 90
entlichen 90
gef@@ 90
gefühl 90
gericht 90
gesorgt 90
hil@@ 90
il 90
irische 90
jährliche 90
lik@@ 90
ministers 90
ns 90
punkten 90
seitigen 90
setzungs@@ 90
skosten 90
staats@@ 90
ursprünglich 90
wirft 90
Arbeitsp@@ 89
Augenblick 89
Datenschutz 89
Deutschlands 89
Einzelnen 89
Europarat 89
Fi@@ 89
Fremd@@ 89
Ganz 89
Haushalt@@ 89
Hinter@@ 89
Kern 89
Kommunen 89
Lateinamerika 89
Luftverkehrs@@ 89
Madrid 89
Opfern 89
Pan@@ 89
QU@@ 89
Schlüssel 89
Urlaub 89
Verkehr@@ 89
Volksgesundheit 89
Wachstum@@ 89
Zucker 89
ara 89
ark@@ 89
art 89
bestände 89
betrieben 89
blo@@ 89
chungen 89
effektive 89
eigener 89
enth@@ 89
entsteht 89
ere@@ 89
etwaige 89
fel@@ 89
fordere 89
gebunden 89
gegründet 89
gesellschaften 89
grenz@@ 89
humanitärer 89
interessiert 89
kleiner 89
luß 89
mussten 89
nder 89
normalen 89
prochen 89
schem 89
schwere 89
schü@@ 89
trotzdem 89
unten 89
unterscheiden 89
vention@@ 89
verbrau@@ 89
verkün@@ 89
willkommen 89
zone 89
zustande 89
š@@ 89
200@@ 88
24@@ 88
7.@@ 88
Anpassungs@@ 88
Berichterstatters 88
Beschränkung 88
Bilder 88
Bis@@ 88
Bosni@@ 88
DR 88
Direkt@@ 88
Diversifizierung 88
Du@@ 88
Einschätzung 88
Ersuchen 88
Europe 88
Falls 88
Gest@@ 88
Humanressourcen 88
Inflation 88
Jahrestag 88
Offen@@ 88
Potential 88
TN@@ 88
Tor@@ 88
Umstand 88
Verstoß 88
Wissens@@ 88
Wortlaut 88
Zugestän@@ 88
alisieren 88
ant@@ 88
aufgehoben 88
benutzt 88
chn@@ 88
demokrati@@ 88
diesbezügliche 88
drei@@ 88
einfachen 88
einsei@@ 88
erfolgte 88
ergän@@ 88
erlau@@ 88
erwiesen 88
geblieben 88
gesell@@ 88
gleicher 88
graph@@ 88
hn@@ 88
jugoslawischen 88
kenntnis 88
kurzen 88
misst 88
moderne 88
olle 88
paßt 88
pri@@ 88
produkten 88
richtlinien 88
sern 88
smus 88
stag@@ 88
standes 88
tern@@ 88
tor@@ 88
ueber@@ 88
unternehmer@@ 88
verst@@ 88
verändern 88
vorzubereiten 88
vorzuschlagen 88
zieren 88
überlassen 88
Adresse 87
Andererseits 87
Ausfuhren 87
Beh@@ 87
Beschlüssen 87
Bezeichnung 87
Darin 87
Drei@@ 87
Energiever@@ 87
Fischler 87
Gemüse 87
Geschle@@ 87
Güter 87
Hochschul@@ 87
Inhaf@@ 87
Koordin@@ 87
Luc 87
Mikro@@ 87
Mir 87
Offenheit 87
Palästinenser 87
Pestizi@@ 87
Raum@@ 87
SEN@@ 87
Schengen-@@ 87
Spielraum 87
Stärke 87
Tur@@ 87
Vermarktung 87
Vertrauens 87
Wahrheit 87
Werbe@@ 87
Will@@ 87
Wähler 87
Wünsche 87
angemessener 87
aufgestellt 87
aufrechterhalten 87
basiert 87
bereitet 87
biologische 87
demnächst 87
dere 87
ehen 87
empfiehlt 87
erwähnen 87
fähiger 87
geachtet 87
grund 87
gründen 87
höher 87
klarer 87
kommun@@ 87
kraft@@ 87
ling 87
losigkeit 87
manche 87
märkten 87
nü@@ 87
olls 87
prozesse 87
raten 87
ratifizieren 87
reduzieren 87
reduziert 87
reich 87
senken 87
sinitiative 87
sitzung 87
trä@@ 87
vereinbaren 87
vermitteln 87
verweist 87
zin@@ 87
zwölf 87
äumen 87
äußerten 87
üb@@ 87
6.@@ 86
77 86
Anfragen 86
Anwesenheit 86
Außenhandel 86
Denk@@ 86
Des@@ 86
Flughafen 86
Gerichts@@ 86
Glob@@ 86
HER@@ 86
JA@@ 86
Kno@@ 86
LO@@ 86
Martin 86
Preisen 86
Produktion@@ 86
Selbstverständlich 86
Sh@@ 86
Stabilitäts- 86
Verletzungen 86
Wachstums 86
We@@ 86
angepasst 86
antrag 86
ars 86
assen@@ 86
behand@@ 86
bereitzustellen 86
bewahren 86
deut@@ 86
deutliche 86
dring@@ 86
eingeb@@ 86
finanziell 86
finanzieller 86
gangenen 86
gehe 86
gewidmet 86
innere 86
inwieweit 86
kt@@ 86
letztendlich 86
län@@ 86
mitglied@@ 86
mt 86
orientierten 86
passiert 86
position@@ 86
realistisch 86
reform@@ 86
ressourcen 86
sidentin 86
steigt 86
stimm@@ 86
streng@@ 86
them@@ 86
tiere 86
tin 86
tragenen 86
transparent 86
verhän@@ 86
win@@ 86
wu@@ 86
zeichen 86
zogen 86
zugelassen 86
ärmsten 86
α 86
11. 85
39 85
Asien 85
Auflagen 85
Bestätigung 85
Boden 85
Fischereisektor 85
HO@@ 85
Investition@@ 85
Mehrwert 85
Nigeria 85
Nutzer 85
Positionen 85
Privatsphäre 85
Restaurant 85
Schicksal 85
Steuerzahler 85
Straße 85
Streitkräfte 85
Studenten 85
TAC 85
Ursprungs@@ 85
Visum@@ 85
Vizepräsidentin 85
Wirk@@ 85
atorium 85
auffordern 85
bl@@ 85
chtes 85
dienst@@ 85
diplomatischen 85
dre@@ 85
echt 85
einzurichten 85
est 85
externe 85
fläche 85
geplant 85
geraten 85
griechische 85
iten 85
kanischen 85
lauf 85
maßen 85
mor@@ 85
nete 85
prakti@@ 85
produzieren 85
respektiert 85
sal@@ 85
sion 85
starkes 85
steigern 85
ströme 85
umgehend 85
unum@@ 85
voraussichtlich 85
welle 85
zielen 85
zulegen 85
öff@@ 85
übt 85
ül@@ 85
6,@@ 84
Abfälle 84
Alternativen 84
Angola 84
Bank@@ 84
Doha 84
ECO@@ 84
Ehr@@ 84
Eigenschaften 84
Erbringung 84
Handels- 84
Haushaltsjahr 84
Innen@@ 84
Interessen@@ 84
Israels 84
Kauf@@ 84
Kenn@@ 84
Kolumbien 84
Kontakt@@ 84
Lissabon-@@ 84
Reaktionen 84
Schla@@ 84
Schon 84
Sta@@ 84
Umwel@@ 84
Verhandlung@@ 84
Versand@@ 84
Veränderung 84
Vorgaben 84
WER@@ 84
Werk@@ 84
abhängen 84
auen 84
bares 84
brau@@ 84
deutlichen 84
ehrlich 84
empfehlen 84
enfalls 84
ersuchen 84
etten 84
gar@@ 84
geber 84
greif@@ 84
kla@@ 84
konzept 84
kürz@@ 84
mier@@ 84
od@@ 84
on-@@ 84
pflich@@ 84
rechtfertigen 84
schreck@@ 84
shofs 84
stoff 84
tiv 84
tlichen 84
verleiht 84
wil@@ 84
äd@@ 84
å 84
öh@@ 84
μ@@ 84
1,5 83
37 83
400 83
47 83
Abstand 83
Aufsicht 83
Bau 83
Bench@@ 83
Beschäftigungspolitik 83
Besitzstand 83
Festsetzung 83
Frühjahr 83
Hilfen 83
Kirche 83
Kofinanzierung 83
Norm@@ 83
Real@@ 83
Rind@@ 83
SIT@@ 83
Stu@@ 83
Vermeidung 83
Zielsetzung 83
alter 83
ander@@ 83
angestre@@ 83
angestrebt 83
ausführlich 83
banischen 83
beitrittswilligen 83
bers 83
dieren 83
einkommen 83
ennung 83
geo@@ 83
gert 83
gestütz@@ 83
hafter 83
herzustellen 83
inhaf@@ 83
inneren 83
kommende 83
leben@@ 83
lung@@ 83
online 83
protokoll 83
räum@@ 83
schei@@ 83
scheinen 83
sel 83
seu@@ 83
vorrangigen 83
werbung 83
wider 83
zeichnete 83
49 82
Also 82
Angebote 82
Anwendungen 82
Befug@@ 82
Benutzer 82
CAR@@ 82
Details 82
Entschädigung 82
Entwurfs 82
Erfordernis 82
Ern@@ 82
Finanzrahmen 82
Garanti@@ 82
Gerichten 82
Grundsatzes 82
Inspek@@ 82
JUS@@ 82
Jean-Claude 82
Kas@@ 82
Katastrophe 82
Kir@@ 82
Klarheit 82
Komit@@ 82
Kürzung 82
Marktzugang 82
Minis@@ 82
Post 82
Projekt@@ 82
Rechnungshof 82
Referenz@@ 82
SIS 82
Sitz@@ 82
Straft@@ 82
Telefon@@ 82
ULT@@ 82
Vizepräsidenten 82
Wichtigste 82
abgabe 82
anerkennen 82
ansprechen 82
ari@@ 82
audiovisuellen 82
bekannten 82
beunruhigt 82
beweisen 82
billi@@ 82
buchs 82
bürger@@ 82
diert 82
digitalen 82
dra@@ 82
far@@ 82
fort 82
gebildet 82
geführten 82
herbeizuführen 82
hoben 82
ihrerseits 82
kontrollieren 82
leb@@ 82
lebenden 82
länger@@ 82
mitglieder 82
nor@@ 82
prüfung 82
reformen 82
ren@@ 82
schiff@@ 82
sive 82
sprinzips 82
tik 82
tt 82
tur 82
vereinig@@ 82
verträge 82
vorzugehen 82
werks 82
wir@@ 82
zeichnung 82
Öffent@@ 82
η@@ 82
0er 81
50@@ 81
AKP-Staaten 81
Arbeitslosenquote 81
Aufforderung 81
Autonom@@ 81
BL@@ 81
Begrenzung 81
Beitritts 81
Billi@@ 81
Einfluß 81
Einschränkung 81
Em@@ 81
Flu@@ 81
Folglich 81
Hal@@ 81
INTER@@ 81
Jede 81
Kennzeichnung 81
Komp@@ 81
Lan@@ 81
Lissabonner 81
Miss@@ 81
Pakt 81
Regel@@ 81
Richtlinien@@ 81
Sat@@ 81
Selb@@ 81
Somit 81
Sor@@ 81
Sprachen@@ 81
Stellenwert 81
Steuer 81
Streitigkeiten 81
Taten 81
Textes 81
USS 81
Verstän@@ 81
abgehalten 81
abl@@ 81
absch@@ 81
arbeitete 81
ato 81
aufgeführt 81
ausgedehnt 81
beit@@ 81
besseres 81
betriebe 81
bewiesen 81
eingebracht 81
ernsthafte 81
erweitern 81
eth@@ 81
etzen 81
ev@@ 81
form 81
fällig 81
gesellschaftliche 81
gewiesen 81
gungs@@ 81
insofern 81
integrierte 81
iranischen 81
kam@@ 81
kanz@@ 81
kompet@@ 81
lässigen 81
mehrfach 81
negative 81
neun 81
nä@@ 81
ologische 81
spezifischer 81
sucht 81
teils 81
ukra@@ 81
umfassender 81
untern@@ 81
verbinden 81
verhalten 81
wirkungs@@ 81
zeu@@ 81
Ägypten 81
Übereinkunft 81
Überwindung 81
öffentlich 81
π@@ 81
102 80
AV@@ 80
Ank@@ 80
Argumente 80
Besonderheiten 80
Bestände 80
Bevölkerungs@@ 80
DAS 80
Denken 80
Dritten 80
Ehre 80
Erdgas@@ 80
Erhebung 80
Erkenntnisse 80
Ersatz@@ 80
Fahrzeuge 80
Finanz- 80
Französ@@ 80
Geis@@ 80
Gewalt@@ 80
Grundzüge 80
Har@@ 80
Hauptziel 80
Islam@@ 80
Italien@@ 80
Je@@ 80
Kab@@ 80
Komple@@ 80
LU@@ 80
Plattform 80
Provinz 80
Sachen 80
Sobald 80
Sofern 80
Star@@ 80
Strukturreformen 80
Süden 80
Tsch@@ 80
Wes@@ 80
Wo@@ 80
Zweit@@ 80
asymm@@ 80
aufweisen 80
ausgenommen 80
az@@ 80
begann 80
begleitet 80
beschlossenen 80
betrag 80
dend 80
esti@@ 80
feste 80
frist 80
geräte 80
hab@@ 80
hart 80
heraus 80
informellen 80
inhal@@ 80
inischen 80
isti@@ 80
jeglicher 80
jet@@ 80
keits@@ 80
knapp 80
kä@@ 80
let@@ 80
lossene 80
läu@@ 80
machung 80
nde 80
ommenen 80
rie@@ 80
see@@ 80
staatlicher 80
status 80
ständiges 80
tag@@ 80
tau@@ 80
teilzunehmen 80
vereinfachen 80
zeichnen 80
zeitigen 80
36 79
Absch@@ 79
Algerien 79
BS@@ 79
Betra@@ 79
Branche 79
DC 79
Derzeit 79
Dro@@ 79
Ereignissen 79
GI@@ 79
Geltungs@@ 79
Geräte 79
Jean 79
Ob 79
Oder 79
PK@@ 79
Palästinens@@ 79
Pau@@ 79
Rab@@ 79
Rak@@ 79
Rund@@ 79
Straßburg 79
Subventionen 79
Termin@@ 79
Weil 79
Wi@@ 79
Zusch@@ 79
abgestimm@@ 79
abzielt 79
ange 79
bedanken 79
bereiten 79
beri@@ 79
berto 79
beruh@@ 79
besitzen 79
derselben 79
ele 79
fak@@ 79
faßt 79
fen@@ 79
forderungen 79
fünf@@ 79
gehör@@ 79
graus@@ 79
halb 79
integr@@ 79
istan 79
kohärente 79
konzep@@ 79
liederung 79
mengen 79
mäßigkeit 79
pres@@ 79
prüft 79
sions@@ 79
sis 79
spartner 79
stabilen 79
steuer 79
stimmte 79
unterbreit@@ 79
vielfäl@@ 79
ziger 79
zugän@@ 79
zukunfts@@ 79
zusammenhän@@ 79
örtlichen 79
43 78
Analysen 78
Angriffe 78
Assozi@@ 78
Ausgaben@@ 78
Aussetzung 78
Beobachtung 78
Brasilien 78
Côte 78
EST@@ 78
Fo@@ 78
IWF 78
Infrastruktur@@ 78
KM@@ 78
Kollegin 78
Kommissars 78
Kunden@@ 78
L-@@ 78
Landschaft 78
Liberia 78
Pak@@ 78
Pierre 78
Rande 78
Rechts- 78
Substanzen 78
Unternehmer@@ 78
Us@@ 78
Wein 78
Ziel-@@ 78
amtierende 78
aufgerufen 78
begrenzte 78
chinesischen 78
dischen 78
eingebunden 78
enorme 78
erstens 78
erung@@ 78
fanden 78
fisch 78
freut 78
ga 78
geeigneter 78
geringen 78
gers 78
gleichermaßen 78
griff 78
hem@@ 78
hung 78
individuelle 78
jener 78
karte 78
laufende 78
liefer@@ 78
lück@@ 78
mentsprechend 78
organisierte 78
portugiesischen 78
schnelle 78
schwedische 78
selb@@ 78
ser 78
ulation 78
verbleibenden 78
versammlung 78
vorbereit@@ 78
zukünftige 78
Übertragung 78
übernimmt 78
344 77
35@@ 77
Akzeptanz 77
Ausdehnung 77
BOR@@ 77
Bestands@@ 77
Bro@@ 77
Bud@@ 77
EWR 77
Erste 77
Erteilung 77
FE 77
Finger@@ 77
Gipfel@@ 77
Guine@@ 77
Herz@@ 77
ING@@ 77
Insgesamt 77
Institu@@ 77
Kohäsion 77
Kontin@@ 77
Lohn@@ 77
Luft 77
M-@@ 77
MIN@@ 77
Migrations@@ 77
Mitarbeitern 77
Parlamenten 77
Philippe 77
Rechnungshofs 77
Roh@@ 77
Schließung 77
Schwerpunkte 77
Ski@@ 77
Strafgericht@@ 77
The@@ 77
Tom@@ 77
Vermögens@@ 77
Versorgungs@@ 77
Wechsel@@ 77
Wirkungen 77
ausstattung 77
bereichs 77
berichte 77
beschließt 77
beschäf@@ 77
beseitigt 77
besonderes 77
bilater@@ 77
bürgerliche 77
ca. 77
dem@@ 77
elektronische 77
entschie@@ 77
erheb@@ 77
ermutigen 77
erweitert 77
ese 77
ferenzen 77
festgesetzt 77
fol@@ 77
genauer 77
genehmigt 77
geordneten 77
gesetzlichen 77
gewerbe 77
heißen 77
hielt 77
israelische 77
kredi@@ 77
ley 77
ließ 77
material 77
mod@@ 77
nehme 77
nungen 77
ologischen 77
ritt 77
russische 77
solidar@@ 77
stoßen 77
stück 77
turen 77
ungeachtet 77
wander@@ 77
werk@@ 77
wirklichen 77
wissens@@ 77
yn@@ 77
zige 77
änden 77
87 76
Aktualisierung 76
Angehörigen 76
Ankündigung 76
Donnerstag 76
ECHO 76
Ereignis 76
Erwägungen 76
Kompetenz 76
Konzepts 76
LAF 76
Meinungen 76
OU 76
Rel@@ 76
Saat@@ 76
Sind 76
Spektrum 76
Ton@@ 76
Verordnungs@@ 76
Vorbe@@ 76
ahn@@ 76
aket 76
alle@@ 76
anschließend 76
anwesend 76
aro@@ 76
aufgeführten 76
dauer@@ 76
digungen 76
enti@@ 76
entwurfs 76
erin 76
eventuell 76
gefallen 76
iel@@ 76
individuellen 76
initi@@ 76
klicken 76
lans 76
mittlere 76
mittlerweile 76
mus@@ 76
niedri@@ 76
ologie 76
oppel@@ 76
posi@@ 76
ration@@ 76
reibungs@@ 76
schö@@ 76
selbst@@ 76
sofortige 76
sozio@@ 76
star@@ 76
strafrecht@@ 76
stän@@ 76
tation 76
umzu@@ 76
verhandelt 76
viert 76
vorschlägen 76
zeitige 76
zivilen 76
zweifel@@ 76
übersch@@ 76
0.000 75
Angabe 75
Arbeitsweise 75
Assoziierungsabkommen 75
BSE 75
Banken@@ 75
Beruf 75
Datenbank 75
Diskussions@@ 75
Drittstaaten 75
Drittstaats@@ 75
Du 75
EURO@@ 75
Eines 75
Fleisch@@ 75
Gesetzgebungs@@ 75
Herkunft 75
I-@@ 75
IND@@ 75
Inseln 75
Konsultations@@ 75
Leid 75
Mad@@ 75
Mensch 75
Menschenleben 75
Nationalen 75
Netzwerk 75
Ob@@ 75
Obergrenze 75
Organismen 75
Pal@@ 75
Region@@ 75
Ruhe 75
Rö@@ 75
Sammlung 75
Schluß 75
Streit@@ 75
Strom 75
Tempo 75
Urteile 75
Villa 75
Völkern 75
angegangen 75
ba 75
begrü@@ 75
betrieb@@ 75
by 75
dau@@ 75
definieren 75
eingereicht 75
einhalten 75
einschlä@@ 75
erkannt 75
fertig 75
folglich 75
fs@@ 75
fundament@@ 75
geistigen 75
gerichtete 75
gesetz 75
hinzu 75
iso@@ 75
kg 75
ki 75
künften 75
lar@@ 75
lenken 75
liz@@ 75
luft@@ 75
met@@ 75
nachdenken 75
neh@@ 75
reichende 75
ruppe 75
samen 75
seh@@ 75
sorganisation 75
spartei 75
tage 75
themen 75
tor 75
under@@ 75
urlaub 75
zer 75
östlichen 75
überwacht 75
46 74
65 74
Ansatzes 74
Aufbau@@ 74
Aufstellung 74
Australien 74
Bek@@ 74
Besonder@@ 74
Buch 74
DO@@ 74
FT 74
Frauen@@ 74
Gemeinsam 74
Handelspolitik 74
Hochschulen 74
International 74
Ivoire 74
Jahrzehnten 74
Jedes 74
Kunst 74
Luft- 74
Operationen 74
Oz@@ 74
Pfeiler 74
Quo@@ 74
Sicherstellung 74
Strategi@@ 74
TRA@@ 74
TS 74
Unabhängi@@ 74
Vergabe 74
Verheugen 74
Vermittlung 74
Wegen 74
Wichtigkeit 74
Wir@@ 74
Zerstörung 74
ager 74
aktu@@ 74
alt@@ 74
anhaltende 74
ausgehend 74
baut 74
beantragen 74
beispiel@@ 74
bestehender 74
deutlicher 74
diplom@@ 74
entlich 74
erläutert 74
europä@@ 74
fallenden 74
fangen 74
feier@@ 74
g-@@ 74
genügt 74
glichkeit 74
griffe 74
gü@@ 74
herrschen 74
integrieren 74
interessant 74
istischer 74
kampf 74
lebt 74
lichsten 74
lierte 74
merk@@ 74
mil@@ 74
mord@@ 74
mäß@@ 74
neuesten 74
nötigen 74
oni@@ 74
orientierte 74
our 74
plä@@ 74
prin@@ 74
präz@@ 74
reagiert 74
sensi@@ 74
setzungen 74
som@@ 74
spartner@@ 74
stabile 74
stadt 74
strengen 74
stücke 74
tag 74
terten 74
tos 74
verhältn@@ 74
verstehe 74
verurteilen 74
wahl 74
wendung 74
yl@@ 74
zip@@ 74
änderung 74
ökonomische 74
36@@ 73
Ac@@ 73
Anmerkungen 73
Ansprüche 73
Architektur 73
Auftrags@@ 73
Auskünfte 73
Ausstellung 73
Beit@@ 73
Berechnung 73
Bir@@ 73
Brenn@@ 73
Budget 73
Com@@ 73
DEM 73
EA 73
Energiebereich 73
Erwerb@@ 73
Florenz 73
Freunden 73
Geber 73
Hau@@ 73
Immobilien 73
Intervention 73
Karte 73
Konflikten 73
Konvergenz@@ 73
Kriterium 73
Legitimität 73
Rest 73
Sim@@ 73
Sir 73
Spitzen@@ 73
Tei@@ 73
Traditionen 73
Transport@@ 73
Tre@@ 73
Unionsbürger 73
Urugu@@ 73
Vorgehensweise 73
Wahrnehmung 73
Währ@@ 73
Zweiten 73
abschließ@@ 73
anrufen 73
anwäl@@ 73
ausbauen 73
ausschließ@@ 73
außen@@ 73
beendet 73
beinhalten 73
bli@@ 73
bro@@ 73
dul@@ 73
einiges 73
erstreckt 73
esi@@ 73
finanzierung 73
fur@@ 73
gebrachten 73
gehabt 73
genaue 73
gente 73
gesonder@@ 73
gipfel 73
gleichwer@@ 73
hohem 73
hü@@ 73
ik@@ 73
isl@@ 73
kan 73
konstruktiv 73
kämpf@@ 73
körper@@ 73
leh@@ 73
mach@@ 73
medi@@ 73
mem@@ 73
mien 73
mögen 73
pi@@ 73
rolle 73
samkeit 73
schwerer 73
schönen 73
selber 73
unterschiedlicher 73
unzureichend 73
verknüpft 73
verw@@ 73
woll@@ 73
zierung 73
zivil@@ 73
übermäßigen 73
100@@ 72
A. 72
Abteilung 72
Arbeitsmarkt@@ 72
Asylbewer@@ 72
Aufsichts@@ 72
Cas@@ 72
Dusche 72
EST 72
EU-Haushalt 72
Finanziellen 72
Formulierung 72
GH 72
GN@@ 72
Geheim@@ 72
Geldwäsche 72
Geltungsbereich 72
Gesellschafts@@ 72
Glück@@ 72
Grundprinzipien 72
IGE 72
Kommissare 72
Komponenten 72
Lang@@ 72
Lasten 72
Lit@@ 72
London 72
Maria 72
Mobil@@ 72
Museum 72
Posi@@ 72
RA 72
Rati@@ 72
Regulierungs@@ 72
Stabilitätspakt 72
Tar@@ 72
Test@@ 72
Unregelmäßigkeiten 72
Wo 72
ablehnen 72
ail@@ 72
alisierungs@@ 72
artige 72
aum 72
ausgehen 72
beeinflussen 72
beizubehalten 72
benden 72
dur@@ 72
einf@@ 72
endet 72
enormen 72
erbringen 72
erinnere 72
erklärten 72
erlei 72
ermuti@@ 72
erst@@ 72
fern@@ 72
festgehalten 72
flan@@ 72
gebiets 72
geschaff@@ 72
greift 72
halts 72
heben 72
iertes 72
istisch 72
kaufen 72
ki@@ 72
kli@@ 72
kti@@ 72
kul@@ 72
nachzudenken 72
oh@@ 72
ollen 72
plan 72
reg@@ 72
reiche 72
ron@@ 72
räu@@ 72
rüstung 72
sah 72
schrift 72
selben 72
sol@@ 72
strukturellen 72
stör@@ 72
telefonisch 72
teste 72
tis@@ 72
unge@@ 72
ungs 72
unmittelbaren 72
volles 72
vorliegende 72
wozu 72
ys 72
zeigte 72
zugestimmt 72
zur@@ 72
zwingen 72
älteren 72
11.@@ 71
12.@@ 71
Bedien@@ 71
Behin@@ 71
Berei@@ 71
Beschäftigten 71
Bün@@ 71
Catherine 71
David 71
Ei@@ 71
Elektrizitäts@@ 71
Erneuerung 71
F-@@ 71
Film 71
Firmen 71
Fischbestände 71
GH@@ 71
Gesch@@ 71
Gewerkschaften 71
Indi@@ 71
Interventions@@ 71
Maßnahmen@@ 71
Morgen 71
Nachbarschaftspolitik 71
Organis@@ 71
Patienten 71
Prozesse 71
Quelle 71
Schad@@ 71
Sil@@ 71
Solche 71
Sowohl 71
Start 71
Steuerung 71
Subsidiarität@@ 71
Tal@@ 71
Ter@@ 71
Transit@@ 71
Troika 71
Unterbre@@ 71
Vereinigung 71
Vier@@ 71
Weltwirtschaft 71
Zuständigkeits@@ 71
abgeben 71
abgeschafft 71
agt 71
andel 71
ationalisierung 71
außerord@@ 71
basis 71
beachtet 71
bedürfen 71
befaßt 71
bert 71
besuchen 71
bräu@@ 71
ehren 71
erh@@ 71
fertigung 71
flächen 71
gefragt 71
gering@@ 71
gesenkt 71
gesetzte 71
isi@@ 71
kar@@ 71
ken@@ 71
kontinuier@@ 71
luxemburg@@ 71
mess@@ 71
methode 71
ol-@@ 71
operative 71
personen@@ 71
quellen 71
richt@@ 71
räumen 71
schaftlichen 71
strategien 71
studi@@ 71
unterbrochen 71
untergraben 71
verkaufen 71
voranzutreiben 71
vorbereiten 71
wach@@ 71
wiederherzustellen 71
zoll@@ 71
zusammenzu@@ 71
Überprüf@@ 71
.europa.eu 70
64 70
86 70
AM 70
Beschluss@@ 70
Bevor 70
Dublin 70
EX@@ 70
Entwicklung@@ 70
Erfahrungs@@ 70
Fak@@ 70
Fakten 70
Genau 70
Glauben 70
Güter@@ 70
Hohe 70
Internation@@ 70
Kambodsch@@ 70
Konta@@ 70
Kunde 70
Mag@@ 70
Minderheit 70
Nacht 70
PER@@ 70
PL 70
Pet@@ 70
Robert 70
SE@@ 70
Standard 70
Stim@@ 70
Straßen@@ 70
Syn@@ 70
Tages 70
Terrorismusbekämpfung 70
UB@@ 70
Verfügbarkeit 70
Vom 70
Web@@ 70
Wichtig 70
achtungs@@ 70
akt 70
anforderungen 70
ausgeweitet 70
ausschlaggeb@@ 70
befrie@@ 70
beschleunigt 70
beschrieben 70
bild@@ 70
branche 70
deswegen 70
einnehmen 70
eite 70
energ@@ 70
feh@@ 70
fischer@@ 70
flü@@ 70
folgender 70
fünfzehn 70
geklärt 70
gelt 70
geschä@@ 70
gos 70
haf@@ 70
hinausgehen 70
inneh@@ 70
kin@@ 70
konsequent 70
kore@@ 70
l-@@ 70
leid 70
links 70
nachhaltiges 70
nachkommen 70
operativen 70
ossen@@ 70
re-@@ 70
regelmäßige 70
reibungen 70
reise 70
schu@@ 70
shil@@ 70
sodass 70
sonstige 70
tem@@ 70
transparenter 70
verbindlich 70
vereinfacht 70
zwischen@@ 70
ähnlichen 70
übertrag@@ 70
Š@@ 70
37@@ 69
Abfällen 69
Abstimmungen 69
Ann@@ 69
Augenmerk 69
Ausfuhr 69
Bade@@ 69
Bereits 69
Besucher 69
Cat@@ 69
Darstellung 69
Dienst@@ 69
Diesen 69
Einschränkungen 69
Einstimmigkeit 69
Entsendung 69
Ernährungs@@ 69
Finanzielle 69
Gebiet@@ 69
Gesundheitsschutz 69
Getreide 69
Handelsbeziehungen 69
Haus@@ 69
Hierbei 69
Hum@@ 69
Kapital 69
Lande 69
Lauf@@ 69
NAT@@ 69
Qual@@ 69
Richter 69
Rü@@ 69
Sicherheitsk@@ 69
Sollten 69
Strom@@ 69
Thun@@ 69
Tim@@ 69
Unsicherheit 69
Urheber@@ 69
Verluste 69
Vordergrund 69
WA@@ 69
Wirtschaftszwei@@ 69
Zeitraums 69
absolute 69
achtung 69
amm@@ 69
ausbildung 69
ausgegeben 69
bedürf@@ 69
begleiten 69
bereitschaft 69
berichts 69
dacht 69
dam@@ 69
ech@@ 69
einbeziehen 69
eingeschränkt 69
einzigartige 69
emen 69
empfohlen 69
erweisen 69
folge 69
füllen 69
gesundheit@@ 69
gewisser 69
id 69
irre@@ 69
legislativen 69
länen 69
ms@@ 69
objek@@ 69
obligator@@ 69
ologischer 69
pläne 69
polnischen 69
radik@@ 69
rag@@ 69
sau 69
seiten 69
verbreitung 69
verhältnis 69
vertrags 69
vielfalt 69
wechsel 69
wendet 69
zahlung 69
zeugnissen 69
zugenommen 69
zugesagt 69
äter 69
ütz@@ 69
08 68
59 68
AR 68
Aufenthalts@@ 68
Besser@@ 68
Betrug 68
Dingen 68
Durchschnitt 68
EU-Institutionen 68
Erbe 68
Flughäfen 68
Flüchtling@@ 68
Gebühren 68
Gemeinschaftsrechts 68
Irlands 68
Jahresbericht 68
Jahresende 68
Jugendliche 68
Kampf@@ 68
Kompromis@@ 68
Kontinuität 68
LE@@ 68
Lehren 68
Organ 68
Rand@@ 68
Ratsvorsitz 68
Saal 68
Schiffen 68
Trennung 68
Tür 68
Unternehmer 68
Vermitt@@ 68
Wür@@ 68
Zollunion 68
achst@@ 68
akte 68
aktualisiert 68
amerika 68
amtierenden 68
anhaltenden 68
annehmbar 68
bezahlen 68
chtern 68
davor 68
dehnen 68
digten 68
effektiven 68
eilung 68
einführen 68
eingehende 68
eingesetzten 68
engagieren 68
erachtet 68
erfasst 68
geeinigt 68
ini 68
integri@@ 68
koennen 68
modernis@@ 68
multilaterale 68
no 68
plat@@ 68
projekten 68
sebene 68
sexuellen 68
spoten@@ 68
stammen 68
söhnung 68
tert 68
tiefgreif@@ 68
tw@@ 68
verbo@@ 68
verbot 68
verhandeln 68
verliehen 68
versteht 68
veröffentlichen 68
voran 68
vorhin 68
wachsende 68
wenigsten 68
wirkung 68
wirkungen 68
wirtschafts@@ 68
zenden 68
ziellen 68
änge 68
ätz@@ 68
ätze 68
07 67
23@@ 67
6-@@ 67
Bru@@ 67
Dek@@ 67
Emissions@@ 67
Erfassung 67
Erlass 67
Existenz 67
John 67
Ken@@ 67
Kluft 67
Kohäsions@@ 67
Konjunktur@@ 67
Konvention 67
Kyoto-@@ 67
Lehrer 67
Marke 67
PL@@ 67
Pe@@ 67
Pressemitteilungen 67
Regi@@ 67
Reisen 67
Systemen 67
TL@@ 67
Treib@@ 67
V-@@ 67
Versorgungssicherheit 67
Vertragsverletz@@ 67
Verzeichnis 67
WC 67
Wit@@ 67
Zi@@ 67
aufw@@ 67
aufwand 67
behandlung 67
behindern 67
bekistan 67
beschäftigung@@ 67
beträchtlichen 67
bte 67
chtungen 67
dische 67
edi@@ 67
eindeutige 67
endums 67
engagiert 67
esten 67
fizierungs@@ 67
fuhren 67
gangen 67
har@@ 67
ini@@ 67
isse 67
itu@@ 67
keit 67
kunft@@ 67
later@@ 67
lebens 67
legi@@ 67
ls 67
menge 67
netz 67
ordnungsgemäße 67
personen 67
pu@@ 67
schar@@ 67
schenken 67
sech@@ 67
shand@@ 67
sitzen 67
sorgt 67
staates 67
strenge 67
sträger 67
stärker@@ 67
syn@@ 67
ultur 67
unmittelbare 67
unterrichten 67
versetzen 67
vorgehen 67
wertvollen 67
würdig 67
ya 67
zeugung 67
zog 67
zügen 67
04 66
21. 66
51 66
76 66
Agenturen 66
Alt@@ 66
Arbeitskräfte 66
Aufstockung 66
Ausschüsse 66
BA@@ 66
Bal@@ 66
CR@@ 66
Chi@@ 66
Detail 66
Erd@@ 66
Finanzmärkte 66
Fundament 66
Gesamtheit 66
Hafen 66
Inanspruchnahme 66
Institut 66
Investoren 66
KS 66
Kauf 66
Kein 66
Klimawandels 66
Laufzeit 66
Leg@@ 66
Liebe 66
NG@@ 66
Num@@ 66
Ratsprä@@ 66
Rent@@ 66
Richt@@ 66
Sam@@ 66
Selbst 66
Solidar@@ 66
Staatsangehörigkeit 66
Stiftung 66
Stil 66
Task 66
Verbrau@@ 66
Verhältnismäßigkeit 66
Vorkehrungen 66
Weltmarkt 66
Werke 66
Zwei 66
absol@@ 66
aka 66
al-@@ 66
allgemeiner 66
amerikanische 66
andau@@ 66
ator@@ 66
auff@@ 66
bank 66
befürworten 66
bestimmung 66
bildungs@@ 66
billigen 66
dat@@ 66
dienstleistungen 66
digitale 66
diskriminierung 66
erläu@@ 66
finanz@@ 66
gebühren 66
geis@@ 66
gerechnet 66
gewählte 66
glück@@ 66
größerer 66
i-@@ 66
intensiven 66
kenntnisse 66
koordiniert 66
kraftwagen 66
lingen 66
lor@@ 66
lässig 66
neter 66
niveaus 66
pas@@ 66
pol@@ 66
pra@@ 66
punk@@ 66
rechtlicher 66
regen 66
rief 66
räger 66
rägern 66
schaftliche 66
sicherer 66
sinstrumente 66
spiel 66
spoliti@@ 66
ssiers 66
trans@@ 66
umfassendes 66
unde 66
ungst@@ 66
unvermei@@ 66
verank@@ 66
verantwor@@ 66
verantwortung 66
vereinbarte 66
vorsehen 66
weichen 66
za 66
zentren 66
zuge@@ 66
zugs@@ 66
Öst@@ 66
är 66
λ@@ 66
.com 65
20-@@ 65
Alles 65
Artikeln 65
Bedingung 65
Begleit@@ 65
Betrifft 65
Bom@@ 65
Bon@@ 65
Bra@@ 65
Bulgariens 65
Dateien 65
Digit@@ 65
Doha-@@ 65
Dom@@ 65
EK 65
EU-Politik 65
Eigenschaft 65
Einreise 65
Frühjahr@@ 65
Glück 65
Ham@@ 65
Hindernis 65
Küste 65
Luxem@@ 65
Mehrwertsteuer@@ 65
Mitentscheidung 65
Nahrungsmitteln 65
Pla@@ 65
Politikbereiche 65
Post@@ 65
Pro-Kopf-@@ 65
Protok@@ 65
Raumfahrt@@ 65
Rede@@ 65
Registrierung 65
Rund 65
SER@@ 65
Schwar@@ 65
St 65
TI 65
Tendenz 65
Tieren 65
Toleranz 65
Trend 65
Verbindungs@@ 65
Verbre@@ 65
Webseite 65
Zeitungen 65
Zwischen 65
abil@@ 65
akts 65
ane 65
anzubieten 65
audiovisu@@ 65
aufeinander 65
aufgezeigt 65
ausgewo@@ 65
ausgezeichneten 65
ausländischen 65
ausreichenden 65
behält 65
bit@@ 65
bra@@ 65
breit 65
darfs 65
denselben 65
eigentlichen 65
eil@@ 65
els@@ 65
entsprechender 65
erkan@@ 65
ff 65
gent@@ 65
gerech@@ 65
gestellte 65
höchstens 65
innovativen 65
interessante 65
ir 65
kohärenten 65
komplexen 65
konkreter 65
konstruk@@ 65
kra@@ 65
läng@@ 65
mehrerer 65
niedrig@@ 65
person@@ 65
prinzip 65
produk@@ 65
real 65
streit@@ 65
te-@@ 65
tis 65
tät 65
verbindet 65
verur@@ 65
verzeichnet 65
vieles 65
zieh@@ 65
äch@@ 65
ı@@ 65
62 64
7-@@ 64
Anlaß 64
Barroso 64
Beförderung 64
Binnenmarkt@@ 64
Buddh@@ 64
CO2-Emissionen 64
DEN@@ 64
Der@@ 64
Deutschen 64
Dort 64
Einsatzes 64
Eis@@ 64
Force 64
Führungs@@ 64
Gesetzgeber 64
Grie@@ 64
Ide@@ 64
Identi@@ 64
Innovations@@ 64
Insofern 64
Katastrophen@@ 64
Kind 64
Komm@@ 64
Meines 64
Montag 64
Mög@@ 64
Nicht-@@ 64
Provin@@ 64
Rüst@@ 64
Sachverständigen 64
Sozialpartnern 64
Str@@ 64
Strafverfol@@ 64
Super@@ 64
Transport 64
Truppen 64
Ursache 64
Wechselkur@@ 64
ack 64
aktiver 64
alleine 64
anien 64
ase 64
atik 64
atz 64
aufrechtzuerhalten 64
bs@@ 64
cal@@ 64
dargestellt 64
dlichkeit 64
dro@@ 64
einzugehen 64
elte 64
ergrei@@ 64
erstes 64
etab@@ 64
fizi@@ 64
flexibel 64
freund@@ 64
froh 64
ga@@ 64
gefährlich 64
geholfen 64
gelung 64
gerungen 64
gerät 64
geziel@@ 64
geöffnet 64
gravier@@ 64
güter 64
herstellen 64
herz@@ 64
ingt 64
kommunik@@ 64
langsam 64
mati@@ 64
maß 64
medien 64
nationales 64
natürliche 64
nern 64
niedriger 64
nützlich 64
offenbar 64
ol 64
polizei@@ 64
projekt 64
reibungslose 64
rung 64
räf@@ 64
schauen 64
schlecht 64
seite 64
slowak@@ 64
spann@@ 64
spor@@ 64
sposition 64
stabil 64
strah@@ 64
städtischen 64
technisch 64
tei@@ 64
theti@@ 64
tigungen 64
umso 64
ungefähr 64
ungsindustrie 64
unterliegt 64
vereinigung 64
verlaufen 64
verweisen 64
vierte 64
vorgestellt 64
wick@@ 64
wissenschaften 64
you 64
zunehmen@@ 64
ökonom@@ 64
03 63
130 63
27@@ 63
8.@@ 63
Ag@@ 63
Alb@@ 63
Ansätze 63
Armee 63
Bin@@ 63
Carlos 63
Defizite 63
Erschein@@ 63
Fahrplan 63
Fil@@ 63
Finanzminister 63
Fr@@ 63
G-@@ 63
GL@@ 63
Ganzes 63
Gemeinde 63
IR 63
Internet-@@ 63
Kau@@ 63
Kombination 63
Kommunikationstechnologien 63
Konferenzen 63
Küche 63
Lanka 63
Mich@@ 63
Nation 63
Neben@@ 63
Nuklear@@ 63
Persönlichkeiten 63
Plenar@@ 63
Produktivität 63
RES@@ 63
Renten@@ 63
Res@@ 63
Schuld 63
Schüler 63
Ster@@ 63
Themen@@ 63
Tätigkeits@@ 63
VIS@@ 63
Vereinbarkeit 63
Vertrauens@@ 63
Zyperns 63
analysieren 63
annten 63
ausgezeichnete 63
bevölkerung 63
bewegungen 63
buch 63
dankbar 63
dokument 63
dürften 63
ee 63
empfin@@ 63
enh@@ 63
enter@@ 63
entscheidungen 63
fang@@ 63
fleisch@@ 63
füll@@ 63
gelesen 63
genau@@ 63
gl@@ 63
globaler 63
größ@@ 63
hochrangigen 63
intensive 63
kette 63
klär@@ 63
kurzfristig 63
langer 63
lit@@ 63
materi@@ 63
mittelfris@@ 63
mündlichen 63
palästinensische 63
phase 63
planen 63
plur@@ 63
reale 63
sammeln 63
san@@ 63
statten 63
techn@@ 63
tiver 63
ungspf@@ 63
uropä@@ 63
vernünftige 63
vertrauen 63
vorsit@@ 63
weitaus 63
womit 63
wäl@@ 63
zwanzig 63
ürzt 63
09 62
4. 62
5. 62
73 62
800 62
Abschnitt 62
Abwicklung 62
Albert 62
Anbieter 62
Anmeldung 62
Att@@ 62
Aufnahme@@ 62
BSE-@@ 62
Boden@@ 62
Bür@@ 62
Defizits 62
Einnahmen 62
Erfordernissen 62
Erholung 62
Erwerbs@@ 62
Fehl@@ 62
Feld 62
Fenster 62
Fin@@ 62
Fla@@ 62
Flä@@ 62
Flüchtlings@@ 62
Fon@@ 62
Geschäft 62
Gro@@ 62
Haushaltsplans 62
I. 62
Inform@@ 62
Kindes 62
Klärung 62
Krieges 62
Körper@@ 62
Macht@@ 62
My@@ 62
Nachbarschaft 62
Nachricht 62
Netzen 62
Norden 62
Präsidium 62
Q@@ 62
RU@@ 62
Rechtssicherheit 62
Schiffs@@ 62
Soweit 62
Stadium 62
Strah@@ 62
TRANSP@@ 62
Umstellung 62
Vergütung 62
Verzögerungen 62
Wal@@ 62
Werk 62
Wertpapier@@ 62
York 62
Zusätzlich 62
ans@@ 62
asi@@ 62
atten 62
aussehen 62
begrenzten 62
blick 62
ch-@@ 62
derartigen 62
eff@@ 62
eingeladen 62
einleiten 62
elektronischer 62
enne 62
ennen 62
ero@@ 62
erwähnte 62
exist@@ 62
fassten 62
geber@@ 62
gefährlicher 62
gestrichen 62
günstig@@ 62
hervorragende 62
ideale 62
inakzeptabel 62
ismäßig 62
kel@@ 62
klauseln 62
kunft 62
ky 62
lang@@ 62
langes 62
lierten 62
nachgekommen 62
offiziellen 62
ole 62
parlamentarischen 62
pfung 62
position 62
ritten 62
samer 62
schwieriger 62
schätzung 62
sphase 62
strikt 62
tar@@ 62
taus@@ 62
technik 62
thin 62
trat 62
unabhängiger 62
unterzeichnen 62
verbreitet 62
verbände 62
wartet 62
wohn@@ 62
zwangsläufig 62
älter 62
ärfung 62
ös@@ 62
Afri@@ 61
Asy@@ 61
Auffassungen 61
Aufklärung 61
Aussage 61
Ba@@ 61
Bar 61
Beauf@@ 61
Beschäftigungsstrategie 61
Bestellung 61
Bestellungen 61
Chinas 61
Dec@@ 61
Dra@@ 61
Eigentums 61
Einen 61
Eu@@ 61
Evalu@@ 61
Finn@@ 61
Fischereiabkommen 61
Gal@@ 61
Gleichheit 61
Hat 61
Haushaltsmittel 61
Haushaltsordnung 61
Inhaber 61
Jahre@@ 61
Javier 61
Juncker 61
Kampagne 61
Kompromiß 61
Lau@@ 61
Lie@@ 61
M. 61
Mas@@ 61
Maschinen 61
Mehrere 61
Meter 61
Phänomen 61
Pil@@ 61
Plans 61
Premier@@ 61
REI@@ 61
Schlüsselrolle 61
Stre@@ 61
Tatsachen 61
Tausende 61
Tit@@ 61
Verzögerung 61
Wie@@ 61
Wil@@ 61
Zuwanderung 61
abgesehen 61
agen 61
allgemein@@ 61
auszuüben 61
behin@@ 61
belgischen 61
bilität 61
blei@@ 61
din 61
drängen 61
effizientere 61
ehrgeizigen 61
eingestellt 61
energie@@ 61
entdecken 61
erwerben 61
esch@@ 61
etzt 61
felds 61
fügen 61
gebe 61
geführte 61
gelegenheiten 61
genauen 61
gesamt@@ 61
grenzüberschreit@@ 61
halb@@ 61
itten 61
juristischen 61
k-@@ 61
kel 61
kompliziert 61
kontrolliert 61
kosten@@ 61
krieg@@ 61
kritischen 61
ktes 61
legitimen 61
lieber 61
mobilisieren 61
nd 61
optim@@ 61
organ@@ 61
ors 61
ppe 61
qualitativ 61
rech@@ 61
res@@ 61
schnellen 61
schriftlichen 61
schwerwiegende 61
siert 61
sigkeit 61
solch 61
soli@@ 61
spruch 61
spür@@ 61
taten 61
terer 61
til@@ 61
trags@@ 61
tragung 61
usammen@@ 61
verantwortungsvolle 61
verhältnisse 61
vermittelt 61
von@@ 61
vorgelegte 61
vorrangige 61
wagen 61
währ@@ 61
ye 61
z-@@ 61
zeichnungen 61
zweif@@ 61
Übersetzung 61
υ@@ 61
41 60
Abgeord@@ 60
Ausgewogenheit 60
Basis@@ 60
Bemühen 60
Berliner 60
Besitz 60
Bestreben 60
Betreuung 60
Branchen@@ 60
Christ@@ 60
Comp@@ 60
DS 60
Dan@@ 60
Darum 60
Datum 60
Dor@@ 60
E-Fraktion 60
EF 60
Einigkeit 60
Einsatz@@ 60
Eltern@@ 60
Entschließungen 60
Eri@@ 60
Erst@@ 60
Europäern 60
Flo@@ 60
Fremdenverkehr 60
GVO 60
Gerichtsverfahren 60
Gesicht@@ 60
Hü@@ 60
Instanz 60
Kategorien 60
Können 60
MED@@ 60
Minderheiten@@ 60
Mittwoch 60
Modelle 60
Name 60
PA 60
Prof@@ 60
Reb@@ 60
Schuld@@ 60
Stein@@ 60
Versprechen 60
Win@@ 60
Zölle 60
akzeptabel 60
an-@@ 60
anerkennt 60
ansehen 60
anstal@@ 60
austausch@@ 60
bedenken 60
begreifen 60
bir@@ 60
bud@@ 60
cker 60
dieselbe 60
droht 60
echter 60
effizi@@ 60
egal 60
eigentliche 60
einbringen 60
eintritt 60
fang 60
frü@@ 60
gebenen 60
gefähr@@ 60
gehei@@ 60
geschlossene 60
gesundheits@@ 60
here 60
ita 60
klares 60
konstitu@@ 60
kontroll@@ 60
lem 60
motivi@@ 60
nat@@ 60
nuklearen 60
personenbezogener 60
pul@@ 60
rest@@ 60
sagten 60
sch-@@ 60
shaushal@@ 60
sign@@ 60
skal@@ 60
strit@@ 60
stä@@ 60
sämtlichen 60
söh@@ 60
ton@@ 60
tour@@ 60
türkische 60
ums@@ 60
unerlässlich 60
ungarischen 60
verlängern 60
vollziehen 60
wesentliches 60
willigung 60
wächst 60
wünschenswert 60
zurückkommen 60
Är@@ 60
Übersicht 60
ühr@@ 60
ί@@ 60
ASS 59
Argument 59
Ausnahme@@ 59
Autonomie 59
BRA@@ 59
Berichterstattung 59
Bezugs@@ 59
Bil@@ 59
Blick@@ 59
DEL@@ 59
Demokratien 59
Den@@ 59
Diszipl@@ 59
Erfolgs@@ 59
Erwerb 59
Fa@@ 59
Fac@@ 59
Faz@@ 59
Flagge 59
Fortsch@@ 59
Futter@@ 59
Gibt 59
Guinea 59
Haft@@ 59
Jah@@ 59
Kernkraft@@ 59
Krankheit 59
Les@@ 59
Liberalen 59
Logik 59
MS 59
Medi@@ 59
Minibar 59
Mitgliedsstaaten 59
Mädchen 59
Personals 59
Phasen 59
Rahmenrichtlinie 59
Reak@@ 59
Rein@@ 59
Richtlinienvorschlag 59
Stad@@ 59
TV 59
Umweltschutzes 59
Unterstütz@@ 59
Unterzeichn@@ 59
VAL@@ 59
VII 59
Verantwortungs@@ 59
Vereinig@@ 59
Verhalten@@ 59
Wah@@ 59
Weit@@ 59
Westen 59
Wälder 59
abschließen 59
abzugeben 59
abzuschaffen 59
anzusehen 59
armen 59
ausgegangen 59
bedauerlich 59
beitrag 59
berei@@ 59
bild 59
debatte 59
detailli@@ 59
eig@@ 59
eingehenden 59
einräumen 59
ella 59
erfol@@ 59
erwähnten 59
europa 59
fertig@@ 59
frie@@ 59
früh 59
funk@@ 59
gab@@ 59
geringer 59
gespräche 59
gewirkt 59
gezielte 59
grafische 59
hilfen 59
höchster 59
jahr@@ 59
ju@@ 59
klein@@ 59
leitungen 59
medizinischen 59
nö@@ 59
omm@@ 59
optimal 59
präsentieren 59
rekten 59
rt 59
räfte 59
schwäch@@ 59
selten 59
sorganis@@ 59
ständi@@ 59
symbol@@ 59
sätzen 59
vertie@@ 59
vorbei 59
vorsch@@ 59
wachsen@@ 59
zusprechen 59
überschreiten 59
45@@ 58
7,@@ 58
74 58
AL 58
ANA 58
Ab 58
Auto 58
Band 58
Beam@@ 58
Behinderung 58
Bekann@@ 58
Bestandteile 58
Bewusstsein 58
Bildungs- 58
Bücher 58
Das@@ 58
De 58
Dollar 58
Dringlichkeit 58
Dum@@ 58
Eck@@ 58
Fehlen 58
Fernando 58
Fluggesellschaften 58
Gesundheitswesen 58
Governance 58
Haiti 58
Hor@@ 58
ING 58
Klasse 58
Klaus 58
Kopenha@@ 58
Koso@@ 58
Massnahmen 58
Meinungsfreiheit 58
Mensch@@ 58
Pflanzen 58
Ph@@ 58
Prüf@@ 58
Qualifikationen 58
Rats 58
Regulierungsbehörden 58
Religions@@ 58
Roth@@ 58
Rückzug 58
Safe 58
Schaf@@ 58
Spieler 58
Stabilitäts@@ 58
Standard@@ 58
Stockholm 58
TA 58
Treff@@ 58
Ungleich@@ 58
Universitäten 58
Verantwortlichkeit 58
Versicherungs@@ 58
Vorwand 58
Wald@@ 58
Welthandelsorganisation 58
Wissen@@ 58
Woh@@ 58
Zoll 58
Zufriedenheit 58
Zwischenzeit 58
abhängt 58
abzustimmen 58
agnen 58
aim@@ 58
angeb@@ 58
angenommene 58
ats@@ 58
ausgeübt 58
bedingt 58
belastung 58
berau@@ 58
bergen 58
bestätigte 58
bruch 58
bung 58
chender 58
chnungen 58
durchgesetzt 58
einsetzt 58
einzuräumen 58
ement 58
ett 58
fenen 58
fes@@ 58
feu@@ 58
gas@@ 58
gebraucht 58
gefügt 58
gegensei@@ 58
geleit@@ 58
geplante 58
gesunden 58
gewährten 58
grundsätz@@ 58
industrielle 58
intern@@ 58
konvention 58
korrekt 58
ktiver 58
lichere 58
ligkeit 58
lle 58
mend 58
mittelten 58
netz@@ 58
optimale 58
ordnungsgemä@@ 58
passen 58
produziert 58
proz@@ 58
qualifizierte 58
repräsent@@ 58
rich 58
sichert 58
stecken 58
still@@ 58
tatsächliche 58
vernünftig 58
versetzt 58
voneinander 58
vorbehalten 58
weich@@ 58
werken 58
west@@ 58
widerspiegeln 58
wirtschaftliches 58
wirtschaftspolitischen 58
zig@@ 58
zumal 58
zwecken 58
Äußerungen 58
ähnlich 58
äufe 58
überaus 58
überschritten 58
Č@@ 58
-F@@ 57
10.@@ 57
72 57
Abgabe 57
Allianz 57
Betre@@ 57
Chem@@ 57
DO 57
Dafür 57
Direk@@ 57
Einwohner 57
Ele@@ 57
Empfän@@ 57
Entla@@ 57
Erfol@@ 57
Fal@@ 57
Feder@@ 57
FÜ@@ 57
Gerät 57
Gewinn@@ 57
Großteil 57
Han@@ 57
Hauptstadt 57
Haushaltsdisziplin 57
IA 57
IB@@ 57
IS-@@ 57
Jur@@ 57
Kapazität 57
Kommission@@ 57
Kommissionsmitglieder 57
Leben@@ 57
Liber@@ 57
Lieferungen 57
Mak@@ 57
Musik@@ 57
Ost-@@ 57
Schie@@ 57
Stoffen 57
Tierschutz 57
Uns 57
Verstöße 57
Versuche 57
Vertre@@ 57
Vorhan@@ 57
ah 57
ante 57
ardo 57
aspekte 57
atte 57
aufgeworfen 57
behindert 57
beihilfe 57
bekämpft 57
beteiligung 57
beurteilt 57
binnen 57
chan@@ 57
chemische 57
chemischen 57
chene 57
druck@@ 57
einstellen 57
einzelner 57
erbracht 57
ernannt 57
errichten 57
errichtet 57
etc. 57
existieren 57
fangs 57
festhalten 57
gebnis 57
gehalt 57
geschenkt 57
griffs 57
haber 57
hinzuweisen 57
impor@@ 57
informationen 57
kenn@@ 57
kri@@ 57
kultureller 57
les@@ 57
liefert 57
manchen 57
medizinische 57
modells 57
namentlich 57
niederländische 57
nord@@ 57
nötige 57
ordnungen 57
orientiert 57
ot 57
potenzielle 57
pragmati@@ 57
protok@@ 57
qualifizierten 57
regel@@ 57
reiben 57
resp@@ 57
räumt 57
schritt@@ 57
sieren 57
sogenannte 57
spraktiken 57
steten 57
substanti@@ 57
than 57
ue 57
umgehen 57
up@@ 57
verbesserten 57
verbieten 57
verbreit@@ 57
verkauft 57
verpflichtungen 57
vo-@@ 57
vorläufige 57
vorn 57
w-@@ 57
waffen@@ 57
zeugen 57
zierten 57
à 57
á 57
äh@@ 57
ärer 57
öffentlich-@@ 57
Andr@@ 56
Austausch@@ 56
Autom@@ 56
BAL@@ 56
Bad 56
Beratungs@@ 56
Beschleunigung 56
Bestrebungen 56
Betrugsbekämpfung 56
Brok 56
Char@@ 56
Computer 56
DEM@@ 56
EC 56
EZB 56
Erde 56
Errungenschaften 56
Garten 56
Gesetz@@ 56
Getrei@@ 56
Gremium 56
Hinweise 56
Hände 56
Händen 56
IO@@ 56
MARK@@ 56
Mach@@ 56
Partnerländern 56
Pfer@@ 56
Ram@@ 56
Rechtsa@@ 56
Spr@@ 56
Termine 56
Vielmehr 56
Volk@@ 56
Vorbehalte 56
Wandels 56
Wertsch@@ 56
Zer@@ 56
ags 56
aufweist 56
ausgewählt 56
berichterstat@@ 56
beschäftigung 56
beu@@ 56
bürger 56
bürokrati@@ 56
can@@ 56
chers 56
dauerhaft 56
deln 56
demonstri@@ 56
denkbar 56
ennt 56
enter 56
entfalten 56
erheblicher 56
erstrecken 56
flexi@@ 56
forder@@ 56
gebern 56
geeignet@@ 56
gefährlichen 56
gelangte 56
geleis@@ 56
geltende 56
geograph@@ 56
gewachsen 56
gewichts 56
ill@@ 56
imp@@ 56
institu@@ 56
interessen 56
ires 56
ität@@ 56
keinesfalls 56
kritische 56
kung 56
künst@@ 56
landes 56
legungen 56
mas@@ 56
menschen@@ 56
mö@@ 56
nachhaltiger 56
netzen 56
oftmals 56
ohnehin 56
religiösen 56
rücken 56
schnell@@ 56
seinerzeit 56
sinstrument 56
such@@ 56
sämtlicher 56
sü@@ 56
terroristischen 56
th 56
toler@@ 56
tom@@ 56
tö@@ 56
ult@@ 56
unterstützten 56
unterzeichneten 56
usw 56
uter 56
ve@@ 56
vermögen 56
verpfli@@ 56
vorherige 56
weis 56
zeigten 56
zentrum 56
zuhalten 56
Ø@@ 56
ν 56
.00 55
10,@@ 55
13.@@ 55
82 55
@ 55
Bedauern 55
Begeg@@ 55
Begleitung 55
Blu@@ 55
ERG@@ 55
Eingang 55
Erhalt 55
FOR 55
Fabri@@ 55
Form@@ 55
Gegen 55
Geltung 55
Gesicht 55
Gesundheit@@ 55
Gleichwohl 55
Handelsh@@ 55
Hauptbahnhof 55
Koordination 55
Kriegs@@ 55
Massa@@ 55
Massenvernichtungswaffen 55
Moskau 55
PC 55
Parameter 55
Planungs@@ 55
Poly@@ 55
Ratsvorsitzes 55
Religion 55
Rou@@ 55
Rumäniens 55
Soldaten 55
Sommer@@ 55
Strafen 55
Straßen 55
Technologi@@ 55
Verein@@ 55
Verurteilung 55
Zeu@@ 55
ado 55
ages 55
alistische 55
ansässi@@ 55
arm@@ 55
bewährter 55
bezahl@@ 55
brin@@ 55
burger 55
dans 55
derart 55
detaillierte 55
diges 55
drückt 55
e.@@ 55
ehmen 55
ehrgeizig@@ 55
einziges 55
entwickelte 55
erneuerbare 55
erreichbar 55
eti@@ 55
famili@@ 55
fil@@ 55
freiwilligen 55
frucht@@ 55
genetisch 55
geteilt 55
gezahlt 55
gigen 55
haltenen 55
heb@@ 55
herbei@@ 55
hinreichend 55
iere 55
isierte 55
kapazitäten 55
konkre@@ 55
lassung 55
längst 55
mers 55
nation@@ 55
nummer 55
oll 55
pak@@ 55
parallel 55
psych@@ 55
rahmen@@ 55
rufe 55
sat@@ 55
schaftlich 55
schmerz@@ 55
schwei@@ 55
sität 55
stam@@ 55
transparenten 55
tätigkeit 55
umfassen@@ 55
umgekehrt 55
unverhältn@@ 55
verschärfen 55
ves 55
vorschlägt 55
weitergehen 55
wiederhol@@ 55
wirtschaften 55
wohnen 55
zahl 55
zehn@@ 55
Übermittlung 55
ät 55
äußer@@ 55
52 54
ALE 54
Abgaben 54
Aktionspläne 54
Aufgaben@@ 54
Auslieferung 54
Bern@@ 54
Besondere 54
Bezüglich 54
Büros 54
Club 54
Cre@@ 54
Eindämmung 54
FORM@@ 54
Familienz@@ 54
Farbe 54
Freitag 54
Fuß 54
Gefan@@ 54
Genehmigungen 54
Gerichtshofes 54
Gesetzes 54
Gesichtspunkt 54
Grenzwerte 54
Haushaltskontrolle 54
Holz@@ 54
Hän@@ 54
ISS@@ 54
IX 54
Innerhalb 54
Karel 54
Katalog 54
Kreis 54
Langzeit@@ 54
Lebensbedingungen 54
Lord 54
Materialien 54
Mercosur 54
München 54
Nachbarländern 54
Neuse@@ 54
Objek@@ 54
Piet@@ 54
Schnell@@ 54
Server 54
Solange 54
Sou@@ 54
Stah@@ 54
Stahl 54
Stehende 54
TU@@ 54
Trotzdem 54
Umwelt- 54
Verbrauch@@ 54
Versamm@@ 54
Vertrau@@ 54
Vorschrift 54
Wettbewerbsregeln 54
Wohnung 54
Zugleich 54
Zugän@@ 54
abzubauen 54
ahr@@ 54
alischen 54
ausführliche 54
aushal@@ 54
bark@@ 54
begrenzen 54
begrün@@ 54
bewährte 54
bezeichnen 54
bezogen 54
brachten 54
chi@@ 54
dauern 54
differen@@ 54
direk@@ 54
dol@@ 54
drück@@ 54
durchzusetzen 54
dynamischen 54
ear@@ 54
eh 54
enswerte 54
enttäuscht 54
ester 54
existiert 54
faktor 54
ferenz@@ 54
freundliche 54
funktion 54
gepf@@ 54
gering 54
gewähr@@ 54
günsti@@ 54
gütern 54
herrschaft 54
ine@@ 54
ings 54
interessierten 54
kontinuierlich 54
kontinuierliche 54
konvention@@ 54
kräften 54
lagt 54
leu@@ 54
mi 54
mittag 54
monat@@ 54
mord 54
notwendi@@ 54
nutzt 54
olo 54
passt 54
phys@@ 54
qualit@@ 54
rat@@ 54
rechtmäßig 54
reformieren 54
relevant 54
schicken 54
schlage 54
schließe 54
schluss@@ 54
schlusses 54
schlüsse 54
schuldig 54
sekretär 54
ska 54
skep@@ 54
son 54
sozial 54
steuerlichen 54
stätten 54
systematisch 54
umfang@@ 54
untersagt 54
utter 54
veren 54
verkehr@@ 54
verweigert 54
vorgesch@@ 54
wes@@ 54
zugelassen@@ 54
ßer 54
ändert 54
és 54
überwunden 54
67 53
Abstimmungs@@ 53
Anregungen 53
Arbeitsk@@ 53
Ausschüssen 53
Beobachtungsstelle 53
Beri@@ 53
Beweise 53
Bewer@@ 53
Chemikalien 53
Dr. 53
EZ 53
Einheit@@ 53
Energiem@@ 53
Energieversorgung 53
Entschä@@ 53
Fas@@ 53
Forscher 53
GFP 53
Gefähr@@ 53
Gewer@@ 53
Griff 53
Halbinsel 53
Hoffnungen 53
Immobilien@@ 53
Industriepolitik 53
Je 53
Koh@@ 53
Kuba 53
Köln 53
Leistungsfähigkeit 53
Mitentscheidungsverfahren 53
Mitgliedsländer 53
Nachteile 53
Pol@@ 53
Quellen 53
Ruf 53
Scheitern 53
Strand 53
Strukturfonds@@ 53
Trau@@ 53
Unterdrückung 53
Versu@@ 53
W-@@ 53
Zusammen 53
Zusammenfassung 53
afgh@@ 53
aku@@ 53
anne 53
anstreben 53
ath@@ 53
ausdrück@@ 53
außenpolitischen 53
bab@@ 53
beacht@@ 53
beantwortet 53
befreit 53
bekommt 53
betrug 53
cia 53
cu@@ 53
dokumente 53
doppelt 53
eck 53
eingestuft 53
einzig 53
ernden 53
erreichten 53
festgelegte 53
fiel 53
föder@@ 53
gehand@@ 53
gend@@ 53
geringfü@@ 53
geschafft 53
gesetzes 53
gestal@@ 53
glob@@ 53
gungen 53
gültig 53
hochwertige 53
kennt 53
klarstellen 53
kommerziellen 53
koordinierte 53
leichten 53
länder@@ 53
makroökonomischen 53
male 53
nei@@ 53
norm@@ 53
obliegt 53
offizielle 53
pe 53
projek@@ 53
präsentiert 53
rangige 53
riffenen 53
ruppen 53
schaf@@ 53
schluss 53
sensiblen 53
steh@@ 53
strukturelle 53
technologie 53
ti 53
tragischen 53
unab@@ 53
unkte 53
unlau@@ 53
unvereinbar 53
vention 53
vertraut 53
verwendeten 53
waff@@ 53
wichtig@@ 53
wohnt 53
währung 53
zell@@ 53
zende 53
zeugt 53
zurzeit 53
zustand 53
üblichen 53
δ@@ 53
10. 52
12. 52
71 52
8. 52
Alltag 52
Angebo@@ 52
Beamte 52
Bul@@ 52
Büro 52
CD 52
Col@@ 52
DV@@ 52
Day@@ 52
Engagements 52
Euro-Währungs@@ 52
Extremis@@ 52
Fe@@ 52
Film@@ 52
Fleisch 52
Fru@@ 52
Geber@@ 52
Geldbuße 52
Genehmig@@ 52
Generaldirektion 52
Grupp@@ 52
Hol@@ 52
Interesses 52
Jung@@ 52
Karten 52
Klar@@ 52
Kommissionsprä@@ 52
Konkurrenz 52
Konsumenten 52
Lag@@ 52
Lom@@ 52
Luftfahrt@@ 52
Mer@@ 52
Milosevic 52
Nachhal@@ 52
Niederl@@ 52
Not 52
Orientierung 52
Ostsee 52
Pas@@ 52
Prag 52
Prior@@ 52
Produk@@ 52
Rechtsakt 52
Red@@ 52
Regierung@@ 52
Russlands 52
SONST@@ 52
Schir@@ 52
Sein 52
Spezial@@ 52
Stabil@@ 52
Straßenverkehrs@@ 52
Symbol 52
TEIL@@ 52
Tabak 52
Tari@@ 52
Werden 52
aktionen 52
alternative 52
analy@@ 52
angekün@@ 52
antwor@@ 52
anzuerkennen 52
appellieren 52
aufhalten 52
auseinander@@ 52
behauptet 52
bene 52
bezahlt 52
con@@ 52
dasselbe 52
denheit 52
eland 52
erfahr@@ 52
erlangen 52
fehlen 52
fers 52
fischen 52
freiwillig 52
für@@ 52
gehend 52
gei@@ 52
gemä@@ 52
genehmigung 52
geordnet 52
gewünschten 52
günstige 52
höchst 52
ignorieren 52
ino@@ 52
institution@@ 52
irgend@@ 52
ister 52
itären 52
kostenlos 52
llen 52
meist 52
netzes 52
offener 52
offiziell 52
olo@@ 52
opol@@ 52
org@@ 52
pal@@ 52
präzise 52
prüf@@ 52
rass@@ 52
rede 52
schlüssel@@ 52
schnit@@ 52
sex@@ 52
siniti@@ 52
solle 52
sorg@@ 52
spiegelt 52
spr@@ 52
sprech@@ 52
spät 52
stammt 52
stanzen 52
starker 52
starten 52
städ@@ 52
teilnehmenden 52
ther 52
ther@@ 52
trenn@@ 52
unterhalten 52
verkauf 52
verursachten 52
verzö@@ 52
wahr 52
wertung 52
zeichneten 52
zurückkehren 52
É@@ 52
ät@@ 52
è@@ 52
120 51
19. 51
2,5 51
54 51
AD 51
Anna 51
Aufruf 51
Ausbeutung 51
Ausnahmeregelung 51
Barnier 51
Ca@@ 51
Chile 51
Dring@@ 51
Dritte 51
Einer 51
Energiesektor 51
Erst 51
Est@@ 51
Europä@@ 51
Flex@@ 51
Flynn 51
Forums 51
Gol@@ 51
Google 51
Gutachten 51
Holz 51
Häfen 51
IKT 51
Inten@@ 51
Ira@@ 51
Jean-@@ 51
Komfort 51
Kommiss@@ 51
Kompromiss@@ 51
Kontrol@@ 51
Korrek@@ 51
Kr@@ 51
Kri@@ 51
Krimin@@ 51
Körper 51
Lager@@ 51
Lok@@ 51
Louis 51
MEDIA 51
Million 51
Mobilisierung 51
Motor 51
Niederlassungs@@ 51
Ref 51
Reserve 51
Rubrik 51
SAT@@ 51
Soforthilfe 51
Standort 51
Streben 51
Test 51
Umweltschutz@@ 51
Unzu@@ 51
Volkspartei 51
Zeitung 51
Zukunfts@@ 51
Zwecken 51
aden 51
administrativen 51
analysiert 51
angemessen@@ 51
angeschlossen 51
angewand@@ 51
artiges 51
ausmachen 51
aussichten 51
befris@@ 51
beobachtet 51
berichtet 51
besu@@ 51
bewus@@ 51
bots 51
burg 51
card 51
dahingehend 51
denkt 51
dest@@ 51
desto 51
duld 51
einheitlich 51
einzigartigen 51
ekt 51
enthaltene 51
erneuerbarer 51
erzeugung 51
esicher@@ 51
fairer 51
festigen 51
finnischen 51
flug@@ 51
formationen 51
fährt 51
fügt 51
gast@@ 51
gebnisse 51
geordnete 51
gewinnt 51
gewünscht 51
glich@@ 51
ind@@ 51
institute 51
irakischen 51
itz@@ 51
jahres 51
künftiger 51
lege 51
legten 51
leich@@ 51
leiter 51
lektu@@ 51
ließ@@ 51
mar 51
mat@@ 51
plan@@ 51
popul@@ 51
positives 51
rachten 51
same 51
sektoren 51
stagung 51
stechnologie 51
streng 51
tende 51
traditionelle 51
transatlantischen 51
une 51
ungsweise 51
unternimmt 51
van@@ 51
vari@@ 51
verbindliche 51
verbrauch 51
verschoben 51
veröffentlichten 51
vollzogen 51
vorantreiben 51
vorübergehend 51
wissen@@ 51
öpf@@ 51
ā@@ 51
ι 51
15. 50
250 50
56 50
63 50
Abgeordneter 50
Absichten 50
Album 50
Antonio 50
Antrag@@ 50
Anwendungs@@ 50
Aus- 50
Ausgabe 50
Aussagen 50
Auswärtigen 50
Balkon 50
Bearbeitung 50
Beiträgen 50
Benutzung 50
Beschreibung 50
Binnenmark@@ 50
Block@@ 50
Bus@@ 50
Bürokratie 50
Datei 50
Datenbanken 50
EU-Bürger 50
Einwanderer 50
Erreichen 50
Etappe 50
European 50
Experten@@ 50
Fab@@ 50
Fair@@ 50
Firmen@@ 50
Freund 50
Gesprä@@ 50
Glei@@ 50
Green 50
Griechenlands 50
Häuser 50
Individu@@ 50
Jahr@@ 50
Kann 50
Keine 50
Köni@@ 50
LT@@ 50
Leiden 50
Libyen 50
Lö@@ 50
Maastri@@ 50
Mess@@ 50
Mitgliedstaates 50
Nachteil 50
Palästinen@@ 50
Park 50
Radio 50
Redezeit 50
Russ@@ 50
SON@@ 50
Seeverkehr 50
Sensibilisierung 50
Signale 50
Solana 50
Som@@ 50
Touristen 50
Tschech@@ 50
Ungleichheiten 50
Verteidig@@ 50
Verwen@@ 50
Viel@@ 50
Winter 50
Zuverlässigkeit 50
agenda 50
alitäten 50
anger@@ 50
annehm@@ 50
anspruchs@@ 50
arbeitungs@@ 50
arien 50
asp@@ 50
assungen 50
atom@@ 50
attraktiv 50
aufgaben 50
ausgezeichnet 50
ausrei@@ 50
beläuft 50
benennen 50
besorgniserre@@ 50
betrieb 50
bewegung 50
bisherige 50
bisschen 50
defizit 50
derartiger 50
drängt 50
ehe 50
eignet 50
eiligte 50
eit 50
elf 50
enheit 50
erworben 50
etzung 50
fleisch 50
fragt 50
gedenkt 50
gemis@@ 50
geringe 50
gewaltige 50
glei@@ 50
graphie 50
haltungs@@ 50
heutzutage 50
industri@@ 50
ins@@ 50
jüngster 50
kanische 50
knapp@@ 50
komplett 50
kümmern 50
lte 50
machten 50
mo 50
negativ 50
nehmern 50
normalerweise 50
ommission 50
ort@@ 50
parti@@ 50
pflan@@ 50
ras@@ 50
rechtswidri@@ 50
riebenen 50
rup@@ 50
schule 50
sichtbar 50
sichtlich 50
steu@@ 50
strafe 50
stätigkeiten 50
tivität 50
tz 50
umfassenderen 50
unterstützte 50
unverzichtbar 50
verbin@@ 50
verdeutlicht 50
versichert 50
veränder@@ 50
wal@@ 50
wenigstens 50
zusätzlicher 50
zwecks 50
ältere 50
öpft 50
üt@@ 50
č@@ 50
1,2 49
26@@ 49
AN-@@ 49
Amsterdamer 49
Analy@@ 49
Ansprechpartner 49
Ashton 49
Asyl 49
Ausnahmeregelungen 49
Autorität 49
Banglades@@ 49
Beschwerden 49
Beteilig@@ 49
Blut@@ 49
Bun@@ 49
CS 49
Danach 49
Dat@@ 49
Dienstes 49
Dienstleistung 49
ESS 49
Einsparungen 49
Entsprechend 49
Ersten 49
Farb@@ 49
Forst@@ 49
Fortschritts@@ 49
Front 49
Hein@@ 49
Hil@@ 49
ION 49
Italiens 49
Jan@@ 49
Komponente 49
Kyoto 49
Ltd 49
Luftfahrtunternehmen 49
Maschinen@@ 49
Medikamente 49
Migranten 49
Mol@@ 49
Motto 49
Muster 49
NICHT 49
Nationale 49
Nä@@ 49
Partei@@ 49
Patent@@ 49
Pauschal@@ 49
Rad@@ 49
Rechtsrahmens 49
Reser@@ 49
Rob@@ 49
SV 49
Spra@@ 49
Stock@@ 49
Streit 49
Tat@@ 49
Tel@@ 49
Thailand 49
Umsetzungs@@ 49
Untersuchungs@@ 49
Wert@@ 49
Wolfgang 49
Wort@@ 49
X-@@ 49
ablen 49
abstimmung 49
ahmen 49
ai@@ 49
anschließ@@ 49
anz@@ 49
arium 49
bedauere 49
begeben 49
berühmten 49
bewährten 49
bisweilen 49
digkeit 49
eingereichten 49
einher@@ 49
eko@@ 49
entri@@ 49
erhielt 49
erinnen 49
erischen 49
erkt 49
ernsten 49
erw@@ 49
erweise 49
etze 49
extrem 49
fair 49
fei@@ 49
förderungs@@ 49
geord@@ 49
geschichte 49
geschätzt 49
gewalt@@ 49
gieren 49
gingen 49
glaubt 49
gri@@ 49
gründet 49
hef@@ 49
hindern 49
ichten 49
ierender 49
jed@@ 49
jähri@@ 49
komm@@ 49
komplex 49
kompli@@ 49
konsequ@@ 49
konzipiert 49
kreis 49
leitet 49
leitung 49
liegende 49
los@@ 49
loser 49
meister@@ 49
natürlicher 49
niedrigen 49
nische 49
nischer 49
nützliche 49
objektiv 49
oper@@ 49
pfeiler 49
produkt 49
radio@@ 49
reck@@ 49
registriert 49
reibern 49
ruhen 49
runden 49
schaden 49
schriftliche 49
seitigkeit 49
sparen 49
spüren 49
sterben 49
stil@@ 49
straße 49
streichen 49
tti 49
turel@@ 49
ungsphase 49
val@@ 49
verdanken 49
vereint 49
vergleichbar 49
vorangegangenen 49
vorausgesetzt 49
weiterentwickelt 49
wettbewerbsfähig 49
widri@@ 49
wär@@ 49
x-@@ 49
yp@@ 49
zah@@ 49
zuverlässi@@ 49
zweites 49
überdenken 49
überzeu@@ 49
ück 49
Andorra 48
Asi@@ 48
Aufträge 48
Augen@@ 48
Ausbruch 48
Bem@@ 48
Bewegungs@@ 48
Einstellungen 48
Erkki 48
Feira 48
Freihandelszone 48
General 48
Gästen 48
Heimat@@ 48
Instrument@@ 48
Jedoch 48
Klassi@@ 48
Korrektur 48
König 48
Künstler 48
LAN 48
Landwir@@ 48
Lomé 48
Länge 48
Mani@@ 48
Mauer 48
Ministers 48
Motor@@ 48
NEHM@@ 48
NOR@@ 48
OECD 48
OG@@ 48
Pakets 48
Pu@@ 48
Quarte@@ 48
Rahmenbeschluss 48
Sau@@ 48
Seu@@ 48
Sicht@@ 48
Siehe 48
Stabilitätsp@@ 48
Tan@@ 48
VA 48
Verantwortlichkeiten 48
Verhand@@ 48
Verschmutzung 48
Vorbereitungs@@ 48
Web 48
Wissenschaftler 48
Wohl 48
Wohlergehen 48
Zugangs@@ 48
afri@@ 48
aktiviert 48
angehö@@ 48
anschau@@ 48
ansässigen 48
atisi@@ 48
ausgelöst 48
ausgesch@@ 48
begünstigt 48
bekanntlich 48
berechnet 48
bestanden 48
bevorstehende 48
bewirtschaftung 48
block@@ 48
dafri@@ 48
debat@@ 48
demselben 48
der-@@ 48
dien 48
dringende 48
dy 48
eben@@ 48
einmalige 48
erklär@@ 48
ernde 48
erneute 48
erschüt@@ 48
erzeugen 48
f-@@ 48
fasst 48
feiern 48
fertigt 48
flexibler 48
fron@@ 48
gels 48
geographischen 48
gesucht 48
getrennt 48
getro@@ 48
grundsätzliche 48
gäbe 48
gänge 48
herr@@ 48
hervorragenden 48
ideal 48
indert 48
innov@@ 48
isierten 48
konsul@@ 48
kontrol@@ 48
kostet 48
lten 48
läufig 48
materiellen 48
maßnahme 48
minis@@ 48
mitten 48
nachteili@@ 48
nnen 48
nutzung 48
off 48
onn@@ 48
plötzlich 48
port@@ 48
portugiesische 48
press@@ 48
reis@@ 48
rek@@ 48
ri 48
rise 48
ros 48
räte 48
schau@@ 48
schlägen 48
schrecklichen 48
schär@@ 48
schätz@@ 48
seits 48
set 48
sieb@@ 48
spo@@ 48
spreis 48
statt@@ 48
stau@@ 48
stoß 48
stritten 48
sz@@ 48
table 48
tat@@ 48
ter-@@ 48
teu@@ 48
tigkeits@@ 48
tisches 48
tlicher 48
treiben 48
vel@@ 48
verehrten 48
vermutlich 48
wahrung 48
wertvolle 48
wissenschaft@@ 48
zonen 48
zufriedenstell@@ 48
zugeben 48
Überwach@@ 48
• 48
81 47
Anhebung 47
Auflösung 47
Auswahl@@ 47
BU@@ 47
Bah@@ 47
Blau@@ 47
Bor@@ 47
Bühne 47
C. 47
Che@@ 47
DS@@ 47
Dauer@@ 47
Demonstr@@ 47
Dokuments 47
EX 47
Einzelpersonen 47
Fertig@@ 47
GMO 47
Gedanke 47
Gefäng@@ 47
Gefängnis 47
Gener@@ 47
Geschlechter 47
Gestalt 47
Gestatten 47
Hen@@ 47
IC 47
Indem 47
Instabilität 47
Jahrzehnt 47
Know-how 47
Konzeption 47
Kroati@@ 47
MAN@@ 47
Menü 47
Ministerpräsidenten 47
Mitglie@@ 47
Nachrichten 47
Olivenöl 47
PP@@ 47
Papier@@ 47
Problem@@ 47
Rot@@ 47
Schaden@@ 47
Schienen@@ 47
Stellung@@ 47
Such@@ 47
Unterlagen 47
Visa 47
Vorbild 47
Wesen 47
Wäh@@ 47
Währungen 47
aben 47
alisten 47
angefangen 47
angen 47
ann 47
annte 47
anstelle 47
appelliere 47
ater@@ 47
aufgabe 47
ausgewogen 47
aut@@ 47
bahn 47
baltischen 47
basieren 47
bereitstellen 47
besonderem 47
betro@@ 47
bewegt 47
bilanz 47
brauchs 47
doppel@@ 47
durchschnittlich 47
dynamische 47
eil 47
eingetreten 47
einheit 47
ess 47
essi@@ 47
fahrts@@ 47
falsche 47
fikation 47
französ@@ 47
fühlt 47
geboren 47
gebun@@ 47
geprä@@ 47
gestrigen 47
gig 47
hang 47
hau@@ 47
hochwertigen 47
händler 47
id@@ 47
kamp@@ 47
kapit@@ 47
kasus 47
kleineren 47
kompetenz 47
konzentri@@ 47
kritisiert 47
kurz@@ 47
leidet 47
mals 47
mangelnde 47
mehrmals 47
meistern 47
mens 47
minim@@ 47
nu@@ 47
ont 47
realisieren 47
redu@@ 47
risen 47
russ@@ 47
schicht 47
schil@@ 47
schm@@ 47
schwerwiegenden 47
selbe 47
sicherheits@@ 47
sinter@@ 47
siv@@ 47
souverän@@ 47
spf@@ 47
stie@@ 47
suche 47
sum 47
teilgenommen 47
timm@@ 47
tru@@ 47
träglich 47
ub@@ 47
urs 47
vernünftigen 47
verstär@@ 47
veränderten 47
vo 47
wa 47
weilen 47
weisungen 47
with 47
wort 47
zeug 47
ßes 47
ía 47
überrascht 47
-- 46
Afghan@@ 46
Ander@@ 46
Anders 46
Arzneimitteln 46
Aufschwung 46
Ausstattung 46
Bedrohungen 46
Begünsti@@ 46
Bestimm@@ 46
CI@@ 46
CS@@ 46
Computer@@ 46
DH@@ 46
Einfl@@ 46
Entwick@@ 46
FIN@@ 46
Far@@ 46
Feu@@ 46
Fluggäste 46
Gegend 46
Generaldirektor 46
Geschäfte 46
Gum@@ 46
Gute 46
Heimat 46
Hör@@ 46
Kilometer 46
Klicken 46
Kommentare 46
Kö@@ 46
Links 46
Lizenz@@ 46
ME@@ 46
Mehrwertsteuer 46
Menschenhandel 46
Missbrauch 46
Mitteilungen 46
Niemand 46
Off@@ 46
Optim@@ 46
Pressemitteilung 46
Privatisierung 46
Q 46
Rom@@ 46
Ruß@@ 46
Schwei@@ 46
Schwerpunkt@@ 46
Sek@@ 46
Städ@@ 46
Störungen 46
Teils 46
Tour 46
Tragödie 46
UN 46
Unfälle 46
Verbraucherpolitik 46
Viertens 46
Vol@@ 46
Welthand@@ 46
Wol@@ 46
Zei@@ 46
Zus@@ 46
agentur 46
angesprochenen 46
atur@@ 46
ausgewogenes 46
ausreichen 46
außergewöhnlichen 46
beschränkungen 46
birgt 46
blieb 46
breites 46
car@@ 46
chem 46
chendes 46
dan 46
deutsch@@ 46
ehm@@ 46
einseitig 46
eits@@ 46
entgegenzu@@ 46
entnehmen 46
entsand@@ 46
entstan@@ 46
err@@ 46
erzeugt 46
ext 46
funktionierenden 46
geliefert 46
gelte 46
gestartet 46
gezielt 46
gründliche 46
hervorzuheben 46
hilfreich 46
ho 46
intensiver 46
konsultiert 46
lei 46
leis@@ 46
ließen 46
läß@@ 46
meis@@ 46
mobil@@ 46
mug@@ 46
musi@@ 46
nachweis@@ 46
naher 46
ona 46
ordnungs@@ 46
pflanzen 46
pol 46
preises 46
regu@@ 46
rent@@ 46
sache 46
schlechter 46
schreibt 46
sinn 46
siven 46
sprü@@ 46
stärke 46
subvention@@ 46
tausend 46
tho@@ 46
time 46
tin@@ 46
tü@@ 46
us-@@ 46
uß 46
verbesser@@ 46
verbringen 46
vermei@@ 46
versprochen 46
verweigern 46
vorange@@ 46
vorrangi@@ 46
wendungen 46
ystem 46
zep@@ 46
ziehungs@@ 46
án 46
ösen 46
überarbeiteten 46
übereinstimmen 46
übergreifenden 46
überwiegend 46
,5 45
195@@ 45
201@@ 45
A4-0@@ 45
Abgesehen 45
Abwei@@ 45
Aktiv@@ 45
Ale@@ 45
Amerikaner 45
Anbau 45
Anhän@@ 45
Anrei@@ 45
Anreiz 45
Begeisterung 45
Bekannt@@ 45
Bezug@@ 45
Deckung 45
EU-Kommissar 45
Energies@@ 45
Entscheidungsträger 45
Erzeu@@ 45
Etikettierung 45
Fahrzeug@@ 45
Farben 45
Freund@@ 45
GB 45
Gehör 45
Geist@@ 45
Gesamth@@ 45
Gesundheits- 45
Gleichberechtigung 45
Haben 45
Handelns 45
Hektar 45
Horn 45
Ingenie@@ 45
Israelis 45
Jordanien 45
Klaren 45
Konferenz@@ 45
Lager 45
Listen 45
Mac@@ 45
Miguel 45
Mitt@@ 45
Monats 45
Nordkorea 45
Palästina 45
Pen@@ 45
Pin@@ 45
Pri@@ 45
Prozent@@ 45
Randlage 45
Rechn@@ 45
Reg@@ 45
Reichtum 45
S.@@ 45
SP 45
Sar@@ 45
Schei@@ 45
Schu@@ 45
Sozialdemokraten 45
St. 45
Stahl@@ 45
Strafre@@ 45
Südo@@ 45
Taiwan 45
Thomas 45
Trends 45
Türen 45
Universal@@ 45
Vater 45
Verf@@ 45
Vernetzung 45
Vertrieb 45
Viertel 45
Voraus@@ 45
Washington 45
Wettbewerbsbedingungen 45
World 45
akadem@@ 45
alog 45
ausgestellt 45
bahn@@ 45
basierte 45
bedauern 45
bedingten 45
betre@@ 45
beunruhi@@ 45
bewaff@@ 45
bewahrt 45
bewirkt 45
bewäl@@ 45
daten@@ 45
dauert 45
deb@@ 45
della 45
dent@@ 45
deutet 45
dis 45
diversi@@ 45
drit@@ 45
drücke 45
durchsetzen 45
einfach@@ 45
einheitliches 45
elemente 45
emmnisse 45
erwarte 45
erzeu@@ 45
erzeug@@ 45
es-@@ 45
faktoren 45
fasste 45
fehlende 45
fig@@ 45
finanzierten 45
fix@@ 45
forum 45
füh@@ 45
gefolgt 45
gemachten 45
genheiten 45
geschle@@ 45
gesetzliche 45
gesunde 45
getötet 45
gn@@ 45
grundlegend 45
günstigen 45
haupt@@ 45
hinterlassen 45
ille 45
inos 45
investiert 45
jah@@ 45
junger 45
klen 45
klärung 45
kroati@@ 45
kör@@ 45
lagern 45
lichten 45
lossen@@ 45
lösungen 45
mas 45
minister@@ 45
neutr@@ 45
nien 45
nischen 45
not 45
nukleare 45
nüpft 45
ologi@@ 45
organisator@@ 45
pan@@ 45
passieren 45
ranten 45
rechnung 45
regi@@ 45
reichenden 45
religiöse 45
sa 45
schiffe 45
schön 45
sende 45
sierung 45
spru@@ 45
sse@@ 45
stechnologien 45
stern 45
strebt 45
streiten 45
than@@ 45
tiker 45
tol@@ 45
unterscheidet 45
ursprüngliche 45
verbundene 45
vergleichen 45
verlang@@ 45
verschärft 45
verträ@@ 45
verwalten 45
vorangetrieben 45
wahrgenommen 45
wettbewerbsfähigen 45
wies@@ 45
zeitraums 45
Öffentliche 45
ão 45
ärz@@ 45
äußerster 45
überwie@@ 45
ünde 45
-und 44
68 44
84 44
Acht 44
Alkohol 44
Aquak@@ 44
Aufenth@@ 44
Ausschl@@ 44
BI@@ 44
Begriffe 44
Begrün@@ 44
Bewertungs@@ 44
Bezir@@ 44
Bisher 44
Darauf 44
Deutsche 44
Differenzen 44
Dolom@@ 44
Einmischung 44
Emp@@ 44
Entstehung 44
Ergän@@ 44
Erziehung 44
F. 44
Fangmöglichkeiten 44
Feier@@ 44
Folgenabschätzung 44
GAT@@ 44
Gegenwärtig 44
Gre@@ 44
Gut 44
Hongkong 44
IND 44
Krank@@ 44
Lek@@ 44
Maßstab 44
Miet@@ 44
Mindestan@@ 44
Mineral@@ 44
NATO-@@ 44
Naturkatastrophen 44
OLAF 44
PT 44
Parlament@@ 44
Pat@@ 44
Pensions@@ 44
Pir@@ 44
Präz@@ 44
Qualifikation 44
Rechenschaftspflicht 44
Rohr@@ 44
Schle@@ 44
Schlussfolgerung 44
Schn@@ 44
Sekre@@ 44
Stich@@ 44
Stil@@ 44
Stufen 44
Stärken 44
Summe 44
Sy@@ 44
Terrasse 44
U-@@ 44
UNO 44
Ungleichgewichte 44
Verein 44
Verkehrspolitik 44
Weiterhin 44
Weltbank 44
Wen@@ 44
Winter@@ 44
ZE 44
Zuver@@ 44
Zü@@ 44
able 44
alternativen 44
angebotenen 44
angel@@ 44
artigen 44
assung 44
attra@@ 44
atz@@ 44
aufkommen 44
basi@@ 44
bedeutend 44
bedeutender 44
berat@@ 44
berech@@ 44
bestä@@ 44
besucht 44
charakter@@ 44
dachte 44
detaillierten 44
dh@@ 44
dienstes 44
drän@@ 44
eder 44
einander@@ 44
einhergehen 44
elli 44
emm@@ 44
ena 44
era 44
ernsthaften 44
erzi@@ 44
este 44
etes 44
fizieren 44
forderten 44
frühere 44
führungen 44
gefährliche 44
gent 44
höh@@ 44
ie-@@ 44
ierend 44
igkeiten 44
initiative 44
isierungs@@ 44
jord@@ 44
kes 44
konzer@@ 44
let 44
letztes 44
lieb@@ 44
mache 44
multilater@@ 44
nachgewiesen 44
ness 44
niedrigeren 44
ola 44
ommene 44
orts 44
plätze 44
pos 44
quantit@@ 44
rachte 44
reichung 44
ruhigen 44
rüstungen 44
schle@@ 44
schließ@@ 44
schriften 44
schätzungen 44
sem 44
sent@@ 44
sexuelle 44
sk 44
spiele 44
spä@@ 44
sul@@ 44
teilungen 44
the@@ 44
tionelle 44
tragene 44
unabdingbar 44
unds 44
univers@@ 44
unterstütz@@ 44
verglichen 44
voranzu@@ 44
wiederhole 44
worauf 44
wur@@ 44
wurf 44
zivile 44
zweimal 44
zügige 44
ÖR@@ 44
änderungsan@@ 44
öffnet 44
γ@@ 44
13. 43
25. 43
69 43
ASEAN 43
Ach@@ 43
Akt 43
Arab@@ 43
Archi@@ 43
Ausgang 43
Automobil@@ 43
Beihilfere@@ 43
Bere@@ 43
Boo@@ 43
Bord 43
Brief@@ 43
Bruttoinlands@@ 43
Cal@@ 43
Cl@@ 43
Diejenigen 43
Download 43
Drei 43
Eigentums@@ 43
Eintritt 43
Eng@@ 43
Exekutiv@@ 43
Feuer@@ 43
Finanzhilfe 43
Fotos 43
Fron@@ 43
Früchte 43
Golf 43
Größen@@ 43
IT-@@ 43
Inhalten 43
Innen 43
Inv@@ 43
Kaliningrad 43
Kombin@@ 43
Komplexität 43
Kompromisse 43
Kra@@ 43
Kyi 43
Käl@@ 43
LEG@@ 43
Marken@@ 43
N-@@ 43
Nachmittag 43
Neuerungen 43
Pass@@ 43
Pflanzen@@ 43
Pflege 43
Polens 43
Prakti@@ 43
Priv@@ 43
Produzenten 43
Projek@@ 43
Präsident@@ 43
Reden 43
Regimes 43
Reihenfolge 43
Reservierung 43
Restaurants 43
Satelliten@@ 43
Schiff 43
Schritten 43
Schwächen 43
Seel@@ 43
Seminar 43
Speicher@@ 43
Swoboda 43
Themas 43
Tragen 43
Tür@@ 43
Umweltpolitik 43
VIC@@ 43
Verbände 43
Visi@@ 43
Vorsit@@ 43
Waff@@ 43
Widerstand 43
Wähler@@ 43
Wünschen 43
Zentralbanken 43
Zwangs@@ 43
aire 43
aktualisierten 43
anlage 43
annt 43
anwendbar 43
arme 43
ateg@@ 43
aten@@ 43
aufzustellen 43
auszuweiten 43
ay@@ 43
bad 43
befug@@ 43
befürchten 43
befürworte 43
begehen 43
begründen 43
beiträge 43
beruf@@ 43
beschei@@ 43
beschä@@ 43
bestellen 43
bet 43
betri@@ 43
ble@@ 43
breiter 43
deine 43
ders 43
dir 43
ebt 43
effektiver 43
ehrung 43
ellen@@ 43
enswerten 43
entlang 43
entwick@@ 43
erien 43
erkennbar 43
erlangt 43
erreichte 43
erstaun@@ 43
euro@@ 43
fi 43
fiziert 43
freig@@ 43
freu@@ 43
freundlichen 43
fundi@@ 43
funktionierende 43
funktions@@ 43
fälsch@@ 43
geehrter 43
gehörige 43
gelegenen 43
geschickt 43
geschlechts@@ 43
grossen 43
gutem 43
halben 43
harten 43
herausgestellt 43
höchst@@ 43
hört 43
ite 43
jeweilige 43
kap@@ 43
korrekte 43
kritisch 43
kun@@ 43
kurzer 43
lar 43
laub 43
lehr@@ 43
mische 43
män@@ 43
nähe 43
oberste 43
objektive 43
oni 43
onien 43
polnische 43
prozessen 43
rati@@ 43
regul@@ 43
revi@@ 43
schancen 43
schieben 43
schuldigen 43
shof 43
sichts@@ 43
ski 43
solidierung 43
sozusagen 43
sparteien 43
sses 43
steilnehmer 43
suchten 43
teure 43
tial 43
trieben 43
ust 43
verbindungen 43
vergabe 43
vernach@@ 43
vernünf@@ 43
verschle@@ 43
verständnis 43
veränderte 43
zahlt 43
zeitiger 43
zierte 43
zips 43
zurufen 43
zurückgegangen 43
zuzustimmen 43
zügi@@ 43
ähn@@ 43
ç@@ 43
öffnung 43
ön 43
öpfung 43
überlegen 43
überwachung 43
128 42
20. 42
Allein 42
Anstrengung 42
Anzeichen 42
Atlantik 42
Auswirkung 42
Boli@@ 42
Bürgerrechte 42
Det@@ 42
Deut@@ 42
Diskriminierungen 42
EG-Vertrags 42
EU-Strategie 42
Erforder@@ 42
Genf 42
George 42
Gitar@@ 42
Glaub@@ 42
INI 42
Investition 42
Johannesburg 42
Kapit@@ 42
Kongre@@ 42
Kop@@ 42
Kraftstoff@@ 42
Lett@@ 42
Memorandum 42
Menschheit 42
Mitarbeit 42
Män@@ 42
Neues 42
Oliven@@ 42
Professor 42
Prävention 42
Quell@@ 42
Quer@@ 42
Ratspräsidenten 42
Rich@@ 42
Rücksicht 42
Samstag 42
Scha@@ 42
Schulden 42
Schwein@@ 42
Semin@@ 42
Sonn@@ 42
Sonntag 42
Spann@@ 42
Spitze 42
Straßenverkehr 42
Studien@@ 42
Suu 42
Teilnehmern 42
Tests 42
Treibhausgasemissionen 42
Verhältnisse 42
Verpfli@@ 42
Verwaltung@@ 42
Vorbeugung 42
Vormittag 42
Wachstumsp@@ 42
Wur@@ 42
Zin@@ 42
Zug@@ 42
\ 42
absoluten 42
agieren 42
ahl 42
ai 42
ambi@@ 42
angebot 42
appar@@ 42
asa 42
asses 42
aufer@@ 42
auferlegt 42
aufzuheben 42
auszutauschen 42
basierten 42
bedaure 42
bemerken 42
beob@@ 42
berechtigte 42
beträchtlich 42
blu@@ 42
chil@@ 42
chlich 42
chtete 42
digit@@ 42
dnis 42
dramati@@ 42
dür@@ 42
einheit@@ 42
enorm 42
enttäu@@ 42
erfassen 42
erfreu@@ 42
erreich@@ 42
erschwert 42
felder 42
fikationen 42
formulieren 42
freiwil@@ 42
gangs@@ 42
genten 42
geschäft@@ 42
gewerblichen 42
hand 42
herauszu@@ 42
ic 42
iel 42
ii 42
il-@@ 42
imstande 42
iten@@ 42
jenige 42
jo@@ 42
jähriger 42
kampf@@ 42
kleines 42
komplexe 42
landschaft 42
langsam@@ 42
meldungen 42
offenkundig 42
ord 42
packen 42
pap@@ 42
pass@@ 42
perfekt 42
positiver 42
preisen 42
privater 42
professionellen 42
profitiert 42
pt@@ 42
quo 42
reib@@ 42
ritts 42
scho@@ 42
sorgungs@@ 42
spartnern 42
stag 42
stieg@@ 42
ständigkeit 42
technologien 42
theore@@ 42
tiefen 42
tory 42
tägliche 42
unterzogen 42
vente 42
verantwortlichen 42
verlu@@ 42
verteidigt 42
verursachen 42
vielfältigen 42
visten 42
vorgeschrieben 42
vorne 42
wirtschaf@@ 42
wofür 42
worfen 42
zugewiesen 42
zwin@@ 42
zwingend 42
² 42
ökologische 42
ölle 42
ück@@ 42
ünden 42
η 42
-Programm 41
17.@@ 41
196@@ 41
450 41
66 41
9-@@ 41
AP 41
Alp@@ 41
Ameri@@ 41
Antri@@ 41
Arbeitszeit 41
Auseinandersetzungen 41
B5-0@@ 41
Befürchtungen 41
Besu@@ 41
Beton@@ 41
Betrieben 41
Betrugs@@ 41
Bü@@ 41
Christian 41
Dafürhalten 41
Eig@@ 41
Englisch 41
Erdöl@@ 41
Erkenntnis 41
Export 41
Flugzeug 41
Format 41
Forschungs- 41
Fragestunde 41
Frühstück 41
Funktions@@ 41
Fü@@ 41
Günter 41
Haag 41
Harmon@@ 41
Hemmnisse 41
Investment@@ 41
Katastrophen 41
Ki@@ 41
Kli@@ 41
Kol@@ 41
Kost@@ 41
Kredi@@ 41
Kurz 41
LEA@@ 41
Last 41
Le 41
Länder@@ 41
Lücken 41
Maison 41
Mem@@ 41
Mes@@ 41
Militä@@ 41
Minute 41
Mrd 41
NAF@@ 41
Nachweis 41
Ord@@ 41
Realisierung 41
Samm@@ 41
Schwach@@ 41
Sozial- 41
Sper@@ 41
Synergien 41
System@@ 41
TAC@@ 41
Tarif@@ 41
Tatsächlich 41
Tendenzen 41
Transfer 41
Tö@@ 41
Ungar@@ 41
VIII 41
Verkaufs@@ 41
Verzeichn@@ 41
Vorgän@@ 41
Weitergabe 41
Wind 41
Wohnungen 41
Zinsen 41
Zuliefer@@ 41
Zy@@ 41
abgesch@@ 41
altern@@ 41
angenehmen 41
ania 41
arabischen 41
ate@@ 41
ay 41
beamten 41
begrenz@@ 41
belie@@ 41
beschloss 41
bestrebt 41
betreiber 41
beweist 41
bilder 41
bru@@ 41
bun@@ 41
chtigen 41
dienststellen 41
disziplin@@ 41
dun@@ 41
ehrgei@@ 41
elen 41
enor@@ 41
erei 41
ernähr@@ 41
erwor@@ 41
ez 41
fizierten 41
flexible 41
fon@@ 41
freiwillige 41
geleg@@ 41
getre@@ 41
global 41
grünen 41
haus 41
hobenen 41
hoff@@ 41
ht 41
indirekt 41
individuell 41
information 41
intelli@@ 41
izi@@ 41
kapital 41
kollektiven 41
konfli@@ 41
kontrollierten 41
kö@@ 41
küh@@ 41
lehnen 41
lo 41
längere 41
mand@@ 41
maxim@@ 41
menden 41
menten@@ 41
merkte 41
modelle 41
muster 41
oul 41
pel@@ 41
pflanz@@ 41
pflicht 41
realisiert 41
reicher 41
reitet 41
relevante 41
schädlichen 41
see 41
seri@@ 41
sexu@@ 41
spunkten 41
ssi@@ 41
stel@@ 41
strengere 41
stro@@ 41
stur@@ 41
tak@@ 41
tschaft 41
uen 41
undes@@ 41
ungel@@ 41
unterhalb 41
unterworfen 41
urity 41
urs@@ 41
verl@@ 41
vertreten@@ 41
verwaltet 41
wettbewerbsfähig@@ 41
zeitlich 41
zerti@@ 41
zione 41
zweck 41
Ähn@@ 41
ände 41
übergreifende 41
17. 40
6. 40
600 40
7. 40
79 40
Anschließend 40
Aung 40
Auskunft 40
Az@@ 40
Badezimmer 40
Besteller 40
Betro@@ 40
Bewohner 40
Can@@ 40
Common@@ 40
Dritter 40
Eigenmittel 40
Einwände 40
Empfänger 40
Erdgas 40
Fast 40
Finanzinstitutionen 40
GAR@@ 40
Generaldirek@@ 40
Geschmack 40
Gut@@ 40
High@@ 40
Hon@@ 40
Hondur@@ 40
Human@@ 40
IZ@@ 40
Identifizierung 40
Industriezwei@@ 40
Kenntn@@ 40
Ker@@ 40
Konto 40
Kul@@ 40
Liga 40
Liikanen 40
Management@@ 40
Mat@@ 40
Messe 40
Mitbürger 40
Mä@@ 40
NET@@ 40
Nehmen 40
News 40
PSE-Fraktion 40
Pati@@ 40
Prozentsatz 40
Präsidi@@ 40
Sand@@ 40
Schutzmaßnahmen 40
Sonnen@@ 40
Statistik 40
Stoff@@ 40
Sä@@ 40
Südost@@ 40
Tal 40
Traum 40
Unserer 40
Unterstützungs@@ 40
Verkehrs 40
Wahr@@ 40
West 40
Wettbewerbsverzerrungen 40
Wohnungs@@ 40
Zielvorgaben 40
abgebaut 40
abgedeckt 40
abseh@@ 40
acken 40
aktivitäten 40
allmählich 40
altet 40
asiatischen 40
auer@@ 40
aufgeteilt 40
auseinander 40
bekannte 40
benacht@@ 40
bestens 40
chet 40
code 40
cs 40
deckung 40
denz 40
dex 40
direkter 40
dopp@@ 40
ehrten 40
eingeschrän@@ 40
el-@@ 40
ellem 40
ende@@ 40
eten@@ 40
eventu@@ 40
fem@@ 40
fli@@ 40
frühen 40
funden 40
führend 40
gangene 40
gebene 40
geg@@ 40
gelag@@ 40
geschätz@@ 40
gesteigert 40
getä@@ 40
gewonn@@ 40
gewünschte 40
graf@@ 40
grundle@@ 40
gründlich 40
gül@@ 40
hen@@ 40
herrsch@@ 40
hervorgeht 40
hielten 40
holung 40
hu@@ 40
human@@ 40
immerhin 40
interessieren 40
ital@@ 40
jek@@ 40
kapital@@ 40
katoren 40
kenne 40
kleinere 40
komple@@ 40
legislative 40
legungs@@ 40
ment-@@ 40
min 40
mitt@@ 40
mittelfristig 40
männ@@ 40
möglicher 40
nachfolgenden 40
nachweisen 40
national 40
natur@@ 40
neten 40
nächster 40
obligatorische 40
präsen@@ 40
qualifizi@@ 40
reak@@ 40
riff 40
ruhig 40
schöne 40
senkungen 40
situationen 40
spezif@@ 40
stabilität 40
stätte 40
substan@@ 40
tener 40
tex@@ 40
treibung 40
trennen 40
trü@@ 40
ump@@ 40
ungsergebnisse 40
vereinen 40
verknü@@ 40
versehen 40
wechseln 40
weib@@ 40
weitem 40
wenngleich 40
widerspiegelt 40
wirksames 40
wra@@ 40
yst@@ 40
ystems 40
zierter 40
zin 40
zusammenarbeit 40
zusch@@ 40
ú@@ 40
überarbeitet 40
ückt 40
.... 39
18. 39
48@@ 39
700 39
9. 39
AC 39
Afrikas 39
Anmerkung 39
Ansehen 39
Appartement 39
Argentinien 39
Ausgehend 39
Aussprachen 39
Bauern@@ 39
Belastungen 39
Beschaffungs@@ 39
Budd@@ 39
CO 39
Cardiff 39
City 39
D. 39
DI 39
Daneben 39
Dorf 39
Effektivität 39
Elementen 39
Enttäuschung 39
Ergeb@@ 39
Fahrzeugen 39
Flü@@ 39
Funk@@ 39
Gelegenheiten 39
Geschwindigkeit 39
Gesetzgeb@@ 39
Guatemala 39
Gütern 39
Hafen@@ 39
Handelsabkommen 39
Hof 39
Hoff@@ 39
Hussein 39
Häu@@ 39
Hö@@ 39
Illu@@ 39
Inn@@ 39
Josef 39
Justi@@ 39
Karibik 39
Kodex 39
Kondi@@ 39
Konkre@@ 39
Kooper@@ 39
Kranken@@ 39
Kreatur 39
Kriegsver@@ 39
Laut 39
Mah@@ 39
Marc 39
Mus@@ 39
Nep@@ 39
Niel@@ 39
Nov@@ 39
Organ@@ 39
Palette 39
Person@@ 39
Philipp@@ 39
Preises 39
Rechenschaft 39
Rechtsvorschrift 39
SY@@ 39
Saddam 39
Santa 39
Tampere 39
Tex@@ 39
Transaktionen 39
Tu@@ 39
Typ@@ 39
Umsatz 39
Unterschie@@ 39
VP 39
Wachstumspakt 39
Wissens 39
angelegt 39
ankungen 39
anter 39
ater 39
auern 39
bedroh@@ 39
belgische 39
benötigten 39
besserer 39
bot 39
bungen 39
by@@ 39
dein 39
deli@@ 39
deutscher 39
drastisch 39
drittens 39
erbe 39
euch 39
europaweit 39
eventuelle 39
fa 39
fahren@@ 39
falschen 39
ferenz 39
fis@@ 39
fließen 39
fristig 39
frühzeitig 39
gekenn@@ 39
gemeinschaften 39
gerade@@ 39
geräumt 39
gesammelt 39
geschul@@ 39
geseh@@ 39
gewiss 39
gin@@ 39
gio 39
größeres 39
grü@@ 39
hiermit 39
hinnehmen 39
hütung 39
illegal 39
inge 39
internationales 39
ischer@@ 39
jahre@@ 39
kannst 39
kapazität 39
klassischen 39
klein 39
kurs 39
kurzfristigen 39
lam@@ 39
leichte 39
lia 39
lossen 39
mali@@ 39
mau@@ 39
mende 39
menschlicher 39
mitglied 39
nah 39
nehmer 39
ordnen 39
orien 39
orientieren 39
port 39
priv@@ 39
rats@@ 39
regelt 39
reine 39
ritte 39
ry 39
signifikan@@ 39
sinken 39
sinstru@@ 39
sson 39
stechn@@ 39
stechnik 39
sums 39
tags 39
tigsten 39
tivere 39
träch@@ 39
tter 39
uation 39
umul@@ 39
veranlassen 39
verarbeitung 39
verbindlichen 39
verhe@@ 39
verschieben 39
vis 39
weites 39
were 39
xes 39
zahlreicher 39
zerstört 39
zielle 39
zwecke 39
zwingt 39
Än@@ 39
Änderungsantrags 39
Å@@ 39
ängen 39
í 39
üblich 39
β@@ 39
104 38
78 38
Andernfalls 38
Arten@@ 38
As@@ 38
Ausschuss@@ 38
B-@@ 38
Bak@@ 38
Bestand 38
Bestand@@ 38
Beste 38
CL@@ 38
Chris@@ 38
Danke 38
Dau@@ 38
Design@@ 38
Dimit@@ 38
EE 38
ESF 38
Edi@@ 38
Energie- 38
Energieträger 38
England 38
Erkenntn@@ 38
Errungen@@ 38
Erwer@@ 38
Exporte 38
Fußball@@ 38
GATT 38
GEM@@ 38
Gedanken@@ 38
Genuss 38
Gewi@@ 38
INA 38
Immer 38
Impuls 38
Insel@@ 38
Interessengruppen 38
Jun@@ 38
Kön@@ 38
Leidenschaft 38
Lesen 38
Meilenstein 38
Men@@ 38
Mul@@ 38
Mur@@ 38
Note 38
Persön@@ 38
RE 38
Rechnung@@ 38
Rek@@ 38
Resp@@ 38
Revolution 38
Richtungen 38
STAT@@ 38
Sanierung 38
Santer 38
Schalt@@ 38
Sel@@ 38
Sichtweise 38
Solidaritäts@@ 38
TRAN@@ 38
Telek@@ 38
Terror 38
Thematik 38
Ton 38
UNHCR 38
Ul@@ 38
Unterkunft 38
Verfassungsvertrag 38
Vertei@@ 38
Video@@ 38
Wich@@ 38
Workshops 38
Zigare@@ 38
Zit@@ 38
Zur@@ 38
abe 38
agi@@ 38
ahr 38
ameri@@ 38
ampagne 38
anderswo 38
angeblich 38
angeführt 38
anteil 38
arbeiter 38
befindlichen 38
befürwor@@ 38
beleu@@ 38
beträcht@@ 38
bewusstsein 38
biens 38
big 38
buchen 38
bü@@ 38
datum 38
dener 38
dies@@ 38
durchschnittlichen 38
ebung 38
ees 38
eitern 38
emin@@ 38
enswer@@ 38
erfolg@@ 38
ero 38
erschweren 38
erweist 38
esslich 38
fehlenden 38
fran@@ 38
fred 38
füllt 38
gare@@ 38
geist 38
geleistete 38
gerweise 38
geräten 38
glicher 38
grafie 38
gängig 38
hi 38
horizontalen 38
hundert 38
häuser 38
identi@@ 38
instrument 38
isp@@ 38
ital 38
jü@@ 38
katastro@@ 38
kombin@@ 38
kommerzielle 38
krieg 38
ktiv 38
lassenen 38
lasten 38
liberalen 38
lich-@@ 38
lieferung 38
lossenen 38
maßgeschnei@@ 38
melden 38
militärischer 38
mächtigungen 38
näh@@ 38
ommen 38
parlamentarische 38
profi@@ 38
qual@@ 38
realen 38
repräsentiert 38
ruf 38
schir@@ 38
schreiten 38
setzte 38
sit 38
sprinzip 38
sprüche 38
ss 38
stens 38
strateg@@ 38
transpor@@ 38
umfangreichen 38
under 38
ungspläne 38
vergleichbare 38
verläss@@ 38
verring@@ 38
verschwinden 38
wus@@ 38
wör@@ 38
zentrales 38
zimmer 38
§ 38
° 38
Österreichs 38
Überra@@ 38
äm@@ 38
üs@@ 38
11,@@ 37
1988 37
31. 37
58 37
83 37
Altern@@ 37
At@@ 37
Automobilindustrie 37
Balkans 37
Beein@@ 37
Benutz@@ 37
Benz@@ 37
Beschwerde 37
Bewegungen 37
Bl@@ 37
Box 37
Brücke 37
Business 37
COM@@ 37
Cam@@ 37
Cou@@ 37
Daraus 37
Dün@@ 37
Foto@@ 37
Franc@@ 37
Frankreichs 37
Funktion@@ 37
Fäl@@ 37
Führungsrolle 37
GD 37
Gegner 37
Geschlechter@@ 37
Gespräch 37
Gesundheitsversorgung 37
Gewerk@@ 37
Gewinne 37
HT@@ 37
Haushaltsp@@ 37
Herstellern 37
Hinzu 37
Hoheits@@ 37
Hunder@@ 37
Instruments 37
J. 37
Jahrzehnte 37
Jugosla@@ 37
Kohlen@@ 37
Konsequenz 37
Legi@@ 37
Lehre 37
Mada@@ 37
Mein@@ 37
Meinungsverschieden@@ 37
Milliarde 37
Mittagessen 37
Mr@@ 37
Nachfol@@ 37
Net@@ 37
Nord 37
Popul@@ 37
Prognosen 37
Präsidentschafts@@ 37
Prüfungen 37
Schau@@ 37
Schlag@@ 37
Schottland 37
Seeh@@ 37
Stei@@ 37
Stro@@ 37
Subsidiar@@ 37
Suite 37
TEN-@@ 37
Tunesien 37
Umstrukturierungs@@ 37
Vereinfach@@ 37
Vergü@@ 37
Verknüpfung 37
Vorgang 37
Wann 37
Wurzeln 37
Zeitalter 37
Zentren 37
Zimmer@@ 37
abbau 37
abgel@@ 37
andt 37
ansonsten 37
aufgeben 37
auseln 37
ausgeht 37
ausgelegt 37
bare@@ 37
beginn@@ 37
benachteiligt 37
bereitgestellten 37
bew@@ 37
bor@@ 37
brut@@ 37
bürgerlichen 37
cas 37
chliche 37
chteten 37
dermann 37
disku@@ 37
dler 37
dorf 37
dringen 37
droh@@ 37
eindeu@@ 37
einstimm@@ 37
ela 37
elektron@@ 37
entfallen 37
erkenn@@ 37
ermor@@ 37
ermäßig@@ 37
ertem 37
fachen 37
fehler 37
fester 37
fla@@ 37
gehörigkeit 37
gemeldet 37
geschlossen@@ 37
gesu@@ 37
gewerbliche 37
grupp@@ 37
grös@@ 37
harte 37
heim@@ 37
hervorge@@ 37
häufiger 37
ignoriert 37
infra@@ 37
intern 37
irak@@ 37
itz 37
jur@@ 37
komponenten 37
kultur 37
lagen@@ 37
langfris@@ 37
ly@@ 37
lässig@@ 37
mag@@ 37
mah@@ 37
managements 37
mangelt 37
maximal 37
maßgeblich 37
mehrjährigen 37
melten 37
mensch@@ 37
mitgliedern 37
normale 37
pakets 37
partner 37
perman@@ 37
plant 37
reiches 37
sah@@ 37
schefs 37
schlug 37
schwier@@ 37
schützt 37
send 37
serklärung 37
sheit 37
sorgfäl@@ 37
span@@ 37
spap@@ 37
speicher@@ 37
stasi@@ 37
stetig 37
struk@@ 37
teln 37
teter 37
tierungs@@ 37
transeuropä@@ 37
ungssystem 37
unmittelbarer 37
vergeben 37
verni@@ 37
via 37
vielfach 37
vig@@ 37
vorhandene 37
vorherigen 37
wasser 37
wickelt 37
willen 37
willigen 37
wünsch@@ 37
wünschte 37
zehnten 37
zweier 37
zweit@@ 37
äume 37
äuß@@ 37
ühne 37
1985 36
AIDS 36
Akte@@ 36
Al 36
Ambitionen 36
Anhänger 36
Ap@@ 36
Aufenthal@@ 36
Ausschreibung 36
Auto@@ 36
Barcelona-@@ 36
Befrei@@ 36
Beispielsweise 36
Bestell@@ 36
Bevölk@@ 36
Blut 36
Buchung 36
Christdemokraten 36
Dienstag 36
Don@@ 36
Durchschnit@@ 36
Einwander@@ 36
Erlaubnis 36
Fläche 36
Flächen 36
Geo@@ 36
Golf@@ 36
Hung@@ 36
Hunger 36
Interventionen 36
Iran@@ 36
James 36
Jerusalem 36
KA 36
Kak@@ 36
Kamer@@ 36
Kommunikation@@ 36
Konflik@@ 36
Konzep@@ 36
Kreativität 36
Liqui@@ 36
Manchmal 36
Mario 36
Nie@@ 36
Nordirland 36
Optimierung 36
Original@@ 36
Pack@@ 36
Präsentation 36
Risikom@@ 36
Roten 36
SO 36
Satellit@@ 36
Schiene 36
Skla@@ 36
Strecke 36
Studi@@ 36
Teilnehmer@@ 36
Teu@@ 36
Text@@ 36
Transpor@@ 36
Umwandlung 36
Venezuela 36
Verlei@@ 36
Verspä@@ 36
Verstär@@ 36
Video 36
Vietnam 36
Vil@@ 36
Vorteilen 36
Weltkrieg 36
Werken 36
Wollen 36
Zahlung@@ 36
Zentr@@ 36
Zyper@@ 36
abeth 36
ala 36
allgemeinem 36
analyse 36
anerkannte 36
angehört 36
angewiesen 36
angezogen 36
ankommt 36
anwes@@ 36
ari 36
aria 36
ata 36
atives 36
att@@ 36
aufgegriffen 36
ausführ@@ 36
ausgedrückt 36
außergewöhnliche 36
avec 36
bedingte 36
beeindruck@@ 36
belegt 36
benutz@@ 36
besagt 36
besteuerung 36
beugen 36
bewe@@ 36
bulgarischen 36
büros 36
cho@@ 36
destabil@@ 36
dos 36
dru@@ 36
druckt 36
dsch@@ 36
element 36
elung 36
empfangen 36
endern 36
ensystem 36
entwicklungen 36
ergie 36
erm@@ 36
fahrer 36
festlegt 36
folgen@@ 36
frag@@ 36
fügte 36
gabe@@ 36
gal@@ 36
genügen 36
gescheit@@ 36
geschlagen 36
gesundheitlichen 36
größer@@ 36
günstig 36
haft@@ 36
haftes 36
halts@@ 36
hinnehm@@ 36
hr 36
höher@@ 36
in-@@ 36
irgendwelche 36
islamischen 36
israel@@ 36
iss@@ 36
kir@@ 36
kombiniert 36
komplizierten 36
kultur@@ 36
kunden 36
last 36
lie 36
lim@@ 36
masch@@ 36
medizin@@ 36
merkt 36
möge 36
nahen 36
nisch 36
obgleich 36
opfer 36
organe 36
orte 36
park 36
pau@@ 36
pfe 36
problems 36
qui@@ 36
rec@@ 36
samm@@ 36
schau 36
schungen 36
schätzt 36
schönsten 36
service 36
shofes 36
sinnvolle 36
ssern 36
steuerliche 36
sth@@ 36
strategischer 36
städten 36
tab@@ 36
tauchen 36
terne 36
toff@@ 36
treffend 36
unkt 36
uten 36
vere 36
verfüg@@ 36
versuche 36
verzi@@ 36
vorherseh@@ 36
wis@@ 36
öl 36
öse 36
überwälti@@ 36
ücke 36
Ž@@ 36
έ@@ 36
101 35
1980 35
2000-2006 35
2000-@@ 35
2004-@@ 35
30. 35
61 35
A5-0@@ 35
Aktu@@ 35
Ankunft 35
Anreg@@ 35
Arbeitsplatz@@ 35
Ari@@ 35
Armen 35
Bedürf@@ 35
Beihilfe@@ 35
Besorg@@ 35
Biom@@ 35
Blog 35
Brutto@@ 35
Buchstaben 35
Cresp@@ 35
Dach 35
Davon 35
Dikt@@ 35
Dreh@@ 35
EU-Rechtsvorschriften 35
Ech@@ 35
Entfernung 35
Fel@@ 35
Felder 35
Finanzmärkten 35
Frage@@ 35
Frank 35
Geräten 35
Geschm@@ 35
Gesetzen 35
Haftbe@@ 35
Haushaltsausschusses 35
II-@@ 35
Immunität 35
Jac@@ 35
Kandi@@ 35
Klau@@ 35
Kleinst@@ 35
Kraftfahr@@ 35
Kü@@ 35
LEADER 35
Lat@@ 35
Lebensstandard 35
Len@@ 35
Luftverkehr 35
Marken 35
Medikamen@@ 35
Meldungen 35
Mig@@ 35
Mühe 35
NE@@ 35
Nichtein@@ 35
Parlamentarier 35
Pazi@@ 35
Phil@@ 35
Publikum 35
Pun@@ 35
Pé@@ 35
Rehabil@@ 35
Reisenden 35
Räumen 35
Rücken 35
Schreib@@ 35
Schwier@@ 35
Seg@@ 35
Services 35
Sit@@ 35
Spa@@ 35
Techniken 35
Turkmen@@ 35
Unrecht 35
Unterneh@@ 35
Urlau@@ 35
Verbesser@@ 35
Vergleich@@ 35
Vermark@@ 35
Voraussch@@ 35
Vorgänge 35
Wett@@ 35
Wiederbelebung 35
Wilhelm 35
Zut@@ 35
aktualisieren 35
ali 35
ande 35
anschluss 35
arch@@ 35
atischer 35
aufrecht 35
ausgeben 35
ausschließen 35
aßnahmen 35
beauf@@ 35
befreien 35
befür@@ 35
beschleunig@@ 35
bewu@@ 35
bürgerschaft 35
cam@@ 35
chst@@ 35
dad 35
damaligen 35
daraufhin 35
de-@@ 35
dens@@ 35
dner 35
domin@@ 35
dramatischen 35
eckten 35
ehemal@@ 35
eindeutigen 35
einmali@@ 35
emandem 35
entwickel@@ 35
erhol@@ 35
erre@@ 35
fehl 35
felt 35
formu@@ 35
füllung 35
ganzes 35
gebiet@@ 35
gebilli@@ 35
geneti@@ 35
geschäfte 35
geschütz@@ 35
grafischen 35
gründe 35
has 35
haushal@@ 35
haushalt@@ 35
historischer 35
höherer 35
inde@@ 35
inst@@ 35
karten 35
kommerzi@@ 35
kostengünsti@@ 35
kurzfristige 35
leichter@@ 35
lieben 35
lock@@ 35
marking 35
massiv 35
mein@@ 35
mma 35
neben@@ 35
nehm@@ 35
nennt 35
nächstes 35
offensicht@@ 35
ologisch 35
or-@@ 35
ora 35
over@@ 35
planungs@@ 35
plung 35
ps 35
rechn@@ 35
rez 35
rüst@@ 35
saal 35
schnitt 35
schnitte 35
schwar@@ 35
separ@@ 35
skraft 35
soliden 35
spezialisiert 35
stattfindenden 35
stimmung 35
stoppen 35
stöß@@ 35
tags@@ 35
test 35
tform 35
th-@@ 35
thilfe 35
trock@@ 35
tten@@ 35
unterschie@@ 35
unterschiede 35
unverzicht@@ 35
up 35
vereinbar@@ 35
verhelfen 35
verhängen 35
verletz@@ 35
vertretender 35
way 35
wit@@ 35
wr@@ 35
wunderschönen 35
zenten 35
zipiel@@ 35
ñ@@ 35
ös 35
übermäßige 35
überra@@ 35
ünsti@@ 35
5.000 34
53 34
Ah@@ 34
Aktivität 34
Arbeitslosen@@ 34
Bed@@ 34
Behauptung 34
Besetzung 34
Bestehen 34
Bri@@ 34
C5-0@@ 34
Cannes 34
Dere@@ 34
Dimensionen 34
Direktor 34
Doppelzimmer 34
Dur@@ 34
Durchschnitts@@ 34
EO 34
EU-Staaten 34
Eigentümer 34
Elis@@ 34
Entschei@@ 34
Entspannung 34
Ev@@ 34
Exper@@ 34
Finanzinstrumente 34
Freizeit@@ 34
GA 34
GO@@ 34
Ganzen 34
Gewinn 34
Gewis@@ 34
Gran@@ 34
Heimatland 34
Herr@@ 34
Herz 34
Heu@@ 34
Homo@@ 34
Hy@@ 34
Intelli@@ 34
Isol@@ 34
Juden 34
Kabel@@ 34
Kernenergie 34
Kn@@ 34
Konsu@@ 34
Krieg@@ 34
LT 34
Link 34
Lizenzen 34
Ly@@ 34
Lösungs@@ 34
Messung 34
Mitglieds@@ 34
Mitgliedsländern 34
Mutter 34
Mö@@ 34
Nat@@ 34
Nation@@ 34
Neu 34
Nicar@@ 34
Nordsee 34
Nutzern 34
OC@@ 34
OEC@@ 34
OM 34
Ol@@ 34
PPE-DE-Fraktion 34
Prof. 34
Prop@@ 34
Republi@@ 34
Ressourcen@@ 34
Sard@@ 34
Schweizer 34
Schä@@ 34
Sowjetunion 34
Sponsor@@ 34
TION 34
TO 34
Teams 34
Ther@@ 34
Therap@@ 34
Ty@@ 34
Uganda 34
Verbrauchs@@ 34
Wettbewerb@@ 34
act 34
ada 34
administrative 34
aktivieren 34
ambition@@ 34
angelegten 34
antwortet 34
anzen 34
ario 34
artig 34
asien 34
atur 34
aufhören 34
ausser@@ 34
austauschen 34
bedauer@@ 34
behilflich 34
belief 34
beloh@@ 34
bequem 34
beschreiben 34
bevorzu@@ 34
buch@@ 34
bus 34
but 34
ces 34
chinesische 34
dak@@ 34
demnach 34
deter 34
dierung 34
däch@@ 34
ecks 34
eigenem 34
eigent@@ 34
einhalb 34
einzig@@ 34
ends 34
entdeckt 34
erfolgreicher 34
erleichter@@ 34
evalu@@ 34
fel 34
fizierte 34
folgerung 34
fts@@ 34
galt 34
gan 34
gebung 34
gesetzlich 34
gesicher@@ 34
gesprä@@ 34
grenzt 34
großartige 34
hause 34
hig@@ 34
homo@@ 34
hotel 34
här@@ 34
ile 34
ines 34
inten@@ 34
inter 34
kern@@ 34
kreu@@ 34
kü@@ 34
legalen 34
lichste 34
licht@@ 34
lis 34
lob@@ 34
ländischen 34
läss@@ 34
läufe 34
marks 34
meint 34
mentiert 34
mie@@ 34
mitzuteilen 34
normal 34
operi@@ 34
pla@@ 34
problemen 34
prote@@ 34
rad@@ 34
rap@@ 34
ret 34
ruf@@ 34
sau@@ 34
schalten 34
schla@@ 34
schlimmsten 34
schränken 34
schwä@@ 34
seitdem 34
selek@@ 34
smärkte 34
sonsti@@ 34
speichern 34
spürbar 34
stet 34
systematische 34
tagen 34
träger 34
ungere@@ 34
ungerecht@@ 34
verarbeit@@ 34
verarbeitet 34
verband 34
verschlechtert 34
vision 34
völk@@ 34
we 34
weal@@ 34
wen 34
wertet 34
winkel 34
wohlhab@@ 34
wächt 34
wäh@@ 34
yr@@ 34
zukünftig 34
zö@@ 34
Öl 34
ökologisch 34
ł@@ 34
θ@@ 34
14. 33
260 33
28. 33
Air@@ 33
Anhör@@ 33
Assist@@ 33
BS 33
Batter@@ 33
Belange 33
Berg 33
Berge 33
Bewertungen 33
Biokraft@@ 33
Camp@@ 33
Demonstration 33
Differ@@ 33
ED 33
EMP@@ 33
Entscheidungsfindung 33
Erasmus 33
Erkrankungen 33
Erwäh@@ 33
Exeku@@ 33
Experi@@ 33
FI@@ 33
FIN 33
Fachwissen 33
Feld@@ 33
Foren 33
Francisco 33
Freihandelsabkommen 33
Freis@@ 33
Frequenz@@ 33
Gebur@@ 33
Gewähr 33
Glas@@ 33
Global 33
Gott 33
H-@@ 33
HR 33
Hamburg 33
Handhabung 33
Harmonie 33
Hygi@@ 33
Il@@ 33
Interoperabilität 33
Jahrhunder@@ 33
Kapaz@@ 33
Kongress 33
Konzentr@@ 33
Kun@@ 33
Licht@@ 33
MENT 33
Map 33
Maßstä@@ 33
Metho@@ 33
Miert 33
PPE 33
Pariser 33
Past@@ 33
Patten 33
Paul 33
Port@@ 33
Ran@@ 33
Rec@@ 33
Reflexi@@ 33
Rio 33
Romano 33
Ruh@@ 33
Schlu@@ 33
Schwarz@@ 33
Seele 33
Skand@@ 33
Spaß 33
Substanz 33
Sämtliche 33
Taliban 33
Technologie@@ 33
Timor 33
Umfrage 33
Verbin@@ 33
Vertriebs@@ 33
Vic@@ 33
Vieh@@ 33
Wach@@ 33
Well@@ 33
Willkommen 33
Wirtschaftswachstums 33
Wählen 33
abel 33
abu@@ 33
aci@@ 33
air@@ 33
anc@@ 33
anfangen 33
angelegte 33
angem@@ 33
ausgerüstet 33
ausländische 33
auszuschließen 33
aut 33
außer@@ 33
bat 33
belastet 33
benannt 33
beschriebenen 33
bewähr@@ 33
bol@@ 33
bring@@ 33
bungs@@ 33
can 33
cherung 33
com@@ 33
dago@@ 33
dei@@ 33
dliches 33
eili@@ 33
einnahmen 33
ello 33
erwarteten 33
ffe 33
fielen 33
fluss 33
fluss@@ 33
fuhr 33
för@@ 33
gehens@@ 33
gelegte 33
geliefer@@ 33
greich 33
grä@@ 33
gültige 33
herrschenden 33
heu@@ 33
hie@@ 33
hinzugefügt 33
histor@@ 33
hunder@@ 33
häu@@ 33
hö@@ 33
inen@@ 33
inische 33
koh@@ 33
korrigiert 33
kunden@@ 33
land-@@ 33
le-@@ 33
legiti@@ 33
lohnt 33
malen 33
maschinen 33
meister 33
missionen 33
mündliche 33
namens 33
nicht-@@ 33
olle@@ 33
orten 33
pack@@ 33
persönlicher 33
privilegi@@ 33
quelle 33
regelmäß@@ 33
rit 33
schlechten 33
schulden 33
senkung 33
sensible 33
sig@@ 33
sprüfung 33
steigenden 33
stem 33
sur 33
sä@@ 33
sätzlich 33
tan 33
tas 33
to-@@ 33
transpar@@ 33
tritts@@ 33
typischen 33
una 33
ungsplan 33
unnötig 33
unterst@@ 33
vereinfach@@ 33
versicher@@ 33
versorgungs@@ 33
veröffentlichte 33
wand 33
wandel 33
wandeln 33
wissenschaftlicher 33
wunden 33
wäch@@ 33
wägen 33
xi@@ 33
z.@@ 33
Übersetzungs@@ 33
ümm@@ 33
ür 33
ω@@ 33
-Fraktion 32
-Seite 32
1.1 32
22. 32
Abendessen 32
Akti@@ 32
Apartments 32
Arafat 32
Arbeits- 32
Arbeitskräften 32
Argu@@ 32
Armutsbekämpfung 32
Athen 32
Audi@@ 32
Auff@@ 32
Auftraggeber 32
Beg@@ 32
Berichterstattern 32
Beschlussfassungs@@ 32
Bie@@ 32
Büro@@ 32
CC 32
COM 32
Charak@@ 32
Code 32
Compu@@ 32
Darleh@@ 32
Demon@@ 32
Domini@@ 32
Dun@@ 32
Einwanderungs@@ 32
Entschließ@@ 32
Erfin@@ 32
Erneu@@ 32
Et@@ 32
Fachleute 32
Fili@@ 32
Formel 32
Frie@@ 32
Fris@@ 32
G. 32
GAS@@ 32
GUE 32
Ga@@ 32
Garten@@ 32
Geor@@ 32
Gep@@ 32
Glücks@@ 32
Gold 32
Heraus@@ 32
Hunderte 32
Indon@@ 32
Innovation@@ 32
Installation 32
Ja@@ 32
Jag@@ 32
Joe 32
Kil@@ 32
Klimaschutz@@ 32
Konsum 32
Learning 32
Lizenz 32
Marketing 32
Masse 32
Merk@@ 32
Minde@@ 32
Moham@@ 32
Museen 32
News@@ 32
Parall@@ 32
Peru 32
Pharma@@ 32
Physi@@ 32
Player 32
Prestige 32
Protektionismus 32
Proz@@ 32
Quali@@ 32
Rasse 32
Redu@@ 32
Registri@@ 32
Rezession 32
SI 32
Schlacht@@ 32
Schulung 32
Singapur 32
Slowen@@ 32
Staatliche 32
Start@@ 32
Statisti@@ 32
Stein 32
Sym@@ 32
Tier 32
Typ 32
UP@@ 32
Verkäufer 32
Vermögen 32
Vernichtung 32
Verstöß@@ 32
Verwirrung 32
WOR@@ 32
Wäre 32
Zie@@ 32
Zuerst 32
absurd 32
ade@@ 32
anführen 32
asen 32
atie 32
ausgewählten 32
bearbeitet 32
beein@@ 32
befugt 32
beheben 32
beherrsch@@ 32
beitritts@@ 32
brauch@@ 32
bricht 32
but@@ 32
dell 32
dia 32
digkeits@@ 32
dlern 32
durchschnittliche 32
dustrie 32
eilen 32
eindrucks@@ 32
einschränken 32
empfän@@ 32
endgül@@ 32
entfernen 32
entr@@ 32
entstehenden 32
erie 32
erwer@@ 32
esen@@ 32
ets 32
eure 32
extern@@ 32
fache 32
fehl@@ 32
frequ@@ 32
fristen 32
from 32
fru@@ 32
geleiteten 32
genehmigen 32
geschla@@ 32
geschn@@ 32
gesetze 32
getrennte 32
glücklich 32
handelte 32
heil@@ 32
hne 32
ick 32
illegaler 32
immt 32
inmitten 32
investitionen 32
istik 32
jo 32
kennen@@ 32
kern 32
korrigieren 32
kr@@ 32
kus@@ 32
lagerung 32
lassungen 32
laufend 32
lern@@ 32
lässige 32
lässlich 32
markts 32
messer 32
mium 32
mol@@ 32
moralische 32
niedrige 32
ning 32
ordnet 32
ossen 32
pos@@ 32
proble@@ 32
pru@@ 32
rad 32
reibung 32
rer 32
roman@@ 32
sauber@@ 32
sc@@ 32
schließung 32
schwach 32
sem@@ 32
sendet 32
split@@ 32
sters 32
strategisch 32
stufen 32
tal 32
teuer 32
unabding@@ 32
ungarische 32
unverbin@@ 32
urop@@ 32
ush@@ 32
vermark@@ 32
vermehr@@ 32
vermin@@ 32
verteilen 32
verträgen 32
verwand@@ 32
visu@@ 32
wachen 32
ys@@ 32
ysteme 32
zel@@ 32
Ärzte 32
ßig@@ 32
öffnete 32
überflüssi@@ 32
übri@@ 32
ό@@ 32
‚ 32
12.00 31
16. 31
3,5 31
Abstimm@@ 31
Agr@@ 31
Aktionsp@@ 31
Alexander 31
Anti-@@ 31
Anwender 31
Arbeitszeit@@ 31
Attraktivität 31
Audio@@ 31
Ausbreitung 31
Auseinandersetzung 31
Ausstellungs@@ 31
Avi@@ 31
Bou@@ 31
Brief 31
Byrne 31
Chr@@ 31
Clu@@ 31
Cyber@@ 31
Differenz 31
Dolmet@@ 31
Dru@@ 31
EIB-@@ 31
EU-Recht 31
Ed@@ 31
Einkommen@@ 31
Elektro@@ 31
Entwicklungsziele 31
Erwachsenen 31
Erweiterungen 31
Funktionalität 31
Fuß@@ 31
Geburt 31
Genau@@ 31
Geschi@@ 31
Gewinner 31
Govern@@ 31
Group 31
Göteborg 31
Handelspartner 31
Has@@ 31
High 31
INE 31
Image 31
Imp@@ 31
Industrie- 31
Integr@@ 31
Interess@@ 31
Intern@@ 31
Is@@ 31
Kap@@ 31
Käufer 31
Kürzungen 31
Län@@ 31
Manager 31
Mass@@ 31
Max 31
Mehrheits@@ 31
Mehrzahl 31
Menschenhandels 31
Mini@@ 31
Minimum 31
Nichts 31
Nul@@ 31
Nutzungs@@ 31
Orten 31
Ostse@@ 31
Palacio 31
Panoram@@ 31
Passagi@@ 31
Plätze 31
Privi@@ 31
Qualifik@@ 31
Radio@@ 31
Renten 31
Rohstoffe 31
Rollen 31
Schengener 31
Schnei@@ 31
Sex@@ 31
Song 31
Songs 31
Steu@@ 31
Tai@@ 31
Telekommunik@@ 31
Theorie 31
Uhr@@ 31
Unterscheidung 31
Verhaltensweisen 31
Voraus 31
Vorredner 31
Walter 31
Web-@@ 31
XX@@ 31
Zufall 31
Zugriff 31
Zusätz@@ 31
abri@@ 31
ae@@ 31
ahnen 31
ama 31
angebote 31
angeregt 31
aufgetreten 31
aufsichts@@ 31
aufzufordern 31
augen@@ 31
ausgeprä@@ 31
ausger@@ 31
bank@@ 31
befugnisse 31
behar@@ 31
bekannt@@ 31
bemerkt 31
beschreibt 31
bestraft 31
bran@@ 31
chä@@ 31
cker@@ 31
dah@@ 31
dei 31
dent 31
design 31
dich 31
discher 31
dre 31
ebs@@ 31
eilig@@ 31
einfließen 31
einigt 31
einst 31
else 31
ender@@ 31
engagi@@ 31
entstand 31
ernen 31
esenen 31
ess-@@ 31
etc 31
ethnische 31
etri@@ 31
faszin@@ 31
fig 31
fortgeschrit@@ 31
freundlich 31
fühle 31
gebau@@ 31
gebrochen 31
gefü@@ 31
gegrün@@ 31
gekürzt 31
geld 31
gelernt 31
generi@@ 31
gerer 31
gesetzgebung 31
gespeichert 31
gewerb@@ 31
gipf@@ 31
grenzübergreifende 31
gste 31
hof 31
iga 31
installiert 31
instru@@ 31
irgendeiner 31
islat@@ 31
jeglichen 31
jen@@ 31
jenseits 31
jk 31
ka-@@ 31
ke@@ 31
kehr 31
kenntn@@ 31
kommunistischen 31
komplizierte 31
landes@@ 31
li 31
lichung 31
lick 31
lief 31
ly 31
lös@@ 31
massive 31
mentieren 31
merk 31
merken 31
moderner 31
möglichkeit 31
neun@@ 31
niedrig 31
not@@ 31
oli 31
onds 31
ong 31
personenbezogenen 31
physi@@ 31
ping 31
prob@@ 31
rangi@@ 31
realistische 31
registri@@ 31
reichhal@@ 31
resultier@@ 31
rückt 31
schnei@@ 31
schrän@@ 31
schwierig@@ 31
se-@@ 31
sie@@ 31
spie@@ 31
spotenzial 31
sprachigen 31
spunkte 31
ssel@@ 31
sser 31
stete 31
stück@@ 31
stür@@ 31
tat 31
thema 31
top@@ 31
tron@@ 31
tür@@ 31
türk@@ 31
umgeben 31
ungsh@@ 31
verlust 31
versicherung 31
vollzieh@@ 31
wende 31
wässer@@ 31
wü@@ 31
zigen 31
zusammengearbeitet 31
zuverlässige 31
É 31
ähnlicher 31
öst@@ 31
üstet 31
-TV 30
.net 30
11@@ 30
12,@@ 30
21.@@ 30
900 30
Andre@@ 30
App@@ 30
Arzneimittel@@ 30
Atlan@@ 30
Ausgang@@ 30
Bag@@ 30
Bayern 30
Bezahlung 30
Bildern 30
CN@@ 30
Ce@@ 30
Center 30
Dialo@@ 30
Diplomatie 30
Donau@@ 30
EU-Kommissarin 30
EUV 30
Edinburgh 30
Entschließungsan@@ 30
Erläu@@ 30
Etik@@ 30
Euch 30
Eur@@ 30
Fahrt 30
Ferrero-Waldner 30
Finanzsektor 30
France 30
Fremden@@ 30
Frequ@@ 30
Gebiets 30
Genfer 30
Gestern 30
Getränke 30
Gl@@ 30
Große 30
HIV 30
Hack@@ 30
Hinder@@ 30
Intel 30
Journ@@ 30
Kirchen 30
LAN@@ 30
Laeken 30
Leist@@ 30
Leuten 30
Lon@@ 30
Lor@@ 30
Mail 30
Marco 30
Medizin@@ 30
Meer@@ 30
Millenni@@ 30
Mitarbeit@@ 30
Nachrichten@@ 30
Neut@@ 30
Nig@@ 30
Noti@@ 30
Nu@@ 30
Oper@@ 30
Ot@@ 30
Periode 30
Produ@@ 30
Prozessen 30
RON@@ 30
Radik@@ 30
Rezep@@ 30
Rh@@ 30
Russen 30
Schatten 30
Sozialdemokratischen 30
Spiele 30
Stabilisierungs@@ 30
Statt 30
Szen@@ 30
Säulen 30
Tab@@ 30
Terrorismus@@ 30
Transpar@@ 30
USB 30
Urspr@@ 30
Ursprungs 30
Vel@@ 30
Verantwor@@ 30
Verband 30
Verschie@@ 30
Vit@@ 30
Volkswirtschaft 30
Vorsorge@@ 30
Wald 30
Wechsel 30
Welle 30
Wochenende 30
Zusammenbruch 30
abzulehnen 30
agua 30
ansprüche 30
anta@@ 30
anwend@@ 30
arischen 30
arta 30
aufrichtig 30
aufsicht 30
ausführlichen 30
automati@@ 30
automatische 30
beanspru@@ 30
beinahe 30
bequ@@ 30
bestra@@ 30
beziehe 30
bler 30
bles 30
box 30
bul@@ 30
chem@@ 30
con 30
ehl 30
eht 30
eis@@ 30
englischen 30
entspann@@ 30
entziehen 30
erhöhten 30
erleb@@ 30
erstattet 30
expor@@ 30
fassungs@@ 30
findung 30
forderung 30
frastruktur 30
gefahren 30
gefangen 30
gefällt 30
gemeint 30
gewöhnlichen 30
globales 30
gran@@ 30
grüne 30
herausge@@ 30
herein 30
herum 30
inklusive 30
interessanten 30
ire 30
jemanden 30
klim@@ 30
kos 30
krank@@ 30
krati@@ 30
krie@@ 30
lier 30
lindustrie 30
loh@@ 30
ländische 30
mentierung 30
modernes 30
mpft 30
museum 30
nahmen@@ 30
nes@@ 30
noti@@ 30
olog@@ 30
olz 30
onder@@ 30
ony 30
operieren 30
out 30
ov@@ 30
peri@@ 30
porteur 30
post@@ 30
pression 30
profession@@ 30
rang 30
restlichen 30
sahen 30
sak@@ 30
schot@@ 30
schwachen 30
schweigen 30
senses 30
serviert 30
sitz 30
smo@@ 30
spa@@ 30
stellbar 30
thiop@@ 30
tran@@ 30
trieb 30
trop@@ 30
ull 30
unterwegs 30
ura 30
ures 30
user 30
vent@@ 30
veran@@ 30
verliert 30
versit@@ 30
versorgen 30
wahl@@ 30
xe 30
your 30
zeuge 30
zugang 30
zurückgreifen 30
zusätz@@ 30
© 30
Überdies 30
ästi@@ 30
ätzen 30
üssi@@ 30
Š 30
Г 30
‘ 30
180 29
220 29
34.@@ 29
350 29
90@@ 29
ALDE 29
Ali 29
Anfän@@ 29
Arbeitslosen 29
Area 29
Auftreten 29
Auslands@@ 29
Auswertung 29
Autos 29
Ball@@ 29
Befreiung 29
Befürworter 29
Bibliotheken 29
Brun@@ 29
Budgets 29
Ci@@ 29
Cookies 29
Costa 29
Dele@@ 29
Dest@@ 29
Digital@@ 29
Doku@@ 29
Doma@@ 29
Dub@@ 29
Dutz@@ 29
Edel@@ 29
Effekt 29
Emission@@ 29
Epide@@ 29
Erforschung 29
Ersatz 29
Fle@@ 29
Fluss 29
Fülle 29
Für@@ 29
GRO@@ 29
Gali@@ 29
Gold@@ 29
Haushal@@ 29
Henri 29
Hom@@ 29
ID 29
Impf@@ 29
Indik@@ 29
Johannes 29
Kie@@ 29
Kinnock 29
Klin@@ 29
Kredite 29
Kriege 29
Lagerung 29
Lieferanten 29
Lock@@ 29
Marktteilnehmer 29
Mobile 29
Modul 29
Muse@@ 29
Ner@@ 29
Norm 29
Persönlichkeit 29
Prozess@@ 29
Putin 29
Rate 29
Resultate 29
Schloss 29
Serie 29
Sz@@ 29
Tau@@ 29
Taus@@ 29
Tief@@ 29
Tour@@ 29
Umstruktur@@ 29
Umweltverträ@@ 29
Ungleichheit 29
Unser@@ 29
Urlaubs@@ 29
V. 29
Veranstaltungs@@ 29
Verhältnis@@ 29
Verwertung 29
Verzerr@@ 29
Videos 29
Viel 29
Volumen 29
WAR@@ 29
Warnung 29
Wartung 29
Wettbewerbspolitik 29
Zertifizierung 29
Zivilisation 29
Zug 29
Zusammensch@@ 29
abhalten 29
agten 29
akten 29
aktuell 29
andernfalls 29
anhalten@@ 29
anspruchsvolle 29
arische 29
ators 29
att 29
ausführen 29
banken 29
bekann@@ 29
belaufen 29
besetzt 29
besser@@ 29
best 29
bestellt 29
bevor@@ 29
dic@@ 29
dist@@ 29
dit 29
doppelten 29
durchschnit@@ 29
e- 29
echtes 29
ehr 29
eignen 29
ektor 29
empfehle 29
ener@@ 29
engl@@ 29
erhöh@@ 29
erseits 29
euer 29
exi@@ 29
fahrt@@ 29
flexiblen 29
ganzheit@@ 29
gehörten 29
genießt 29
get 29
gewöhnlich 29
gie@@ 29
größe 29
haftet 29
ham 29
hast 29
historisch 29
hl 29
horizont@@ 29
hä@@ 29
ico 29
ign@@ 29
ij@@ 29
ili@@ 29
iner 29
innovativer 29
inspiri@@ 29
irgendwann 29
istri@@ 29
itäre 29
klin@@ 29
lien 29
lier@@ 29
lio 29
makroökonomische 29
mans 29
maschine 29
matik 29
mechan@@ 29
minderung 29
moder@@ 29
möglich@@ 29
nie@@ 29
ong@@ 29
oping 29
optimalen 29
parall@@ 29
part 29
partnern 29
problematisch 29
psycho@@ 29
rangigen 29
ras 29
rekte 29
riesigen 29
riteri@@ 29
rän@@ 29
schlüssen 29
seln 29
ses@@ 29
skapaz@@ 29
steigende 29
steigerung 29
stige 29
tent@@ 29
tests 29
this 29
tiefer 29
traten 29
traum@@ 29
tre 29
ungssysteme 29
uro@@ 29
vergröß@@ 29
vermu@@ 29
verschie@@ 29
verschul@@ 29
versicherungs@@ 29
vit@@ 29
volu@@ 29
vorkommen 29
wahre 29
web@@ 29
wechselt 29
weiger@@ 29
wn@@ 29
xen 29
ye@@ 29
zusp@@ 29
Überleben 29
ält 29
änder@@ 29
änen 29
ühren 29
ürz@@ 29
ć 29
ř@@ 29
š 29
.de 28
110 28
31.@@ 28
57 28
ACE 28
Alexand@@ 28
Altstadt 28
Ambiente 28
Anbindung 28
Anwen@@ 28
BA 28
Behau@@ 28
Berech@@ 28
Beschaffung 28
Besuchen 28
Bewerber 28
Bibliothek 28
Bill 28
Biotechnologie 28
Bla@@ 28
Blei@@ 28
Bres@@ 28
CO2 28
Card 28
Cra@@ 28
DIN 28
Dank@@ 28
Definitionen 28
Diktatur 28
Drit@@ 28
E. 28
ENT 28
Ebenfalls 28
Einla@@ 28
Endes 28
Fan@@ 28
Flotte 28
Forschungsin@@ 28
GB@@ 28
GRA@@ 28
Gerü@@ 28
Gonz@@ 28
HA@@ 28
Hab@@ 28
Heb@@ 28
Hypoth@@ 28
Händler 28
ICT@@ 28
Implementierung 28
Industrieländer 28
Insolven@@ 28
Instru@@ 28
Klimaanlage 28
Konkurrenten 28
Konstruktion 28
Konzern 28
Lab@@ 28
Lebens- 28
Leucht@@ 28
Level 28
Lis@@ 28
MIL@@ 28
Malaysia 28
Modells 28
Musi@@ 28
Näch@@ 28
PA@@ 28
PC@@ 28
PHARE 28
Patri@@ 28
Pedro 28
Philosophie 28
Plus 28
Pul@@ 28
Regis@@ 28
Roy@@ 28
SK 28
SW@@ 28
Schal@@ 28
Schwimmbad 28
Seh@@ 28
Sei@@ 28
Sicherheitsstandards 28
Slo@@ 28
Szenario 28
Süß@@ 28
Technische 28
Tru@@ 28
Trä@@ 28
VE 28
Vergnügen 28
Verpackung 28
Vorjahr 28
Wand@@ 28
Wind@@ 28
Wohnsitz 28
Zahlreiche 28
Zeile 28
Zinss@@ 28
Zäh@@ 28
acquis 28
ago 28
allgem@@ 28
alo@@ 28
amb@@ 28
anmerken 28
annimmt 28
argu@@ 28
ated 28
aufrufen 28
beeinflusst 28
begrüß@@ 28
belast@@ 28
bere@@ 28
bie@@ 28
blau@@ 28
blä@@ 28
cel@@ 28
cli@@ 28
defin@@ 28
dichte 28
diesmal 28
din@@ 28
dio@@ 28
dreißig 28
dün@@ 28
einzigartig 28
eo@@ 28
erika 28
eriode 28
erlit@@ 28
feldern 28
ffern 28
firmen 28
flä@@ 28
freundlicher 28
frischen 28
fut@@ 28
fällige 28
fürchte 28
gebrau@@ 28
geför@@ 28
gehörigen 28
gele@@ 28
genutz@@ 28
geschäft 28
gewaltigen 28
gewöh@@ 28
giert 28
gratuliere 28
grenzung 28
gästen 28
halbe 28
herkömmlichen 28
hersteller 28
http 28
häufig@@ 28
iern 28
iii 28
interess@@ 28
interessi@@ 28
interpre@@ 28
isa 28
italien@@ 28
jahre 28
jemals 28
jähr@@ 28
jüngst 28
kers 28
komplette 28
kulturel@@ 28
kunde 28
kurbeln 28
lassen@@ 28
lastung 28
leuten 28
lok@@ 28
lässigkeit 28
mentari@@ 28
nam@@ 28
niedrigere 28
oc@@ 28
old 28
ols 28
ow 28
packt 28
pat@@ 28
personal 28
pf 28
pflegen 28
plätzen 28
poli@@ 28
programm@@ 28
racht 28
rechnet 28
reichsten 28
schein 28
schein@@ 28
schlechte 28
schläge 28
schuldung 28
schwächen 28
sein@@ 28
sender 28
sist@@ 28
siver 28
spiegeln 28
star 28
stellern 28
sto 28
stor@@ 28
tika 28
traditionell 28
ty@@ 28
unüber@@ 28
verbreiten 28
verläuft 28
verschmutzung 28
vertrieben 28
vorteil@@ 28
wachstum 28
ware 28
wärtige 28
yle 28
zellen 28
zeugs 28
zufriedenheit 28
zügigen 28
Überschwemmungen 28
Übersetzungen 28
äng@@ 28
übergeben 28
übergreif@@ 28
übersehen 28
üssel 28
χ@@ 28
о@@ 28
09.@@ 27
103 27
33@@ 27
Ansprüchen 27
Befür@@ 27
Benita 27
Beobachtungs@@ 27
CON@@ 27
Cent@@ 27
Charles 27
Charlie 27
Delors 27
Diplom@@ 27
Direktinvestitionen 27
Dokumentation 27
E-Mail-Adresse 27
Einwohnern 27
El 27
Erlebnis 27
Ermitt@@ 27
Euror@@ 27
Extra@@ 27
FI 27
Fahrer 27
Fei@@ 27
Feli@@ 27
Gast 27
Geben 27
Geldbußen 27
Glas 27
Gott@@ 27
HI@@ 27
IL 27
Internetseite 27
Itali@@ 27
Jugen@@ 27
Kompetenz@@ 27
Konjunk@@ 27
Konz@@ 27
Kris@@ 27
Käse 27
Landschaften 27
Lob@@ 27
Luftfahrt 27
Main@@ 27
Maj@@ 27
Manche 27
Mary 27
Maxim@@ 27
Meldung 27
Mercedes 27
Metall@@ 27
Minim@@ 27
Motiv@@ 27
Musiker 27
NA 27
Net 27
Netzwerke 27
Nom@@ 27
Objekt 27
Politikern 27
Portal 27
Posten 27
Poten@@ 27
Profil 27
Resi@@ 27
Salzburg 27
Schne@@ 27
Schokol@@ 27
Sekunden 27
Sitzungsperiode 27
Sorgfalt 27
Sozialausschuss 27
Sum@@ 27
Symp@@ 27
Techn@@ 27
Tibet 27
UT 27
Univers@@ 27
VO@@ 27
Verring@@ 27
Weih@@ 27
Weine 27
Wertpap@@ 27
Wärme@@ 27
Zins@@ 27
Zul@@ 27
abetes 27
abo@@ 27
abteilung 27
adi@@ 27
afrikanische 27
ag 27
all-@@ 27
alysat@@ 27
angegebenen 27
ank 27
anna 27
architek@@ 27
ash@@ 27
ationale 27
auftre@@ 27
autor@@ 27
bach 27
bedeutendsten 27
beginn 27
beglückwünsche 27
belegen 27
beratenden 27
besetzten 27
besie@@ 27
blockiert 27
brenn@@ 27
burg-@@ 27
bör@@ 27
chron@@ 27
chtigkeit 27
co-@@ 27
dation 27
delle 27
dest 27
dorthin 27
dramatisch 27
dras@@ 27
effizienter@@ 27
ehrte 27
einziger 27
ember@@ 27
enes 27
erbaut 27
erem 27
erend 27
erhöhte 27
erschienen 27
eus 27
facto 27
fehler@@ 27
fert 27
flucht 27
fossi@@ 27
gendsten 27
genz 27
geringere 27
gewinn@@ 27
grosse 27
habt 27
haus@@ 27
have 27
intel@@ 27
juristische 27
kauf@@ 27
kontra@@ 27
lager 27
latt 27
legitim@@ 27
lehen 27
lers 27
lez 27
lic@@ 27
lichte 27
ließt 27
löst 27
makro@@ 27
maximale 27
messe 27
mid 27
mobile 27
my@@ 27
n-@@ 27
nein 27
nummern 27
ny 27
onal 27
ori 27
oria 27
phas@@ 27
ple@@ 27
prim@@ 27
pro-@@ 27
problemlos 27
professionelle 27
qualitative 27
quo@@ 27
r.@@ 27
rak@@ 27
reiter@@ 27
rem@@ 27
resul@@ 27
ring@@ 27
roh@@ 27
rom@@ 27
ré@@ 27
s.@@ 27
saubere 27
schlicht 27
schlimmer 27
sied@@ 27
smar@@ 27
sport@@ 27
staatlichkeit 27
station@@ 27
strö@@ 27
sts 27
städte 27
sus 27
unglaub@@ 27
ungsverfahrens 27
untersu@@ 27
unzureichende 27
urt 27
uta 27
var@@ 27
verkörper@@ 27
verschafft 27
vertik@@ 27
vorsorge 27
zugeschnitten 27
zz@@ 27
äqu@@ 27
ärm@@ 27
örung 27
Č 27
ά@@ 27
ώ@@ 27
111 26
149 26
16.@@ 26
55@@ 26
> 26
Akademie 26
Aktien@@ 26
Anlauf@@ 26
Annan 26
Anteile 26
Anzeige 26
Arbeiter 26
Ausblick 26
BAS@@ 26
Beantwortung 26
Beispiel@@ 26
Bele@@ 26
Betrü@@ 26
Blo@@ 26
Brian 26
CO2-@@ 26
COD 26
Coton@@ 26
Cy@@ 26
Deb@@ 26
Dien@@ 26
Diesel@@ 26
Durchbruch 26
Einheiten 26
Eink@@ 26
Elektriz@@ 26
Entschließungsanträge 26
Ernst 26
Eth@@ 26
Finanzierung@@ 26
Fisch 26
Fische 26
Flag@@ 26
Flan@@ 26
Flexibil@@ 26
Galileo 26
Gebäuden 26
Gedächt@@ 26
Geschäften 26
Get@@ 26
Gri@@ 26
Hochgeschwin@@ 26
Homepage 26
Hop@@ 26
Höhepunkt 26
IO 26
Industrien 26
Intel@@ 26
Juan 26
Kais@@ 26
Kalten 26
Koalition 26
Kommun@@ 26
Krebs@@ 26
Kub@@ 26
Lama 26
Leon 26
Luis 26
Mischung 26
Mobilfunk@@ 26
Mom@@ 26
Monti 26
Málaga 26
National 26
OK 26
Ok@@ 26
PE 26
Park@@ 26
Passwort 26
Phänom@@ 26
Plas@@ 26
Prak@@ 26
Produktivitäts@@ 26
Raf@@ 26
Reguli@@ 26
Richtigkeit 26
Rum@@ 26
SH@@ 26
Schattenberichterstat@@ 26
Schätz@@ 26
Seitdem 26
Spaniens 26
Star 26
Strei@@ 26
Sty@@ 26
São 26
Säu@@ 26
Tor 26
Tos@@ 26
Transatlan@@ 26
Tun@@ 26
US-Dollar 26
Umsatz@@ 26
Unfall 26
Unionsbürgerschaft 26
Up@@ 26
Us 26
Vari@@ 26
Verfü@@ 26
WE 26
Wahrscheinlichkeit 26
Weis@@ 26
Welth@@ 26
Werkzeug 26
Zah@@ 26
Zentrums 26
Zimmern 26
Zulassungs@@ 26
agements 26
allo 26
ami 26
ander 26
anen 26
anfän@@ 26
ani 26
anscheinend 26
ard@@ 26
arib@@ 26
arin 26
arkt 26
aturen 26
aufgegeben 26
ausländischer 26
bedau@@ 26
beitra@@ 26
benö@@ 26
boden 26
dal 26
die@@ 26
ef 26
eingerichteten 26
eingetragen 26
eldeten 26
energi@@ 26
entwicklungs@@ 26
enza 26
erhielten 26
erische 26
esses 26
expliz@@ 26
exportieren 26
flich 26
foto@@ 26
frisch 26
führender 26
gekehrt 26
genheit 26
gentechnisch 26
gerich@@ 26
geringeren 26
getrenn@@ 26
gewä@@ 26
gewöhnliche 26
gültigen 26
herausragende 26
holt 26
identifizieren 26
islam@@ 26
istungen 26
keln 26
kostenlose 26
kriti@@ 26
ku 26
kungen 26
kurse 26
laubnis 26
line 26
ll 26
loses 26
läufi@@ 26
mediterran@@ 26
mittlung 26
mono@@ 26
mul@@ 26
multinationalen 26
müh@@ 26
nes 26
nets 26
new 26
nör@@ 26
nördlichen 26
og@@ 26
ones 26
oo@@ 26
oriums 26
pen 26
prak@@ 26
promis@@ 26
präsent 26
rank@@ 26
region@@ 26
renomm@@ 26
riebene 26
riffe 26
rum@@ 26
rö@@ 26
schaff@@ 26
schrieben 26
sek@@ 26
setzten 26
sho@@ 26
spon@@ 26
sport 26
spraxis 26
stechni@@ 26
steckt 26
strahlung 26
streck@@ 26
strukturel@@ 26
t- 26
teils@@ 26
terrasse 26
ting 26
treibt 26
ttaus@@ 26
tter@@ 26
ttern 26
ungsanlagen 26
unterstützung 26
utes 26
ventions@@ 26
veranstaltungen 26
verbreitete 26
vergrößern 26
verhaftet 26
verkauf@@ 26
verlor@@ 26
verpflich@@ 26
verwendung 26
verzeichn@@ 26
vieren 26
wan@@ 26
wärtigen 26
zentral 26
zerstör@@ 26
zi 26
zier@@ 26
zion@@ 26
zusammengefasst 26
zuver@@ 26
´ 26
Í@@ 26
äum@@ 26
öffent@@ 26
öffentliches 26
ök@@ 26
ühle 26
ī@@ 26
υ 26
-up 25
109 25
140 25
142 25
1978 25
750 25
A.@@ 25
ART 25
Ala@@ 25
Allgem@@ 25
Alpen@@ 25
Angol@@ 25
Ara@@ 25
Assad 25
Aufstieg 25
BE 25
Bahn@@ 25
Berater 25
Boot 25
Brau@@ 25
Cab@@ 25
Carl 25
Demokraten 25
Dre@@ 25
ERS 25
EU-weit 25
Ec@@ 25
Elektron@@ 25
Erika 25
Exist@@ 25
Feuer 25
Flug 25
Formu@@ 25
Frau@@ 25
Freihandels@@ 25
Gau@@ 25
Gebrau@@ 25
Gebäudes 25
Gä@@ 25
H-0@@ 25
H. 25
Heim@@ 25
Herstell@@ 25
Hügel 25
Instand@@ 25
Interview 25
Klein- 25
Klim@@ 25
Kurse 25
Lenk@@ 25
Log@@ 25
Luxus 25
Meg@@ 25
Mob@@ 25
Monaco 25
Multimedi@@ 25
Nahrungs@@ 25
Nicolas 25
On@@ 25
PUNK@@ 25
Parti@@ 25
Pier@@ 25
Planeten 25
Poliz@@ 25
Porto 25
Pro 25
Ressource 25
Rol@@ 25
Sauna 25
Schnitt@@ 25
Schönheit 25
Secretary 25
Seminare 25
Sevilla 25
Sohn 25
Stan@@ 25
Sto@@ 25
Strö@@ 25
Sur@@ 25
Tschetschen@@ 25
Venedig 25
Verlagerung 25
Verschiebung 25
Versicherungen 25
Vet@@ 25
Weltkrieg@@ 25
Windows 25
Wohnzimmer 25
Workshop 25
Wäldern 25
Zerti@@ 25
Zonen 25
Zweifel@@ 25
abe@@ 25
affung 25
aganda 25
agne 25
alarm@@ 25
alien 25
amin@@ 25
anerkan@@ 25
angebo@@ 25
anner 25
apar@@ 25
arks 25
artier 25
asten 25
ausmacht 25
beam@@ 25
behaup@@ 25
besitz@@ 25
bezieh@@ 25
bi 25
bio@@ 25
chtungs@@ 25
col@@ 25
dazu@@ 25
delt 25
denzen 25
deuten 25
dialog 25
dä@@ 25
ede 25
edt 25
endete 25
enthal@@ 25
ergi@@ 25
erschwing@@ 25
etschen@@ 25
ex 25
faden 25
fahrten 25
fat@@ 25
fes 25
folgerungen 25
gebäude 25
gedrängt 25
gehö@@ 25
gehörenden 25
gelegentlich 25
geräum@@ 25
geschicht@@ 25
gessen 25
gesundheit 25
gratis 25
grei@@ 25
grenzübergreifenden 25
griffs@@ 25
gro 25
gänzlich 25
hai 25
heim 25
herausra@@ 25
häl@@ 25
häufigsten 25
höch@@ 25
höhe 25
individu@@ 25
ink 25
ink@@ 25
instrumente 25
irgen@@ 25
irgendwo 25
jüng@@ 25
komp@@ 25
kraten 25
kreative 25
könnt 25
kündigen 25
lands@@ 25
langwi@@ 25
latein@@ 25
ld@@ 25
limm@@ 25
live 25
manage@@ 25
manu@@ 25
mark 25
markiert 25
mei@@ 25
mel 25
mig@@ 25
namen 25
off@@ 25
omen 25
onom@@ 25
ot@@ 25
oud 25
pharmazeu@@ 25
plus 25
pon@@ 25
porno@@ 25
protesti@@ 25
rankungen 25
reihe 25
reservi@@ 25
respon@@ 25
rou@@ 25
ruhig@@ 25
seff@@ 25
servi@@ 25
siv 25
sle@@ 25
soziales 25
splan@@ 25
spunkt 25
ständigt 25
stärk@@ 25
sung 25
supran@@ 25
sätz@@ 25
tels 25
tetes 25
tradition@@ 25
tätige 25
ug@@ 25
unsch@@ 25
unterneh@@ 25
unterschied@@ 25
utzutage 25
vermieten 25
vermis@@ 25
verschlimm@@ 25
versi@@ 25
verwen@@ 25
warn@@ 25
willi@@ 25
zeh@@ 25
zeitig 25
zent 25
zir@@ 25
zyklus 25
ßer@@ 25
äck@@ 25
äder 25
ämpf@@ 25
übersetzt 25
ý 25
ş@@ 25
е@@ 25
с@@ 25
-Richtlinie 24
.-@@ 24
18.@@ 24
22@@ 24
24.@@ 24
Aut@@ 24
Av@@ 24
Barro@@ 24
Beschl@@ 24
Bildschirm 24
Botschaften 24
Brand@@ 24
Breitband@@ 24
Browser 24
CD@@ 24
CE 24
Christop@@ 24
Co 24
Dam@@ 24
Dialog@@ 24
Dör@@ 24
EU-Kommission 24
Einblick 24
Einerseits 24
Einreichung 24
Ero@@ 24
Erwachsen@@ 24
Erwachsene 24
Erwä@@ 24
Event 24
Folgenab@@ 24
Freig@@ 24
Fro@@ 24
Fun@@ 24
GO 24
Größ@@ 24
Grü@@ 24
Heil@@ 24
Herrschaft 24
Holding 24
Hyper@@ 24
INTERREG 24
Inte@@ 24
Invest@@ 24
Juni@@ 24
Karl 24
Kloster 24
Kolum@@ 24
Konservativen 24
Kä@@ 24
Lad@@ 24
Linien 24
Liquidi@@ 24
Literatur 24
Male 24
Metro@@ 24
Monitoring 24
Monopol@@ 24
Nahrung 24
Nap@@ 24
Ny@@ 24
ODER 24
Objekte 24
Online 24
Open@@ 24
PS@@ 24
Passagiere 24
Patente 24
Prüfungs@@ 24
Ras@@ 24
Ratsvorsit@@ 24
Ret@@ 24
Roll@@ 24
Rückverfolgbarkeit 24
Schri@@ 24
Schön@@ 24
Sehen 24
Service-@@ 24
Spek@@ 24
Stadtzentrum 24
Studierenden 24
Studium 24
Stur@@ 24
Stuttgart 24
Stück@@ 24
Suiten 24
TACs 24
Texten 24
Tools 24
Top-@@ 24
Umweltverschmutzung 24
Ve@@ 24
Vent@@ 24
Verdacht 24
Vertragsverletzungsverfahren 24
Vinc@@ 24
Werner 24
Wohlbefinden 24
Währungsfonds 24
Wü@@ 24
achte 24
ación 24
aj@@ 24
anbieter 24
angeneh@@ 24
angrenz@@ 24
ano@@ 24
api@@ 24
artikel 24
as-@@ 24
ations 24
auslösen 24
ausrüstung 24
außergewöhn@@ 24
bearbeiten 24
becken 24
bedienen 24
bereitung 24
betru@@ 24
bevölk@@ 24
bewahr@@ 24
boo@@ 24
cco 24
chtsdesto@@ 24
ckte 24
cz@@ 24
dec@@ 24
denten 24
dreht 24
ecke 24
effizienz 24
eingebet@@ 24
einheimischen 24
emanden 24
emissionen 24
enen@@ 24
entgel@@ 24
erb@@ 24
etz 24
existierenden 24
extremen 24
fantas@@ 24
funktionen 24
gasse 24
geforderten 24
geholt 24
gewäh@@ 24
gg@@ 24
gher@@ 24
herrlichen 24
hervorra@@ 24
hervorragend 24
hili@@ 24
hinzuzufügen 24
igh@@ 24
inc@@ 24
ings@@ 24
interven@@ 24
is-@@ 24
itation 24
ji@@ 24
journ@@ 24
kalische 24
kaner 24
katastrophal@@ 24
king 24
klam@@ 24
klasse 24
kompletten 24
konkurrieren 24
konzip@@ 24
kro@@ 24
lags 24
lah 24
lied 24
lässi@@ 24
magne@@ 24
mari@@ 24
massiven 24
mentation 24
ments@@ 24
monet@@ 24
moralis@@ 24
mten 24
nette 24
nomin@@ 24
operationellen 24
ous@@ 24
ouse 24
pool 24
pun@@ 24
repar@@ 24
rieren 24
riesige 24
ron 24
schlech@@ 24
schnellstmöglich 24
schrift@@ 24
schwache 24
schädlich 24
seuropä@@ 24
sfer 24
slowen@@ 24
software 24
spektakul@@ 24
spektrum 24
spir@@ 24
stanz 24
stattdessen 24
stattfand 24
süd@@ 24
teur 24
tien 24
total@@ 24
trug 24
typisch 24
typische 24
ue@@ 24
ulen 24
unabhängi@@ 24
unglück@@ 24
unterricht 24
ute 24
utter@@ 24
vent 24
veranlasst 24
verblei@@ 24
vertri@@ 24
verwendete 24
vesti@@ 24
vielsei@@ 24
wicklung 24
winden 24
wissenschaftlich 24
wol@@ 24
wöch@@ 24
zerstören 24
zucht 24
zufriedenstellend 24
zugr@@ 24
Ä 24
ès 24
éri@@ 24
ört 24
überschreit@@ 24
.ch 23
0.@@ 23
10-@@ 23
125 23
19.@@ 23
1957 23
1976 23
1984 23
1986 23
1987 23
24. 23
500@@ 23
AB 23
Abenteuer 23
Abfall 23
Administration 23
Adri@@ 23
Ali@@ 23
Ani@@ 23
Armuts@@ 23
Arzt 23
Auflage 23
Auftrag@@ 23
Bananen 23
Barrot 23
Bay@@ 23
Boh@@ 23
Bolkestein 23
Branchen 23
CA 23
Casino 23
Cel@@ 23
Cho@@ 23
Dach@@ 23
Diagno@@ 23
Dire@@ 23
Diskrimin@@ 23
Dou@@ 23
Dänem@@ 23
Dörfer 23
EU-Ländern 23
Entsorgung 23
Erhol@@ 23
Eta@@ 23
Eurojust 23
FC 23
Ferienwohnung 23
Fertigung 23
Frankfurt 23
Fri@@ 23
Fur@@ 23
Gegenwart 23
Gei@@ 23
Gerä@@ 23
Gescheh@@ 23
Gil@@ 23
Gleiche 23
Grüne 23
Gutes 23
Horizont 23
Infolgedessen 23
Inzwischen 23
Jam@@ 23
Kampfes 23
Kanz@@ 23
Kolle@@ 23
Konzern@@ 23
Kreuz@@ 23
Ky@@ 23
Lap@@ 23
Latein@@ 23
Lauf 23
Leb@@ 23
Luftverschmutzung 23
Lul@@ 23
Lös@@ 23
MA 23
Mart@@ 23
Materials 23
Medizin 23
Militär 23
Mitglied@@ 23
Mw@@ 23
Nar@@ 23
OL 23
Oli@@ 23
Parallel 23
Parkplatz 23
Pass 23
Pel@@ 23
Pfad 23
Pflan@@ 23
Piebalgs 23
Plattformen 23
Potenzi@@ 23
Regen@@ 23
Reit@@ 23
Rücktritt 23
Sc@@ 23
Schatten@@ 23
Schil@@ 23
Schlafzimmer 23
Schrö@@ 23
Sehenswürdigkeiten 23
Sin@@ 23
Software-@@ 23
Sogar 23
Spezialitäten 23
Stau@@ 23
Sus@@ 23
Tagungs@@ 23
Techni@@ 23
Umweltsch@@ 23
Wall@@ 23
Weihnachts@@ 23
Werkzeuge 23
Wissenschafts@@ 23
Zehn@@ 23
Zertifik@@ 23
Zeug@@ 23
ables 23
abschluss 23
absur@@ 23
allen@@ 23
allmäh@@ 23
alp@@ 23
aner 23
angenehme 23
angesiedelt 23
assi@@ 23
auft 23
ausgeglich@@ 23
außergewöhnlich 23
bed@@ 23
begeg@@ 23
begriffen 23
bels 23
beruhi@@ 23
berücksich@@ 23
bestmögliche 23
beziehung 23
bien 23
bo 23
christ@@ 23
cks@@ 23
dachten 23
definierten 23
deiner 23
desselben 23
dialo@@ 23
digkeiten 23
doppelte 23
dor 23
dt 23
eicht 23
einges@@ 23
einrichten 23
ema 23
entscheiden@@ 23
entschied 23
erfor@@ 23
ester@@ 23
ethischen 23
explo@@ 23
flotte 23
forsch@@ 23
forts@@ 23
forums 23
freigegeben 23
fungen 23
fusion 23
fä@@ 23
gebor@@ 23
geheim@@ 23
geschi@@ 23
geschnitten 23
gewo@@ 23
gia 23
grünes 23
hard 23
him 23
hinein 23
illi@@ 23
intelligente 23
internation@@ 23
ira 23
kommiss@@ 23
kommunizieren 23
kostspie@@ 23
kritisieren 23
künstler@@ 23
las 23
lebende 23
legisl@@ 23
lin 23
linken 23
marken 23
met 23
militär@@ 23
mitunter 23
modern 23
momentan 23
nun@@ 23
ony@@ 23
ope 23
optimieren 23
organ 23
perfekte 23
porteure 23
prechen 23
quanti@@ 23
rus@@ 23
schlus@@ 23
schneiden 23
schwung 23
siedlung 23
sl@@ 23
spe@@ 23
sprung 23
station 23
stein@@ 23
steuerung 23
strom 23
stung 23
thy 23
touristischen 23
tradi@@ 23
traf 23
tro 23
tto 23
turell 23
typ@@ 23
täts@@ 23
uch 23
uli@@ 23
unser@@ 23
var 23
verhand@@ 23
versorgt 23
versäumt 23
views 23
vorsichtig 23
wachs 23
wandern 23
warnt 23
wirst 23
wunsch 23
zel 23
Ó@@ 23
äden 23
änder 23
übertragung 23
übung 23
— 23
-Sti@@ 22
14.@@ 22
20.@@ 22
300@@ 22
40@@ 22
Acquis 22
Aktivi@@ 22
Appartements 22
Architekten 22
Aro@@ 22
Aufsichtsbehörden 22
Autoren 22
Baden-@@ 22
Beleu@@ 22
Benutzer@@ 22
Besich@@ 22
Beweg@@ 22
Bildschir@@ 22
Block 22
CIT@@ 22
CNS 22
Cap@@ 22
Chin@@ 22
Clau@@ 22
Cox 22
Dalai 22
Dep@@ 22
Deutsch@@ 22
Diagnose 22
Dr@@ 22
Dür@@ 22
ECOFIN 22
Effekte 22
Einwanderungspolitik 22
Eisen@@ 22
Engl@@ 22
Entschul@@ 22
Fat@@ 22
Ferienwohnungen 22
Formular 22
Fähig@@ 22
Föder@@ 22
För@@ 22
Gebir@@ 22
Geschwin@@ 22
Golfplatz 22
Gü@@ 22
Hans@@ 22
Himmel 22
Hintergrund@@ 22
Hochschule 22
Höh@@ 22
INT@@ 22
ISO 22
Imm@@ 22
Inkraft@@ 22
Interpretation 22
Jobs 22
Joseph 22
Km 22
Konten 22
LA 22
LK@@ 22
Labor@@ 22
Laden 22
Lar@@ 22
Leonardo 22
Lieb@@ 22
Lobby@@ 22
Logo 22
Mallorca 22
Manage@@ 22
Marketing@@ 22
Maschine 22
Medina 22
Mode 22
Modellen 22
Mono@@ 22
Montage 22
Neuen 22
Obama 22
Of 22
Pad@@ 22
Pek@@ 22
Pool 22
Preisstabilität 22
Quadrat@@ 22
REACH 22
Rap@@ 22
Rentabilität 22
Reservi@@ 22
Rotterdam 22
Salz@@ 22
Schnittstelle 22
Schulz 22
Sensibil@@ 22
Sieg 22
Software@@ 22
Spir@@ 22
Spre@@ 22
State 22
Stän@@ 22
Synergi@@ 22
Telef@@ 22
Territ@@ 22
Theater 22
Tool 22
UNO-@@ 22
Verfasser 22
Webseiten 22
Wettbewer@@ 22
Wettbewerber 22
Wunder 22
abel@@ 22
agu@@ 22
ahrt 22
andal@@ 22
andin@@ 22
angeben 22
angenehm 22
ankommen 22
ark 22
arti@@ 22
asi 22
aterie 22
atisierung 22
attraktiven 22
auszuführen 22
bahnen 22
band 22
befin@@ 22
begeis@@ 22
begeistert 22
beha@@ 22
behoben 22
beliebigen 22
benachbarten 22
blieben 22
budget 22
bücher 22
ca@@ 22
centre 22
chert 22
chner 22
chno@@ 22
cm 22
communautaire 22
d.@@ 22
denfalls 22
deu@@ 22
diversen 22
drehen 22
dus 22
eingang 22
ekte 22
elegan@@ 22
eleistungen 22
ence 22
eni@@ 22
enkt 22
ensysteme 22
enzo 22
ergab 22
erhebt 22
erledigt 22
ermög@@ 22
erstre@@ 22
fac@@ 22
fach 22
flächen@@ 22
flüge 22
ftung 22
garten 22
ge-@@ 22
gebil@@ 22
geld@@ 22
gelder 22
genann@@ 22
geschah 22
geschm@@ 22
gewässer 22
geän@@ 22
gion 22
glomer@@ 22
graben 22
gram@@ 22
größtenteils 22
günstiger 22
hon@@ 22
hor@@ 22
hut@@ 22
hy@@ 22
iet 22
inien@@ 22
jeg@@ 22
junk@@ 22
kanen 22
kas@@ 22
komplexer 22
krist@@ 22
kunfts@@ 22
ladi@@ 22
langjährige 22
lass 22
leger 22
leidung 22
lenstoff@@ 22
lv@@ 22
m2 22
mann@@ 22
materialien 22
meldung 22
mittelstän@@ 22
mmen 22
mungen 22
nachten 22
nen@@ 22
neo@@ 22
ni 22
nommen 22
offenkun@@ 22
operation 22
palästinens@@ 22
parks 22
perfek@@ 22
persön@@ 22
potenziell 22
pp 22
problemati@@ 22
publi@@ 22
q 22
red@@ 22
refle@@ 22
reguli@@ 22
rem 22
reserven 22
rob@@ 22
rol 22
rumän@@ 22
s. 22
salon 22
sammlung 22
schien 22
schulen 22
schwe@@ 22
schwerwie@@ 22
schätze 22
sme@@ 22
ssa 22
stark@@ 22
stil 22
stim@@ 22
such 22
tank@@ 22
tegr@@ 22
therapeu@@ 22
thos 22
tics 22
tigung@@ 22
transa@@ 22
twen@@ 22
twendi@@ 22
ty 22
umin@@ 22
ums-@@ 22
ungsangebo@@ 22
va@@ 22
verschieden@@ 22
versprechen 22
verspä@@ 22
verwei@@ 22
verän@@ 22
viertel 22
ville 22
vollsten 22
vorhan@@ 22
vorsich@@ 22
webe 22
wettbewerb 22
wohnheiten 22
wählt 22
zusagen 22
zuverlässig 22
zögern 22
Ära 22
Ü 22
ältesten 22
ô@@ 22
übrig 22
ο 22
и@@ 22
™ 22
# 21
-System 21
106 21
160 21
1967 21
1977 21
2007-@@ 21
22.@@ 21
23. 21
26. 21
27. 21
5000 21
60@@ 21
88@@ 21
Aires 21
Aktien 21
Aktion@@ 21
Alpen 21
Angel@@ 21
Art@@ 21
Association 21
Aufwand 21
BN@@ 21
Bananen@@ 21
Beihil@@ 21
Bergen 21
Besatz@@ 21
Besuchs 21
Brü@@ 21
Buenos 21
Burg 21
Bürokrati@@ 21
Centre 21
Charakter@@ 21
Christen 21
Cli@@ 21
Corporate 21
Council 21
Court 21
Development 21
Diamantopoulou 21
Empf@@ 21
Entfer@@ 21
Entscheidungst@@ 21
Etwa 21
Euratom 21
Fehler@@ 21
Finan@@ 21
Finanzi@@ 21
Fischereis@@ 21
Flughaf@@ 21
Flugzeuge 21
Freie 21
Funda@@ 21
GV@@ 21
Gebäu@@ 21
Genauigkeit 21
Geträn@@ 21
Gom@@ 21
Gouverne@@ 21
Grand 21
HD@@ 21
HU 21
Häusern 21
IK 21
Ih@@ 21
Immig@@ 21
Internetzugang 21
Jack@@ 21
Jak@@ 21
Jury 21
Kleine 21
Kohär@@ 21
Kommunismus 21
Komplex 21
Kontra@@ 21
Konzerte 21
Kopf@@ 21
Logos 21
Malmström 21
Med@@ 21
Menü@@ 21
Mexi@@ 21
Mittelme@@ 21
Möchten 21
Norwe@@ 21
Origin@@ 21
Oslo 21
Patent 21
Pfund 21
Piazza 21
Play@@ 21
Pop@@ 21
Power 21
Projektes 21
Prü@@ 21
Rand 21
Reichweite 21
Resultat 21
Räumlichkeiten 21
SV@@ 21
Schre@@ 21
Sha@@ 21
Sho@@ 21
Single 21
Speicherung 21
Spezialisten 21
Spuren 21
Strecken 21
Stär@@ 21
TT@@ 21
TV@@ 21
Tabelle 21
Ten@@ 21
Tennis@@ 21
Terrain 21
Territorium 21
Textilien 21
Tony 21
Ukra@@ 21
VIT@@ 21
Vers@@ 21
Verts 21
Verw@@ 21
Vitorino 21
Weiter 21
Wellness 21
Werkzeug@@ 21
Zahl@@ 21
Zeh@@ 21
Zinssätze 21
a.@@ 21
alist 21
ami@@ 21
ams 21
angaben 21
anten@@ 21
arte 21
ause 21
ausgeglichen 21
ausgezeichn@@ 21
automatischen 21
avi@@ 21
aw@@ 21
b-@@ 21
basierend 21
beauftrag@@ 21
bedien@@ 21
bein@@ 21
ber-@@ 21
berechnen 21
besei@@ 21
betreibt 21
big@@ 21
blüh@@ 21
bom@@ 21
bon@@ 21
brennung 21
bucht 21
cha@@ 21
chambres 21
che@@ 21
dämmen 21
einfaches 21
einheiten 21
einrichtung 21
embargo 21
ene@@ 21
ensu@@ 21
entrums 21
eriert 21
ering 21
f. 21
festi@@ 21
folgedessen 21
folgend 21
freiem 21
fter 21
g. 21
gen-@@ 21
gesteuert 21
getestet 21
gewichte 21
gieb@@ 21
grafi@@ 21
griff@@ 21
hausen 21
hold 21
horizon@@ 21
ilität 21
iner@@ 21
invol@@ 21
irgendwie 21
isst 21
itali@@ 21
itte 21
jahren 21
kalischen 21
konver@@ 21
leist@@ 21
leitete 21
liges 21
liner 21
länge 21
läs@@ 21
löschen 21
mieten 21
mmt 21
moralischen 21
my 21
neg@@ 21
niens 21
non 21
num@@ 21
od 21
onie 21
origin@@ 21
oten 21
parlamentar@@ 21
pause 21
pieces 21
prinzipien 21
probe 21
progressi@@ 21
provo@@ 21
q@@ 21
rent 21
schwarzen 21
schür@@ 21
sendung 21
splat@@ 21
stra 21
stufe 21
tagon@@ 21
techni@@ 21
technologi@@ 21
ten-@@ 21
teres 21
thalten 21
tivitäten 21
tot 21
tra 21
traum 21
tu 21
täu@@ 21
ungsum@@ 21
untergebracht 21
up-@@ 21
urban@@ 21
urg@@ 21
veaus 21
verbindung 21
verfü@@ 21
verletzen 21
veter@@ 21
vielfältige 21
vil@@ 21
vorab 21
wehr@@ 21
weitergeleitet 21
wig 21
wovon 21
wärts 21
zern 21
Á 21
Überna@@ 21
Übertrag@@ 21
ämpft 21
ée 21
ê@@ 21
öser 21
übernahm 21
ümer 21
ě@@ 21
ő@@ 21
1975 20
240 20
546 20
AF 20
Acc@@ 20
Addi@@ 20
Aff@@ 20
Agen@@ 20
Air 20
Anbietern 20
Angela 20
Anleihen 20
Aqu@@ 20
Ath@@ 20
Aufre@@ 20
Auszeichnung 20
BC 20
Bali 20
Behör@@ 20
Best 20
Bett@@ 20
Buchungs@@ 20
Busin@@ 20
CC@@ 20
Cha@@ 20
Cour@@ 20
Cu@@ 20
Darlehens@@ 20
Dienstleist@@ 20
Dokument@@ 20
EFRE 20
EUR@@ 20
Effizi@@ 20
Einkaufs@@ 20
Es@@ 20
Events 20
Expan@@ 20
Fernseher 20
Festival 20
Festplatte 20
Flach@@ 20
François 20
Freiwilli@@ 20
Frontex 20
Gastfreundschaft 20
Geburt@@ 20
Gebühr 20
Gemü@@ 20
Gläub@@ 20
Gonzal@@ 20
Gru@@ 20
Gy@@ 20
IMO 20
Il 20
In-@@ 20
Inneren 20
Jür@@ 20
Kaffee 20
Kart@@ 20
Klimaschutz 20
Konkurr@@ 20
Kopie 20
Krankenhaus 20
Krebs 20
Kreuz 20
Las@@ 20
Lear@@ 20
Lücke 20
MB@@ 20
Messen 20
Mie@@ 20
Mill@@ 20
Mittelmeer-@@ 20
Molda@@ 20
Momente 20
Montre@@ 20
Mön@@ 20
OMMEN@@ 20
Oberflächen@@ 20
Obst@@ 20
Olympischen 20
Open 20
PDF 20
Pension 20
Peti@@ 20
Profession@@ 20
Progno@@ 20
RS 20
Reisende 20
Repar@@ 20
Rest@@ 20
Rettungs@@ 20
Richard 20
Roman 20
Rubri@@ 20
Ry@@ 20
SL 20
Sab@@ 20
Schlo@@ 20
Schwanger@@ 20
Security 20
Sekund@@ 20
Sis@@ 20
Sonne 20
Sozialisten 20
Spani@@ 20
Spekul@@ 20
Spitz@@ 20
Studio 20
Tam@@ 20
Tele@@ 20
Temp@@ 20
Thessaloniki 20
Tochtergesellschaft 20
Top@@ 20
Treu@@ 20
Update 20
Verbündeten 20
Verhaltens@@ 20
Verhaltensko@@ 20
Verkauf@@ 20
Vertrieb@@ 20
Via 20
Vorstand 20
Wallström 20
Warn@@ 20
Wissenschaftlern 20
abi@@ 20
absich@@ 20
acc@@ 20
adel@@ 20
affen 20
ahl@@ 20
ais 20
angemeldet 20
anzeigen 20
appel@@ 20
architekton@@ 20
arom@@ 20
aster 20
ato@@ 20
ausfallen 20
bara 20
befre@@ 20
beratung 20
berge 20
blin@@ 20
brü@@ 20
brüche 20
bz@@ 20
chtlinie 20
control 20
cos 20
damali@@ 20
dank@@ 20
defiz@@ 20
denz@@ 20
dimension 20
dom@@ 20
drucken 20
eile 20
empfoh@@ 20
empl@@ 20
end-@@ 20
endsten 20
energie 20
ennis 20
enten@@ 20
entspannen 20
entworfen 20
eo 20
epide@@ 20
erkennung 20
erkunden 20
erschein@@ 20
erzählt 20
eute 20
existi@@ 20
experi@@ 20
extremis@@ 20
fazilität 20
feder@@ 20
folgte 20
genes 20
geografischen 20
geschmack@@ 20
gesun@@ 20
gl 20
gratu@@ 20
gäste 20
heimischen 20
herstellung 20
hochwertiger 20
ielt 20
impro@@ 20
ingungen 20
ischerweise 20
ish@@ 20
klassische 20
kle 20
klärt 20
kombinieren 20
konfigur@@ 20
konkur@@ 20
kontaktieren 20
kus 20
legal 20
legale 20
leiste 20
leug@@ 20
lev@@ 20
listen 20
lit 20
maritime 20
mittler@@ 20
nig 20
ond 20
operation@@ 20
oran@@ 20
our@@ 20
p-@@ 20
passende 20
phe 20
potential 20
potenzi@@ 20
pour 20
progno@@ 20
pur@@ 20
qm 20
quantitative 20
radi@@ 20
registrieren 20
religi@@ 20
retten 20
rey 20
rumänischen 20
räder 20
schön@@ 20
schöner 20
set@@ 20
shop 20
smär@@ 20
sourcen 20
spielte 20
stab 20
steil@@ 20
steine 20
stir@@ 20
strand 20
stren@@ 20
tell 20
temperat@@ 20
thu@@ 20
tigh@@ 20
tise 20
trages 20
typen 20
u.@@ 20
um-@@ 20
umgewandelt 20
unterschiedlichsten 20
vel-@@ 20
verwandeln 20
wald 20
wanderung 20
weißen 20
wesenheit 20
widmet 20
wunderbare 20
wärts@@ 20
zia 20
Überschnei@@ 20
Übertragungs@@ 20
Übri@@ 20
öhnen 20
überleben 20
ă@@ 20
ı 20
ύ@@ 20
Гј@@ 20
000@@ 19
115 19
15.00 19
196 19
30.@@ 19
ARD 19
Abhängi@@ 19
Airbus 19
Andro@@ 19
Anstatt 19
Anwal@@ 19
Autor@@ 19
Balance 19
Behandlungen 19
Beschaff@@ 19
Besitzer 19
Betru@@ 19
Blä@@ 19
CD-@@ 19
CDs 19
CF@@ 19
Chal@@ 19
Chemie 19
Company 19
Cur@@ 19
Deck@@ 19
Designer 19
Deutsch 19
Display 19
Dist@@ 19
EU-Vorschriften 19
EURO 19
Eben@@ 19
Effek@@ 19
Eigent@@ 19
Empfang 19
Energieein@@ 19
Erdbeben 19
FF 19
Flüssig@@ 19
Freien 19
Füßen 19
Gegenstände 19
Gew@@ 19
Ghan@@ 19
Gruppen@@ 19
Grön@@ 19
Hardware 19
Haut 19
Hi@@ 19
IP-@@ 19
Inhalts@@ 19
Institute 19
Internetseiten 19
Kabel 19
Kaiser 19
Kanäle 19
Kreditkarte 19
Kreu@@ 19
Kron@@ 19
Leh@@ 19
Loh@@ 19
Lü@@ 19
MD@@ 19
MID@@ 19
Mahl@@ 19
Mark 19
Medika@@ 19
Merco@@ 19
Microsoft 19
Moder@@ 19
Module 19
Mont@@ 19
Monter@@ 19
Muni@@ 19
Mär@@ 19
Neg@@ 19
Newsletter 19
Notfall@@ 19
Ordner 19
Orts@@ 19
Pakist@@ 19
Palazzo 19
Panorama 19
Parks 19
Peri@@ 19
Photo@@ 19
Product 19
Profi@@ 19
R. 19
Rep@@ 19
Research 19
Revolu@@ 19
SAR@@ 19
SIM@@ 19
SR@@ 19
Saison 19
Sand 19
Schriftliche 19
Sensi@@ 19
Sig@@ 19
Snow@@ 19
Spam@@ 19
Spie@@ 19
Spielen 19
Sports 19
Stimmung 19
Tas@@ 19
Til@@ 19
Tob@@ 19
Trade 19
Treibhaus@@ 19
Tribunal 19
Tut@@ 19
Veri@@ 19
Verschiedene 19
Versicherung 19
Verwal@@ 19
Watson 19
Wild@@ 19
Wissenschaft@@ 19
Wolf 19
agenturen 19
anno@@ 19
anschauen 19
area 19
ases 19
attraktive 19
ausgeliefert 19
auswählen 19
ball 19
ball@@ 19
beiträ@@ 19
belebung 19
beliebt 19
benutzer@@ 19
beratende 19
berg@@ 19
berger 19
berühm@@ 19
besichtigen 19
besuchte 19
bildungen 19
billig@@ 19
bis@@ 19
budgets 19
cuisine 19
deh@@ 19
den-@@ 19
did@@ 19
diente 19
dio 19
dustri@@ 19
dé@@ 19
dü@@ 19
ehol@@ 19
eingerichtete 19
elek@@ 19
elektrischen 19
elektro@@ 19
embar@@ 19
empfeh@@ 19
englische 19
enswür@@ 19
entspre@@ 19
er- 19
ereig@@ 19
erle@@ 19
ernt 19
erwartete 19
erwäh@@ 19
essimis@@ 19
europas 19
ey 19
fft 19
format 19
fortgesch@@ 19
fragte 19
fro@@ 19
fül@@ 19
fürsorge 19
ganz@@ 19
gas 19
gehörte 19
gekauft 19
gif@@ 19
gleicht 19
guli@@ 19
hebung 19
higkeit 19
hn 19
hochwer@@ 19
hung@@ 19
ici@@ 19
ih@@ 19
investi@@ 19
irgendeine 19
isten@@ 19
itze 19
itätsp@@ 19
ité 19
ja@@ 19
jar@@ 19
kat 19
kehrungen 19
klassi@@ 19
knoten 19
kurr@@ 19
kümm@@ 19
leg 19
legend@@ 19
lemma 19
letzt 19
liter@@ 19
lädt 19
m-@@ 19
mes@@ 19
metho@@ 19
mischer 19
mmer 19
mobilen 19
modern@@ 19
musik 19
mächtigen 19
ne-@@ 19
niederlän@@ 19
nüt@@ 19
oods 19
op 19
orie 19
porte 19
prosp@@ 19
refer@@ 19
regional 19
reibt 19
reisende 19
reprodu@@ 19
rh@@ 19
risiken 19
rön@@ 19
sag@@ 19
sar@@ 19
schend 19
schlimm@@ 19
seg@@ 19
serwar@@ 19
sh 19
shire 19
si 19
slo@@ 19
sourc@@ 19
sprechende 19
sprüchen 19
stage 19
stößt 19
su 19
sön@@ 19
these 19
trage 19
transatlan@@ 19
trinken 19
tung@@ 19
ule 19
unvergess@@ 19
verwöhnen 19
virtuelle 19
wahrschein@@ 19
weitergegeben 19
weiß@@ 19
xis@@ 19
zten 19
zwungen 19
Äu@@ 19
Übersetzer 19
ßig 19
ä 19
ägyp@@ 19
ästheti@@ 19
а@@ 19
д@@ 19
$ 18
10.000 18
116 18
15.@@ 18
1973 18
1981 18
1982 18
2010-@@ 18
210 18
23.@@ 18
30-@@ 18
34@@ 18
A5-00@@ 18
ARE 18
ATE 18
Adressen 18
Amat@@ 18
Ange@@ 18
Angeboten 18
Bahnhof 18
Bec@@ 18
Belgi@@ 18
Ben 18
Bett 18
Board 18
Bonn 18
Botschaf@@ 18
Bucht 18
Bus 18
Bush 18
C4-0@@ 18
CHF 18
COR@@ 18
Cast@@ 18
Cec@@ 18
Copyright 18
Cro@@ 18
DL@@ 18
DVD 18
Defizit@@ 18
Eco@@ 18
Eingabe 18
Email 18
Epo@@ 18
Eurobarom@@ 18
FA 18
FAO 18
Ferien@@ 18
Filme 18
Flughafen@@ 18
Fundament@@ 18
Generaldire@@ 18
Geschichten 18
Gesi@@ 18
Gewähr@@ 18
Glo@@ 18
Gor@@ 18
Gö@@ 18
Hav@@ 18
Home 18
Humanit@@ 18
ICA 18
Immobili@@ 18
Industries 18
Initi@@ 18
Isa@@ 18
Islands 18
Jahrhunderte 18
Jahrzeh@@ 18
Jer@@ 18
Jes@@ 18
Joh@@ 18
Juli@@ 18
Kle@@ 18
Klu@@ 18
Kommentar 18
Konzert 18
Kore@@ 18
Kosme@@ 18
Lea@@ 18
Leipzig 18
Lim@@ 18
Linken 18
Löhne 18
MAN 18
Marine 18
Media 18
Monit@@ 18
Montene@@ 18
Multi-@@ 18
NEHMER 18
NET 18
Party 18
Pascal 18
Passa@@ 18
Pay@@ 18
Ped@@ 18
Pho@@ 18
Prote@@ 18
RT@@ 18
Rauchen 18
Rettung 18
Review 18
Ring 18
Rohstoff@@ 18
Route 18
Rus@@ 18
SC 18
SD@@ 18
Schreyer 18
Seiten@@ 18
Shop 18
Spaziergang 18
Stab@@ 18
Standpunk@@ 18
Stattdessen 18
Stellen@@ 18
Stipen@@ 18
Storni@@ 18
Sv@@ 18
TACIS 18
TV-@@ 18
Tem@@ 18
Temperaturen 18
Tochter 18
Umgeb@@ 18
Veranstal@@ 18
Verkehrsmittel 18
Veröffentlichungen 18
Vinci 18
Vorhabens 18
Water@@ 18
Wochen@@ 18
Zagreb 18
abet@@ 18
abilität 18
administr@@ 18
ahn 18
alog@@ 18
alpha@@ 18
aly@@ 18
ame@@ 18
anbietet 18
apel 18
arab@@ 18
ardis@@ 18
ary 18
atisch 18
auftritt 18
authenti@@ 18
autom@@ 18
barri@@ 18
bas@@ 18
bauten 18
[...]
